{
  "grapheme2idx": {
    "<blank>": 0,
    "<unk>": 1,
    " ‌": 2,
    "!": 3,
    "\"": 4,
    "&": 5,
    "'": 6,
    "(": 7,
    ")": 8,
    ",": 9,
    "-": 10,
    "-ा": 11,
    ".": 12,
    "/": 13,
    "0": 14,
    "1": 15,
    "2": 16,
    "3": 17,
    "4": 18,
    "5": 19,
    "6": 20,
    "7": 21,
    "8": 22,
    "9": 23,
    ":": 24,
    "?": 25,
    "A": 26,
    "D": 27,
    "G": 28,
    "H": 29,
    "I": 30,
    "O": 31,
    "P": 32,
    "V": 33,
    "[": 34,
    "c": 35,
    "|": 36,
    "°": 37,
    "ا": 38,
    "ت": 39,
    "ج": 40,
    "ر": 41,
    "گ": 42,
    "ی": 43,
    "ँ": 44,
    "अ": 45,
    "अं": 46,
    "अि": 47,
    "अ्या": 48,
    "अ॰": 49,
    "आ": 50,
    "आं": 51,
    "आा्": 52,
    "आे": 53,
    "आ्य": 54,
    "आॕ": 55,
    "इ": 56,
    "इं": 57,
    "इ्ट": 58,
    "इ॰": 59,
    "इॱ": 60,
    "ई": 61,
    "ईँ": 62,
    "ईं": 63,
    "उ": 64,
    "उाि": 65,
    "उॱ": 66,
    "ऊ": 67,
    "ऊँ": 68,
    "ऊं": 69,
    "ऋ": 70,
    "ऍ": 71,
    "ऎ": 72,
    "ऎं": 73,
    "ऎ‍": 74,
    "ए": 75,
    "एँ": 76,
    "एा": 77,
    "ऐ": 78,
    "ऐं": 79,
    "ऑ": 80,
    "ऒ": 81,
    "ऒं": 82,
    "ऒाि": 83,
    "ऒा्क्स्": 84,
    "ऒ‌": 85,
    "ओ": 86,
    "ओँ": 87,
    "ओं": 88,
    "ओ्बा": 89,
    "औ": 90,
    "औं": 91,
    "क": 92,
    "कं": 93,
    "कं‌": 94,
    "कः": 95,
    "का": 96,
    "काँ": 97,
    "कां": 98,
    "काुं": 99,
    "काे": 100,
    "का्": 101,
    "का‍": 102,
    "का‍‌": 103,
    "कि": 104,
    "किं": 105,
    "किाि": 106,
    "की": 107,
    "कीे": 108,
    "कु": 109,
    "कुं": 110,
    "कु॰": 111,
    "कू": 112,
    "कृ": 113,
    "कॅ": 114,
    "कॅा": 115,
    "कॆ": 116,
    "कॆं": 117,
    "के": 118,
    "कें": 119,
    "केा": 120,
    "केॆ्टा": 121,
    "केे": 122,
    "कै": 123,
    "कॉ": 124,
    "कॊ": 125,
    "कॊं": 126,
    "कॊॕ": 127,
    "को": 128,
    "कोँ": 129,
    "कों": 130,
    "क्": 131,
    "क्क": 132,
    "क्कं": 133,
    "क्का": 134,
    "क्कि": 135,
    "क्कु": 136,
    "क्कू": 137,
    "क्कॆ": 138,
    "क्के": 139,
    "क्कै": 140,
    "क्कॊ": 141,
    "क्को": 142,
    "क्क्": 143,
    "क्क्‌": 144,
    "क्कॗ": 145,
    "क्ट": 146,
    "क्टो": 147,
    "क्ट्रि": 148,
    "क्ट्रो": 149,
    "क्त": 150,
    "क्ता": 151,
    "क्तां": 152,
    "क्ति": 153,
    "क्तीं": 154,
    "क्तु": 155,
    "क्नो": 156,
    "क्प": 157,
    "क्पे": 158,
    "क्मि": 159,
    "क्य": 160,
    "क्या": 161,
    "क्यू": 162,
    "क्र": 163,
    "क्रं": 164,
    "क्रा": 165,
    "क्रि": 166,
    "क्री": 167,
    "क्रे": 168,
    "क्रै": 169,
    "क्रो": 170,
    "क्ला": 171,
    "क्लि": 172,
    "क्ले": 173,
    "क्ळे": 174,
    "क्व": 175,
    "क्वा": 176,
    "क्वॆ": 177,
    "क्श": 178,
    "क्ष": 179,
    "क्षा": 180,
    "क्षां": 181,
    "क्षि": 182,
    "क्षिं": 183,
    "क्षी": 184,
    "क्षुः": 185,
    "क्षॆ": 186,
    "क्षे": 187,
    "क्षो": 188,
    "क्ष्म": 189,
    "क्ष्मि": 190,
    "क्ष्मिॕ": 191,
    "क्ष्मी": 192,
    "क्ष्य": 193,
    "क्ष्या": 194,
    "क्स": 195,
    "क्सि": 196,
    "क्स्": 197,
    "क्य़ा": 198,
    "क्॰": 199,
    "क्॰ा": 200,
    "क्॰े": 201,
    "क्‌": 202,
    "क्‍": 203,
    "क॰": 204,
    "कॱ": 205,
    "क‌": 206,
    "क‍ी": 207,
    "ख": 208,
    "खं": 209,
    "ख़": 210,
    "खा": 211,
    "खाँ": 212,
    "खां": 213,
    "खि": 214,
    "खी": 215,
    "खु": 216,
    "खू": 217,
    "खॆ": 218,
    "खे": 219,
    "खै": 220,
    "खो": 221,
    "ख्त": 222,
    "ख्य": 223,
    "ख्यु": 224,
    "ख्यॆ": 225,
    "ख्रीः": 226,
    "ग": 227,
    "गं": 228,
    "गा": 229,
    "गां": 230,
    "गि": 231,
    "गि॰": 232,
    "गी": 233,
    "गु": 234,
    "गुं": 235,
    "गू": 236,
    "गृ": 237,
    "गॆ": 238,
    "गॆं": 239,
    "गे": 240,
    "गें": 241,
    "गे्ड": 242,
    "गै": 243,
    "गॊ": 244,
    "गो": 245,
    "गों": 246,
    "गौ": 247,
    "ग्": 248,
    "ग्ग": 249,
    "ग्गि": 250,
    "ग्गॆ": 251,
    "ग्ण": 252,
    "ग्नि": 253,
    "ग्ब": 254,
    "ग्भ": 255,
    "ग्य": 256,
    "ग्या": 257,
    "ग्ये": 258,
    "ग्र": 259,
    "ग्रं": 260,
    "ग्रा": 261,
    "ग्रां": 262,
    "ग्री": 263,
    "ग्रू": 264,
    "ग्रे": 265,
    "ग्ला": 266,
    "ग्वा": 267,
    "ग्ष": 268,
    "ग्स": 269,
    "ग्य़ा": 270,
    "ग्॰ु": 271,
    "ग॰": 272,
    "गॱ": 273,
    "घ": 274,
    "घं": 275,
    "घा": 276,
    "घां": 277,
    "घु": 278,
    "घे": 279,
    "घो": 280,
    "घौ": 281,
    "घ्य": 282,
    "घ्या": 283,
    "घ्र": 284,
    "ङ": 285,
    "ङा": 286,
    "ङि": 287,
    "ङे": 288,
    "ङ्": 289,
    "ङ्क": 290,
    "ङ्का": 291,
    "ङ्कि": 292,
    "ङ्कु": 293,
    "ङ्के": 294,
    "ङ्कै": 295,
    "ङ्को": 296,
    "ङ्क्": 297,
    "ङ्ग": 298,
    "ङ्गा": 299,
    "ङ्गी": 300,
    "ङ्गु": 301,
    "ङ्गे": 302,
    "ङ्गो": 303,
    "ङ्घ": 304,
    "ङ्ङ": 305,
    "ङ्ङा": 306,
    "ङ्ङि": 307,
    "ङ्ङे": 308,
    "ङ्ङों": 309,
    "ङ्ङ्‌": 310,
    "ङ्ट": 311,
    "ङ्त": 312,
    "ङ्ष": 313,
    "ङ्‌": 314,
    "च": 315,
    "चं": 316,
    "चा": 317,
    "चां": 318,
    "चा्": 319,
    "चा्जि": 320,
    "चा्व": 321,
    "चि": 322,
    "चिं": 323,
    "ची": 324,
    "चु": 325,
    "चुे": 326,
    "चू": 327,
    "चॆ": 328,
    "चे": 329,
    "चें": 330,
    "चेा्ऩ्": 331,
    "चै": 332,
    "चॊ": 333,
    "चो": 334,
    "चौ": 335,
    "च्": 336,
    "च्च": 337,
    "च्चं": 338,
    "च्चा": 339,
    "च्चि": 340,
    "च्ची": 341,
    "च्चु": 342,
    "च्चे": 343,
    "च्चेाि": 344,
    "च्च्": 345,
    "च्च्‌": 346,
    "च्छ": 347,
    "च्छा": 348,
    "च्छु": 349,
    "च्छे": 350,
    "च्छ्": 351,
    "च्ट": 352,
    "च्य": 353,
    "च्या": 354,
    "च॑": 355,
    "च॰": 356,
    "चॱ": 357,
    "छ": 358,
    "छा": 359,
    "छि": 360,
    "छु": 361,
    "छुॱ": 362,
    "छे": 363,
    "छें": 364,
    "छो": 365,
    "छोँ": 366,
    "छ॰": 367,
    "ज": 368,
    "जं": 369,
    "ज़": 370,
    "ज़ी": 371,
    "ज़ु": 372,
    "जा": 373,
    "जि": 374,
    "जिं": 375,
    "जि॰": 376,
    "जिॱ": 377,
    "जी": 378,
    "जु": 379,
    "जुॱ": 380,
    "जू": 381,
    "जॆ": 382,
    "जे": 383,
    "जें": 384,
    "जै": 385,
    "जो": 386,
    "ज्": 387,
    "ज्ञ": 388,
    "ज्ञा": 389,
    "ज्ञी": 390,
    "ज्ब": 391,
    "ज्य": 392,
    "ज्यु": 393,
    "ज्यू": 394,
    "ज्येा": 395,
    "ज्यो": 396,
    "ज्यों": 397,
    "ज्व": 398,
    "ज्सि": 399,
    "ज्य़": 400,
    "ज्‌": 401,
    "ज॰": 402,
    "झ": 403,
    "झा": 404,
    "झाँ": 405,
    "झां": 406,
    "झि": 407,
    "झी": 408,
    "झे": 409,
    "झ॰": 410,
    "ञ": 411,
    "ञा": 412,
    "ञ्च": 413,
    "ञ्चा": 414,
    "ञ्चा्": 415,
    "ञ्चि": 416,
    "ञ्ज": 417,
    "ञ्जा": 418,
    "ञ्जि": 419,
    "ञ्जी": 420,
    "ञ्ञ": 421,
    "ञ्ञि": 422,
    "ञ्ञो": 423,
    "ट": 424,
    "टं": 425,
    "टा": 426,
    "टाा": 427,
    "टि": 428,
    "टिं": 429,
    "टी": 430,
    "टु": 431,
    "टुं": 432,
    "टू": 433,
    "टॆ": 434,
    "टे": 435,
    "टै": 436,
    "टैं": 437,
    "टो": 438,
    "टौ": 439,
    "ट्": 440,
    "ट्चाा्च्च": 441,
    "ट्चि": 442,
    "ट्ट": 443,
    "ट्टं": 444,
    "ट्टा": 445,
    "ट्टि": 446,
    "ट्टी": 447,
    "ट्टु": 448,
    "ट्टूा्पु": 449,
    "ट्टॆ": 450,
    "ट्टै": 451,
    "ट्टो": 452,
    "ट्ट्": 453,
    "ट्ण": 454,
    "ट्त": 455,
    "ट्न": 456,
    "ट्नं": 457,
    "ट्प": 458,
    "ट्मि": 459,
    "ट्य": 460,
    "ट्यू": 461,
    "ट्र": 462,
    "ट्रा": 463,
    "ट्रि": 464,
    "ट्री": 465,
    "ट्रॆ": 466,
    "ट्रे": 467,
    "ट्रै": 468,
    "ट्रो": 469,
    "ट्र्या": 470,
    "ट्ल": 471,
    "ट्लु": 472,
    "ट्व": 473,
    "ट्श्री": 474,
    "ट्स्": 475,
    "ट्॰": 476,
    "ट्‌": 477,
    "टॗ": 478,
    "ठ": 479,
    "ठा": 480,
    "ठि": 481,
    "ठि॰": 482,
    "ठी": 483,
    "ठु": 484,
    "ठे": 485,
    "ठें": 486,
    "ठो": 487,
    "ठ्ठ": 488,
    "ड": 489,
    "डः": 490,
    "ड़": 491,
    "ड़ा": 492,
    "ड़ि": 493,
    "ड़ी": 494,
    "ड़े": 495,
    "ड़ौ": 496,
    "डा": 497,
    "डाः": 498,
    "डि": 499,
    "डिं": 500,
    "डी": 501,
    "डु": 502,
    "डू": 503,
    "डॆ": 504,
    "डॆं": 505,
    "डे": 506,
    "डै": 507,
    "डॊ": 508,
    "डो": 509,
    "ड्": 510,
    "ड्क": 511,
    "ड्ड": 512,
    "ड्डा": 513,
    "ड्डि": 514,
    "ड्डु": 515,
    "ड्या": 516,
    "ड्यां": 517,
    "ड्यू": 518,
    "ड्र": 519,
    "ड्रा": 520,
    "ड्रि": 521,
    "ड्री": 522,
    "ड्‌": 523,
    "ड्‍": 524,
    "ढ": 525,
    "ढ़": 526,
    "ढ़ि": 527,
    "ढ़ी": 528,
    "ढि": 529,
    "ढु": 530,
    "ढे": 531,
    "ढे़": 532,
    "ण": 533,
    "णं": 534,
    "ण़": 535,
    "णा": 536,
    "णाः": 537,
    "णि": 538,
    "णी": 539,
    "णीं": 540,
    "णु": 541,
    "णु्": 542,
    "णू": 543,
    "णॆ": 544,
    "णे": 545,
    "णै": 546,
    "णो": 547,
    "ण्": 548,
    "ण्क": 549,
    "ण्का": 550,
    "ण्ट": 551,
    "ण्टं": 552,
    "ण्टा": 553,
    "ण्टि": 554,
    "ण्टी": 555,
    "ण्टु": 556,
    "ण्टे": 557,
    "ण्टै": 558,
    "ण्ट्": 559,
    "ण्ट्स्": 560,
    "ण्ट्‌": 561,
    "ण्ठु": 562,
    "ण्ड": 563,
    "ण्डा": 564,
    "ण्डि": 565,
    "ण्ण": 566,
    "ण्णा": 567,
    "ण्णि": 568,
    "ण्णी": 569,
    "ण्णु": 570,
    "ण्णू": 571,
    "ण्ता": 572,
    "ण्ति": 573,
    "ण्प": 574,
    "ण्पु": 575,
    "ण्मै": 576,
    "ण्य": 577,
    "ण्या": 578,
    "ण‍": 579,
    "त": 580,
    "तं": 581,
    "तः": 582,
    "त़": 583,
    "त़ा": 584,
    "त़ि": 585,
    "ता": 586,
    "ताँ": 587,
    "तां": 588,
    "ता्का": 589,
    "ति": 590,
    "तिं": 591,
    "तिः": 592,
    "तिाि": 593,
    "ती": 594,
    "तीा्": 595,
    "तीा्त्त": 596,
    "तु": 597,
    "तुं": 598,
    "तू": 599,
    "तूा्": 600,
    "तू॰": 601,
    "तृ": 602,
    "तॆ": 603,
    "तॆॆ": 604,
    "ते": 605,
    "तें": 606,
    "तै": 607,
    "तॊ": 608,
    "तो": 609,
    "तों": 610,
    "त्": 611,
    "त्क": 612,
    "त्का": 613,
    "त्कू": 614,
    "त्कृ": 615,
    "त्त": 616,
    "त्ता": 617,
    "त्ति": 618,
    "त्ती": 619,
    "त्तु": 620,
    "त्तू": 621,
    "त्तॆ": 622,
    "त्ते": 623,
    "त्तेा्": 624,
    "त्तै": 625,
    "त्तॊ": 626,
    "त्त्": 627,
    "त्त्य": 628,
    "त्त्व": 629,
    "त्त्‌": 630,
    "त्थ": 631,
    "त्थि": 632,
    "त्न": 633,
    "त्प": 634,
    "त्बे": 635,
    "त्म": 636,
    "त्मा": 637,
    "त्य": 638,
    "त्या": 639,
    "त्यां": 640,
    "त्यु": 641,
    "त्ये": 642,
    "त्र": 643,
    "त्रं": 644,
    "त्रं‌": 645,
    "त्रा": 646,
    "त्रि": 647,
    "त्री": 648,
    "त्रॆ": 649,
    "त्रे": 650,
    "त्रों": 651,
    "त्र्य": 652,
    "त्र्यं": 653,
    "त्व": 654,
    "त्वा": 655,
    "त्वि": 656,
    "त्स": 657,
    "त्सा": 658,
    "त्स्ना": 659,
    "त्य़": 660,
    "त्य़ु": 661,
    "त्य़े": 662,
    "त्॰": 663,
    "त्‌": 664,
    "त्‍": 665,
    "त॰": 666,
    "त‍े": 667,
    "थ": 668,
    "था": 669,
    "थां": 670,
    "थि": 671,
    "थी": 672,
    "थु": 673,
    "थू": 674,
    "थृ": 675,
    "थे": 676,
    "थ्य": 677,
    "द": 678,
    "दा": 679,
    "दां": 680,
    "दि": 681,
    "दिं": 682,
    "दि॰": 683,
    "दी": 684,
    "दु": 685,
    "दुं": 686,
    "दुि": 687,
    "दू": 688,
    "दूं": 689,
    "दृ": 690,
    "दॆ": 691,
    "दे": 692,
    "दें": 693,
    "दै": 694,
    "दॊ": 695,
    "दो": 696,
    "दौ": 697,
    "द्": 698,
    "द्घा": 699,
    "द्ट": 700,
    "द्टु": 701,
    "द्द": 702,
    "द्दा": 703,
    "द्दि": 704,
    "द्दु": 705,
    "द्दू": 706,
    "द्ध": 707,
    "द्धा": 708,
    "द्धि": 709,
    "द्धी": 710,
    "द्ब": 711,
    "द्बा": 712,
    "द्बि": 713,
    "द्बी": 714,
    "द्बो": 715,
    "द्म": 716,
    "द्मा": 717,
    "द्य": 718,
    "द्या": 719,
    "द्यु": 720,
    "द्यो": 721,
    "द्र": 722,
    "द्रा": 723,
    "द्रि": 724,
    "द्री": 725,
    "द्रु": 726,
    "द्रे": 727,
    "द्रो": 728,
    "द्ळु": 729,
    "द्व": 730,
    "द्वा": 731,
    "द्वी": 732,
    "द्शि": 733,
    "द्य़": 734,
    "द्य़ा": 735,
    "द्॰": 736,
    "द्‌": 737,
    "ध": 738,
    "धा": 739,
    "धि": 740,
    "धिि": 741,
    "धी": 742,
    "धीं": 743,
    "धु": 744,
    "धू": 745,
    "धे": 746,
    "धो": 747,
    "ध्दा": 748,
    "ध्दी": 749,
    "ध्ब": 750,
    "ध्य": 751,
    "ध्या": 752,
    "ध्ये": 753,
    "ध्र": 754,
    "ध्व": 755,
    "ध॰": 756,
    "न": 757,
    "नं": 758,
    "नः": 759,
    "ना": 760,
    "नाँ": 761,
    "नां": 762,
    "नाि": 763,
    "ना्": 764,
    "नि": 765,
    "निं": 766,
    "निॕ": 767,
    "नि‍": 768,
    "नी": 769,
    "नीा्": 770,
    "नु": 771,
    "नुं": 772,
    "नू": 773,
    "नू॰": 774,
    "नृ": 775,
    "नॅ": 776,
    "नॆ": 777,
    "ने": 778,
    "नेे": 779,
    "नै": 780,
    "नॊ": 781,
    "नो": 782,
    "नौ": 783,
    "न्": 784,
    "न्कु": 785,
    "न्ट": 786,
    "न्टा": 787,
    "न्ट्र": 788,
    "न्ट्रा": 789,
    "न्ड": 790,
    "न्डि": 791,
    "न्डी": 792,
    "न्डे": 793,
    "न्त": 794,
    "न्ता": 795,
    "न्ति": 796,
    "न्ती": 797,
    "न्तु": 798,
    "न्तू": 799,
    "न्ते": 800,
    "न्तो": 801,
    "न्त्": 802,
    "न्त्य": 803,
    "न्त्र": 804,
    "न्त्रि": 805,
    "न्त्री": 806,
    "न्त्॰ा": 807,
    "न्त्॰ि": 808,
    "न्त्॰ी": 809,
    "न्थ": 810,
    "न्था": 811,
    "न्द": 812,
    "न्दा": 813,
    "न्दि": 814,
    "न्दी": 815,
    "न्दु": 816,
    "न्दे": 817,
    "न्दो": 818,
    "न्द्यो": 819,
    "न्द्र": 820,
    "न्द्रं": 821,
    "न्द्रा": 822,
    "न्द्री": 823,
    "न्द्र्र": 824,
    "न्द्॰": 825,
    "न्द्॰ी": 826,
    "न्द्‌": 827,
    "न्ध": 828,
    "न्धं": 829,
    "न्धि": 830,
    "न्धी": 831,
    "न्ध्यं": 832,
    "न्न": 833,
    "न्नं": 834,
    "न्ना": 835,
    "न्नि": 836,
    "न्नु": 837,
    "न्नुं": 838,
    "न्नू": 839,
    "न्नै": 840,
    "न्ब": 841,
    "न्म": 842,
    "न्मा": 843,
    "न्मे": 844,
    "न्मो": 845,
    "न्म्या": 846,
    "न्य": 847,
    "न्यः": 848,
    "न्या": 849,
    "न्यु": 850,
    "न्यू": 851,
    "न्ये": 852,
    "न्ऱ": 853,
    "न्ऱॆ": 854,
    "न्ऱ्": 855,
    "न्ल": 856,
    "न्लु": 857,
    "न्व": 858,
    "न्स": 859,
    "न्सा": 860,
    "न्सि": 861,
    "न्सी": 862,
    "न्सू": 863,
    "न्स्": 864,
    "न्स्टि": 865,
    "न्ह": 866,
    "न्हा": 867,
    "न्हां": 868,
    "न्य़": 869,
    "न्य़ा": 870,
    "न्‌": 871,
    "न॰": 872,
    "न॰ः": 873,
    "नॱ": 874,
    "ऩ": 875,
    "ऩा": 876,
    "ऩा्": 877,
    "ऩि": 878,
    "ऩी": 879,
    "ऩु": 880,
    "ऩू": 881,
    "ऩे": 882,
    "ऩै": 883,
    "ऩ्": 884,
    "ऩ्टा्": 885,
    "ऩ्ट्": 886,
    "ऩ्ट्र": 887,
    "ऩ्ऩ": 888,
    "ऩ्ऩा": 889,
    "ऩ्ऩूा्": 890,
    "ऩ्ऩै": 891,
    "ऩ्ऩो": 892,
    "ऩ्पु": 893,
    "ऩ्ऱ": 894,
    "ऩ्ऱि": 895,
    "ऩ्वॆ": 896,
    "प": 897,
    "पं": 898,
    "पा": 899,
    "पाँ": 900,
    "पां": 901,
    "पा्": 902,
    "पि": 903,
    "पिं": 904,
    "पिाि": 905,
    "पिु": 906,
    "पी": 907,
    "पु": 908,
    "पू": 909,
    "पूँ": 910,
    "पॅ": 911,
    "पॆ": 912,
    "पॆं": 913,
    "पे": 914,
    "पेा": 915,
    "पै": 916,
    "पैा": 917,
    "पॉ": 918,
    "पॊ": 919,
    "पॊं": 920,
    "पो": 921,
    "पोा्चु": 922,
    "पौ": 923,
    "प्": 924,
    "प्का": 925,
    "प्टॆ": 926,
    "प्ण": 927,
    "प्त": 928,
    "प्तं": 929,
    "प्तॆ": 930,
    "प्प": 931,
    "प्पं": 932,
    "प्पा": 933,
    "प्पि": 934,
    "प्पी": 935,
    "प्पु": 936,
    "प्पॆ": 937,
    "प्पे": 938,
    "प्पो": 939,
    "प्प्": 940,
    "प्प्मू": 941,
    "प्या": 942,
    "प्र": 943,
    "प्रा": 944,
    "प्रां": 945,
    "प्राः": 946,
    "प्रि": 947,
    "प्री": 948,
    "प्रीि": 949,
    "प्रॅ": 950,
    "प्रॆ": 951,
    "प्रे": 952,
    "प्रै": 953,
    "प्रॊ": 954,
    "प्रो": 955,
    "प्रौ": 956,
    "प्ला": 957,
    "प्ले": 958,
    "प्लै": 959,
    "प्लॉ": 960,
    "प्ष": 961,
    "प्स्": 962,
    "प्॰": 963,
    "प्॰ि": 964,
    "प्‍": 965,
    "प॰": 966,
    "प‌": 967,
    "फ": 968,
    "फ़": 969,
    "फा": 970,
    "फां": 971,
    "फि": 972,
    "फी": 973,
    "फु": 974,
    "फॆ": 975,
    "फे": 976,
    "फै": 977,
    "फो": 978,
    "फ्": 979,
    "फ्ट्": 980,
    "फ्या": 981,
    "फ्र": 982,
    "फ्री": 983,
    "फ्रू": 984,
    "फ्ल": 985,
    "फ्ला": 986,
    "फ्॰े": 987,
    "ब": 988,
    "बँ": 989,
    "बं": 990,
    "बा": 991,
    "बां": 992,
    "बा‍": 993,
    "बि": 994,
    "बि॰": 995,
    "बी": 996,
    "बु": 997,
    "बू": 998,
    "बृ": 999,
    "बॆ": 1000,
    "बॆं": 1001,
    "बे": 1002,
    "बें": 1003,
    "बै": 1004,
    "बैं": 1005,
    "बॉ": 1006,
    "बॊ": 1007,
    "बो": 1008,
    "बौ": 1009,
    "ब्": 1010,
    "ब्थ": 1011,
    "ब्द": 1012,
    "ब्दी": 1013,
    "ब्दु": 1014,
    "ब्ध": 1015,
    "ब्ब": 1016,
    "ब्बा": 1017,
    "ब्य": 1018,
    "ब्या": 1019,
    "ब्यां": 1020,
    "ब्यु": 1021,
    "ब्र": 1022,
    "ब्रा": 1023,
    "ब्रि": 1024,
    "ब्रु": 1025,
    "ब्रे": 1026,
    "ब्ल": 1027,
    "ब्लि": 1028,
    "ब्लु": 1029,
    "ब्लो": 1030,
    "ब्ल्यू": 1031,
    "ब्स": 1032,
    "ब्सि": 1033,
    "ब्य़": 1034,
    "ब्य़ा": 1035,
    "ब्॰ु": 1036,
    "ब्‌": 1037,
    "ब॰": 1038,
    "बॱ": 1039,
    "भ": 1040,
    "भं": 1041,
    "भा": 1042,
    "भां": 1043,
    "भि": 1044,
    "भिं": 1045,
    "भी": 1046,
    "भु": 1047,
    "भू": 1048,
    "भृा": 1049,
    "भे": 1050,
    "भें": 1051,
    "भै": 1052,
    "भो": 1053,
    "भ्या": 1054,
    "भ्र": 1055,
    "भ॰": 1056,
    "म": 1057,
    "मं": 1058,
    "मः": 1059,
    "मा": 1060,
    "मां": 1061,
    "मााि": 1062,
    "मा‍": 1063,
    "मि": 1064,
    "मी": 1065,
    "मु": 1066,
    "मुं": 1067,
    "मुॱ": 1068,
    "मू": 1069,
    "मूा्त्ति": 1070,
    "मृ": 1071,
    "मॆ": 1072,
    "मॆं": 1073,
    "मे": 1074,
    "में": 1075,
    "मै": 1076,
    "मैं": 1077,
    "मैा": 1078,
    "मॊ": 1079,
    "मो": 1080,
    "मों": 1081,
    "मौ": 1082,
    "म्": 1083,
    "म्A": 1084,
    "म्ः": 1085,
    "म्का": 1086,
    "म्के": 1087,
    "म्ग्र": 1088,
    "म्प": 1089,
    "म्पा": 1090,
    "म्पि": 1091,
    "म्पु": 1092,
    "म्पू": 1093,
    "म्पे": 1094,
    "म्पो": 1095,
    "म्प्": 1096,
    "म्प्य": 1097,
    "म्प्यु": 1098,
    "म्प्र": 1099,
    "म्प्वा": 1100,
    "म्प्॰": 1101,
    "म्ब": 1102,
    "म्बा": 1103,
    "म्बि": 1104,
    "म्बे": 1105,
    "म्ब्न": 1106,
    "म्भ": 1107,
    "म्भा": 1108,
    "म्भु": 1109,
    "म्म": 1110,
    "म्मा": 1111,
    "म्मि": 1112,
    "म्मु": 1113,
    "म्मे": 1114,
    "म्म्न": 1115,
    "म्य": 1116,
    "म्या": 1117,
    "म्यां": 1118,
    "म्यु": 1119,
    "म्यू": 1120,
    "म्र": 1121,
    "म्रि": 1122,
    "म्श": 1123,
    "म्स": 1124,
    "म्ह": 1125,
    "म्ही": 1126,
    "म्य़": 1127,
    "म्य़ो": 1128,
    "म्॰ा": 1129,
    "मॖ": 1130,
    "म॰": 1131,
    "मॱ": 1132,
    "य": 1133,
    "यं": 1134,
    "य़": 1135,
    "य़ा": 1136,
    "य़े": 1137,
    "या": 1138,
    "यां": 1139,
    "याा्": 1140,
    "याा्पे": 1141,
    "या‍": 1142,
    "यि": 1143,
    "यिाि": 1144,
    "यी": 1145,
    "यु": 1146,
    "युं": 1147,
    "यू": 1148,
    "यॆ": 1149,
    "ये": 1150,
    "यें": 1151,
    "यै": 1152,
    "यॊ": 1153,
    "यो": 1154,
    "यों": 1155,
    "य्": 1156,
    "य्क्कां": 1157,
    "य्क्कु": 1158,
    "य्क्क्": 1159,
    "य्त": 1160,
    "य्न्त": 1161,
    "य्भ": 1162,
    "य्म": 1163,
    "य्मा": 1164,
    "य्य": 1165,
    "य्यु": 1166,
    "य्यो": 1167,
    "य्वु": 1168,
    "य्स्री": 1169,
    "य्‌": 1170,
    "र": 1171,
    "रं": 1172,
    "ऱ": 1173,
    "रा": 1174,
    "रां": 1175,
    "राा्": 1176,
    "रा्": 1177,
    "रि": 1178,
    "रिं": 1179,
    "रि॰": 1180,
    "री": 1181,
    "रीं": 1182,
    "रु": 1183,
    "रुं": 1184,
    "रु‍": 1185,
    "रू": 1186,
    "रॆ": 1187,
    "रॆं": 1188,
    "रे": 1189,
    "रें": 1190,
    "रै": 1191,
    "रॉँ": 1192,
    "रॊ": 1193,
    "रो": 1194,
    "र्": 1195,
    "र्ऎ": 1196,
    "र्क": 1197,
    "र्का": 1198,
    "र्कि": 1199,
    "र्किं": 1200,
    "र्कॆ": 1201,
    "र्के": 1202,
    "र्कॊं": 1203,
    "र्ग": 1204,
    "र्गा": 1205,
    "र्गि": 1206,
    "र्च": 1207,
    "र्चा": 1208,
    "र्चि": 1209,
    "र्चू": 1210,
    "र्च्चि": 1211,
    "र्ज": 1212,
    "र्ज़": 1213,
    "र्जा": 1214,
    "र्जि": 1215,
    "र्जी": 1216,
    "र्जु": 1217,
    "र्ट": 1218,
    "र्टि": 1219,
    "र्टी": 1220,
    "र्ट्": 1221,
    "र्ट्स्": 1222,
    "र्ड": 1223,
    "र्डी": 1224,
    "र्डॆ": 1225,
    "र्ड्‌": 1226,
    "र्ण": 1227,
    "र्णा": 1228,
    "र्णि": 1229,
    "र्णी": 1230,
    "र्णो": 1231,
    "र्त": 1232,
    "र्ति": 1233,
    "र्ती": 1234,
    "र्तु": 1235,
    "र्ते": 1236,
    "र्त्त": 1237,
    "र्त्ता": 1238,
    "र्थ": 1239,
    "र्थं": 1240,
    "र्थि": 1241,
    "र्द": 1242,
    "र्दि": 1243,
    "र्दे": 1244,
    "र्दॊ": 1245,
    "र्द्": 1246,
    "र्ध": 1247,
    "र्न": 1248,
    "र्ना": 1249,
    "र्नी": 1250,
    "र्न्": 1251,
    "र्प": 1252,
    "र्पा": 1253,
    "र्पे": 1254,
    "र्पै": 1255,
    "र्पॊ": 1256,
    "र्पो": 1257,
    "र्फे": 1258,
    "र्ब": 1259,
    "र्बा": 1260,
    "र्बि": 1261,
    "र्बो": 1262,
    "र्ब्ब": 1263,
    "र्भ": 1264,
    "र्भी": 1265,
    "र्म": 1266,
    "र्मा": 1267,
    "र्मि": 1268,
    "र्मी": 1269,
    "र्मु": 1270,
    "र्मे": 1271,
    "र्म्": 1272,
    "र्य": 1273,
    "र्या": 1274,
    "र्य्य": 1275,
    "र्य्या": 1276,
    "र्य्य़": 1277,
    "र्य्य़ा": 1278,
    "र्र": 1279,
    "र्रा": 1280,
    "र्रि": 1281,
    "र्ल": 1282,
    "र्ला": 1283,
    "र्लु": 1284,
    "र्लो": 1285,
    "र्व": 1286,
    "र्वा": 1287,
    "र्वि": 1288,
    "र्वे": 1289,
    "र्श": 1290,
    "र्शि": 1291,
    "र्ष": 1292,
    "र्षा": 1293,
    "र्षि": 1294,
    "र्षे": 1295,
    "र्स": 1296,
    "र्सि": 1297,
    "र्सिं": 1298,
    "र्सी": 1299,
    "र्सु": 1300,
    "र्स्": 1301,
    "र्‌": 1302,
    "र॰": 1303,
    "रॱ": 1304,
    "र‌": 1305,
    "र‍": 1306,
    "ऱ": 1307,
    "ऱा": 1308,
    "ऱि": 1309,
    "ऱिं": 1310,
    "ऱु": 1311,
    "ऱुं": 1312,
    "ऱू": 1313,
    "ऱॆ": 1314,
    "ऱे": 1315,
    "ऱै": 1316,
    "ऱॊ": 1317,
    "ऱो": 1318,
    "ऱ्": 1319,
    "ऱ्क": 1320,
    "ऱ्का": 1321,
    "ऱ्कु": 1322,
    "ऱ्के": 1323,
    "ऱ्प": 1324,
    "ऱ्पू": 1325,
    "ऱ्ऱ": 1326,
    "ऱ्ऱं": 1327,
    "ऱ्ऱा": 1328,
    "ऱ्ऱि": 1329,
    "ऱ्ऱी": 1330,
    "ऱ्ऱु": 1331,
    "ऱ्ऱे": 1332,
    "ऱ्ऱ्": 1333,
    "ऱ्ऱ्यू": 1334,
    "ल": 1335,
    "लं": 1336,
    "ला": 1337,
    "लां": 1338,
    "लि": 1339,
    "लिं": 1340,
    "लिा": 1341,
    "ली": 1342,
    "लु": 1343,
    "लुं": 1344,
    "लू": 1345,
    "लूा्": 1346,
    "लॆ": 1347,
    "लॆं": 1348,
    "ले": 1349,
    "लै": 1350,
    "लॉ": 1351,
    "लो": 1352,
    "लोँ": 1353,
    "लौ": 1354,
    "ल्": 1355,
    "ल्क": 1356,
    "ल्कै": 1357,
    "ल्क्स्": 1358,
    "ल्गू": 1359,
    "ल्ट": 1360,
    "ल्टि": 1361,
    "ल्टी": 1362,
    "ल्टु": 1363,
    "ल्ट्": 1364,
    "ल्ट्रा": 1365,
    "ल्ड": 1366,
    "ल्डीं": 1367,
    "ल्ड्र": 1368,
    "ल्थ": 1369,
    "ल्दा": 1370,
    "ल्नी": 1371,
    "ल्प": 1372,
    "ल्पी": 1373,
    "ल्पॊ": 1374,
    "ल्फे": 1375,
    "ल्य": 1376,
    "ल्या": 1377,
    "ल्यां": 1378,
    "ल्यु": 1379,
    "ल्यू": 1380,
    "ल्ल": 1381,
    "ल्लं": 1382,
    "ल्ला": 1383,
    "ल्लि": 1384,
    "ल्ली": 1385,
    "ल्लु": 1386,
    "ल्लू": 1387,
    "ल्लूाि": 1388,
    "ल्लूा्": 1389,
    "ल्लॆ": 1390,
    "ल्ले": 1391,
    "ल्लै": 1392,
    "ल्ल्": 1393,
    "ल्ल्‌": 1394,
    "ल्व": 1395,
    "ल्वि": 1396,
    "ल्वॆ": 1397,
    "ल्वे": 1398,
    "ल्स्": 1399,
    "ल्हा": 1400,
    "ल्हे": 1401,
    "ल्ह्या": 1402,
    "ल्‌": 1403,
    "ल्‍": 1404,
    "ल॰": 1405,
    "लॱ": 1406,
    "ळ": 1407,
    "ळं": 1408,
    "ळा": 1409,
    "ळां": 1410,
    "ळा्": 1411,
    "ळि": 1412,
    "ळिं": 1413,
    "ळी": 1414,
    "ळु": 1415,
    "ळू": 1416,
    "ळॆ": 1417,
    "ळे": 1418,
    "ळै": 1419,
    "ळो": 1420,
    "ळ्": 1421,
    "ळ्अ": 1422,
    "ळ्ट": 1423,
    "ळ्प": 1424,
    "ळ्मि": 1425,
    "ळ्मी": 1426,
    "ळ्या": 1427,
    "ळ्यां": 1428,
    "ळ्ळ": 1429,
    "ळ्ळा": 1430,
    "ळ्ळि": 1431,
    "ळ्ळी": 1432,
    "ळ्ळु": 1433,
    "ळ्ळे": 1434,
    "ळ‍": 1435,
    "ऴ": 1436,
    "ऴा": 1437,
    "ऴि": 1438,
    "ऴि‌": 1439,
    "ऴु": 1440,
    "ऴॆ": 1441,
    "ऴै": 1442,
    "ऴ्": 1443,
    "ऴ्क": 1444,
    "ऴ्च्": 1445,
    "ऴ्त्त": 1446,
    "ऴ्न": 1447,
    "ऴ्ना": 1448,
    "ऴ्वु": 1449,
    "ऴ्स्": 1450,
    "ऴ्‌": 1451,
    "व": 1452,
    "वं": 1453,
    "वः": 1454,
    "व़": 1455,
    "वा": 1456,
    "वां": 1457,
    "वा्": 1458,
    "वा्स्": 1459,
    "वि": 1460,
    "विं": 1461,
    "वि॰": 1462,
    "विॱ": 1463,
    "वी": 1464,
    "वीं": 1465,
    "वु": 1466,
    "वुं": 1467,
    "वू": 1468,
    "वृ": 1469,
    "वॅ": 1470,
    "वॆ": 1471,
    "वॆं": 1472,
    "वे": 1473,
    "वें": 1474,
    "वेा्ल्टु": 1475,
    "वै": 1476,
    "वॉ": 1477,
    "वॊ": 1478,
    "वो": 1479,
    "व्": 1480,
    "व्त": 1481,
    "व्य": 1482,
    "व्या": 1483,
    "व्व": 1484,
    "व्वं": 1485,
    "व्वि": 1486,
    "व्वी": 1487,
    "व्वू": 1488,
    "व्वे": 1489,
    "व्ह": 1490,
    "व्हि": 1491,
    "व्ही": 1492,
    "व्‌": 1493,
    "व॰": 1494,
    "श": 1495,
    "शं": 1496,
    "शा": 1497,
    "शां": 1498,
    "शाः": 1499,
    "शि": 1500,
    "शी": 1501,
    "शीू": 1502,
    "शु": 1503,
    "शू": 1504,
    "शृ": 1505,
    "शॅ": 1506,
    "शॆ": 1507,
    "शे": 1508,
    "शै": 1509,
    "शो": 1510,
    "शौ": 1511,
    "श्": 1512,
    "श्च": 1513,
    "श्चि": 1514,
    "श्ते": 1515,
    "श्ब": 1516,
    "श्मा": 1517,
    "श्य": 1518,
    "श्र": 1519,
    "श्रा": 1520,
    "श्री": 1521,
    "श्रु": 1522,
    "श्रे": 1523,
    "श्ले": 1524,
    "श्व": 1525,
    "श्वा": 1526,
    "श्श": 1527,
    "श्शि": 1528,
    "श्शे": 1529,
    "श्ष": 1530,
    "श्स": 1531,
    "श्य़": 1532,
    "श्॰ी": 1533,
    "श्ॱ": 1534,
    "श्‍": 1535,
    "शॗ": 1536,
    "ष": 1537,
    "षं": 1538,
    "षा": 1539,
    "षि": 1540,
    "षी": 1541,
    "षु": 1542,
    "षू": 1543,
    "षे": 1544,
    "ष्": 1545,
    "ष्का": 1546,
    "ष्कृ": 1547,
    "ष्क्": 1548,
    "ष्ट": 1549,
    "ष्टा": 1550,
    "ष्टि": 1551,
    "ष्टी": 1552,
    "ष्टु": 1553,
    "ष्ट्र": 1554,
    "ष्ट्रा": 1555,
    "ष्ट्री": 1556,
    "ष्ट्॰": 1557,
    "ष्ट्॰ी": 1558,
    "ष्ठ": 1559,
    "ष्ठा": 1560,
    "ष्ण": 1561,
    "ष्णा": 1562,
    "ष्णू": 1563,
    "ष्ना": 1564,
    "ष्पा": 1565,
    "ष्म": 1566,
    "ष्मॆ": 1567,
    "ष्य": 1568,
    "ष्यं": 1569,
    "ष्‌": 1570,
    "ष्‍": 1571,
    "षॢ": 1572,
    "स": 1573,
    "सं": 1574,
    "सः": 1575,
    "स़": 1576,
    "स़ा": 1577,
    "स़ि": 1578,
    "सा": 1579,
    "सां": 1580,
    "सि": 1581,
    "सिं": 1582,
    "सि॰": 1583,
    "सी": 1584,
    "सु": 1585,
    "सुँ": 1586,
    "सुं": 1587,
    "सू": 1588,
    "सृ": 1589,
    "सृं": 1590,
    "सॆ": 1591,
    "सॆं": 1592,
    "से": 1593,
    "सें": 1594,
    "से‍": 1595,
    "सै": 1596,
    "सैं": 1597,
    "सॊ": 1598,
    "सो": 1599,
    "सोँ": 1600,
    "सौ": 1601,
    "स्": 1602,
    "स्क": 1603,
    "स्का": 1604,
    "स्कु": 1605,
    "स्कू": 1606,
    "स्कृ": 1607,
    "स्गि": 1608,
    "स्जि": 1609,
    "स्जी": 1610,
    "स्ट": 1611,
    "स्टा": 1612,
    "स्टि": 1613,
    "स्टु": 1614,
    "स्टॆ": 1615,
    "स्टे": 1616,
    "स्टो": 1617,
    "स्ट्": 1618,
    "स्ट्री": 1619,
    "स्ट्रे": 1620,
    "स्ठ": 1621,
    "स्ड": 1622,
    "स्त": 1623,
    "स्तं": 1624,
    "स्ता": 1625,
    "स्ति": 1626,
    "स्तु": 1627,
    "स्तू": 1628,
    "स्तृ": 1629,
    "स्तॆ": 1630,
    "स्ते": 1631,
    "स्त्र": 1632,
    "स्त्रा": 1633,
    "स्थ": 1634,
    "स्था": 1635,
    "स्थि": 1636,
    "स्थी": 1637,
    "स्थॆ": 1638,
    "स्थे": 1639,
    "स्थ्य": 1640,
    "स्दु": 1641,
    "स्ध": 1642,
    "स्धा": 1643,
    "स्नि": 1644,
    "स्ने": 1645,
    "स्प": 1646,
    "स्पा": 1647,
    "स्पि": 1648,
    "स्पृ": 1649,
    "स्पॆ": 1650,
    "स्पे": 1651,
    "स्प्पि": 1652,
    "स्फो": 1653,
    "स्ब": 1654,
    "स्बा": 1655,
    "स्भा": 1656,
    "स्म": 1657,
    "स्मा": 1658,
    "स्मृ": 1659,
    "स्य": 1660,
    "स्यः": 1661,
    "स्र": 1662,
    "स्ऱी": 1663,
    "स्री": 1664,
    "स्ऱ्ऱा": 1665,
    "स्ऱ्ऱि": 1666,
    "स्ऱ्ऱु": 1667,
    "स्ऱ्ऱे": 1668,
    "स्ऱ्ऱै": 1669,
    "स्ऱ्ऱ्": 1670,
    "स्लि": 1671,
    "स्व": 1672,
    "स्वं": 1673,
    "स्वा": 1674,
    "स्वि": 1675,
    "स्वी": 1676,
    "स्वे": 1677,
    "स्सा": 1678,
    "स्सु": 1679,
    "स्स्": 1680,
    "स्स्मा": 1681,
    "स्स्‌": 1682,
    "स्ह": 1683,
    "स्॰": 1684,
    "स्॰ा": 1685,
    "स्ॱ": 1686,
    "स्‌": 1687,
    "स्‍": 1688,
    "स॰": 1689,
    "सॱ": 1690,
    "ह": 1691,
    "हं": 1692,
    "हः": 1693,
    "हा": 1694,
    "हां": 1695,
    "हा‍": 1696,
    "हि": 1697,
    "हिं": 1698,
    "हिः": 1699,
    "हि॰": 1700,
    "ही": 1701,
    "हीं": 1702,
    "हु": 1703,
    "हु॰": 1704,
    "हू": 1705,
    "हृ": 1706,
    "हॆ": 1707,
    "हे": 1708,
    "हें": 1709,
    "है": 1710,
    "है‍": 1711,
    "हॉ": 1712,
    "हॊ": 1713,
    "हो": 1714,
    "ह्दि": 1715,
    "ह्म": 1716,
    "ह्य": 1717,
    "ह्या": 1718,
    "ह्रू": 1719,
    "ह॰": 1720,
    "हॱ": 1721,
    "ऽ": 1722,
    "ा": 1723,
    "े": 1724,
    "ॎ": 1725,
    "ॐ": 1726,
    "ज़ो": 1727,
    "ज़॰": 1728,
    "ड़": 1729,
    "ड़ा": 1730,
    "ड़ी": 1731,
    "ड़े": 1732,
    "ड़ै": 1733,
    "ड़ोु": 1734,
    "ड़्ह": 1735,
    "ड़्हे": 1736,
    "ढ़ि": 1737,
    "ढ़ी": 1738,
    "ढ़ो": 1739,
    "फ़": 1740,
    "फ़्ट": 1741,
    "फ़्दु": 1742,
    "य़": 1743,
    "य़ं": 1744,
    "य़ः": 1745,
    "य़़": 1746,
    "य़ा": 1747,
    "य़ां": 1748,
    "य़ि": 1749,
    "य़ी": 1750,
    "य़ु": 1751,
    "य़े": 1752,
    "य़ो": 1753,
    "य़्या": 1754,
    "य़ॗ": 1755,
    "ॠ": 1756,
    "।": 1757,
    "।‍": 1758,
    "॥": 1759,
    "०": 1760,
    "१": 1761,
    "१्को": 1762,
    "१‌": 1763,
    "२": 1764,
    "२़": 1765,
    "२ा": 1766,
    "३": 1767,
    "४": 1768,
    "५": 1769,
    "५ु": 1770,
    "५ो": 1771,
    "६": 1772,
    "७": 1773,
    "८": 1774,
    "९": 1775,
    "॰": 1776,
    "॰ा": 1777,
    "॰ि": 1778,
    "॰िः": 1779,
    "॰ी": 1780,
    "॰ु": 1781,
    "॰ू": 1782,
    "॰े": 1783,
    "॰ो": 1784,
    "॰्थ": 1785,
    "॰्प": 1786,
    "॰्ब": 1787,
    "॰्मा": 1788,
    "॰्य": 1789,
    "॰्य्य": 1790,
    "॰्य्या": 1791,
    "॰्ष": 1792,
    "ॱ": 1793,
    "ॱा": 1794,
    "ॱि": 1795,
    "ॱे": 1796,
    "ॱो": 1797,
    "ॳ": 1798,
    "ॳे": 1799,
    "ॷ": 1800,
    "ॺ": 1801,
    "ॺ‌": 1802,
    "ॺ‍": 1803,
    "ॻ": 1804,
    "ॻ्ऱॆ": 1805,
    "ॻ्ऱ्": 1806,
    "ॻ‌": 1807,
    "ॻ‌‌": 1808,
    "ॻ‍": 1809,
    "ॼ": 1810,
    "ॼ‌": 1811,
    "ॼ‍‍": 1812,
    "ॽ": 1813,
    "ॽ‌": 1814,
    "ॽ‍": 1815,
    "ॾ": 1816,
    "ॾ‌": 1817,
    "ॾ‌‌": 1818,
    "​": 1819
  },
  "metadata": {
    "tag": "zs_scale1620_kannada",
    "num_graphemes": 1818,
    "space": "shared-abugida-pivot"
  }
}