{
  "grapheme2idx": {
    "<blank>": 0,
    "<unk>": 1,
    "!": 2,
    "\"": 3,
    "&": 4,
    "'": 5,
    "(": 6,
    ")": 7,
    ",": 8,
    "-": 9,
    ".": 10,
    "/": 11,
    "0": 12,
    "1": 13,
    "2": 14,
    "3": 15,
    "4": 16,
    "5": 17,
    "6": 18,
    "7": 19,
    "8": 20,
    "9": 21,
    ":": 22,
    "?": 23,
    "A": 24,
    "D": 25,
    "E": 26,
    "G": 27,
    "H": 28,
    "I": 29,
    "O": 30,
    "P": 31,
    "V": 32,
    "[": 33,
    "c": 34,
    "|": 35,
    "°": 36,
    "ا": 37,
    "ت": 38,
    "ج": 39,
    "ر": 40,
    "ك": 41,
    "ل": 42,
    "و": 43,
    "گ": 44,
    "ی": 45,
    "ँ": 46,
    "अ": 47,
    "अं": 48,
    "अि": 49,
    "अ्या": 50,
    "अ॰": 51,
    "आ": 52,
    "आं": 53,
    "आा्": 54,
    "आे": 55,
    "आॕ": 56,
    "इ": 57,
    "इँ": 58,
    "इं": 59,
    "इ॰": 60,
    "इॱ": 61,
    "ई": 62,
    "ईँ": 63,
    "ईं": 64,
    "उ": 65,
    "उाि": 66,
    "उॱ": 67,
    "ऊ": 68,
    "ऊँ": 69,
    "ऊं": 70,
    "ऊा्": 71,
    "ऋ": 72,
    "ऍ": 73,
    "ऎ": 74,
    "ऎं": 75,
    "ऎ‍": 76,
    "ए": 77,
    "एँ": 78,
    "एा": 79,
    "ऐ": 80,
    "ऐं": 81,
    "ऑ": 82,
    "ऒ": 83,
    "ऒं": 84,
    "ऒा्क्स्": 85,
    "ऒ‌": 86,
    "ओ": 87,
    "ओँ": 88,
    "ओं": 89,
    "ओ्बा": 90,
    "औ": 91,
    "औं": 92,
    "क": 93,
    "कं": 94,
    "कः": 95,
    "का": 96,
    "काँ": 97,
    "कां": 98,
    "काुं": 99,
    "काे": 100,
    "का्": 101,
    "का‍": 102,
    "का‍‌": 103,
    "कि": 104,
    "किं": 105,
    "की": 106,
    "कीे": 107,
    "कु": 108,
    "कुं": 109,
    "कु॰": 110,
    "कू": 111,
    "कृ": 112,
    "कॅ": 113,
    "कॅा": 114,
    "कॆ": 115,
    "कॆं": 116,
    "के": 117,
    "कें": 118,
    "केा": 119,
    "केा्": 120,
    "केे": 121,
    "कै": 122,
    "कॉ": 123,
    "कॊ": 124,
    "कॊं": 125,
    "को": 126,
    "कोँ": 127,
    "कों": 128,
    "कों‌": 129,
    "क्": 130,
    "क्ए": 131,
    "क्क": 132,
    "क्कं": 133,
    "क्का": 134,
    "क्कि": 135,
    "क्की": 136,
    "क्कु": 137,
    "क्कू": 138,
    "क्कॆ": 139,
    "क्के": 140,
    "क्कै": 141,
    "क्कॊ": 142,
    "क्को": 143,
    "क्क्": 144,
    "क्कॗ": 145,
    "क्ट": 146,
    "क्टो": 147,
    "क्ट्रि": 148,
    "क्त": 149,
    "क्ता": 150,
    "क्तां": 151,
    "क्ति": 152,
    "क्तीं": 153,
    "क्तु": 154,
    "क्ऩा": 155,
    "क्पे": 156,
    "क्मि": 157,
    "क्य": 158,
    "क्या": 159,
    "क्यू": 160,
    "क्र": 161,
    "क्रं": 162,
    "क्रा": 163,
    "क्रि": 164,
    "क्री": 165,
    "क्रे": 166,
    "क्रै": 167,
    "क्रो": 168,
    "क्ल": 169,
    "क्ला": 170,
    "क्ली": 171,
    "क्लॆ": 172,
    "क्ळ": 173,
    "क्व": 174,
    "क्वा": 175,
    "क्वॆ": 176,
    "क्श": 177,
    "क्ष": 178,
    "क्षा": 179,
    "क्षां": 180,
    "क्षि": 181,
    "क्षिं": 182,
    "क्षी": 183,
    "क्षुः": 184,
    "क्षे": 185,
    "क्षो": 186,
    "क्ष्म": 187,
    "क्ष्मि": 188,
    "क्ष्मी": 189,
    "क्ष्य": 190,
    "क्स": 191,
    "क्सि": 192,
    "क्स्": 193,
    "क्स्प्रॆ": 194,
    "क्स्फ": 195,
    "क्य़ा": 196,
    "क्॰": 197,
    "क्॰ा": 198,
    "क्॰े": 199,
    "क्‌": 200,
    "क्‍": 201,
    "क॰": 202,
    "कॱ": 203,
    "क‌": 204,
    "क‍ी": 205,
    "ख": 206,
    "खं": 207,
    "ख़": 208,
    "खा": 209,
    "खाँ": 210,
    "खां": 211,
    "खि": 212,
    "खी": 213,
    "खु": 214,
    "खू": 215,
    "खॆ": 216,
    "खे": 217,
    "खै": 218,
    "खो": 219,
    "ख्त": 220,
    "ख्य": 221,
    "ख्यु": 222,
    "ख्रीः": 223,
    "ग": 224,
    "गं": 225,
    "गा": 226,
    "गाँ": 227,
    "गां": 228,
    "गि": 229,
    "गि॰": 230,
    "गी": 231,
    "गु": 232,
    "गुं": 233,
    "गू": 234,
    "गृ": 235,
    "गॆ": 236,
    "गॆं": 237,
    "गे": 238,
    "गै": 239,
    "गॊ": 240,
    "गॊं": 241,
    "गो": 242,
    "गों": 243,
    "गौ": 244,
    "ग्": 245,
    "ग्ग": 246,
    "ग्गा": 247,
    "ग्गि": 248,
    "ग्गॆ": 249,
    "ग्ण": 250,
    "ग्न": 251,
    "ग्नि": 252,
    "ग्ब": 253,
    "ग्य": 254,
    "ग्या": 255,
    "ग्ये": 256,
    "ग्र": 257,
    "ग्रं": 258,
    "ग्रा": 259,
    "ग्रां": 260,
    "ग्री": 261,
    "ग्रू": 262,
    "ग्रॆ": 263,
    "ग्रे": 264,
    "ग्ला": 265,
    "ग्ली": 266,
    "ग्वा": 267,
    "ग्श": 268,
    "ग्स": 269,
    "ग्य़ा": 270,
    "ग्॰ु": 271,
    "ग्‌": 272,
    "ग॰": 273,
    "गॱ": 274,
    "घ": 275,
    "घं": 276,
    "घा": 277,
    "घां": 278,
    "घु": 279,
    "घुं": 280,
    "घे": 281,
    "घो": 282,
    "घौ": 283,
    "घ्": 284,
    "घ्य": 285,
    "घ्या": 286,
    "ङ": 287,
    "ङा": 288,
    "ङि": 289,
    "ङे": 290,
    "ङ्क": 291,
    "ङ्का": 292,
    "ङ्कि": 293,
    "ङ्कु": 294,
    "ङ्के": 295,
    "ङ्कै": 296,
    "ङ्क्": 297,
    "ङ्क्षा": 298,
    "ङ्ग": 299,
    "ङ्गि": 300,
    "ङ्गी": 301,
    "ङ्गु": 302,
    "ङ्गे": 303,
    "ङ्गो": 304,
    "ङ्घ": 305,
    "ङ्ङ": 306,
    "ङ्ङा": 307,
    "ङ्ङि": 308,
    "ङ्ङों": 309,
    "ङ्ङ्‌": 310,
    "ङ्‌": 311,
    "च": 312,
    "चं": 313,
    "च़": 314,
    "चा": 315,
    "चां": 316,
    "चा्": 317,
    "चि": 318,
    "चिं": 319,
    "ची": 320,
    "चीा्": 321,
    "चु": 322,
    "चुे": 323,
    "चू": 324,
    "चॆ": 325,
    "चॆं": 326,
    "चे": 327,
    "चें": 328,
    "चेा्क्कै": 329,
    "चै": 330,
    "चॊ": 331,
    "चो": 332,
    "चौ": 333,
    "च्": 334,
    "च्क": 335,
    "च्च": 336,
    "च्चं": 337,
    "च्चा": 338,
    "च्चा्": 339,
    "च्चि": 340,
    "च्चिं": 341,
    "च्ची": 342,
    "च्चॆ": 343,
    "च्चे": 344,
    "च्चेाि": 345,
    "च्च्": 346,
    "च्च्‌": 347,
    "च्छ": 348,
    "च्छा": 349,
    "च्छु": 350,
    "च्छ्": 351,
    "च्ट": 352,
    "च्य": 353,
    "च्या": 354,
    "च्यु": 355,
    "च्र": 356,
    "च॑": 357,
    "चॖे": 358,
    "च॰": 359,
    "चॱ": 360,
    "छ": 361,
    "छा": 362,
    "छि": 363,
    "छु": 364,
    "छुॱ": 365,
    "छे": 366,
    "छें": 367,
    "छो": 368,
    "छोँ": 369,
    "छ॰": 370,
    "ज": 371,
    "जं": 372,
    "ज़": 373,
    "ज़ी": 374,
    "ज़ु": 375,
    "जा": 376,
    "जा्": 377,
    "जि": 378,
    "जिं": 379,
    "जि॰": 380,
    "जिॱ": 381,
    "जी": 382,
    "जु": 383,
    "जुॱ": 384,
    "जू": 385,
    "जॆ": 386,
    "जॆं": 387,
    "जे": 388,
    "जें": 389,
    "जै": 390,
    "जॊ": 391,
    "जो": 392,
    "जौ": 393,
    "ज्": 394,
    "ज्ज": 395,
    "ज्जं": 396,
    "ज्ञ": 397,
    "ज्ञा": 398,
    "ज्ञी": 399,
    "ज्न": 400,
    "ज्ब": 401,
    "ज्य": 402,
    "ज्यु": 403,
    "ज्यू": 404,
    "ज्येा": 405,
    "ज्यो": 406,
    "ज्यों": 407,
    "ज्व": 408,
    "ज्सि": 409,
    "ज्य़": 410,
    "ज्य़ो": 411,
    "ज॰": 412,
    "झ": 413,
    "झा": 414,
    "झाँ": 415,
    "झां": 416,
    "झि": 417,
    "झी": 418,
    "झे": 419,
    "झ॰": 420,
    "ञ": 421,
    "ञा": 422,
    "ञा्": 423,
    "ञ्च": 424,
    "ञ्चा": 425,
    "ञ्चि": 426,
    "ञ्चे": 427,
    "ञ्ज": 428,
    "ञ्जा": 429,
    "ञ्जि": 430,
    "ञ्जी": 431,
    "ञ्ञ": 432,
    "ञ्ञा": 433,
    "ञ्ञि": 434,
    "ञ्ञॆ": 435,
    "ट": 436,
    "टा": 437,
    "टाा": 438,
    "टााि": 439,
    "टि": 440,
    "टिं": 441,
    "टी": 442,
    "टु": 443,
    "टू": 444,
    "टॆ": 445,
    "टॆं": 446,
    "टे": 447,
    "टै": 448,
    "टैं": 449,
    "टो": 450,
    "टोाि": 451,
    "टौ": 452,
    "ट्": 453,
    "ट्क": 454,
    "ट्के": 455,
    "ट्ङ": 456,
    "ट्च": 457,
    "ट्चि": 458,
    "ट्ट": 459,
    "ट्टं": 460,
    "ट्ट़": 461,
    "ट्टा": 462,
    "ट्टा्": 463,
    "ट्टि": 464,
    "ट्टी": 465,
    "ट्टु": 466,
    "ट्टूा्पु": 467,
    "ट्टॆ": 468,
    "ट्टै": 469,
    "ट्टो": 470,
    "ट्ट्": 471,
    "ट्ण": 472,
    "ट्त": 473,
    "ट्न": 474,
    "ट्नं": 475,
    "ट्प": 476,
    "ट्पा": 477,
    "ट्य": 478,
    "ट्यू": 479,
    "ट्र": 480,
    "ट्रा": 481,
    "ट्रि": 482,
    "ट्रे": 483,
    "ट्रै": 484,
    "ट्रो": 485,
    "ट्र्या": 486,
    "ट्ल": 487,
    "ट्लं": 488,
    "ट्लु": 489,
    "ट्व": 490,
    "ट्स": 491,
    "ट्स्": 492,
    "ट्॰": 493,
    "ट्‌": 494,
    "ट्‍": 495,
    "ट‌": 496,
    "ठ": 497,
    "ठा": 498,
    "ठि": 499,
    "ठि॰": 500,
    "ठी": 501,
    "ठे": 502,
    "ठें": 503,
    "ठो": 504,
    "ठ्ठ": 505,
    "ड": 506,
    "डं": 507,
    "डः": 508,
    "ड़": 509,
    "ड़ा": 510,
    "ड़ि": 511,
    "ड़ी": 512,
    "ड़े": 513,
    "ड़ौ": 514,
    "डा": 515,
    "डाः": 516,
    "डि": 517,
    "डी": 518,
    "डु": 519,
    "डू": 520,
    "डॆ": 521,
    "डॆं": 522,
    "डे": 523,
    "डै": 524,
    "डो": 525,
    "ड्": 526,
    "ड्क": 527,
    "ड्जी": 528,
    "ड्ड": 529,
    "ड्डा": 530,
    "ड्डि": 531,
    "ड्डु": 532,
    "ड्पे": 533,
    "ड्यं": 534,
    "ड्या": 535,
    "ड्यां": 536,
    "ड्यू": 537,
    "ड्र": 538,
    "ड्रि": 539,
    "ड्री": 540,
    "ड्रै": 541,
    "ड्रो": 542,
    "ड्ल": 543,
    "ड्वु": 544,
    "ड्स्": 545,
    "ड्‌": 546,
    "ड्‍": 547,
    "ढ": 548,
    "ढ़": 549,
    "ढ़ि": 550,
    "ढ़ी": 551,
    "ढि": 552,
    "ढु": 553,
    "ढे": 554,
    "ढे़": 555,
    "ण": 556,
    "णं": 557,
    "णा": 558,
    "णाः": 559,
    "णि": 560,
    "णी": 561,
    "णीं": 562,
    "णु": 563,
    "णू": 564,
    "णॆ": 565,
    "णे": 566,
    "णै": 567,
    "णो": 568,
    "ण्": 569,
    "ण्क": 570,
    "ण्का": 571,
    "ण्कॊ": 572,
    "ण्ट": 573,
    "ण्टं": 574,
    "ण्टा": 575,
    "ण्टि": 576,
    "ण्टु": 577,
    "ण्टॆ": 578,
    "ण्टे": 579,
    "ण्ट्": 580,
    "ण्ट्लू": 581,
    "ण्ट्‌": 582,
    "ण्ड": 583,
    "ण्डा": 584,
    "ण्डि": 585,
    "ण्ढ": 586,
    "ण्ण": 587,
    "ण्णा": 588,
    "ण्णी": 589,
    "ण्णु": 590,
    "ण्णू": 591,
    "ण्ता": 592,
    "ण्मै": 593,
    "ण्य": 594,
    "ण्या": 595,
    "ण्रा": 596,
    "ण्री": 597,
    "ण्‌": 598,
    "ण‍": 599,
    "त": 600,
    "तं": 601,
    "तः": 602,
    "त़": 603,
    "त़ि": 604,
    "ता": 605,
    "ताँ": 606,
    "तां": 607,
    "ता्": 608,
    "ति": 609,
    "तिं": 610,
    "तिः": 611,
    "तिाि": 612,
    "ती": 613,
    "तीा्": 614,
    "तीा्क": 615,
    "तु": 616,
    "तुं": 617,
    "तू": 618,
    "तू॰": 619,
    "तृ": 620,
    "तॆ": 621,
    "तॆॆ": 622,
    "तॆ्र्र": 623,
    "ते": 624,
    "तें": 625,
    "तै": 626,
    "तॊ": 627,
    "तो": 628,
    "तों": 629,
    "त्": 630,
    "त्उ": 631,
    "त्क": 632,
    "त्का": 633,
    "त्कू": 634,
    "त्त": 635,
    "त्ता": 636,
    "त्ति": 637,
    "त्ती": 638,
    "त्तु": 639,
    "त्तू": 640,
    "त्तॆ": 641,
    "त्तेा्": 642,
    "त्तै": 643,
    "त्तॊ": 644,
    "त्तो": 645,
    "त्त्": 646,
    "त्त्य": 647,
    "त्त्व": 648,
    "त्त्‌": 649,
    "त्थ": 650,
    "त्थि": 651,
    "त्न": 652,
    "त्नं": 653,
    "त्नि": 654,
    "त्ब": 655,
    "त्बे": 656,
    "त्भ": 657,
    "त्म": 658,
    "त्मा": 659,
    "त्य": 660,
    "त्या": 661,
    "त्यां": 662,
    "त्यु": 663,
    "त्ये": 664,
    "त्य्": 665,
    "त्र": 666,
    "त्रं": 667,
    "त्रं‌": 668,
    "त्रा": 669,
    "त्रि": 670,
    "त्री": 671,
    "त्रु": 672,
    "त्रॆ": 673,
    "त्रे": 674,
    "त्रों": 675,
    "त्र्य": 676,
    "त्र्यं": 677,
    "त्व": 678,
    "त्वं": 679,
    "त्वा": 680,
    "त्वि": 681,
    "त्स": 682,
    "त्सा": 683,
    "त्स्": 684,
    "त्स्ना": 685,
    "त्य़": 686,
    "त्य़ु": 687,
    "त्य़े": 688,
    "त्॰": 689,
    "त्‌": 690,
    "त्‍": 691,
    "त॰": 692,
    "त‍े": 693,
    "थ": 694,
    "था": 695,
    "थां": 696,
    "थि": 697,
    "थी": 698,
    "थु": 699,
    "थू": 700,
    "थृ": 701,
    "थॆ": 702,
    "थे": 703,
    "थ्य": 704,
    "थ्य़": 705,
    "द": 706,
    "दा": 707,
    "दां": 708,
    "दि": 709,
    "दिं": 710,
    "दि॰": 711,
    "दी": 712,
    "दु": 713,
    "दू": 714,
    "दूं": 715,
    "दृ": 716,
    "दॆ": 717,
    "दे": 718,
    "दें": 719,
    "दै": 720,
    "दॊ": 721,
    "दो": 722,
    "दौ": 723,
    "द्": 724,
    "द्घा": 725,
    "द्ट": 726,
    "द्टु": 727,
    "द्द": 728,
    "द्दा": 729,
    "द्दां": 730,
    "द्दि": 731,
    "द्दु": 732,
    "द्दू": 733,
    "द्ध": 734,
    "द्धा": 735,
    "द्धि": 736,
    "द्धी": 737,
    "द्ध्फि": 738,
    "द्ध्यं": 739,
    "द्पा": 740,
    "द्ब": 741,
    "द्बा": 742,
    "द्बि": 743,
    "द्बी": 744,
    "द्बो": 745,
    "द्म": 746,
    "द्मा": 747,
    "द्य": 748,
    "द्या": 749,
    "द्यो": 750,
    "द्र": 751,
    "द्रा": 752,
    "द्रि": 753,
    "द्री": 754,
    "द्रु": 755,
    "द्रे": 756,
    "द्रौ": 757,
    "द्व": 758,
    "द्वा": 759,
    "द्वी": 760,
    "द्य़": 761,
    "द्य़ा": 762,
    "द्॰": 763,
    "द्‌": 764,
    "ध": 765,
    "धं": 766,
    "धा": 767,
    "धि": 768,
    "धिि": 769,
    "धी": 770,
    "धीं": 771,
    "धु": 772,
    "धू": 773,
    "धृ": 774,
    "धे": 775,
    "धो": 776,
    "ध्दा": 777,
    "ध्दी": 778,
    "ध्ब": 779,
    "ध्य": 780,
    "ध्या": 781,
    "ध्ये": 782,
    "ध्र": 783,
    "ध्व": 784,
    "ध॰": 785,
    "न": 786,
    "नं": 787,
    "नः": 788,
    "ना": 789,
    "नां": 790,
    "ना्": 791,
    "नि": 792,
    "निं": 793,
    "निः": 794,
    "निॕ": 795,
    "नि‍": 796,
    "नी": 797,
    "नीा्": 798,
    "नु": 799,
    "नुं": 800,
    "नू": 801,
    "नू॰": 802,
    "नृ": 803,
    "नॅ": 804,
    "नॆ": 805,
    "ने": 806,
    "नेे": 807,
    "नै": 808,
    "नॊ": 809,
    "नो": 810,
    "नौ": 811,
    "न्": 812,
    "न्कु": 813,
    "न्ट": 814,
    "न्टा": 815,
    "न्ट्र": 816,
    "न्ट्रा": 817,
    "न्ड": 818,
    "न्डि": 819,
    "न्डी": 820,
    "न्डे": 821,
    "न्त": 822,
    "न्ता": 823,
    "न्ति": 824,
    "न्ती": 825,
    "न्तु": 826,
    "न्ते": 827,
    "न्तै": 828,
    "न्तो": 829,
    "न्त्": 830,
    "न्त्र": 831,
    "न्त्रि": 832,
    "न्त्री": 833,
    "न्त्॰ा": 834,
    "न्त्॰ि": 835,
    "न्त्॰ी": 836,
    "न्थ": 837,
    "न्था": 838,
    "न्द": 839,
    "न्दा": 840,
    "न्दि": 841,
    "न्दी": 842,
    "न्दु": 843,
    "न्दे": 844,
    "न्दो": 845,
    "न्द्यो": 846,
    "न्द्र": 847,
    "न्द्रं": 848,
    "न्द्रा": 849,
    "न्द्री": 850,
    "न्द्र्र": 851,
    "न्द्॰": 852,
    "न्द्॰ी": 853,
    "न्ध": 854,
    "न्धि": 855,
    "न्धी": 856,
    "न्न": 857,
    "न्नं": 858,
    "न्ना": 859,
    "न्नि": 860,
    "न्नि‍": 861,
    "न्नु": 862,
    "न्नुं": 863,
    "न्नू": 864,
    "न्नै": 865,
    "न्नो": 866,
    "न्न्": 867,
    "न्प": 868,
    "न्ब": 869,
    "न्म": 870,
    "न्मा": 871,
    "न्मे": 872,
    "न्मो": 873,
    "न्म्या": 874,
    "न्य": 875,
    "न्यः": 876,
    "न्या": 877,
    "न्यु": 878,
    "न्यू": 879,
    "न्ये": 880,
    "न्ऱॆ": 881,
    "न्ऱ्": 882,
    "न्ल": 883,
    "न्वी": 884,
    "न्वे": 885,
    "न्ष": 886,
    "न्स": 887,
    "न्सा": 888,
    "न्सि": 889,
    "न्सी": 890,
    "न्सू": 891,
    "न्स्": 892,
    "न्स्टि": 893,
    "न्हा": 894,
    "न्हां": 895,
    "न्य़": 896,
    "न्य़ा": 897,
    "न्‌": 898,
    "न॰": 899,
    "न॰ः": 900,
    "नॱ": 901,
    "ऩ": 902,
    "ऩा": 903,
    "ऩाा्": 904,
    "ऩा्क": 905,
    "ऩि": 906,
    "ऩी": 907,
    "ऩु": 908,
    "ऩू": 909,
    "ऩूा्": 910,
    "ऩै": 911,
    "ऩ्": 912,
    "ऩ्टा्": 913,
    "ऩ्ट्": 914,
    "ऩ्ट्र": 915,
    "ऩ्ऩ": 916,
    "ऩ्ऩा": 917,
    "ऩ्ऩि": 918,
    "ऩ्ऩै": 919,
    "ऩ्ऩो": 920,
    "ऩ्प": 921,
    "ऩ्पु": 922,
    "ऩ्मै": 923,
    "ऩ्ऱ": 924,
    "ऩ्ऱि": 925,
    "ऩ्ऱु": 926,
    "ऩ्ऱॆ": 927,
    "ऩ्वॆ": 928,
    "ऩ्स्": 929,
    "प": 930,
    "पं": 931,
    "पा": 932,
    "पाँ": 933,
    "पां": 934,
    "पि": 935,
    "पिं": 936,
    "पिु": 937,
    "पी": 938,
    "पु": 939,
    "पू": 940,
    "पूँ": 941,
    "पृ": 942,
    "पॅ": 943,
    "पॆ": 944,
    "पॆं": 945,
    "पे": 946,
    "पेा": 947,
    "पै": 948,
    "पैा": 949,
    "पॉ": 950,
    "पॊ": 951,
    "पॊं": 952,
    "पो": 953,
    "पोा्चु": 954,
    "पौ": 955,
    "प्": 956,
    "प्का": 957,
    "प्ट": 958,
    "प्टि": 959,
    "प्टॆ": 960,
    "प्टॆं": 961,
    "प्ण": 962,
    "प्त": 963,
    "प्ति": 964,
    "प्न": 965,
    "प्प": 966,
    "प्पं": 967,
    "प्पा": 968,
    "प्पि": 969,
    "प्पिं": 970,
    "प्पी": 971,
    "प्पु": 972,
    "प्पूा्": 973,
    "प्पॆ": 974,
    "प्पॊ": 975,
    "प्पो": 976,
    "प्प्": 977,
    "प्प्‌": 978,
    "प्या": 979,
    "प्र": 980,
    "प्रा": 981,
    "प्रां": 982,
    "प्राः": 983,
    "प्रि": 984,
    "प्री": 985,
    "प्रीि": 986,
    "प्रॅ": 987,
    "प्रॆ": 988,
    "प्रे": 989,
    "प्रै": 990,
    "प्रॊ": 991,
    "प्रो": 992,
    "प्रौ": 993,
    "प्ल": 994,
    "प्ला": 995,
    "प्ले": 996,
    "प्लै": 997,
    "प्लॉ": 998,
    "प्ष": 999,
    "प्स्": 1000,
    "प्॰": 1001,
    "प्॰ि": 1002,
    "प्‍": 1003,
    "प॰": 1004,
    "प‌": 1005,
    "फ": 1006,
    "फ़": 1007,
    "फा": 1008,
    "फां": 1009,
    "फि": 1010,
    "फी": 1011,
    "फु": 1012,
    "फॆ": 1013,
    "फे": 1014,
    "फै": 1015,
    "फो": 1016,
    "फौ": 1017,
    "फ्": 1018,
    "फ्को": 1019,
    "फ्ट्": 1020,
    "फ्पॆ": 1021,
    "फ्या": 1022,
    "फ्र": 1023,
    "फ्री": 1024,
    "फ्रू": 1025,
    "फ्रो": 1026,
    "फ्ला": 1027,
    "फ्॰े": 1028,
    "ब": 1029,
    "बँ": 1030,
    "बं": 1031,
    "बा": 1032,
    "बां": 1033,
    "बि": 1034,
    "बि॰": 1035,
    "बी": 1036,
    "बु": 1037,
    "बू": 1038,
    "बृ": 1039,
    "बृं": 1040,
    "बॆ": 1041,
    "बॆं": 1042,
    "बे": 1043,
    "बें": 1044,
    "बै": 1045,
    "बैं": 1046,
    "बॉ": 1047,
    "बॊ": 1048,
    "बो": 1049,
    "बौ": 1050,
    "ब्": 1051,
    "ब्ट": 1052,
    "ब्थ": 1053,
    "ब्द": 1054,
    "ब्दि": 1055,
    "ब्दी": 1056,
    "ब्दु": 1057,
    "ब्ध": 1058,
    "ब्ब": 1059,
    "ब्बं": 1060,
    "ब्बा": 1061,
    "ब्बु": 1062,
    "ब्य": 1063,
    "ब्या": 1064,
    "ब्यां": 1065,
    "ब्यु": 1066,
    "ब्यू": 1067,
    "ब्र": 1068,
    "ब्रा": 1069,
    "ब्रि": 1070,
    "ब्रु": 1071,
    "ब्रू": 1072,
    "ब्रे": 1073,
    "ब्ल": 1074,
    "ब्लु": 1075,
    "ब्लो": 1076,
    "ब्ल्यू": 1077,
    "ब्स": 1078,
    "ब्सि": 1079,
    "ब्य़ा": 1080,
    "ब्॰ु": 1081,
    "ब॰": 1082,
    "बॱ": 1083,
    "भ": 1084,
    "भं": 1085,
    "भा": 1086,
    "भां": 1087,
    "भि": 1088,
    "भिं": 1089,
    "भी": 1090,
    "भु": 1091,
    "भू": 1092,
    "भृा": 1093,
    "भे": 1094,
    "भें": 1095,
    "भै": 1096,
    "भो": 1097,
    "भ्य": 1098,
    "भ्या": 1099,
    "भ्यु": 1100,
    "भ्र": 1101,
    "भ॰": 1102,
    "म": 1103,
    "मं": 1104,
    "मः": 1105,
    "मा": 1106,
    "मां": 1107,
    "मि": 1108,
    "मी": 1109,
    "मु": 1110,
    "मुं": 1111,
    "मुॱ": 1112,
    "मू": 1113,
    "मूा्त्ति": 1114,
    "मृ": 1115,
    "मॆ": 1116,
    "मॆं": 1117,
    "मे": 1118,
    "में": 1119,
    "मै": 1120,
    "मैं": 1121,
    "मैा": 1122,
    "मॊ": 1123,
    "मो": 1124,
    "मों": 1125,
    "मौ": 1126,
    "म्": 1127,
    "म्ः": 1128,
    "म्का": 1129,
    "म्न": 1130,
    "म्ना": 1131,
    "म्प": 1132,
    "म्पा": 1133,
    "म्पा्": 1134,
    "म्पि": 1135,
    "म्पु": 1136,
    "म्पू": 1137,
    "म्पूा्": 1138,
    "म्पे": 1139,
    "म्प्": 1140,
    "म्प्या": 1141,
    "म्प्यु": 1142,
    "म्प्यू": 1143,
    "म्प्ले": 1144,
    "म्प्वा": 1145,
    "म्प्॰": 1146,
    "म्ब": 1147,
    "म्बा": 1148,
    "म्बि": 1149,
    "म्बे": 1150,
    "म्ब्न": 1151,
    "म्भ": 1152,
    "म्भा": 1153,
    "म्भु": 1154,
    "म्म": 1155,
    "म्मं": 1156,
    "म्मा": 1157,
    "म्मि": 1158,
    "म्मु": 1159,
    "म्मू": 1160,
    "म्मे": 1161,
    "म्मै": 1162,
    "म्य": 1163,
    "म्या": 1164,
    "म्यां": 1165,
    "म्यु": 1166,
    "म्यू": 1167,
    "म्र": 1168,
    "म्रा": 1169,
    "म्रि": 1170,
    "म्श": 1171,
    "म्स": 1172,
    "म्स्": 1173,
    "म्ह": 1174,
    "म्ही": 1175,
    "म्॰ा": 1176,
    "म्‌": 1177,
    "म॰": 1178,
    "मॱ": 1179,
    "य": 1180,
    "यं": 1181,
    "य़": 1182,
    "य़ा": 1183,
    "य़े": 1184,
    "या": 1185,
    "यां": 1186,
    "याा्": 1187,
    "या‍": 1188,
    "यि": 1189,
    "यी": 1190,
    "यु": 1191,
    "युं": 1192,
    "यू": 1193,
    "ये": 1194,
    "यें": 1195,
    "यै": 1196,
    "यॊ": 1197,
    "यो": 1198,
    "यों": 1199,
    "य्": 1200,
    "य्क": 1201,
    "य्क्का": 1202,
    "य्क्कां": 1203,
    "य्क्क्": 1204,
    "य्ञ्चि": 1205,
    "य्त": 1206,
    "य्न्त": 1207,
    "य्म": 1208,
    "य्मा": 1209,
    "य्मै": 1210,
    "य्य": 1211,
    "य्या्": 1212,
    "य्व": 1213,
    "य्वि": 1214,
    "य्वु": 1215,
    "य्स्री": 1216,
    "य्य़ा": 1217,
    "य्‌": 1218,
    "यॖ": 1219,
    "र": 1220,
    "रं": 1221,
    "रा": 1222,
    "रां": 1223,
    "राा्": 1224,
    "रा्": 1225,
    "रि": 1226,
    "रिं": 1227,
    "रि॰": 1228,
    "री": 1229,
    "रीं": 1230,
    "रु": 1231,
    "रुं": 1232,
    "रू": 1233,
    "रूा्": 1234,
    "रॆ": 1235,
    "रॆं": 1236,
    "रे": 1237,
    "रें": 1238,
    "रै": 1239,
    "रॉँ": 1240,
    "रॊ": 1241,
    "रो": 1242,
    "र्": 1243,
    "र्ऎ": 1244,
    "र्क": 1245,
    "र्का": 1246,
    "र्कि": 1247,
    "र्किं": 1248,
    "र्कॆ": 1249,
    "र्के": 1250,
    "र्कॊ": 1251,
    "र्कॊं": 1252,
    "र्क्": 1253,
    "र्ग": 1254,
    "र्गं": 1255,
    "र्गा": 1256,
    "र्गि": 1257,
    "र्गी": 1258,
    "र्गु": 1259,
    "र्च": 1260,
    "र्चा": 1261,
    "र्चि": 1262,
    "र्चु": 1263,
    "र्चू": 1264,
    "र्च्च": 1265,
    "र्च्चि": 1266,
    "र्ज": 1267,
    "र्जा": 1268,
    "र्जी": 1269,
    "र्जु": 1270,
    "र्ट": 1271,
    "र्टि": 1272,
    "र्टी": 1273,
    "र्ट्": 1274,
    "र्ट्स्": 1275,
    "र्ड": 1276,
    "र्डी": 1277,
    "र्डु": 1278,
    "र्डॆ": 1279,
    "र्ड्": 1280,
    "र्ण": 1281,
    "र्णा": 1282,
    "र्णि": 1283,
    "र्णी": 1284,
    "र्णो": 1285,
    "र्ण्णा": 1286,
    "र्ण्णी": 1287,
    "र्ण्न": 1288,
    "र्त": 1289,
    "र्ति": 1290,
    "र्ती": 1291,
    "र्तु": 1292,
    "र्तू": 1293,
    "र्ते": 1294,
    "र्थ": 1295,
    "र्थं": 1296,
    "र्थि": 1297,
    "र्द": 1298,
    "र्दि": 1299,
    "र्दी": 1300,
    "र्दु": 1301,
    "र्दू": 1302,
    "र्दे": 1303,
    "र्द्": 1304,
    "र्ध": 1305,
    "र्धं": 1306,
    "र्न": 1307,
    "र्ना": 1308,
    "र्नी": 1309,
    "र्नू": 1310,
    "र्ने": 1311,
    "र्प": 1312,
    "र्पं": 1313,
    "र्पा": 1314,
    "र्पि": 1315,
    "र्पिं": 1316,
    "र्पे": 1317,
    "र्पै": 1318,
    "र्पॊ": 1319,
    "र्पो": 1320,
    "र्फे": 1321,
    "र्ब": 1322,
    "र्बि": 1323,
    "र्बो": 1324,
    "र्ब्ब": 1325,
    "र्भ": 1326,
    "र्भं": 1327,
    "र्भा": 1328,
    "र्भी": 1329,
    "र्म": 1330,
    "र्मा": 1331,
    "र्मि": 1332,
    "र्मिं": 1333,
    "र्मी": 1334,
    "र्मु": 1335,
    "र्मे": 1336,
    "र्म्": 1337,
    "र्य": 1338,
    "र्या": 1339,
    "र्यु": 1340,
    "र्य्या": 1341,
    "र्य्य़": 1342,
    "र्य्य़ा": 1343,
    "र्र": 1344,
    "र्रा": 1345,
    "र्रि": 1346,
    "र्ल": 1347,
    "र्ला": 1348,
    "र्लु": 1349,
    "र्लो": 1350,
    "र्व": 1351,
    "र्वा": 1352,
    "र्वि": 1353,
    "र्वे": 1354,
    "र्श": 1355,
    "र्शि": 1356,
    "र्श्व": 1357,
    "र्ष": 1358,
    "र्षा": 1359,
    "र्षि": 1360,
    "र्षे": 1361,
    "र्स": 1362,
    "र्सि": 1363,
    "र्सिं": 1364,
    "र्सी": 1365,
    "र्सु": 1366,
    "र्स्": 1367,
    "र्ह": 1368,
    "र्‌": 1369,
    "र॰": 1370,
    "रॱ": 1371,
    "र‌": 1372,
    "र‍": 1373,
    "ऱ": 1374,
    "ऱं": 1375,
    "ऱा": 1376,
    "ऱि": 1377,
    "ऱिं": 1378,
    "ऱु": 1379,
    "ऱॆ": 1380,
    "ऱे": 1381,
    "ऱै": 1382,
    "ऱॊ": 1383,
    "ऱो": 1384,
    "ऱ्": 1385,
    "ऱ्का": 1386,
    "ऱ्कु": 1387,
    "ऱ्कै": 1388,
    "ऱ्चि": 1389,
    "ऱ्प": 1390,
    "ऱ्ऱ": 1391,
    "ऱ्ऱा": 1392,
    "ऱ्ऱि": 1393,
    "ऱ्ऱु": 1394,
    "ऱ्ऱे": 1395,
    "ऱ्ऱ्": 1396,
    "ऱ्ऱ्यू": 1397,
    "ऱ्ऱ्ऱ्‌": 1398,
    "ल": 1399,
    "लं": 1400,
    "ला": 1401,
    "लां": 1402,
    "ला्क": 1403,
    "लि": 1404,
    "लिं": 1405,
    "लिा": 1406,
    "ली": 1407,
    "लु": 1408,
    "लुं": 1409,
    "लू": 1410,
    "लूा्": 1411,
    "लॆ": 1412,
    "लॆं": 1413,
    "ले": 1414,
    "लै": 1415,
    "लॉ": 1416,
    "लॊ": 1417,
    "लो": 1418,
    "लोँ": 1419,
    "लौ": 1420,
    "ल्": 1421,
    "ल्ऎ": 1422,
    "ल्क": 1423,
    "ल्कि": 1424,
    "ल्की": 1425,
    "ल्कु": 1426,
    "ल्क्कु": 1427,
    "ल्क्स्": 1428,
    "ल्ग": 1429,
    "ल्गू": 1430,
    "ल्गॊ": 1431,
    "ल्चा": 1432,
    "ल्ज": 1433,
    "ल्ट": 1434,
    "ल्टि": 1435,
    "ल्टी": 1436,
    "ल्ट्": 1437,
    "ल्ट्रा": 1438,
    "ल्ड": 1439,
    "ल्डीं": 1440,
    "ल्ड्": 1441,
    "ल्ड्र": 1442,
    "ल्थ": 1443,
    "ल्द": 1444,
    "ल्दा": 1445,
    "ल्द्": 1446,
    "ल्न": 1447,
    "ल्नी": 1448,
    "ल्प": 1449,
    "ल्पी": 1450,
    "ल्पु": 1451,
    "ल्पॊ": 1452,
    "ल्पो": 1453,
    "ल्फे": 1454,
    "ल्म": 1455,
    "ल्या": 1456,
    "ल्यां": 1457,
    "ल्यु": 1458,
    "ल्ल": 1459,
    "ल्लं": 1460,
    "ल्ला": 1461,
    "ल्ला‍": 1462,
    "ल्लि": 1463,
    "ल्ली": 1464,
    "ल्लु": 1465,
    "ल्लू": 1466,
    "ल्लूाि": 1467,
    "ल्लूा्": 1468,
    "ल्लॆ": 1469,
    "ल्ले": 1470,
    "ल्लै": 1471,
    "ल्ल्": 1472,
    "ल्व": 1473,
    "ल्वा": 1474,
    "ल्वि": 1475,
    "ल्वॆ": 1476,
    "ल्वे": 1477,
    "ल्स": 1478,
    "ल्स्": 1479,
    "ल्हा": 1480,
    "ल्हे": 1481,
    "ल्ह्या": 1482,
    "ल्‌": 1483,
    "ल्‍": 1484,
    "ल॰": 1485,
    "लॱ": 1486,
    "ळ": 1487,
    "ळं": 1488,
    "ळा": 1489,
    "ळां": 1490,
    "ळा्": 1491,
    "ळि": 1492,
    "ळी": 1493,
    "ळु": 1494,
    "ळू": 1495,
    "ळॆ": 1496,
    "ळे": 1497,
    "ळै": 1498,
    "ळो": 1499,
    "ळ्": 1500,
    "ळ्अ": 1501,
    "ळ्क": 1502,
    "ळ्मि": 1503,
    "ळ्मी": 1504,
    "ळ्या": 1505,
    "ळ्यां": 1506,
    "ळ्ळ": 1507,
    "ळ्ळा": 1508,
    "ळ्ळि": 1509,
    "ळ्ळु": 1510,
    "ळ्श": 1511,
    "ळ‍": 1512,
    "ऴ": 1513,
    "ऴं": 1514,
    "ऴा": 1515,
    "ऴि": 1516,
    "ऴु": 1517,
    "ऴॆ": 1518,
    "ऴ्": 1519,
    "ऴ्चॆ": 1520,
    "ऴ्न": 1521,
    "ऴ्ना": 1522,
    "ऴ्वु": 1523,
    "ऴ्‌": 1524,
    "व": 1525,
    "वं": 1526,
    "वः": 1527,
    "व़": 1528,
    "वा": 1529,
    "वां": 1530,
    "वाा्टु": 1531,
    "वाि": 1532,
    "वा्": 1533,
    "वा्क": 1534,
    "वि": 1535,
    "विं": 1536,
    "वि॰": 1537,
    "विॱ": 1538,
    "वी": 1539,
    "वीं": 1540,
    "वीः": 1541,
    "वु": 1542,
    "वुं": 1543,
    "वू": 1544,
    "वृ": 1545,
    "वॅ": 1546,
    "वॆ": 1547,
    "वॆं": 1548,
    "वे": 1549,
    "वें": 1550,
    "वेा्ल्टु": 1551,
    "वै": 1552,
    "वॉ": 1553,
    "वॊ": 1554,
    "वो": 1555,
    "व्": 1556,
    "व्य": 1557,
    "व्या": 1558,
    "व्र": 1559,
    "व्व": 1560,
    "व्वा": 1561,
    "व्वि": 1562,
    "व्वू": 1563,
    "व्वॆं": 1564,
    "व्वे": 1565,
    "व्ह": 1566,
    "व्हि": 1567,
    "व्ही": 1568,
    "व्‌": 1569,
    "व॰": 1570,
    "व‌": 1571,
    "श": 1572,
    "शं": 1573,
    "शा": 1574,
    "शां": 1575,
    "शाः": 1576,
    "शि": 1577,
    "शी": 1578,
    "शीू": 1579,
    "शु": 1580,
    "शू": 1581,
    "शृ": 1582,
    "शॅ": 1583,
    "शॆ": 1584,
    "शे": 1585,
    "शै": 1586,
    "शो": 1587,
    "श्": 1588,
    "श्च": 1589,
    "श्चि": 1590,
    "श्ते": 1591,
    "श्ब": 1592,
    "श्मा": 1593,
    "श्य": 1594,
    "श्र": 1595,
    "श्रा": 1596,
    "श्रि": 1597,
    "श्री": 1598,
    "श्रु": 1599,
    "श्रे": 1600,
    "श्व": 1601,
    "श्वा": 1602,
    "श्शि": 1603,
    "श्शे": 1604,
    "श्स": 1605,
    "श्॰ी": 1606,
    "श्ॱ": 1607,
    "श्‍": 1608,
    "ष": 1609,
    "षं": 1610,
    "षा": 1611,
    "षि": 1612,
    "षी": 1613,
    "षु": 1614,
    "षू": 1615,
    "षे": 1616,
    "षो": 1617,
    "ष्": 1618,
    "ष्कृ": 1619,
    "ष्ट": 1620,
    "ष्टा": 1621,
    "ष्टि": 1622,
    "ष्टी": 1623,
    "ष्टु": 1624,
    "ष्टे": 1625,
    "ष्टो": 1626,
    "ष्ट्र": 1627,
    "ष्ट्रं": 1628,
    "ष्ट्रा": 1629,
    "ष्ट्री": 1630,
    "ष्ट्॰": 1631,
    "ष्ट्॰ी": 1632,
    "ष्ठ": 1633,
    "ष्ठा": 1634,
    "ष्ण": 1635,
    "ष्णा": 1636,
    "ष्णू": 1637,
    "ष्ना": 1638,
    "ष्पा": 1639,
    "ष्म": 1640,
    "ष्मॆ": 1641,
    "ष्य": 1642,
    "ष्यं": 1643,
    "ष्य़": 1644,
    "ष्‌": 1645,
    "ष्‍": 1646,
    "षॢ": 1647,
    "स": 1648,
    "सं": 1649,
    "सः": 1650,
    "स़": 1651,
    "स़ा": 1652,
    "स़ि": 1653,
    "सा": 1654,
    "सां": 1655,
    "सि": 1656,
    "सिं": 1657,
    "सि॰": 1658,
    "सी": 1659,
    "सु": 1660,
    "सुँ": 1661,
    "सुं": 1662,
    "सू": 1663,
    "सृ": 1664,
    "सृं": 1665,
    "सॆ": 1666,
    "सॆं": 1667,
    "से": 1668,
    "सें": 1669,
    "से‍": 1670,
    "सै": 1671,
    "सैं": 1672,
    "सो": 1673,
    "सोँ": 1674,
    "सौ": 1675,
    "स्": 1676,
    "स्क": 1677,
    "स्का": 1678,
    "स्कु": 1679,
    "स्कू": 1680,
    "स्कृ": 1681,
    "स्गि": 1682,
    "स्जि": 1683,
    "स्जी": 1684,
    "स्ट": 1685,
    "स्टा": 1686,
    "स्टी": 1687,
    "स्टु": 1688,
    "स्टॆ": 1689,
    "स्टे": 1690,
    "स्टो": 1691,
    "स्टोा्स्": 1692,
    "स्ट्": 1693,
    "स्ट्र": 1694,
    "स्ट्री": 1695,
    "स्ट्रे": 1696,
    "स्त": 1697,
    "स्तं": 1698,
    "स्ता": 1699,
    "स्ति": 1700,
    "स्तु": 1701,
    "स्तू": 1702,
    "स्तृ": 1703,
    "स्तॆ": 1704,
    "स्ते": 1705,
    "स्त्र": 1706,
    "स्त्रा": 1707,
    "स्थ": 1708,
    "स्था": 1709,
    "स्थि": 1710,
    "स्थी": 1711,
    "स्थू": 1712,
    "स्थॆ": 1713,
    "स्थे": 1714,
    "स्थ्य": 1715,
    "स्थ्र": 1716,
    "स्ध": 1717,
    "स्धा": 1718,
    "स्धॆ": 1719,
    "स्ना": 1720,
    "स्ने": 1721,
    "स्प": 1722,
    "स्पा": 1723,
    "स्पि": 1724,
    "स्पृ": 1725,
    "स्पॆ": 1726,
    "स्पे": 1727,
    "स्फा": 1728,
    "स्फि": 1729,
    "स्फो": 1730,
    "स्ब": 1731,
    "स्बा": 1732,
    "स्भा": 1733,
    "स्म": 1734,
    "स्मा": 1735,
    "स्मृ": 1736,
    "स्य": 1737,
    "स्यः": 1738,
    "स्या": 1739,
    "स्र": 1740,
    "स्ऱी": 1741,
    "स्री": 1742,
    "स्ऱ्ऱ": 1743,
    "स्ऱ्ऱा": 1744,
    "स्ऱ्ऱि": 1745,
    "स्ऱ्ऱे": 1746,
    "स्ऱ्ऱै": 1747,
    "स्ऱ्ऱो": 1748,
    "स्ला": 1749,
    "स्लि": 1750,
    "स्व": 1751,
    "स्वं": 1752,
    "स्वा": 1753,
    "स्वी": 1754,
    "स्वे": 1755,
    "स्सा": 1756,
    "स्सु": 1757,
    "स्से": 1758,
    "स्स्मा": 1759,
    "स्य़": 1760,
    "स्॰": 1761,
    "स्॰ा": 1762,
    "स्ॱ": 1763,
    "स्‌": 1764,
    "स्‍": 1765,
    "सॗ": 1766,
    "स॰": 1767,
    "सॱ": 1768,
    "ह": 1769,
    "हं": 1770,
    "हः": 1771,
    "हा": 1772,
    "हां": 1773,
    "हा‍": 1774,
    "हि": 1775,
    "हिँ": 1776,
    "हिं": 1777,
    "हिः": 1778,
    "हि॰": 1779,
    "ही": 1780,
    "हीं": 1781,
    "हु": 1782,
    "हु॰": 1783,
    "हू": 1784,
    "हृ": 1785,
    "हॆ": 1786,
    "हे": 1787,
    "हें": 1788,
    "है": 1789,
    "है‍": 1790,
    "हॉ": 1791,
    "हॊ": 1792,
    "हो": 1793,
    "हौ": 1794,
    "ह्दि": 1795,
    "ह्न": 1796,
    "ह्नं": 1797,
    "ह्म": 1798,
    "ह्मि": 1799,
    "ह्य": 1800,
    "ह्या": 1801,
    "ह्रू": 1802,
    "ह॰": 1803,
    "हॱ": 1804,
    "ऽ": 1805,
    "ा": 1806,
    "े": 1807,
    "ॎ": 1808,
    "ॐ": 1809,
    "ज़ो": 1810,
    "ज़॰": 1811,
    "ड़": 1812,
    "ड़ा": 1813,
    "ड़ी": 1814,
    "ड़े": 1815,
    "ड़ै": 1816,
    "ड़ोु": 1817,
    "ड़्ह": 1818,
    "ड़्हे": 1819,
    "ढ़ि": 1820,
    "ढ़ी": 1821,
    "ढ़ो": 1822,
    "फ़": 1823,
    "फ़्ट": 1824,
    "फ़्दु": 1825,
    "य़": 1826,
    "य़ं": 1827,
    "य़ः": 1828,
    "य़़": 1829,
    "य़ा": 1830,
    "य़ां": 1831,
    "य़ि": 1832,
    "य़ु": 1833,
    "य़े": 1834,
    "य़ो": 1835,
    "य़्या": 1836,
    "य़ॗ": 1837,
    "ॠ": 1838,
    "।": 1839,
    "।‍": 1840,
    "॥": 1841,
    "०": 1842,
    "१": 1843,
    "१्को": 1844,
    "१‌": 1845,
    "२": 1846,
    "२़": 1847,
    "२ा": 1848,
    "३": 1849,
    "४": 1850,
    "५": 1851,
    "५ु": 1852,
    "५ो": 1853,
    "६": 1854,
    "७": 1855,
    "८": 1856,
    "९": 1857,
    "॰": 1858,
    "॰ा": 1859,
    "॰ि": 1860,
    "॰िः": 1861,
    "॰ी": 1862,
    "॰ु": 1863,
    "॰ू": 1864,
    "॰े": 1865,
    "॰ो": 1866,
    "॰्थ": 1867,
    "॰्प": 1868,
    "॰्ब": 1869,
    "॰्मा": 1870,
    "॰्य": 1871,
    "॰्य्य": 1872,
    "॰्य्या": 1873,
    "॰्ष": 1874,
    "ॱ": 1875,
    "ॱा": 1876,
    "ॱि": 1877,
    "ॱे": 1878,
    "ॱो": 1879,
    "ॳ": 1880,
    "ॳे": 1881,
    "ॷ": 1882,
    "ॹ": 1883,
    "ॺ": 1884,
    "ॺ‍": 1885,
    "ॻ": 1886,
    "ॻॆ": 1887,
    "ॻ्ऱॆ": 1888,
    "ॻ‌": 1889,
    "ॼ": 1890,
    "ॼ‌": 1891,
    "ॼ‍‍": 1892,
    "ॽ": 1893,
    "ॽ‍": 1894,
    "ॾ": 1895,
    "ॾ‌‌": 1896,
    "​": 1897,
    "’": 1898
  },
  "metadata": {
    "tag": "zs_scale6480_telugu",
    "num_graphemes": 1897,
    "space": "shared-abugida-pivot"
  }
}