{
  "grapheme2idx": {
    "<blank>": 0,
    "<unk>": 1,
    " ‌": 2,
    "!": 3,
    "\"": 4,
    "&": 5,
    "'": 6,
    "(": 7,
    ")": 8,
    ",": 9,
    "-": 10,
    "-ा": 11,
    ".": 12,
    "0": 13,
    "1": 14,
    "2": 15,
    "3": 16,
    "4": 17,
    "5": 18,
    "6": 19,
    "7": 20,
    "8": 21,
    "9": 22,
    ":": 23,
    "?": 24,
    "E": 25,
    "H": 26,
    "I": 27,
    "P": 28,
    "[": 29,
    "c": 30,
    "|": 31,
    "ا": 32,
    "ك": 33,
    "ل": 34,
    "و": 35,
    "अ": 36,
    "अं": 37,
    "आ": 38,
    "आं": 39,
    "आा्": 40,
    "आ्य": 41,
    "आॕ": 42,
    "इ": 43,
    "इं": 44,
    "ई": 45,
    "उ": 46,
    "उाि": 47,
    "ऊ": 48,
    "ऊा्": 49,
    "ऋ": 50,
    "ऎ": 51,
    "ऎं": 52,
    "ऎ‍": 53,
    "ए": 54,
    "ऐ": 55,
    "ऒ": 56,
    "ऒं": 57,
    "ऒाि": 58,
    "ऒा्क्स्": 59,
    "ऒ‌": 60,
    "ओ": 61,
    "ओं": 62,
    "औ": 63,
    "क": 64,
    "कं": 65,
    "कं‌": 66,
    "कः": 67,
    "का": 68,
    "कां": 69,
    "का्": 70,
    "का‍": 71,
    "कि": 72,
    "किं": 73,
    "किाि": 74,
    "की": 75,
    "कु": 76,
    "कू": 77,
    "कृ": 78,
    "कॆ": 79,
    "कॆं": 80,
    "के": 81,
    "कें": 82,
    "केा": 83,
    "केा्": 84,
    "केॆ्टा": 85,
    "कै": 86,
    "कॊ": 87,
    "कॊं": 88,
    "कॊॕ": 89,
    "को": 90,
    "कों": 91,
    "कों‌": 92,
    "क्": 93,
    "क्ए": 94,
    "क्क": 95,
    "क्कं": 96,
    "क्का": 97,
    "क्का्": 98,
    "क्कि": 99,
    "क्की": 100,
    "क्कु": 101,
    "क्कुं": 102,
    "क्कू": 103,
    "क्कॆ": 104,
    "क्के": 105,
    "क्कै": 106,
    "क्कॊ": 107,
    "क्को": 108,
    "क्क्": 109,
    "क्क्‌": 110,
    "क्कॗ": 111,
    "क्ट": 112,
    "क्टा्": 113,
    "क्टो": 114,
    "क्ट्रि": 115,
    "क्त": 116,
    "क्ता": 117,
    "क्ति": 118,
    "क्तु": 119,
    "क्ते": 120,
    "क्नो": 121,
    "क्ऩा": 122,
    "क्पे": 123,
    "क्य": 124,
    "क्या": 125,
    "क्यू": 126,
    "क्र": 127,
    "क्रा": 128,
    "क्रि": 129,
    "क्री": 130,
    "क्ल": 131,
    "क्लि": 132,
    "क्ली": 133,
    "क्ले": 134,
    "क्व": 135,
    "क्वा": 136,
    "क्वॆ": 137,
    "क्ष": 138,
    "क्षा": 139,
    "क्षि": 140,
    "क्षिं": 141,
    "क्षी": 142,
    "क्षॆ": 143,
    "क्षे": 144,
    "क्ष्म": 145,
    "क्ष्मि": 146,
    "क्ष्मिॕ": 147,
    "क्ष्मी": 148,
    "क्ष्य": 149,
    "क्ष्या": 150,
    "क्स": 151,
    "क्सि": 152,
    "क्स्": 153,
    "क्स्फ": 154,
    "क्‌": 155,
    "कॗ": 156,
    "क‌": 157,
    "ख": 158,
    "खा": 159,
    "खां": 160,
    "खा‍": 161,
    "खॆ": 162,
    "खै": 163,
    "खो": 164,
    "ख्य": 165,
    "ख्यॆ": 166,
    "ग": 167,
    "गं": 168,
    "गा": 169,
    "गां": 170,
    "गि": 171,
    "गी": 172,
    "गु": 173,
    "गुं": 174,
    "गू": 175,
    "गृ": 176,
    "गॆ": 177,
    "गॆं": 178,
    "गे": 179,
    "गें": 180,
    "गॊ": 181,
    "गॊं": 182,
    "गो": 183,
    "गौ": 184,
    "ग्": 185,
    "ग्ग": 186,
    "ग्गा": 187,
    "ग्गि": 188,
    "ग्गॆ": 189,
    "ग्नि": 190,
    "ग्ब": 191,
    "ग्य": 192,
    "ग्र": 193,
    "ग्रं": 194,
    "ग्रा": 195,
    "ग्रां": 196,
    "ग्री": 197,
    "ग्रू": 198,
    "ग्रॆ": 199,
    "ग्रे": 200,
    "ग्ला": 201,
    "ग्ली": 202,
    "ग्ष": 203,
    "ग्‌": 204,
    "घ": 205,
    "घं": 206,
    "घा": 207,
    "घो": 208,
    "ङ": 209,
    "ङ्": 210,
    "ङ्क": 211,
    "ङ्का": 212,
    "ङ्कि": 213,
    "ङ्कु": 214,
    "ङ्के": 215,
    "ङ्कै": 216,
    "ङ्को": 217,
    "ङ्क्": 218,
    "ङ्क्स्": 219,
    "ङ्ङ": 220,
    "ङ्ङा": 221,
    "ङ्ङि": 222,
    "ङ्ङे": 223,
    "ङ्ङो": 224,
    "ङ्ङों": 225,
    "ङ्ङ्‌": 226,
    "ङ्चा": 227,
    "ङ्ट": 228,
    "ङ्त": 229,
    "ङ्ष": 230,
    "च": 231,
    "चं": 232,
    "चा": 233,
    "चा्": 234,
    "चा्क्काा्": 235,
    "चा्जि": 236,
    "चा्व": 237,
    "चि": 238,
    "चिं": 239,
    "चिॕ": 240,
    "ची": 241,
    "चीा्": 242,
    "चु": 243,
    "चू": 244,
    "चॆ": 245,
    "चे": 246,
    "चेा्क्कै": 247,
    "चेा्ऩ्": 248,
    "चै": 249,
    "चॊ": 250,
    "चो": 251,
    "चौ": 252,
    "च्": 253,
    "च्क": 254,
    "च्च": 255,
    "च्चं": 256,
    "च्चा": 257,
    "च्चा्": 258,
    "च्चि": 259,
    "च्चिं": 260,
    "च्ची": 261,
    "च्चु": 262,
    "च्चूा्": 263,
    "च्चॆ": 264,
    "च्चे": 265,
    "च्चेाि": 266,
    "च्च्": 267,
    "च्च्‌": 268,
    "च्छ": 269,
    "च्छा": 270,
    "च्छे": 271,
    "च्छ्": 272,
    "च्ट": 273,
    "च्य": 274,
    "च्यु": 275,
    "च्र": 276,
    "छ": 277,
    "छि": 278,
    "छे": 279,
    "ज": 280,
    "जं": 281,
    "ज़": 282,
    "जा": 283,
    "जा्": 284,
    "जि": 285,
    "जिं": 286,
    "जी": 287,
    "जु": 288,
    "जू": 289,
    "जॆ": 290,
    "जे": 291,
    "जें": 292,
    "जै": 293,
    "जॊ": 294,
    "जो": 295,
    "ज्": 296,
    "ज्ज": 297,
    "ज्जं": 298,
    "ज्ज्": 299,
    "ज्ञा": 300,
    "ज्न": 301,
    "ज्म": 302,
    "ज्य": 303,
    "ज्यु": 304,
    "ज्यू": 305,
    "ज्यो": 306,
    "ज्ल": 307,
    "ज्व": 308,
    "ज्‌": 309,
    "झ": 310,
    "ञ": 311,
    "ञा": 312,
    "ञा्": 313,
    "ञ्च": 314,
    "ञ्चा": 315,
    "ञ्चा्": 316,
    "ञ्चि": 317,
    "ञ्चे": 318,
    "ञ्ज": 319,
    "ञ्ञ": 320,
    "ञ्ञा": 321,
    "ञ्ञि": 322,
    "ञ्ञॆ": 323,
    "ञ्ञो": 324,
    "ट": 325,
    "टं": 326,
    "टा": 327,
    "टां": 328,
    "टाा": 329,
    "टााि": 330,
    "टा्": 331,
    "टि": 332,
    "टिं": 333,
    "टी": 334,
    "टु": 335,
    "टुं": 336,
    "टू": 337,
    "टॆ": 338,
    "टॆं": 339,
    "टे": 340,
    "टै": 341,
    "टॊ": 342,
    "टो": 343,
    "टों": 344,
    "टोाि": 345,
    "टौ": 346,
    "ट्": 347,
    "ट्क": 348,
    "ट्के": 349,
    "ट्ङ": 350,
    "ट्च": 351,
    "ट्चाा्च्च": 352,
    "ट्चि": 353,
    "ट्ट": 354,
    "ट्टं": 355,
    "ट्ट़": 356,
    "ट्टा": 357,
    "ट्टाा्": 358,
    "ट्टा्": 359,
    "ट्टि": 360,
    "ट्टी": 361,
    "ट्टु": 362,
    "ट्टुं": 363,
    "ट्टूा्पु": 364,
    "ट्टॆ": 365,
    "ट्टै": 366,
    "ट्टो": 367,
    "ट्ट्": 368,
    "ट्त": 369,
    "ट्न": 370,
    "ट्नं": 371,
    "ट्प": 372,
    "ट्पा": 373,
    "ट्मि": 374,
    "ट्यू": 375,
    "ट्र": 376,
    "ट्रा": 377,
    "ट्रि": 378,
    "ट्री": 379,
    "ट्रॆ": 380,
    "ट्रे": 381,
    "ट्रो": 382,
    "ट्ल": 383,
    "ट्लि": 384,
    "ट्लु": 385,
    "ट्व": 386,
    "ट्श्री": 387,
    "ट्स्": 388,
    "ट्‌": 389,
    "ट्‍": 390,
    "टॗ": 391,
    "ट‌": 392,
    "ठ": 393,
    "ठा": 394,
    "ठि": 395,
    "ठु": 396,
    "ठे": 397,
    "ड": 398,
    "डं": 399,
    "डा": 400,
    "डि": 401,
    "डिं": 402,
    "डी": 403,
    "डु": 404,
    "डू": 405,
    "डॆ": 406,
    "डॆं": 407,
    "डे": 408,
    "डै": 409,
    "डॊ": 410,
    "डो": 411,
    "ड्": 412,
    "ड्क": 413,
    "ड्जी": 414,
    "ड्ड": 415,
    "ड्डि": 416,
    "ड्डु": 417,
    "ड्पे": 418,
    "ड्यं": 419,
    "ड्यू": 420,
    "ड्रा": 421,
    "ड्रि": 422,
    "ड्रै": 423,
    "ड्ल": 424,
    "ड्वु": 425,
    "ड्स्": 426,
    "ड्‌": 427,
    "ढ": 428,
    "ण": 429,
    "णं": 430,
    "ण़": 431,
    "णा": 432,
    "णि": 433,
    "णी": 434,
    "णु": 435,
    "णु्": 436,
    "णू": 437,
    "णॆ": 438,
    "णे": 439,
    "णै": 440,
    "णो": 441,
    "ण्": 442,
    "ण्क": 443,
    "ण्का": 444,
    "ण्कॊ": 445,
    "ण्ट": 446,
    "ण्टं": 447,
    "ण्टा": 448,
    "ण्टि": 449,
    "ण्टी": 450,
    "ण्टु": 451,
    "ण्टू": 452,
    "ण्टॆ": 453,
    "ण्टे": 454,
    "ण्टै": 455,
    "ण्ट्": 456,
    "ण्ट्लू": 457,
    "ण्ट्स्": 458,
    "ण्ट्‌": 459,
    "ण्डा": 460,
    "ण्ण": 461,
    "ण्णा": 462,
    "ण्णि": 463,
    "ण्णी": 464,
    "ण्णु": 465,
    "ण्णू": 466,
    "ण्णूा्": 467,
    "ण्णू‍": 468,
    "ण्णॆ": 469,
    "ण्प": 470,
    "ण्पु": 471,
    "ण्मै": 472,
    "ण्य": 473,
    "ण्या": 474,
    "ण्‌": 475,
    "ण‍": 476,
    "त": 477,
    "तं": 478,
    "ता": 479,
    "तां": 480,
    "ता्": 481,
    "ता्का": 482,
    "ति": 483,
    "तिं": 484,
    "तिाि": 485,
    "ती": 486,
    "तीा्": 487,
    "तीा्क": 488,
    "तीा्त्त": 489,
    "तु": 490,
    "तू": 491,
    "तूा्": 492,
    "तृ": 493,
    "तॆ": 494,
    "तॆॆ": 495,
    "तॆ्र्र": 496,
    "ते": 497,
    "तै": 498,
    "तॊ": 499,
    "तो": 500,
    "त्": 501,
    "त्उ": 502,
    "त्कू": 503,
    "त्कृ": 504,
    "त्त": 505,
    "त्तं": 506,
    "त्ता": 507,
    "त्ताा्": 508,
    "त्ति": 509,
    "त्ती": 510,
    "त्तु": 511,
    "त्तू": 512,
    "त्तूा्": 513,
    "त्तॆ": 514,
    "त्ते": 515,
    "त्तेा्": 516,
    "त्तै": 517,
    "त्तॊ": 518,
    "त्तो": 519,
    "त्तोि": 520,
    "त्त्": 521,
    "त्त्प": 522,
    "त्त्‌": 523,
    "त्थ": 524,
    "त्थि": 525,
    "त्नं": 526,
    "त्नि": 527,
    "त्ऩा": 528,
    "त्प": 529,
    "त्भ": 530,
    "त्म": 531,
    "त्मा": 532,
    "त्य": 533,
    "त्या": 534,
    "त्यु": 535,
    "त्य्": 536,
    "त्र": 537,
    "त्रं": 538,
    "त्रं‌": 539,
    "त्रा": 540,
    "त्रि": 541,
    "त्री": 542,
    "त्रु": 543,
    "त्रॆ": 544,
    "त्व": 545,
    "त्वं": 546,
    "त्वि": 547,
    "त्स": 548,
    "त्स्": 549,
    "त्ह": 550,
    "त्‌": 551,
    "थ": 552,
    "था": 553,
    "थु": 554,
    "थों": 555,
    "द": 556,
    "दं": 557,
    "दा": 558,
    "दि": 559,
    "दिं": 560,
    "दी": 561,
    "दु": 562,
    "दुं": 563,
    "दू": 564,
    "दॆ": 565,
    "दे": 566,
    "दै": 567,
    "दॊ": 568,
    "दो": 569,
    "दौ": 570,
    "द्": 571,
    "द्गु": 572,
    "द्घा": 573,
    "द्ट": 574,
    "द्टु": 575,
    "द्द": 576,
    "द्दा": 577,
    "द्दां": 578,
    "द्दि": 579,
    "द्दु": 580,
    "द्दू": 581,
    "द्ध": 582,
    "द्धा": 583,
    "द्धि": 584,
    "द्धी": 585,
    "द्ध्फि": 586,
    "द्ध्य": 587,
    "द्ध्यं": 588,
    "द्फु": 589,
    "द्म": 590,
    "द्मा": 591,
    "द्य": 592,
    "द्या": 593,
    "द्यु": 594,
    "द्र": 595,
    "द्रं": 596,
    "द्रा": 597,
    "द्रि": 598,
    "द्रु": 599,
    "द्रे": 600,
    "द्रो": 601,
    "द्रौ": 602,
    "द्ळु": 603,
    "द्व": 604,
    "द्वा": 605,
    "द्शि": 606,
    "द्‌": 607,
    "ध": 608,
    "धं": 609,
    "धा": 610,
    "धि": 611,
    "धी": 612,
    "धु": 613,
    "धू": 614,
    "धृ": 615,
    "ध्य": 616,
    "ध्या": 617,
    "ध्ये": 618,
    "ध्र": 619,
    "ध्व": 620,
    "न": 621,
    "नं": 622,
    "ना": 623,
    "नां": 624,
    "नाि": 625,
    "ना्": 626,
    "नि": 627,
    "निॕ": 628,
    "नी": 629,
    "नीा्": 630,
    "नु": 631,
    "नुं": 632,
    "नू": 633,
    "नृ": 634,
    "नॆ": 635,
    "ने": 636,
    "नै": 637,
    "नॊ": 638,
    "नो": 639,
    "नौ": 640,
    "न्": 641,
    "न्कु": 642,
    "न्त": 643,
    "न्ता": 644,
    "न्ति": 645,
    "न्ती": 646,
    "न्तु": 647,
    "न्तू": 648,
    "न्तूा्पे": 649,
    "न्तै": 650,
    "न्तो": 651,
    "न्त्": 652,
    "न्त्य": 653,
    "न्त्र": 654,
    "न्त्रि": 655,
    "न्थ": 656,
    "न्द": 657,
    "न्दि": 658,
    "न्द्र": 659,
    "न्द्रं": 660,
    "न्द्री": 661,
    "न्द्‌": 662,
    "न्ध": 663,
    "न्धं": 664,
    "न्धा": 665,
    "न्धि": 666,
    "न्ध्यं": 667,
    "न्न": 668,
    "न्नं": 669,
    "न्ना": 670,
    "न्नि": 671,
    "न्नि‍": 672,
    "न्नी": 673,
    "न्नु": 674,
    "न्नुं": 675,
    "न्नू": 676,
    "न्न्": 677,
    "न्प": 678,
    "न्म": 679,
    "न्मा": 680,
    "न्म्र": 681,
    "न्य": 682,
    "न्या": 683,
    "न्यू": 684,
    "न्ये": 685,
    "न्ऱ": 686,
    "न्ऱा": 687,
    "न्ऱॆ": 688,
    "न्ऱ्": 689,
    "न्ल": 690,
    "न्लु": 691,
    "न्व": 692,
    "न्वी": 693,
    "न्वे": 694,
    "न्ष": 695,
    "न्स": 696,
    "न्सा": 697,
    "न्सि": 698,
    "न्सू": 699,
    "न्स्": 700,
    "न्स्टि": 701,
    "न्ह": 702,
    "न्‌": 703,
    "ऩ": 704,
    "ऩा": 705,
    "ऩाा्": 706,
    "ऩा्": 707,
    "ऩा्क": 708,
    "ऩि": 709,
    "ऩी": 710,
    "ऩु": 711,
    "ऩू": 712,
    "ऩूा्": 713,
    "ऩे": 714,
    "ऩै": 715,
    "ऩ्": 716,
    "ऩ्क": 717,
    "ऩ्ट": 718,
    "ऩ्टा्": 719,
    "ऩ्ट्": 720,
    "ऩ्ट्र": 721,
    "ऩ्त": 722,
    "ऩ्ऩ": 723,
    "ऩ्ऩा": 724,
    "ऩ्ऩा्": 725,
    "ऩ्ऩि": 726,
    "ऩ्ऩूा्": 727,
    "ऩ्ऩे": 728,
    "ऩ्ऩै": 729,
    "ऩ्ऩो": 730,
    "ऩ्प": 731,
    "ऩ्पु": 732,
    "ऩ्मै": 733,
    "ऩ्ऱ": 734,
    "ऩ्ऱि": 735,
    "ऩ्ऱु": 736,
    "ऩ्ऱॆ": 737,
    "ऩ्ऱो": 738,
    "ऩ्वॆ": 739,
    "ऩ्सी": 740,
    "ऩ्स्": 741,
    "प": 742,
    "पं": 743,
    "पा": 744,
    "पां": 745,
    "पाा्": 746,
    "पा्": 747,
    "पा्टि": 748,
    "पि": 749,
    "पिं": 750,
    "पिा": 751,
    "पिाि": 752,
    "पी": 753,
    "पु": 754,
    "पू": 755,
    "पूाि": 756,
    "पॆ": 757,
    "पॆं": 758,
    "पे": 759,
    "पेा": 760,
    "पै": 761,
    "पॊ": 762,
    "पॊं": 763,
    "पो": 764,
    "पोा्चु": 765,
    "प्": 766,
    "प्का": 767,
    "प्ट": 768,
    "प्टि": 769,
    "प्टॆ": 770,
    "प्ट्ट": 771,
    "प्त": 772,
    "प्तं": 773,
    "प्ति": 774,
    "प्तॆ": 775,
    "प्प": 776,
    "प्पं": 777,
    "प्पा": 778,
    "प्पा्": 779,
    "प्पि": 780,
    "प्पिं": 781,
    "प्पी": 782,
    "प्पु": 783,
    "प्पू": 784,
    "प्पूा्": 785,
    "प्पॆ": 786,
    "प्पे": 787,
    "प्पै": 788,
    "प्पॊ": 789,
    "प्पो": 790,
    "प्पोा्": 791,
    "प्प्": 792,
    "प्प्मू": 793,
    "प्प्‌": 794,
    "प्या": 795,
    "प्र": 796,
    "प्रा": 797,
    "प्रां": 798,
    "प्रि": 799,
    "प्रॆ": 800,
    "प्रै": 801,
    "प्रॊ": 802,
    "प्रो": 803,
    "प्ल": 804,
    "प्ला": 805,
    "प्लै": 806,
    "प्ष": 807,
    "प्स्": 808,
    "प्‌": 809,
    "फ": 810,
    "फा": 811,
    "फां": 812,
    "फि": 813,
    "फी": 814,
    "फु": 815,
    "फॆ": 816,
    "फे": 817,
    "फै": 818,
    "फो": 819,
    "फौ": 820,
    "फ्": 821,
    "फ्को": 822,
    "फ्ट्": 823,
    "फ्या": 824,
    "फ्र": 825,
    "फ्री": 826,
    "फ्रू": 827,
    "फ्रो": 828,
    "फ्र‌": 829,
    "फ्ल": 830,
    "फ्ला": 831,
    "ब": 832,
    "बं": 833,
    "बा": 834,
    "बा‍": 835,
    "बि": 836,
    "बी": 837,
    "बु": 838,
    "बू": 839,
    "बृ": 840,
    "बृं": 841,
    "बॆ": 842,
    "बॆं": 843,
    "बे": 844,
    "बै": 845,
    "बॊ": 846,
    "बो": 847,
    "बौ": 848,
    "ब्": 849,
    "ब्थ": 850,
    "ब्द": 851,
    "ब्दि": 852,
    "ब्ध": 853,
    "ब्ब": 854,
    "ब्बं": 855,
    "ब्बा": 856,
    "ब्य": 857,
    "ब्या": 858,
    "ब्यां": 859,
    "ब्यू": 860,
    "ब्र": 861,
    "ब्रा": 862,
    "ब्रु": 863,
    "ब्रू": 864,
    "ब्ल": 865,
    "ब्लो": 866,
    "ब्स": 867,
    "ब्सि": 868,
    "ब्‌": 869,
    "ब्‍": 870,
    "भ": 871,
    "भं": 872,
    "भा": 873,
    "भि": 874,
    "भु": 875,
    "भू": 876,
    "भृा": 877,
    "भे": 878,
    "भै": 879,
    "भो": 880,
    "भ्य": 881,
    "भ्या": 882,
    "भ्र": 883,
    "म": 884,
    "मं": 885,
    "मः": 886,
    "मा": 887,
    "मां": 888,
    "मााि": 889,
    "माा्": 890,
    "माा्च्": 891,
    "मा‍": 892,
    "मि": 893,
    "मी": 894,
    "मु": 895,
    "मुं": 896,
    "मू": 897,
    "मूा्त्ति": 898,
    "मृ": 899,
    "मॆ": 900,
    "मॆं": 901,
    "मे": 902,
    "मै": 903,
    "मॊ": 904,
    "मो": 905,
    "मौ": 906,
    "म्": 907,
    "म्A": 908,
    "म्ः": 909,
    "म्इ": 910,
    "म्के": 911,
    "म्को": 912,
    "म्ग्र": 913,
    "म्ट": 914,
    "म्न": 915,
    "म्प": 916,
    "म्पा": 917,
    "म्पा्": 918,
    "म्पि": 919,
    "म्पु": 920,
    "म्पू": 921,
    "म्पूा्": 922,
    "म्पे": 923,
    "म्पो": 924,
    "म्प्": 925,
    "म्प्य": 926,
    "म्प्या": 927,
    "म्प्यू": 928,
    "म्प्वा": 929,
    "म्म": 930,
    "म्मं": 931,
    "म्मा": 932,
    "म्मि": 933,
    "म्मु": 934,
    "म्मू": 935,
    "म्मे": 936,
    "म्मै": 937,
    "म्मॊ": 938,
    "म्म्न": 939,
    "म्य": 940,
    "म्या": 941,
    "म्यू": 942,
    "म्र": 943,
    "म्श": 944,
    "म्स": 945,
    "मॖ": 946,
    "य": 947,
    "यं": 948,
    "या": 949,
    "यां": 950,
    "याा्": 951,
    "याा्पे": 952,
    "या्": 953,
    "या्क": 954,
    "या‍": 955,
    "यि": 956,
    "यिाि": 957,
    "यी": 958,
    "यु": 959,
    "युं": 960,
    "यू": 961,
    "यॆ": 962,
    "ये": 963,
    "यै": 964,
    "यॊ": 965,
    "यो": 966,
    "य्": 967,
    "य्क": 968,
    "य्क्का": 969,
    "य्क्कां": 970,
    "य्क्कु": 971,
    "य्क्क्": 972,
    "य्ञ्चि": 973,
    "य्त": 974,
    "य्त्": 975,
    "य्त्तु": 976,
    "य्न्त": 977,
    "य्म": 978,
    "य्मा": 979,
    "य्मै": 980,
    "य्य": 981,
    "य्या्": 982,
    "य्यु": 983,
    "य्यो": 984,
    "य्व": 985,
    "य्वि": 986,
    "य्वु": 987,
    "य्वे": 988,
    "य्स्री": 989,
    "य्‌": 990,
    "र": 991,
    "रं": 992,
    "ऱ": 993,
    "रा": 994,
    "रां": 995,
    "राा्": 996,
    "रा्": 997,
    "रि": 998,
    "रिं": 999,
    "री": 1000,
    "रीं": 1001,
    "रु": 1002,
    "रुं": 1003,
    "रु‍": 1004,
    "रू": 1005,
    "रूा्": 1006,
    "रॆ": 1007,
    "रॆं": 1008,
    "रे": 1009,
    "रें": 1010,
    "रै": 1011,
    "रॊ": 1012,
    "रो": 1013,
    "र्": 1014,
    "र्ऎ": 1015,
    "र्क": 1016,
    "र्का": 1017,
    "र्कि": 1018,
    "र्किं": 1019,
    "र्कॆ": 1020,
    "र्कॊं": 1021,
    "र्ग": 1022,
    "र्गं": 1023,
    "र्गा": 1024,
    "र्गी": 1025,
    "र्च": 1026,
    "र्चि": 1027,
    "र्चु": 1028,
    "र्चू": 1029,
    "र्ज": 1030,
    "र्ज़": 1031,
    "र्जा": 1032,
    "र्जि": 1033,
    "र्जु": 1034,
    "र्ट": 1035,
    "र्टी": 1036,
    "र्ट्": 1037,
    "र्ट्स्": 1038,
    "र्ड": 1039,
    "र्डी": 1040,
    "र्डु": 1041,
    "र्डॆ": 1042,
    "र्ड्": 1043,
    "र्ड्‌": 1044,
    "र्ण": 1045,
    "र्णा": 1046,
    "र्त": 1047,
    "र्ति": 1048,
    "र्तु": 1049,
    "र्तू": 1050,
    "र्त्त": 1051,
    "र्थ": 1052,
    "र्थं": 1053,
    "र्दि": 1054,
    "र्दी": 1055,
    "र्दू": 1056,
    "र्दॊ": 1057,
    "र्धं": 1058,
    "र्न": 1059,
    "र्ना": 1060,
    "र्नी": 1061,
    "र्नू": 1062,
    "र्ने": 1063,
    "र्न्": 1064,
    "र्न्तॆ": 1065,
    "र्प": 1066,
    "र्पा": 1067,
    "र्पि": 1068,
    "र्पे": 1069,
    "र्पै": 1070,
    "र्पॊ": 1071,
    "र्बो": 1072,
    "र्भं": 1073,
    "र्म": 1074,
    "र्मा": 1075,
    "र्मि": 1076,
    "र्मु": 1077,
    "र्म्": 1078,
    "र्य": 1079,
    "र्या": 1080,
    "र्र": 1081,
    "र्रि": 1082,
    "र्ल": 1083,
    "र्ला": 1084,
    "र्लु": 1085,
    "र्व": 1086,
    "र्वा": 1087,
    "र्वे": 1088,
    "र्वो": 1089,
    "र्श": 1090,
    "र्शि": 1091,
    "र्ष": 1092,
    "र्षि": 1093,
    "र्स": 1094,
    "र्सि": 1095,
    "र्सिं": 1096,
    "र्सी": 1097,
    "र्सु": 1098,
    "र्स्": 1099,
    "र्‌": 1100,
    "रॕ": 1101,
    "र‌": 1102,
    "र‍": 1103,
    "ऱ": 1104,
    "ऱं": 1105,
    "ऱा": 1106,
    "ऱि": 1107,
    "ऱिं": 1108,
    "ऱी": 1109,
    "ऱु": 1110,
    "ऱुं": 1111,
    "ऱू": 1112,
    "ऱॆ": 1113,
    "ऱे": 1114,
    "ऱै": 1115,
    "ऱॊ": 1116,
    "ऱो": 1117,
    "ऱ्": 1118,
    "ऱ्क": 1119,
    "ऱ्का": 1120,
    "ऱ्कि": 1121,
    "ऱ्कु": 1122,
    "ऱ्के": 1123,
    "ऱ्कै": 1124,
    "ऱ्चि": 1125,
    "ऱ्प": 1126,
    "ऱ्पू": 1127,
    "ऱ्ऱ": 1128,
    "ऱ्ऱं": 1129,
    "ऱ्ऱा": 1130,
    "ऱ्ऱि": 1131,
    "ऱ्ऱी": 1132,
    "ऱ्ऱु": 1133,
    "ऱ्ऱे": 1134,
    "ऱ्ऱो": 1135,
    "ऱ्ऱ्": 1136,
    "ऱ्ऱ्यू": 1137,
    "ऱ्ऱ्ऱ्‌": 1138,
    "ल": 1139,
    "लं": 1140,
    "ला": 1141,
    "लां": 1142,
    "ला्क": 1143,
    "लि": 1144,
    "लिं": 1145,
    "ली": 1146,
    "लु": 1147,
    "लुं": 1148,
    "लू": 1149,
    "लूा्": 1150,
    "लॆ": 1151,
    "लॆं": 1152,
    "ले": 1153,
    "लै": 1154,
    "लॊ": 1155,
    "लो": 1156,
    "ल्": 1157,
    "ल्ऎ": 1158,
    "ल्क": 1159,
    "ल्कि": 1160,
    "ल्की": 1161,
    "ल्कु": 1162,
    "ल्कै": 1163,
    "ल्क्कु": 1164,
    "ल्क्स्": 1165,
    "ल्ग": 1166,
    "ल्गू": 1167,
    "ल्गॊ": 1168,
    "ल्ट": 1169,
    "ल्टि": 1170,
    "ल्टु": 1171,
    "ल्टे": 1172,
    "ल्ट्": 1173,
    "ल्ट्रा": 1174,
    "ल्ड्": 1175,
    "ल्त्": 1176,
    "ल्द": 1177,
    "ल्दा": 1178,
    "ल्द्": 1179,
    "ल्न": 1180,
    "ल्नी": 1181,
    "ल्प": 1182,
    "ल्पु": 1183,
    "ल्पॊ": 1184,
    "ल्पो": 1185,
    "ल्म": 1186,
    "ल्य": 1187,
    "ल्या": 1188,
    "ल्यू": 1189,
    "ल्ल": 1190,
    "ल्लं": 1191,
    "ल्ला": 1192,
    "ल्लाि": 1193,
    "ल्ला‍": 1194,
    "ल्लि": 1195,
    "ल्लु": 1196,
    "ल्लू": 1197,
    "ल्लूाि": 1198,
    "ल्लूा्": 1199,
    "ल्लॆ": 1200,
    "ल्ले": 1201,
    "ल्लै": 1202,
    "ल्ल्": 1203,
    "ल्ल्‌": 1204,
    "ल्व": 1205,
    "ल्वि": 1206,
    "ल्वॆ": 1207,
    "ल्वे": 1208,
    "ल्स": 1209,
    "ल्स्": 1210,
    "ल्‌": 1211,
    "ळ": 1212,
    "ळं": 1213,
    "ळा": 1214,
    "ळा्": 1215,
    "ळि": 1216,
    "ळिं": 1217,
    "ळी": 1218,
    "ळु": 1219,
    "ळुं": 1220,
    "ळू": 1221,
    "ळॆ": 1222,
    "ळे": 1223,
    "ळै": 1224,
    "ळ्": 1225,
    "ळ्अ": 1226,
    "ळ्ट": 1227,
    "ळ्मि": 1228,
    "ळ्मी": 1229,
    "ळ्या": 1230,
    "ळ्ळ": 1231,
    "ळ्ळा": 1232,
    "ळ्ळि": 1233,
    "ळ्ळी": 1234,
    "ळ्ळु": 1235,
    "ळ्ळे": 1236,
    "ळ‍": 1237,
    "ऴ": 1238,
    "ऴं": 1239,
    "ऴा": 1240,
    "ऴि": 1241,
    "ऴि‌": 1242,
    "ऴु": 1243,
    "ऴॆ": 1244,
    "ऴेां": 1245,
    "ऴै": 1246,
    "ऴों": 1247,
    "ऴ्": 1248,
    "ऴ्क": 1249,
    "ऴ्चॆ": 1250,
    "ऴ्च्": 1251,
    "ऴ्त्त": 1252,
    "ऴ्न": 1253,
    "ऴ्ना": 1254,
    "ऴ्वु": 1255,
    "ऴ्स्": 1256,
    "ऴ्‌": 1257,
    "व": 1258,
    "वं": 1259,
    "वः": 1260,
    "वा": 1261,
    "वां": 1262,
    "वाा्टु": 1263,
    "वाि": 1264,
    "वा्": 1265,
    "वा्क": 1266,
    "वा्स्": 1267,
    "वि": 1268,
    "वी": 1269,
    "वीः": 1270,
    "वीा्": 1271,
    "वु": 1272,
    "वुं": 1273,
    "वू": 1274,
    "वृ": 1275,
    "वॆ": 1276,
    "वॆं": 1277,
    "वे": 1278,
    "वें": 1279,
    "वेा्ल्टु": 1280,
    "वै": 1281,
    "वॊ": 1282,
    "वो": 1283,
    "व्": 1284,
    "व्टे": 1285,
    "व्त": 1286,
    "व्भ": 1287,
    "व्य": 1288,
    "व्या": 1289,
    "व्र": 1290,
    "व्व": 1291,
    "व्वं": 1292,
    "व्वा": 1293,
    "व्वि": 1294,
    "व्वी": 1295,
    "व्वू": 1296,
    "व्वॆं": 1297,
    "व्वे": 1298,
    "व्ह": 1299,
    "व्‌": 1300,
    "व‌": 1301,
    "श": 1302,
    "शं": 1303,
    "शा": 1304,
    "शां": 1305,
    "शा‍": 1306,
    "शि": 1307,
    "शी": 1308,
    "शु": 1309,
    "शृ": 1310,
    "शॆ": 1311,
    "शे": 1312,
    "शै": 1313,
    "शो": 1314,
    "शौ": 1315,
    "श्": 1316,
    "श्च": 1317,
    "श्य": 1318,
    "श्र": 1319,
    "श्रा": 1320,
    "श्रि": 1321,
    "श्री": 1322,
    "श्रे": 1323,
    "श्ले": 1324,
    "श्व": 1325,
    "श्श": 1326,
    "श्शि": 1327,
    "श्शे": 1328,
    "श्ष": 1329,
    "श्स": 1330,
    "शॗ": 1331,
    "ष": 1332,
    "षं": 1333,
    "षा": 1334,
    "षि": 1335,
    "षु": 1336,
    "षू": 1337,
    "षे": 1338,
    "षो": 1339,
    "ष्": 1340,
    "ष्क": 1341,
    "ष्क्": 1342,
    "ष्ट": 1343,
    "ष्टि": 1344,
    "ष्टु": 1345,
    "ष्ट्र": 1346,
    "ष्ट्रं": 1347,
    "ष्ट्री": 1348,
    "ष्ठ": 1349,
    "ष्ण": 1350,
    "ष्णा": 1351,
    "ष्णु": 1352,
    "ष्म": 1353,
    "ष्मॆ": 1354,
    "ष्य": 1355,
    "ष्यं": 1356,
    "ष्‌": 1357,
    "षॢ": 1358,
    "स": 1359,
    "सं": 1360,
    "सं‌": 1361,
    "सः": 1362,
    "सा": 1363,
    "सां": 1364,
    "सा‍": 1365,
    "सि": 1366,
    "सिं": 1367,
    "सी": 1368,
    "सु": 1369,
    "सुं": 1370,
    "सू": 1371,
    "सृ": 1372,
    "सृं": 1373,
    "सॆ": 1374,
    "सॆं": 1375,
    "से": 1376,
    "सै": 1377,
    "सॊ": 1378,
    "सो": 1379,
    "सौ": 1380,
    "स्": 1381,
    "स्क": 1382,
    "स्का": 1383,
    "स्कु": 1384,
    "स्कू": 1385,
    "स्कृ": 1386,
    "स्क्का": 1387,
    "स्गि": 1388,
    "स्ट": 1389,
    "स्टा": 1390,
    "स्टि": 1391,
    "स्टी": 1392,
    "स्टॆ": 1393,
    "स्टे": 1394,
    "स्टो": 1395,
    "स्टोा्स्": 1396,
    "स्ट्": 1397,
    "स्ट्र": 1398,
    "स्ट्री": 1399,
    "स्ट्रे": 1400,
    "स्ठ": 1401,
    "स्ड": 1402,
    "स्त": 1403,
    "स्तं": 1404,
    "स्ता": 1405,
    "स्ति": 1406,
    "स्तु": 1407,
    "स्तू": 1408,
    "स्तॆ": 1409,
    "स्त्र": 1410,
    "स्थ": 1411,
    "स्था": 1412,
    "स्थि": 1413,
    "स्थी": 1414,
    "स्थू": 1415,
    "स्थॆ": 1416,
    "स्दु": 1417,
    "स्ध": 1418,
    "स्धा": 1419,
    "स्धॆ": 1420,
    "स्ना": 1421,
    "स्ने": 1422,
    "स्प": 1423,
    "स्पा": 1424,
    "स्पि": 1425,
    "स्पॆ": 1426,
    "स्पे": 1427,
    "स्प्पि": 1428,
    "स्फि": 1429,
    "स्भा": 1430,
    "स्म": 1431,
    "स्मा": 1432,
    "स्य": 1433,
    "स्यः": 1434,
    "स्या": 1435,
    "स्र": 1436,
    "स्रा": 1437,
    "स्री": 1438,
    "स्ऱ्ऱ": 1439,
    "स्ऱ्ऱा": 1440,
    "स्ऱ्ऱि": 1441,
    "स्ऱ्ऱु": 1442,
    "स्ऱ्ऱे": 1443,
    "स्ऱ्ऱै": 1444,
    "स्ऱ्ऱो": 1445,
    "स्ऱ्ऱ्": 1446,
    "स्ला": 1447,
    "स्लि": 1448,
    "स्लॊ": 1449,
    "स्व": 1450,
    "स्वं": 1451,
    "स्वा": 1452,
    "स्वि": 1453,
    "स्वी": 1454,
    "स्वे": 1455,
    "स्सा": 1456,
    "स्सि": 1457,
    "स्सु": 1458,
    "स्से": 1459,
    "स्सो": 1460,
    "स्स्": 1461,
    "स्स्मा": 1462,
    "स्स्‌": 1463,
    "स्ह": 1464,
    "स्‌": 1465,
    "स्‍": 1466,
    "सॗ": 1467,
    "ह": 1468,
    "हं": 1469,
    "हा": 1470,
    "हि": 1471,
    "हिं": 1472,
    "ही": 1473,
    "हीं": 1474,
    "हु": 1475,
    "हू": 1476,
    "हृ": 1477,
    "हॆ": 1478,
    "हे": 1479,
    "है": 1480,
    "हॊ": 1481,
    "हो": 1482,
    "हौ": 1483,
    "ह्": 1484,
    "ह्दि": 1485,
    "ह्न": 1486,
    "ह्म": 1487,
    "ह्मि": 1488,
    "ह्य": 1489,
    "ह्या": 1490,
    "ह्रू": 1491,
    "ऽ": 1492,
    "ा": 1493,
    "फ़": 1494,
    "फ़्ट": 1495,
    "फ़्दु": 1496,
    "।": 1497,
    "॥": 1498,
    "०": 1499,
    "१": 1500,
    "१्को": 1501,
    "२": 1502,
    "३": 1503,
    "४": 1504,
    "५": 1505,
    "६": 1506,
    "७": 1507,
    "८": 1508,
    "९": 1509,
    "ॹ": 1510,
    "ॺ": 1511,
    "ॺ‌": 1512,
    "ॺ‍": 1513,
    "ॻ": 1514,
    "ॻॆ": 1515,
    "ॻ्ऱ": 1516,
    "ॻ्ऱॆ": 1517,
    "ॻ्ऱ्": 1518,
    "ॻ्ऱ्स्": 1519,
    "ॻ‌": 1520,
    "ॻ‌‌": 1521,
    "ॻ‍": 1522,
    "ॼ": 1523,
    "ॼ‌": 1524,
    "ॼ‍": 1525,
    "ॼ‍‍": 1526,
    "ॽ": 1527,
    "ॽ‌": 1528,
    "ॽ‍": 1529,
    "ॾ": 1530,
    "ॾ‌": 1531,
    "ॾ‌‌": 1532,
    "↑": 1533
  },
  "metadata": {
    "tag": "zs_rungB_tamil",
    "num_graphemes": 1532,
    "space": "shared-abugida-pivot"
  }
}