{
  "grapheme2idx": {
    "<blank>": 0,
    "<unk>": 1,
    " ‌": 2,
    "!": 3,
    "\"": 4,
    "&": 5,
    "'": 6,
    "(": 7,
    ")": 8,
    ",": 9,
    "-": 10,
    ".": 11,
    "/": 12,
    "0": 13,
    "1": 14,
    "2": 15,
    "3": 16,
    "3ः": 17,
    "4": 18,
    "5": 19,
    "6": 20,
    "7": 21,
    "8": 22,
    "9": 23,
    ":": 24,
    "?": 25,
    "A": 26,
    "D": 27,
    "E": 28,
    "G": 29,
    "H": 30,
    "I": 31,
    "L": 32,
    "N": 33,
    "O": 34,
    "P": 35,
    "U": 36,
    "V": 37,
    "W": 38,
    "c": 39,
    "|": 40,
    "°": 41,
    "×": 42,
    "अ": 43,
    "अं": 44,
    "अि": 45,
    "अे": 46,
    "अ्या": 47,
    "अ॰": 48,
    "अॱ": 49,
    "आ": 50,
    "आँ": 51,
    "आं": 52,
    "आा्": 53,
    "इ": 54,
    "इँ": 55,
    "इं": 56,
    "इ्": 57,
    "इ॰": 58,
    "इॱ": 59,
    "ई": 60,
    "ईं": 61,
    "ईः": 62,
    "उ": 63,
    "उं": 64,
    "उाि": 65,
    "उॱ": 66,
    "ऊ": 67,
    "ऊँ": 68,
    "ऊं": 69,
    "ऊा्": 70,
    "ऋ": 71,
    "ऎ": 72,
    "ऎं": 73,
    "ऎ‍": 74,
    "ए": 75,
    "एँ": 76,
    "एः": 77,
    "एा": 78,
    "ए्र": 79,
    "ऐ": 80,
    "ऐं": 81,
    "ऑ": 82,
    "ऒ": 83,
    "ऒा्क्स्": 84,
    "ऒ‌": 85,
    "ओ": 86,
    "ओँ": 87,
    "ओं": 88,
    "ओ्बा": 89,
    "औ": 90,
    "औं": 91,
    "क": 92,
    "कं": 93,
    "कं‌": 94,
    "कः": 95,
    "का": 96,
    "कां": 97,
    "काुं": 98,
    "काे": 99,
    "का्": 100,
    "का‍": 101,
    "का‍‌": 102,
    "कि": 103,
    "किं": 104,
    "किाि": 105,
    "कि‍": 106,
    "की": 107,
    "कु": 108,
    "कुं": 109,
    "कु॰": 110,
    "कू": 111,
    "कृ": 112,
    "कॅा": 113,
    "कॆ": 114,
    "कॆं": 115,
    "के": 116,
    "कें": 117,
    "केा": 118,
    "केा्": 119,
    "केॆ्टा": 120,
    "केे": 121,
    "के‌": 122,
    "कै": 123,
    "कॉ": 124,
    "कॊ": 125,
    "कॊं": 126,
    "कॊॕ": 127,
    "को": 128,
    "कोँ": 129,
    "कों": 130,
    "कों‌": 131,
    "कौ": 132,
    "क्": 133,
    "क्ए": 134,
    "क्क": 135,
    "क्कं": 136,
    "क्का": 137,
    "क्कि": 138,
    "क्कु": 139,
    "क्कुं": 140,
    "क्कू": 141,
    "क्कॆ": 142,
    "क्के": 143,
    "क्कॊ": 144,
    "क्को": 145,
    "क्क्": 146,
    "क्क्‌": 147,
    "क्कॗ": 148,
    "क्ट": 149,
    "क्टा्": 150,
    "क्टू": 151,
    "क्टो": 152,
    "क्ट्रि": 153,
    "क्त": 154,
    "क्तां": 155,
    "क्ति": 156,
    "क्तृ": 157,
    "क्ते": 158,
    "क्नो": 159,
    "क्मि": 160,
    "क्य": 161,
    "क्या": 162,
    "क्यू": 163,
    "क्र": 164,
    "क्रं": 165,
    "क्रः": 166,
    "क्रा": 167,
    "क्रि": 168,
    "क्री": 169,
    "क्रे": 170,
    "क्रो": 171,
    "क्लि": 172,
    "क्ळे": 173,
    "क्वॆ": 174,
    "क्श": 175,
    "क्ष": 176,
    "क्षा": 177,
    "क्षां": 178,
    "क्षि": 179,
    "क्षिं": 180,
    "क्षी": 181,
    "क्षुः": 182,
    "क्षॆ": 183,
    "क्षे": 184,
    "क्षो": 185,
    "क्ष्मि": 186,
    "क्ष्मिॕ": 187,
    "क्ष्मी": 188,
    "क्ष्य": 189,
    "क्स": 190,
    "क्सी": 191,
    "क्स्": 192,
    "क्स्टा": 193,
    "क्य़ा": 194,
    "क्॰": 195,
    "क्॰ा": 196,
    "क्॰े": 197,
    "क्‌": 198,
    "क्‍": 199,
    "क॰": 200,
    "क‌": 201,
    "क‍": 202,
    "क‍ी": 203,
    "ख": 204,
    "खं": 205,
    "खा": 206,
    "खाँ": 207,
    "खां": 208,
    "खि": 209,
    "खी": 210,
    "खु": 211,
    "खू": 212,
    "खृ": 213,
    "खॆ": 214,
    "खे": 215,
    "खें": 216,
    "खै": 217,
    "खो": 218,
    "ख्त": 219,
    "ख्मि": 220,
    "ख्य": 221,
    "ख्या": 222,
    "ख्यु": 223,
    "ख्यॆ": 224,
    "ख्री": 225,
    "ख्रीः": 226,
    "ख्॰ीं": 227,
    "ग": 228,
    "गं": 229,
    "गा": 230,
    "गाँ": 231,
    "गां": 232,
    "गि": 233,
    "गी": 234,
    "गु": 235,
    "गुं": 236,
    "गुः": 237,
    "गू": 238,
    "गृ": 239,
    "गॆ": 240,
    "गे": 241,
    "गै": 242,
    "गॊ": 243,
    "गॊं": 244,
    "गो": 245,
    "गों": 246,
    "गौ": 247,
    "ग्": 248,
    "ग्ई": 249,
    "ग्ग": 250,
    "ग्गॆ": 251,
    "ग्ण": 252,
    "ग्धा": 253,
    "ग्न": 254,
    "ग्ना": 255,
    "ग्नि": 256,
    "ग्भ": 257,
    "ग्य": 258,
    "ग्या": 259,
    "ग्यां": 260,
    "ग्ये": 261,
    "ग्र": 262,
    "ग्रं": 263,
    "ग्रा": 264,
    "ग्रि": 265,
    "ग्री": 266,
    "ग्रू": 267,
    "ग्रे": 268,
    "ग्रो": 269,
    "ग्लं": 270,
    "ग्ला": 271,
    "ग्लां": 272,
    "ग्ली": 273,
    "ग्वा": 274,
    "ग्ष": 275,
    "ग्स": 276,
    "ग्य़ा": 277,
    "ग्॰": 278,
    "ग्॰ा": 279,
    "ग्॰ी": 280,
    "ग्॰ु": 281,
    "घ": 282,
    "घा": 283,
    "घां": 284,
    "घु": 285,
    "घे": 286,
    "घो": 287,
    "घौ": 288,
    "घ्या": 289,
    "घ्र": 290,
    "ङ": 291,
    "ङा": 292,
    "ङि": 293,
    "ङे": 294,
    "ङ्": 295,
    "ङ्क": 296,
    "ङ्का": 297,
    "ङ्कि": 298,
    "ङ्कु": 299,
    "ङ्के": 300,
    "ङ्कै": 301,
    "ङ्को": 302,
    "ङ्क्": 303,
    "ङ्क्षा": 304,
    "ङ्ग": 305,
    "ङ्गा": 306,
    "ङ्गि": 307,
    "ङ्गी": 308,
    "ङ्गु": 309,
    "ङ्गे": 310,
    "ङ्गो": 311,
    "ङ्घ": 312,
    "ङ्ङ": 313,
    "ङ्ङा": 314,
    "ङ्ङि": 315,
    "ङ्ङो": 316,
    "ङ्ङों": 317,
    "ङ्चा": 318,
    "ङ्ट": 319,
    "ङ्ष": 320,
    "ङ्‌": 321,
    "च": 322,
    "चं": 323,
    "चा": 324,
    "चाँ": 325,
    "चां": 326,
    "चा्": 327,
    "चा्जि": 328,
    "चा्व": 329,
    "चि": 330,
    "चिं": 331,
    "ची": 332,
    "चु": 333,
    "चू": 334,
    "चॆ": 335,
    "चे": 336,
    "चें": 337,
    "चै": 338,
    "चॉ": 339,
    "चॊ": 340,
    "चो": 341,
    "चों": 342,
    "चौ": 343,
    "च्": 344,
    "च्च": 345,
    "च्चं": 346,
    "च्चा": 347,
    "च्चि": 348,
    "च्ची": 349,
    "च्चूा्": 350,
    "च्चे": 351,
    "च्चेाि": 352,
    "च्च्": 353,
    "च्छ": 354,
    "च्छा": 355,
    "च्छि": 356,
    "च्छु": 357,
    "च्छे": 358,
    "च्य": 359,
    "च्या": 360,
    "च्यु": 361,
    "च्र": 362,
    "च्य़ु": 363,
    "च॑": 364,
    "चॖे": 365,
    "च॰": 366,
    "छ": 367,
    "छा": 368,
    "छि": 369,
    "छु": 370,
    "छे": 371,
    "छें": 372,
    "छो": 373,
    "छोँ": 374,
    "ज": 375,
    "जं": 376,
    "ज़": 377,
    "जा": 378,
    "जाँ": 379,
    "जां": 380,
    "जा्": 381,
    "जि": 382,
    "जिं": 383,
    "जिः": 384,
    "जिॱ": 385,
    "जी": 386,
    "जीं": 387,
    "जु": 388,
    "जुॱ": 389,
    "जू": 390,
    "जॆ": 391,
    "जे": 392,
    "जें": 393,
    "जै": 394,
    "जो": 395,
    "ज्": 396,
    "ज्जं": 397,
    "ज्ज्": 398,
    "ज्ज्ब": 399,
    "ज्ज्व": 400,
    "ज्ञ": 401,
    "ज्ञा": 402,
    "ज्ञी": 403,
    "ज्न": 404,
    "ज्ब": 405,
    "ज्बा": 406,
    "ज्य": 407,
    "ज्यि": 408,
    "ज्यी": 409,
    "ज्यु": 410,
    "ज्यू": 411,
    "ज्यै": 412,
    "ज्यो": 413,
    "ज्यों": 414,
    "ज्य़": 415,
    "ज॰": 416,
    "झ": 417,
    "झा": 418,
    "झां": 419,
    "झि": 420,
    "झु": 421,
    "झे": 422,
    "झॉ": 423,
    "ञ": 424,
    "ञा": 425,
    "ञा्": 426,
    "ञ्च": 427,
    "ञ्चा": 428,
    "ञ्चि": 429,
    "ञ्चे": 430,
    "ञ्ज": 431,
    "ञ्जा": 432,
    "ञ्जि": 433,
    "ञ्जी": 434,
    "ञ्ञ": 435,
    "ञ्ञा": 436,
    "ञ्ञि": 437,
    "ट": 438,
    "टं": 439,
    "टा": 440,
    "टां": 441,
    "टाा": 442,
    "टि": 443,
    "टिं": 444,
    "टिॱ": 445,
    "टी": 446,
    "टु": 447,
    "टुं": 448,
    "टू": 449,
    "टॅ": 450,
    "टॆ": 451,
    "टॆं": 452,
    "टे": 453,
    "टे्नि": 454,
    "टै": 455,
    "टॉ": 456,
    "टो": 457,
    "टों": 458,
    "टोाि": 459,
    "टौ": 460,
    "ट्": 461,
    "ट्क": 462,
    "ट्ङ": 463,
    "ट्च": 464,
    "ट्चाा्च्च": 465,
    "ट्चि": 466,
    "ट्ट": 467,
    "ट्टा": 468,
    "ट्टाा्": 469,
    "ट्टि": 470,
    "ट्टी": 471,
    "ट्टु": 472,
    "ट्टुं": 473,
    "ट्टॆ": 474,
    "ट्टै": 475,
    "ट्टो": 476,
    "ट्ट्": 477,
    "ट्ण": 478,
    "ट्नं": 479,
    "ट्प": 480,
    "ट्य": 481,
    "ट्यू": 482,
    "ट्र": 483,
    "ट्रा": 484,
    "ट्रि": 485,
    "ट्रॆ": 486,
    "ट्रे": 487,
    "ट्रो": 488,
    "ट्र्या": 489,
    "ट्ल": 490,
    "ट्लि": 491,
    "ट्लु": 492,
    "ट्श्री": 493,
    "ट्स्": 494,
    "ट्॰": 495,
    "ट्॰ि": 496,
    "ट्‌": 497,
    "टॗ": 498,
    "ठ": 499,
    "ठा": 500,
    "ठां": 501,
    "ठि": 502,
    "ठि॰": 503,
    "ठी": 504,
    "ठु": 505,
    "ठे": 506,
    "ठो": 507,
    "ठ्ठ": 508,
    "ठ॰": 509,
    "ड": 510,
    "डं": 511,
    "ड़": 512,
    "ड़ा": 513,
    "ड़ि": 514,
    "ड़ी": 515,
    "ड़े": 516,
    "ड़ौ": 517,
    "डा": 518,
    "डां": 519,
    "डाः": 520,
    "डि": 521,
    "डिं": 522,
    "डी": 523,
    "डीं": 524,
    "डु": 525,
    "डुं": 526,
    "डू": 527,
    "डॆ": 528,
    "डॆं": 529,
    "डे": 530,
    "डै": 531,
    "डो": 532,
    "डों": 533,
    "ड्": 534,
    "ड्क": 535,
    "ड्ड": 536,
    "ड्डा": 537,
    "ड्डि": 538,
    "ड्डु": 539,
    "ड्यं": 540,
    "ड्या": 541,
    "ड्यां": 542,
    "ड्रा": 543,
    "ड्रि": 544,
    "ड्री": 545,
    "ड्वु": 546,
    "ड्स": 547,
    "ड्‌": 548,
    "ढ": 549,
    "ढ़": 550,
    "ढ़ि": 551,
    "ढ़ी": 552,
    "ढा": 553,
    "ढी": 554,
    "ढे": 555,
    "ण": 556,
    "णं": 557,
    "णा": 558,
    "णाः": 559,
    "णि": 560,
    "णी": 561,
    "णीं": 562,
    "णु": 563,
    "णू": 564,
    "णॆ": 565,
    "णे": 566,
    "णै": 567,
    "णो": 568,
    "ण्": 569,
    "ण्क": 570,
    "ण्का": 571,
    "ण्कॊ": 572,
    "ण्ट": 573,
    "ण्टं": 574,
    "ण्टा": 575,
    "ण्टि": 576,
    "ण्टु": 577,
    "ण्टू": 578,
    "ण्टॆ": 579,
    "ण्ट्": 580,
    "ण्ट्लू": 581,
    "ण्ट्स्": 582,
    "ण्ठ": 583,
    "ण्ठु": 584,
    "ण्ड": 585,
    "ण्डा": 586,
    "ण्डि": 587,
    "ण्डी": 588,
    "ण्ण": 589,
    "ण्णा": 590,
    "ण्णि": 591,
    "ण्णु": 592,
    "ण्णू": 593,
    "ण्णूा्": 594,
    "ण्त": 595,
    "ण्ता": 596,
    "ण्ति": 597,
    "ण्पु": 598,
    "ण्मै": 599,
    "ण्य": 600,
    "ण्यं": 601,
    "ण्या": 602,
    "ण्रा": 603,
    "ण्‌": 604,
    "त": 605,
    "तं": 606,
    "तः": 607,
    "त़": 608,
    "त़ि": 609,
    "ता": 610,
    "ताँ": 611,
    "तां": 612,
    "ता्": 613,
    "ता्का": 614,
    "ति": 615,
    "तिं": 616,
    "तिाि": 617,
    "ति॰": 618,
    "ती": 619,
    "तु": 620,
    "तू": 621,
    "तूा्": 622,
    "तृ": 623,
    "तॆ": 624,
    "तॆॆ": 625,
    "तॆ्र्र": 626,
    "ते": 627,
    "तें": 628,
    "ते‍": 629,
    "तै": 630,
    "तॊ": 631,
    "तो": 632,
    "तों": 633,
    "त्": 634,
    "त्क": 635,
    "त्का": 636,
    "त्कृ": 637,
    "त्त": 638,
    "त्तँ": 639,
    "त्ता": 640,
    "त्ताा्": 641,
    "त्ति": 642,
    "त्ती": 643,
    "त्तु": 644,
    "त्तू": 645,
    "त्तॆ": 646,
    "त्तै": 647,
    "त्तॊ": 648,
    "त्तो": 649,
    "त्तोि": 650,
    "त्त्": 651,
    "त्त्प": 652,
    "त्त्‌": 653,
    "त्था": 654,
    "त्थि": 655,
    "त्न": 656,
    "त्ना": 657,
    "त्पा": 658,
    "त्ब": 659,
    "त्बः": 660,
    "त्बि": 661,
    "त्बे": 662,
    "त्भ": 663,
    "त्म": 664,
    "त्मा": 665,
    "त्य": 666,
    "त्या": 667,
    "त्यु": 668,
    "त्यू": 669,
    "त्ये": 670,
    "त्र": 671,
    "त्रं": 672,
    "त्रं‌": 673,
    "त्रा": 674,
    "त्रि": 675,
    "त्री": 676,
    "त्रॆ": 677,
    "त्रे": 678,
    "त्र्य": 679,
    "त्र्यं": 680,
    "त्व": 681,
    "त्वि": 682,
    "त्स": 683,
    "त्सा": 684,
    "त्स्ना": 685,
    "त्य़ु": 686,
    "त्य़े": 687,
    "त्॰": 688,
    "त्॰ा": 689,
    "त्‌": 690,
    "त॰": 691,
    "तॱ": 692,
    "त‍े": 693,
    "थ": 694,
    "थः": 695,
    "था": 696,
    "थि": 697,
    "थी": 698,
    "थु": 699,
    "थू": 700,
    "थृ": 701,
    "थे": 702,
    "थै": 703,
    "थो": 704,
    "थ्य": 705,
    "थ्वी": 706,
    "थ॰": 707,
    "द": 708,
    "दं": 709,
    "दा": 710,
    "दि": 711,
    "दि॰": 712,
    "दी": 713,
    "दी्": 714,
    "दु": 715,
    "दुि": 716,
    "दू": 717,
    "दृ": 718,
    "दॆ": 719,
    "दे": 720,
    "दै": 721,
    "दॊ": 722,
    "दो": 723,
    "दौ": 724,
    "द्": 725,
    "द्गु": 726,
    "द्घा": 727,
    "द्द": 728,
    "द्दा": 729,
    "द्दि": 730,
    "द्दी": 731,
    "द्दू": 732,
    "द्ध": 733,
    "द्धा": 734,
    "द्धि": 735,
    "द्धी": 736,
    "द्धे": 737,
    "द्ध्फि": 738,
    "द्ध्यं": 739,
    "द्ब": 740,
    "द्बा": 741,
    "द्बि": 742,
    "द्बी": 743,
    "द्बो": 744,
    "द्म": 745,
    "द्मा": 746,
    "द्य": 747,
    "द्या": 748,
    "द्यां": 749,
    "द्यु": 750,
    "द्यो": 751,
    "द्र": 752,
    "द्रा": 753,
    "द्रि": 754,
    "द्री": 755,
    "द्रु": 756,
    "द्रे": 757,
    "द्ळु": 758,
    "द्वा": 759,
    "द्वी": 760,
    "द्य़": 761,
    "द्य़ा": 762,
    "द्॰": 763,
    "द्॰ी": 764,
    "द्‌": 765,
    "ध": 766,
    "धं": 767,
    "धा": 768,
    "धि": 769,
    "धी": 770,
    "धु": 771,
    "धू": 772,
    "धे": 773,
    "धो": 774,
    "धौ": 775,
    "ध्दा": 776,
    "ध्दी": 777,
    "ध्ब": 778,
    "ध्य": 779,
    "ध्या": 780,
    "ध्ये": 781,
    "ध्र": 782,
    "ध्व": 783,
    "ध्य़": 784,
    "न": 785,
    "नं": 786,
    "ना": 787,
    "नाँ": 788,
    "नां": 789,
    "नाि": 790,
    "नि": 791,
    "निं": 792,
    "निः": 793,
    "नी": 794,
    "नीा्": 795,
    "नु": 796,
    "नुं": 797,
    "नू": 798,
    "नू॰": 799,
    "नॅ": 800,
    "नॆ": 801,
    "ने": 802,
    "नै": 803,
    "नॊ": 804,
    "नो": 805,
    "नौ": 806,
    "न्": 807,
    "न्क": 808,
    "न्जी": 809,
    "न्ट": 810,
    "न्टा": 811,
    "न्टे": 812,
    "न्ट्रा": 813,
    "न्ड": 814,
    "न्डा": 815,
    "न्डि": 816,
    "न्डे": 817,
    "न्त": 818,
    "न्तः": 819,
    "न्ता": 820,
    "न्ति": 821,
    "न्ती": 822,
    "न्तु": 823,
    "न्तूा्पे": 824,
    "न्ते": 825,
    "न्तै": 826,
    "न्तो": 827,
    "न्त्": 828,
    "न्त्र": 829,
    "न्त्रा": 830,
    "न्त्रि": 831,
    "न्त्री": 832,
    "न्त्॰": 833,
    "न्त्॰ा": 834,
    "न्त्॰ि": 835,
    "न्त्॰ी": 836,
    "न्थ": 837,
    "न्था": 838,
    "न्थे": 839,
    "न्द": 840,
    "न्दा": 841,
    "न्दि": 842,
    "न्दी": 843,
    "न्दु": 844,
    "न्दू": 845,
    "न्दे": 846,
    "न्दो": 847,
    "न्द्द": 848,
    "न्द्यो": 849,
    "न्द्र": 850,
    "न्द्रं": 851,
    "न्द्रा": 852,
    "न्द्री": 853,
    "न्द्र्र": 854,
    "न्द्॰": 855,
    "न्द्॰ी": 856,
    "न्ध": 857,
    "न्धं": 858,
    "न्धा": 859,
    "न्धि": 860,
    "न्धी": 861,
    "न्न": 862,
    "न्नं": 863,
    "न्ना": 864,
    "न्नि": 865,
    "न्नु": 866,
    "न्नुं": 867,
    "न्नू": 868,
    "न्ने": 869,
    "न्ब": 870,
    "न्म": 871,
    "न्मि": 872,
    "न्मु": 873,
    "न्मे": 874,
    "न्मो": 875,
    "न्म्र": 876,
    "न्य": 877,
    "न्या": 878,
    "न्यु": 879,
    "न्यू": 880,
    "न्ये": 881,
    "न्ऱॆ": 882,
    "न्ष": 883,
    "न्स": 884,
    "न्सा": 885,
    "न्सि": 886,
    "न्सी": 887,
    "न्सू": 888,
    "न्से": 889,
    "न्स्": 890,
    "न्स्टि": 891,
    "न्स्टी": 892,
    "न्ह": 893,
    "न्य़": 894,
    "न्‌": 895,
    "न्‍": 896,
    "न॰": 897,
    "न॰ः": 898,
    "ऩ": 899,
    "ऩा": 900,
    "ऩा्क": 901,
    "ऩि": 902,
    "ऩी": 903,
    "ऩु": 904,
    "ऩू": 905,
    "ऩूा्": 906,
    "ऩे": 907,
    "ऩै": 908,
    "ऩ्": 909,
    "ऩ्ऩ": 910,
    "ऩ्ऩि": 911,
    "ऩ्ऩै": 912,
    "ऩ्ऩो": 913,
    "ऩ्प": 914,
    "ऩ्ऱ": 915,
    "ऩ्ऱु": 916,
    "ऩ्ऱॆ": 917,
    "ऩ्सी": 918,
    "प": 919,
    "पं": 920,
    "पा": 921,
    "पाँ": 922,
    "पा्": 923,
    "पा्टि": 924,
    "पि": 925,
    "पिं": 926,
    "पिा": 927,
    "पी": 928,
    "पु": 929,
    "पु॰": 930,
    "पू": 931,
    "पूँ": 932,
    "पूाि": 933,
    "पृ": 934,
    "पॅ": 935,
    "पॆ": 936,
    "पॆं": 937,
    "पे": 938,
    "पें": 939,
    "पेा": 940,
    "पै": 941,
    "पैं": 942,
    "पॊ": 943,
    "पो": 944,
    "पोः": 945,
    "पौ": 946,
    "प्": 947,
    "प्टॆ": 948,
    "प्टें": 949,
    "प्ण": 950,
    "प्त": 951,
    "प्ता": 952,
    "प्ति": 953,
    "प्न": 954,
    "प्प": 955,
    "प्पं": 956,
    "प्पा": 957,
    "प्पि": 958,
    "प्पिं": 959,
    "प्पी": 960,
    "प्पु": 961,
    "प्पू": 962,
    "प्पॆ": 963,
    "प्पे": 964,
    "प्पॊ": 965,
    "प्पो": 966,
    "प्प्": 967,
    "प्प्मू": 968,
    "प्प्‌": 969,
    "प्य": 970,
    "प्या": 971,
    "प्र": 972,
    "प्रा": 973,
    "प्राः": 974,
    "प्रि": 975,
    "प्री": 976,
    "प्रे": 977,
    "प्रै": 978,
    "प्रो": 979,
    "प्रौ": 980,
    "प्ल": 981,
    "प्ला": 982,
    "प्ले": 983,
    "प्लै": 984,
    "प्लॉ": 985,
    "प्ल्या": 986,
    "प्व": 987,
    "प्स्": 988,
    "प्॰": 989,
    "प्॰ा": 990,
    "प्॰ि": 991,
    "प्॰े": 992,
    "प्‍": 993,
    "प॰": 994,
    "पॱ": 995,
    "फ": 996,
    "फ़": 997,
    "फा": 998,
    "फि": 999,
    "फी": 1000,
    "फु": 1001,
    "फॅ": 1002,
    "फॆ": 1003,
    "फे": 1004,
    "फै": 1005,
    "फॉ": 1006,
    "फो": 1007,
    "फ्": 1008,
    "फ्या": 1009,
    "फ्ल": 1010,
    "फ्॰े": 1011,
    "ब": 1012,
    "बँ": 1013,
    "बं": 1014,
    "बा": 1015,
    "बां": 1016,
    "बि": 1017,
    "बिं": 1018,
    "बि॰": 1019,
    "बी": 1020,
    "बु": 1021,
    "बू": 1022,
    "बृ": 1023,
    "बॅ": 1024,
    "बॆ": 1025,
    "बॆं": 1026,
    "बे": 1027,
    "बें": 1028,
    "बै": 1029,
    "बैं": 1030,
    "बॉ": 1031,
    "बॊ": 1032,
    "बो": 1033,
    "बौ": 1034,
    "ब्थ": 1035,
    "ब्द": 1036,
    "ब्दी": 1037,
    "ब्दे": 1038,
    "ब्ध": 1039,
    "ब्ब": 1040,
    "ब्बा": 1041,
    "ब्य": 1042,
    "ब्या": 1043,
    "ब्यां": 1044,
    "ब्यु": 1045,
    "ब्यू": 1046,
    "ब्र": 1047,
    "ब्रा": 1048,
    "ब्रि": 1049,
    "ब्रु": 1050,
    "ब्रू": 1051,
    "ब्रे": 1052,
    "ब्ल": 1053,
    "ब्लु": 1054,
    "ब्लो": 1055,
    "ब्ल्यू": 1056,
    "ब्य़ा": 1057,
    "ब्॰": 1058,
    "ब्॰ु": 1059,
    "ब्‍": 1060,
    "ब॰": 1061,
    "बॱ": 1062,
    "भ": 1063,
    "भं": 1064,
    "भा": 1065,
    "भां": 1066,
    "भि": 1067,
    "भिं": 1068,
    "भी": 1069,
    "भु": 1070,
    "भुॱ": 1071,
    "भू": 1072,
    "भृ": 1073,
    "भे": 1074,
    "भें": 1075,
    "भै": 1076,
    "भो": 1077,
    "भ्या": 1078,
    "भ्यु": 1079,
    "भ्र": 1080,
    "भ॰": 1081,
    "म": 1082,
    "मं": 1083,
    "मः": 1084,
    "मा": 1085,
    "मां": 1086,
    "मि": 1087,
    "मि्त": 1088,
    "मी": 1089,
    "मु": 1090,
    "मुं": 1091,
    "मुॱ": 1092,
    "मू": 1093,
    "मृ": 1094,
    "मॆ": 1095,
    "मॆं": 1096,
    "मे": 1097,
    "में": 1098,
    "मै": 1099,
    "मैं": 1100,
    "मॉ": 1101,
    "मॊ": 1102,
    "मो": 1103,
    "मौ": 1104,
    "म्": 1105,
    "म्A": 1106,
    "म्इ": 1107,
    "म्को": 1108,
    "म्ट": 1109,
    "म्प": 1110,
    "म्पा": 1111,
    "म्पा्": 1112,
    "म्पि": 1113,
    "म्पु": 1114,
    "म्पू": 1115,
    "म्पूा्": 1116,
    "म्पृ": 1117,
    "म्पो": 1118,
    "म्प्": 1119,
    "म्प्यु": 1120,
    "म्प्र": 1121,
    "म्प्लॉ": 1122,
    "म्प्॰": 1123,
    "म्ब": 1124,
    "म्बा": 1125,
    "म्बि": 1126,
    "म्बे": 1127,
    "म्ब्न": 1128,
    "म्भ": 1129,
    "म्भा": 1130,
    "म्भु": 1131,
    "म्म": 1132,
    "म्मा": 1133,
    "म्मि": 1134,
    "म्मे": 1135,
    "म्मै": 1136,
    "म्म्न": 1137,
    "म्य": 1138,
    "म्या": 1139,
    "म्र": 1140,
    "म्रि": 1141,
    "म्श": 1142,
    "म्ह": 1143,
    "म्य़": 1144,
    "म्॰ा": 1145,
    "म्‌": 1146,
    "म॰": 1147,
    "य": 1148,
    "यं": 1149,
    "य़": 1150,
    "य़ा": 1151,
    "य़े": 1152,
    "या": 1153,
    "यां": 1154,
    "याा्": 1155,
    "या्": 1156,
    "यि": 1157,
    "यी": 1158,
    "यु": 1159,
    "युं": 1160,
    "यू": 1161,
    "यूः": 1162,
    "ये": 1163,
    "यें": 1164,
    "यै": 1165,
    "यॊ": 1166,
    "यो": 1167,
    "यों": 1168,
    "यौ": 1169,
    "य्": 1170,
    "य्क्कु": 1171,
    "य्त": 1172,
    "य्न्त": 1173,
    "य्म": 1174,
    "य्मा": 1175,
    "य्मै": 1176,
    "य्य": 1177,
    "य्या्": 1178,
    "य्यु": 1179,
    "य्यो": 1180,
    "य्व": 1181,
    "य्वि": 1182,
    "य्वु": 1183,
    "य्स्री": 1184,
    "य्य़ा": 1185,
    "य्‌": 1186,
    "यॖ": 1187,
    "र": 1188,
    "रं": 1189,
    "रा": 1190,
    "रां": 1191,
    "रा्": 1192,
    "रि": 1193,
    "रिं": 1194,
    "रिा": 1195,
    "रि॰": 1196,
    "री": 1197,
    "रीं": 1198,
    "रीु": 1199,
    "रु": 1200,
    "रुं": 1201,
    "रुॱ": 1202,
    "रु‍": 1203,
    "रू": 1204,
    "रूा्": 1205,
    "रॆ": 1206,
    "रे": 1207,
    "रें": 1208,
    "रै": 1209,
    "रॊ": 1210,
    "रो": 1211,
    "र्": 1212,
    "र्क": 1213,
    "र्का": 1214,
    "र्किं": 1215,
    "र्कॆ": 1216,
    "र्के": 1217,
    "र्ग": 1218,
    "र्गा": 1219,
    "र्गि": 1220,
    "र्गी": 1221,
    "र्गो": 1222,
    "र्च": 1223,
    "र्चा": 1224,
    "र्चि": 1225,
    "र्चु": 1226,
    "र्ज": 1227,
    "र्ज़": 1228,
    "र्जि": 1229,
    "र्जी": 1230,
    "र्जु": 1231,
    "र्ट": 1232,
    "र्टि": 1233,
    "र्टी": 1234,
    "र्ट्": 1235,
    "र्ट्स": 1236,
    "र्ट्स्": 1237,
    "र्ड": 1238,
    "र्डा": 1239,
    "र्डी": 1240,
    "र्ड्": 1241,
    "र्ण": 1242,
    "र्णा": 1243,
    "र्णि": 1244,
    "र्णी": 1245,
    "र्णो": 1246,
    "र्ण्णा": 1247,
    "र्ण्न": 1248,
    "र्त": 1249,
    "र्ति": 1250,
    "र्ती": 1251,
    "र्तु": 1252,
    "र्तू": 1253,
    "र्तृ": 1254,
    "र्ते": 1255,
    "र्थ": 1256,
    "र्थं": 1257,
    "र्था": 1258,
    "र्थि": 1259,
    "र्थी": 1260,
    "र्द": 1261,
    "र्दि": 1262,
    "र्दु": 1263,
    "र्दे": 1264,
    "र्द्द": 1265,
    "र्द्व": 1266,
    "र्ध": 1267,
    "र्न": 1268,
    "र्ना": 1269,
    "र्नी": 1270,
    "र्नू": 1271,
    "र्प": 1272,
    "र्पा": 1273,
    "र्पि": 1274,
    "र्पे": 1275,
    "र्पॊ": 1276,
    "र्पो": 1277,
    "र्ब": 1278,
    "र्बा": 1279,
    "र्बि": 1280,
    "र्बे": 1281,
    "र्ब्ब": 1282,
    "र्भ": 1283,
    "र्भा": 1284,
    "र्भि": 1285,
    "र्भी": 1286,
    "र्म": 1287,
    "र्मा": 1288,
    "र्मि": 1289,
    "र्मु": 1290,
    "र्मे": 1291,
    "र्म्म": 1292,
    "र्य": 1293,
    "र्या": 1294,
    "र्य्य": 1295,
    "र्य्या": 1296,
    "र्य्य़": 1297,
    "र्य्य़ा": 1298,
    "र्र": 1299,
    "र्रा": 1300,
    "र्ल": 1301,
    "र्लु": 1302,
    "र्व": 1303,
    "र्वि": 1304,
    "र्वे": 1305,
    "र्वो": 1306,
    "र्श": 1307,
    "र्शा": 1308,
    "र्शि": 1309,
    "र्ष": 1310,
    "र्षा": 1311,
    "र्षि": 1312,
    "र्स": 1313,
    "र्सि": 1314,
    "र्सी": 1315,
    "र्स्": 1316,
    "र्हि": 1317,
    "र्‍": 1318,
    "रॕ": 1319,
    "र॰": 1320,
    "रॱ": 1321,
    "र‌": 1322,
    "र‍": 1323,
    "ऱ": 1324,
    "ऱं": 1325,
    "ऱा": 1326,
    "ऱि": 1327,
    "ऱिं": 1328,
    "ऱी": 1329,
    "ऱु": 1330,
    "ऱू": 1331,
    "ऱॆ": 1332,
    "ऱे": 1333,
    "ऱै": 1334,
    "ऱो": 1335,
    "ऱ्क": 1336,
    "ऱ्का": 1337,
    "ऱ्कु": 1338,
    "ऱ्कै": 1339,
    "ऱ्चि": 1340,
    "ऱ्प": 1341,
    "ऱ्पू": 1342,
    "ऱ्ऱ": 1343,
    "ऱ्ऱं": 1344,
    "ऱ्ऱा": 1345,
    "ऱ्ऱि": 1346,
    "ऱ्ऱु": 1347,
    "ऱ्ऱे": 1348,
    "ऱ्ऱो": 1349,
    "ऱ्ऱ्": 1350,
    "ऱ्ऱ्यू": 1351,
    "ऱ्ऱ्ऱ्‌": 1352,
    "ल": 1353,
    "लं": 1354,
    "ला": 1355,
    "लां": 1356,
    "ला्क": 1357,
    "लि": 1358,
    "लिं": 1359,
    "ली": 1360,
    "लु": 1361,
    "लुं": 1362,
    "लू": 1363,
    "लूा्": 1364,
    "लॆ": 1365,
    "लॆं": 1366,
    "ले": 1367,
    "लें": 1368,
    "लै": 1369,
    "लॉ": 1370,
    "लो": 1371,
    "लोँ": 1372,
    "लों": 1373,
    "लौ": 1374,
    "ल्": 1375,
    "ल्ऎ": 1376,
    "ल्क": 1377,
    "ल्कि": 1378,
    "ल्की": 1379,
    "ल्कु": 1380,
    "ल्कै": 1381,
    "ल्क्कु": 1382,
    "ल्क्स्": 1383,
    "ल्गू": 1384,
    "ल्ट": 1385,
    "ल्टि": 1386,
    "ल्टे": 1387,
    "ल्ट्": 1388,
    "ल्ट्रा": 1389,
    "ल्ड": 1390,
    "ल्डिं": 1391,
    "ल्डी": 1392,
    "ल्डीं": 1393,
    "ल्ड्": 1394,
    "ल्ड्र": 1395,
    "ल्ड्री": 1396,
    "ल्थ": 1397,
    "ल्द": 1398,
    "ल्दा": 1399,
    "ल्न": 1400,
    "ल्प": 1401,
    "ल्पी": 1402,
    "ल्पु": 1403,
    "ल्पॊ": 1404,
    "ल्भ": 1405,
    "ल्म": 1406,
    "ल्य": 1407,
    "ल्या": 1408,
    "ल्यु": 1409,
    "ल्ये": 1410,
    "ल्ल": 1411,
    "ल्लं": 1412,
    "ल्ला": 1413,
    "ल्ला‍": 1414,
    "ल्लि": 1415,
    "ल्ली": 1416,
    "ल्लु": 1417,
    "ल्लू": 1418,
    "ल्लूाि": 1419,
    "ल्लॆ": 1420,
    "ल्ले": 1421,
    "ल्लै": 1422,
    "ल्ल्": 1423,
    "ल्वि": 1424,
    "ल्वॆ": 1425,
    "ल्वे": 1426,
    "ल्स": 1427,
    "ल्स्": 1428,
    "ल्हा": 1429,
    "ल्हे": 1430,
    "ल्ह्या": 1431,
    "ल्‌": 1432,
    "ल॰": 1433,
    "लॱ": 1434,
    "ल‍": 1435,
    "ळ": 1436,
    "ळं": 1437,
    "ळा": 1438,
    "ळां": 1439,
    "ळा्": 1440,
    "ळि": 1441,
    "ळी": 1442,
    "ळु": 1443,
    "ळुं": 1444,
    "ळू": 1445,
    "ळॆ": 1446,
    "ळे": 1447,
    "ळै": 1448,
    "ळो": 1449,
    "ळ्": 1450,
    "ळ्ट": 1451,
    "ळ्प": 1452,
    "ळ्मि": 1453,
    "ळ्मी": 1454,
    "ळ्या": 1455,
    "ळ्यां": 1456,
    "ळ्ळ": 1457,
    "ळ्ळा": 1458,
    "ळ्ळि": 1459,
    "ळ्ळु": 1460,
    "ळ‍": 1461,
    "ऴ": 1462,
    "ऴा": 1463,
    "ऴि": 1464,
    "ऴु": 1465,
    "ऴेां": 1466,
    "ऴै": 1467,
    "ऴ्": 1468,
    "ऴ्क": 1469,
    "ऴ्चॆ": 1470,
    "ऴ्न": 1471,
    "ऴ्ना": 1472,
    "ऴ्स्": 1473,
    "ऴ्‌": 1474,
    "व": 1475,
    "वं": 1476,
    "वः": 1477,
    "वा": 1478,
    "वां": 1479,
    "वा्": 1480,
    "वि": 1481,
    "विं": 1482,
    "विॱ": 1483,
    "वि‍": 1484,
    "वी": 1485,
    "वीः": 1486,
    "वीा्": 1487,
    "वु": 1488,
    "वुं": 1489,
    "वू": 1490,
    "वृ": 1491,
    "वॅ": 1492,
    "वॆ": 1493,
    "वॆं": 1494,
    "वे": 1495,
    "वें": 1496,
    "वेा्ल्टु": 1497,
    "वै": 1498,
    "वॉ": 1499,
    "वो": 1500,
    "व्": 1501,
    "व्दा": 1502,
    "व्य": 1503,
    "व्या": 1504,
    "व्युं": 1505,
    "व्र": 1506,
    "व्व": 1507,
    "व्वं": 1508,
    "व्वी": 1509,
    "व्वॆं": 1510,
    "व्वे": 1511,
    "व्ह": 1512,
    "व्हि": 1513,
    "व्ही": 1514,
    "व्‌": 1515,
    "व॰": 1516,
    "वॱ": 1517,
    "व‌": 1518,
    "श": 1519,
    "शं": 1520,
    "शा": 1521,
    "शां": 1522,
    "शाः": 1523,
    "शि": 1524,
    "शिं": 1525,
    "शी": 1526,
    "शीू": 1527,
    "शु": 1528,
    "शू": 1529,
    "शे": 1530,
    "शै": 1531,
    "शॉ": 1532,
    "शो": 1533,
    "शौ": 1534,
    "श्": 1535,
    "श्च": 1536,
    "श्चा": 1537,
    "श्चि": 1538,
    "श्ब": 1539,
    "श्बा": 1540,
    "श्म": 1541,
    "श्य": 1542,
    "श्या": 1543,
    "श्र": 1544,
    "श्रा": 1545,
    "श्रि": 1546,
    "श्री": 1547,
    "श्रु": 1548,
    "श्व": 1549,
    "श्वा": 1550,
    "श्वे": 1551,
    "श्श": 1552,
    "श्शि": 1553,
    "श्ष": 1554,
    "श्स": 1555,
    "श्॰": 1556,
    "श्॰ी": 1557,
    "श्॰े": 1558,
    "श्ॱ": 1559,
    "श्‍": 1560,
    "शॗ": 1561,
    "ष": 1562,
    "षं": 1563,
    "षा": 1564,
    "षां": 1565,
    "षि": 1566,
    "षी": 1567,
    "षु": 1568,
    "षू": 1569,
    "षे": 1570,
    "षो": 1571,
    "ष्": 1572,
    "ष्क": 1573,
    "ष्कृ": 1574,
    "ष्ट": 1575,
    "ष्टा": 1576,
    "ष्टि": 1577,
    "ष्टु": 1578,
    "ष्टे": 1579,
    "ष्टो": 1580,
    "ष्ट्र": 1581,
    "ष्ट्रा": 1582,
    "ष्ट्री": 1583,
    "ष्ट्॰": 1584,
    "ष्ट्॰ी": 1585,
    "ष्ठ": 1586,
    "ष्ठा": 1587,
    "ष्ठि": 1588,
    "ष्ण": 1589,
    "ष्णा": 1590,
    "ष्णु": 1591,
    "ष्ना": 1592,
    "ष्पा": 1593,
    "ष्प्रा": 1594,
    "ष्मॆ": 1595,
    "ष्य": 1596,
    "ष्य़": 1597,
    "ष्‌": 1598,
    "ष्‍": 1599,
    "षॢ": 1600,
    "स": 1601,
    "सं": 1602,
    "सः": 1603,
    "स़": 1604,
    "स़ा": 1605,
    "स़ि": 1606,
    "सा": 1607,
    "सां": 1608,
    "सा‍": 1609,
    "सि": 1610,
    "सिं": 1611,
    "सि॰": 1612,
    "सिॱ": 1613,
    "सी": 1614,
    "सीं": 1615,
    "सी्अ॰": 1616,
    "सी‍": 1617,
    "सु": 1618,
    "सुँ": 1619,
    "सुं": 1620,
    "सुॱ": 1621,
    "सू": 1622,
    "सृ": 1623,
    "सृं": 1624,
    "सॅ": 1625,
    "सॆ": 1626,
    "से": 1627,
    "सें": 1628,
    "से‍": 1629,
    "सै": 1630,
    "सैं": 1631,
    "सॊ": 1632,
    "सो": 1633,
    "सोँ": 1634,
    "सौ": 1635,
    "स्": 1636,
    "स्क": 1637,
    "स्का": 1638,
    "स्कु": 1639,
    "स्कू": 1640,
    "स्कृ": 1641,
    "स्क्का": 1642,
    "स्क्रि": 1643,
    "स्जि": 1644,
    "स्ट": 1645,
    "स्टा": 1646,
    "स्टि": 1647,
    "स्टु": 1648,
    "स्टॆ": 1649,
    "स्टे": 1650,
    "स्टॉ": 1651,
    "स्टो": 1652,
    "स्टोा्स्": 1653,
    "स्ट्": 1654,
    "स्ट्री": 1655,
    "स्ठ": 1656,
    "स्ड": 1657,
    "स्त": 1658,
    "स्तं": 1659,
    "स्ता": 1660,
    "स्ति": 1661,
    "स्तु": 1662,
    "स्तू": 1663,
    "स्ते": 1664,
    "स्तो": 1665,
    "स्त्या": 1666,
    "स्त्र": 1667,
    "स्त्रा": 1668,
    "स्त्रि": 1669,
    "स्थ": 1670,
    "स्था": 1671,
    "स्थि": 1672,
    "स्थू": 1673,
    "स्थॆ": 1674,
    "स्थ्य": 1675,
    "स्दु": 1676,
    "स्ध": 1677,
    "स्धा": 1678,
    "स्धॆ": 1679,
    "स्ने": 1680,
    "स्प": 1681,
    "स्पा": 1682,
    "स्पि": 1683,
    "स्पृ": 1684,
    "स्पॆ": 1685,
    "स्पे": 1686,
    "स्ब": 1687,
    "स्बा": 1688,
    "स्भा": 1689,
    "स्म": 1690,
    "स्मा": 1691,
    "स्मृ": 1692,
    "स्मे": 1693,
    "स्य": 1694,
    "स्या": 1695,
    "स्र": 1696,
    "स्ऱी": 1697,
    "स्रा": 1698,
    "स्री": 1699,
    "स्रो": 1700,
    "स्ऱ्ऱ": 1701,
    "स्ऱ्ऱा": 1702,
    "स्ऱ्ऱि": 1703,
    "स्ऱ्ऱु": 1704,
    "स्ऱ्ऱे": 1705,
    "स्ऱ्ऱै": 1706,
    "स्ऱ्ऱ्": 1707,
    "स्लि": 1708,
    "स्लॊ": 1709,
    "स्व": 1710,
    "स्वं": 1711,
    "स्वा": 1712,
    "स्वी": 1713,
    "स्वे": 1714,
    "स्सा": 1715,
    "स्सि": 1716,
    "स्सु": 1717,
    "स्से": 1718,
    "स्स्‌": 1719,
    "स्ह": 1720,
    "स्॰": 1721,
    "स्॰ा": 1722,
    "स्ॱ": 1723,
    "स्‌": 1724,
    "स्‍": 1725,
    "सॗ": 1726,
    "स॰": 1727,
    "सॱ": 1728,
    "ह": 1729,
    "हं": 1730,
    "हः": 1731,
    "हा": 1732,
    "हाँ": 1733,
    "हां": 1734,
    "हा‍": 1735,
    "हि": 1736,
    "हिँ": 1737,
    "हिं": 1738,
    "हिः": 1739,
    "हि॰": 1740,
    "हिॱ": 1741,
    "ही": 1742,
    "हीं": 1743,
    "हु": 1744,
    "हुं": 1745,
    "हु॰": 1746,
    "हू": 1747,
    "हृ": 1748,
    "हॆ": 1749,
    "हे": 1750,
    "है": 1751,
    "हैं": 1752,
    "हैा": 1753,
    "हैे": 1754,
    "हॉ": 1755,
    "हॊ": 1756,
    "हो": 1757,
    "हौ": 1758,
    "ह्": 1759,
    "ह्दि": 1760,
    "ह्न": 1761,
    "ह्ने": 1762,
    "ह्म": 1763,
    "ह्मां": 1764,
    "ह्मि": 1765,
    "ह्य": 1766,
    "ह्या": 1767,
    "ह्ये": 1768,
    "ां": 1769,
    "े": 1770,
    "ॎ": 1771,
    "ॐ": 1772,
    "ख़ु": 1773,
    "ज़ो": 1774,
    "ज़॰": 1775,
    "ड़": 1776,
    "ड़ा": 1777,
    "ड़ि": 1778,
    "ड़ी": 1779,
    "ड़े": 1780,
    "ड़ो": 1781,
    "ड़्ह": 1782,
    "ढ़ि": 1783,
    "ढ़ी": 1784,
    "ढ़ो": 1785,
    "फ़": 1786,
    "फ़्ट": 1787,
    "फ़्दु": 1788,
    "य़": 1789,
    "य़ं": 1790,
    "य़ः": 1791,
    "य़़": 1792,
    "य़ा": 1793,
    "य़ां": 1794,
    "य़ि": 1795,
    "य़ी": 1796,
    "य़ु": 1797,
    "य़े": 1798,
    "य़ो": 1799,
    "य़ौ": 1800,
    "य़्या": 1801,
    "य़ॗ": 1802,
    "ॠ": 1803,
    "।": 1804,
    "।‍": 1805,
    "॥": 1806,
    "०": 1807,
    "१": 1808,
    "१ः": 1809,
    "१्को": 1810,
    "१‌": 1811,
    "२": 1812,
    "२़": 1813,
    "२ा": 1814,
    "३": 1815,
    "४": 1816,
    "५": 1817,
    "६": 1818,
    "६ः": 1819,
    "७": 1820,
    "८": 1821,
    "८े": 1822,
    "९": 1823,
    "॰": 1824,
    "॰ा": 1825,
    "॰ि": 1826,
    "॰िः": 1827,
    "॰ी": 1828,
    "॰ु": 1829,
    "॰ू": 1830,
    "॰े": 1831,
    "॰ो": 1832,
    "॰्थ": 1833,
    "॰्प": 1834,
    "॰्ब": 1835,
    "॰्ब्ब": 1836,
    "॰्म": 1837,
    "॰्मा": 1838,
    "॰्म्म": 1839,
    "॰्य": 1840,
    "॰्य्य": 1841,
    "॰्य्या": 1842,
    "॰्ष": 1843,
    "ॱ": 1844,
    "ॱा": 1845,
    "ॱि": 1846,
    "ॱे": 1847,
    "ॱो": 1848,
    "ॳ": 1849,
    "ॳे": 1850,
    "ॷ": 1851,
    "ॹ": 1852,
    "ॺ": 1853,
    "ॺ‌": 1854,
    "ॻ": 1855,
    "ॻॆ": 1856,
    "ॻ्ऱ": 1857,
    "ॻ्ऱॆ": 1858,
    "ॻ्ऱ्": 1859,
    "ॻ्ऱ्स्": 1860,
    "ॻ‌": 1861,
    "ॻ‌‌": 1862,
    "ॻ‍": 1863,
    "ॼ": 1864,
    "ॼ‌": 1865,
    "ॼ‍‍": 1866,
    "ॽ": 1867,
    "ॽ‌": 1868,
    "ॽ‍": 1869,
    "ॾ": 1870,
    "​": 1871,
    "↑": 1872
  },
  "metadata": {
    "tag": "zs_loso_rungB_bengali",
    "num_graphemes": 1871,
    "space": "shared-abugida-pivot"
  }
}