{
  "grapheme2idx": {
    "<blank>": 0,
    "<unk>": 1,
    "!": 2,
    "\"": 3,
    "'": 4,
    "(": 5,
    ")": 6,
    ",": 7,
    "-": 8,
    ".": 9,
    "/": 10,
    "0": 11,
    "1": 12,
    "2": 13,
    "3": 14,
    "4": 15,
    "5": 16,
    "6": 17,
    "7": 18,
    "8": 19,
    "9": 20,
    ":": 21,
    "?": 22,
    "I": 23,
    "d": 24,
    "r": 25,
    "|": 26,
    "इ": 27,
    "ढੁੰ": 28,
    "ते": 29,
    "द": 30,
    "दਿ": 31,
    "दੈ": 32,
    "।": 33,
    "॥": 34,
    "४": 35,
    "६": 36,
    "অ": 37,
    "ত": 38,
    "ন্য": 39,
    "ম": 40,
    "ਅ": 41,
    "ਅਂ": 42,
    "ਅੇ": 43,
    "ਅੋ": 44,
    "ਅੰ": 45,
    "ਅੱ": 46,
    "ਆ": 47,
    "ਆं": 48,
    "ਆਂ": 49,
    "ਆੇ": 50,
    "ਇ": 51,
    "ਇं": 52,
    "ਇਂ": 53,
    "ਇਾ": 54,
    "ਇੰ": 55,
    "ਇੱ": 56,
    "ਈ": 57,
    "ਈਂ": 58,
    "ਈਾ": 59,
    "ਉ": 60,
    "ਉਂ": 61,
    "ਉਾ": 62,
    "ਉੁ": 63,
    "ਉੱ": 64,
    "ਊ": 65,
    "ਊਂ": 66,
    "ਏ": 67,
    "ਏੇ": 68,
    "ਐ": 69,
    "ਐਂ": 70,
    "ਐੇ": 71,
    "ਐੈ": 72,
    "ਐੱ": 73,
    "ਓ": 74,
    "ਓਂ": 75,
    "ਓ਼": 76,
    "ਓੁ": 77,
    "ਓੇ": 78,
    "ਔ": 79,
    "ਕ": 80,
    "ਕे": 81,
    "ਕਂ": 82,
    "ਕ਼ਾ": 83,
    "ਕਾ": 84,
    "ਕਾਂ": 85,
    "ਕਿ": 86,
    "ਕਿू": 87,
    "ਕਿੰ": 88,
    "ਕਿੱ": 89,
    "ਕੀ": 90,
    "ਕੁ": 91,
    "ਕੁੰ": 92,
    "ਕੁੱ": 93,
    "ਕੂ": 94,
    "ਕੂੂ": 95,
    "ਕੇ": 96,
    "ਕੇਂ": 97,
    "ਕੇਃ": 98,
    "ਕੇੇ": 99,
    "ਕੈ": 100,
    "ਕੈਂ": 101,
    "ਕੋ": 102,
    "ਕੋਂ": 103,
    "ਕੌ": 104,
    "ਕੌਂ": 105,
    "ਕ੍ਰ": 106,
    "ਕ੍ਰਾ": 107,
    "ਕ੍ਰਿ": 108,
    "ਕ੍ਰੂ": 109,
    "ਕੰ": 110,
    "ਕੱ": 111,
    "ਖ": 112,
    "ਖु": 113,
    "ਖे": 114,
    "ਖ਼": 115,
    "ਖ਼ੁ": 116,
    "ਖਾ": 117,
    "ਖਾਂ": 118,
    "ਖਿ": 119,
    "ਖਿਾ": 120,
    "ਖੀ": 121,
    "ਖੁ": 122,
    "ਖੂ": 123,
    "ਖੂੰ": 124,
    "ਖੇ": 125,
    "ਖੇਾ": 126,
    "ਖੈ": 127,
    "ਖੋ": 128,
    "ਖੰ": 129,
    "ਖੱ": 130,
    "ਗ": 131,
    "ਗु": 132,
    "ਗ਼": 133,
    "ਗ਼ਿ": 134,
    "ਗਾ": 135,
    "ਗਾू": 136,
    "ਗਾਂ": 137,
    "ਗਾੇ": 138,
    "ਗਿ": 139,
    "ਗਿੰ": 140,
    "ਗਿੱ": 141,
    "ਗੀ": 142,
    "ਗੁ": 143,
    "ਗੁਃ": 144,
    "ਗੂ": 145,
    "ਗੂੰ": 146,
    "ਗੇ": 147,
    "ਗੇਾ": 148,
    "ਗੈ": 149,
    "ਗੋ": 150,
    "ਗੋਂ": 151,
    "ਗੋੋ": 152,
    "ਗ੍ਈ": 153,
    "ਗ੍ਰ": 154,
    "ਗ੍ਰਾ": 155,
    "ਗ੍ਰਾਂ": 156,
    "ਗ੍ਰੇ": 157,
    "ਗ੍ਰੰ": 158,
    "ਗ੍ਹੱ": 159,
    "ਗ੍ੰ": 160,
    "ਗੰ": 161,
    "ਗੱ": 162,
    "ਘ": 163,
    "ਘਾ": 164,
    "ਘਾਂ": 165,
    "ਘਿ": 166,
    "ਘੀ": 167,
    "ਘੇ": 168,
    "ਘੋ": 169,
    "ਘੰ": 170,
    "ਘੱ": 171,
    "ਙ": 172,
    "ਚ": 173,
    "ਚਂ": 174,
    "ਚਾ": 175,
    "ਚਿ": 176,
    "ਚਿਂ": 177,
    "ਚੀ": 178,
    "ਚੁ": 179,
    "ਚੁਾ": 180,
    "ਚੁੇ": 181,
    "ਚੁੱ": 182,
    "ਚੂ": 183,
    "ਚੇ": 184,
    "ਚੇਂ": 185,
    "ਚੈ": 186,
    "ਚੈਂ": 187,
    "ਚੈੱ": 188,
    "ਚੋ": 189,
    "ਚੋਂ": 190,
    "ਚੌ": 191,
    "ਚੌਂ": 192,
    "ਚ੍": 193,
    "ਚੑ": 194,
    "ਚੰ": 195,
    "ਚੱ": 196,
    "ਛ": 197,
    "ਛਾ": 198,
    "ਛਿ": 199,
    "ਛਿੰ": 200,
    "ਛੀ": 201,
    "ਛੁ": 202,
    "ਛੁੱ": 203,
    "ਛੂ": 204,
    "ਛੇ": 205,
    "ਛੋ": 206,
    "ਛੰ": 207,
    "ਜ": 208,
    "ਜे": 209,
    "ਜ਼": 210,
    "ਜ਼ਾ": 211,
    "ਜ਼ਿ": 212,
    "ਜ਼ੀ": 213,
    "ਜ਼ੰ": 214,
    "ਜਾ": 215,
    "ਜਾਂ": 216,
    "ਜਾੇ": 217,
    "ਜਾੰ": 218,
    "ਜਿ": 219,
    "ਜਿਃ": 220,
    "ਜਿਾ": 221,
    "ਜਿੰ": 222,
    "ਜਿੱ": 223,
    "ਜੀ": 224,
    "ਜੀਾ": 225,
    "ਜੁ": 226,
    "ਜੁੱ": 227,
    "ਜੂ": 228,
    "ਜੇ": 229,
    "ਜੇਂ": 230,
    "ਜੈ": 231,
    "ਜੈਂ": 232,
    "ਜੋ": 233,
    "ਜੋੋ": 234,
    "ਜੰ": 235,
    "ਜੱ": 236,
    "ਝ": 237,
    "ਝਾ": 238,
    "ਝੁ": 239,
    "ਝੇ": 240,
    "ਝੈ": 241,
    "ਝੋ": 242,
    "ਝੰ": 243,
    "ਟ": 244,
    "ਟਾ": 245,
    "ਟਾਂ": 246,
    "ਟਾੇ": 247,
    "ਟਿ": 248,
    "ਟਿਾ": 249,
    "ਟਿੱ": 250,
    "ਟੀ": 251,
    "ਟੁ": 252,
    "ਟੂ": 253,
    "ਟੇ": 254,
    "ਟੇ੍ਨਿ": 255,
    "ਟੇ੍ਸ਼": 256,
    "ਟੈ": 257,
    "ਟੈਂ": 258,
    "ਟੋ": 259,
    "ਟੌ": 260,
    "ਟ੍ਡ": 261,
    "ਟ੍ਰਾ": 262,
    "ਟ੍ਰਿ": 263,
    "ਟ੍ਰੈ": 264,
    "ਟੱ": 265,
    "ਠ": 266,
    "ਠਾ": 267,
    "ਠਾਂ": 268,
    "ਠਿ": 269,
    "ਠਿੰ": 270,
    "ਠੀ": 271,
    "ਠੂੰ": 272,
    "ਠੇ": 273,
    "ਠੰ": 274,
    "ਡ": 275,
    "ਡे": 276,
    "ਡ਼ੀ": 277,
    "ਡਾ": 278,
    "ਡਾਂ": 279,
    "ਡਿ": 280,
    "ਡਿੰ": 281,
    "ਡੀ": 282,
    "ਡੂ": 283,
    "ਡੇ": 284,
    "ਡੇਂ": 285,
    "ਡੈ": 286,
    "ਡੈਂ": 287,
    "ਡੋ": 288,
    "ਡ੍ਹਾ": 289,
    "ਡੱ": 290,
    "ਢਾ": 291,
    "ਢਿ": 292,
    "ਢੀ": 293,
    "ਢੀਂ": 294,
    "ਢੇ": 295,
    "ਢੰ": 296,
    "ਣ": 297,
    "ਣਾ": 298,
    "ਣਿ": 299,
    "ਣੀ": 300,
    "ਣੀਂ": 301,
    "ਣੁ": 302,
    "ਣੇ": 303,
    "ਣੇਂ": 304,
    "ਣੈ": 305,
    "ਣੈਂ": 306,
    "ਣੋ": 307,
    "ਣੋਂ": 308,
    "ਣੌ": 309,
    "ਤ": 310,
    "ਤू": 311,
    "ਤਂ": 312,
    "ਤਾ": 313,
    "ਤਾਂ": 314,
    "ਤਾੰ": 315,
    "ਤਿ": 316,
    "ਤਿਾ": 317,
    "ਤਿੰ": 318,
    "ਤੀ": 319,
    "ਤੀਃ": 320,
    "ਤੁ": 321,
    "ਤੂ": 322,
    "ਤੂੰ": 323,
    "ਤੇ": 324,
    "ਤੇਂ": 325,
    "ਤੈ": 326,
    "ਤੋ": 327,
    "ਤੋਂ": 328,
    "ਤੌ": 329,
    "ਤ੍ਭੈ": 330,
    "ਤ੍ਰ": 331,
    "ਤੰ": 332,
    "ਤੱ": 333,
    "ਥ": 334,
    "ਥों": 335,
    "ਥਾ": 336,
    "ਥਾਂ": 337,
    "ਥਿ": 338,
    "ਥਿੰ": 339,
    "ਥੀ": 340,
    "ਥੁ": 341,
    "ਥੁੰ": 342,
    "ਥੂ": 343,
    "ਥੇ": 344,
    "ਥੇਂ": 345,
    "ਥੇਾ": 346,
    "ਥੈ": 347,
    "ਥੋ": 348,
    "ਥੋਂ": 349,
    "ਥੰ": 350,
    "ਥੱ": 351,
    "ਦ": 352,
    "ਦू": 353,
    "ਦਾ": 354,
    "ਦਾਂ": 355,
    "ਦਾਾ": 356,
    "ਦਿ": 357,
    "ਦਿੰ": 358,
    "ਦਿੱ": 359,
    "ਦੀ": 360,
    "ਦੀ੍": 361,
    "ਦੁ": 362,
    "ਦੁੰ": 363,
    "ਦੁੱ": 364,
    "ਦੂ": 365,
    "ਦੂੈ": 366,
    "ਦੇ": 367,
    "ਦੇਂ": 368,
    "ਦੈ": 369,
    "ਦੈਂ": 370,
    "ਦੋ": 371,
    "ਦ੍ਰ": 372,
    "ਦੰ": 373,
    "ਦੱ": 374,
    "ਧ": 375,
    "ਧु": 376,
    "ਧਂ": 377,
    "ਧਾ": 378,
    "ਧਾਂ": 379,
    "ਧਿ": 380,
    "ਧੀ": 381,
    "ਧੁ": 382,
    "ਧੂ": 383,
    "ਧੇ": 384,
    "ਧੋ": 385,
    "ਧੌ": 386,
    "ਧੰ": 387,
    "ਨ": 388,
    "ਨਂ": 389,
    "ਨਃ": 390,
    "ਨ਼": 391,
    "ਨਾ": 392,
    "ਨਾਂ": 393,
    "ਨਾਾ": 394,
    "ਨਾੁਂ": 395,
    "ਨਿ": 396,
    "ਨਿਁ": 397,
    "ਨਿੰ": 398,
    "ਨੀ": 399,
    "ਨੀਂ": 400,
    "ਨੀਃ": 401,
    "ਨੀਾ": 402,
    "ਨੁ": 403,
    "ਨੁਾ": 404,
    "ਨੁੰ": 405,
    "ਨੁੱ": 406,
    "ਨੂ": 407,
    "ਨੂੰ": 408,
    "ਨੂੱ": 409,
    "ਨੇ": 410,
    "ਨੇਂ": 411,
    "ਨੈ": 412,
    "ਨੈਂ": 413,
    "ਨੋ": 414,
    "ਨੌ": 415,
    "ਨ੍ਸਿੰ": 416,
    "ਨ੍ਹਾ": 417,
    "ਨ੍ਹਾਂ": 418,
    "ਨੰ": 419,
    "ਨੰः": 420,
    "ਨੰਃ": 421,
    "ਨੱ": 422,
    "ਪ": 423,
    "ਪु": 424,
    "ਪूਾ": 425,
    "ਪਾ": 426,
    "ਪਾਂ": 427,
    "ਪਿ": 428,
    "ਪਿਂ": 429,
    "ਪਿੁ": 430,
    "ਪਿ੍ਥ": 431,
    "ਪਿੰ": 432,
    "ਪਿੱ": 433,
    "ਪੀ": 434,
    "ਪੀ਼": 435,
    "ਪੀ੍ਤ": 436,
    "ਪੁ": 437,
    "ਪੁੰ": 438,
    "ਪੁੰਃ": 439,
    "ਪੁੱ": 440,
    "ਪੂ": 441,
    "ਪੇ": 442,
    "ਪੇਂ": 443,
    "ਪੈ": 444,
    "ਪੈਂ": 445,
    "ਪੈੁ": 446,
    "ਪੋ": 447,
    "ਪੋ੍ਜੈ": 448,
    "ਪੌ": 449,
    "ਪ੍ਮਾ": 450,
    "ਪ੍ਰ": 451,
    "ਪ੍ਰਾ": 452,
    "ਪ੍ਰਿ": 453,
    "ਪ੍ਰਿੰ": 454,
    "ਪ੍ਰੀ": 455,
    "ਪ੍ਰੀਿ": 456,
    "ਪ੍ਰੇ": 457,
    "ਪ੍ਰੇਂ": 458,
    "ਪ੍ਰੈ": 459,
    "ਪ੍ਰੋ": 460,
    "ਪ੍ਰੰ": 461,
    "ਪ੍ਸਾ": 462,
    "ਪੑ": 463,
    "ਪੰ": 464,
    "ਪੱ": 465,
    "ਫ": 466,
    "ਫूੀ": 467,
    "ਫ਼": 468,
    "ਫ਼ਾ": 469,
    "ਫ਼ੀ": 470,
    "ਫਾ": 471,
    "ਫਾਂ": 472,
    "ਫਿ": 473,
    "ਫੀ": 474,
    "ਫੁ": 475,
    "ਫੁੱ": 476,
    "ਫੂ": 477,
    "ਫੇ": 478,
    "ਫੈ": 479,
    "ਫੈਂ": 480,
    "ਫੋ": 481,
    "ਫੌ": 482,
    "ਫ੍ਰੀ": 483,
    "ਫੰ": 484,
    "ਫੱ": 485,
    "ਬ": 486,
    "ਬਂ": 487,
    "ਬਃ": 488,
    "ਬਾ": 489,
    "ਬਾਂ": 490,
    "ਬਿ": 491,
    "ਬਿੑ": 492,
    "ਬਿੰ": 493,
    "ਬੀ": 494,
    "ਬੁ": 495,
    "ਬੁੱ": 496,
    "ਬੂ": 497,
    "ਬੂੰ": 498,
    "ਬੂੱ": 499,
    "ਬੇ": 500,
    "ਬੇੂ": 501,
    "ਬੇ੍ਰੀ": 502,
    "ਬੈ": 503,
    "ਬੈं": 504,
    "ਬੈਂ": 505,
    "ਬੈਂਂ": 506,
    "ਬੋ": 507,
    "ਬੋ੍ਮ": 508,
    "ਬ੍ਰ": 509,
    "ਬ੍ਰਾ": 510,
    "ਬ੍ਰਾਂ": 511,
    "ਬ੍ਰਿ": 512,
    "ਬ੍ਰੇ": 513,
    "ਬ੍ਲੀ": 514,
    "ਬੰ": 515,
    "ਬੱ": 516,
    "ਭ": 517,
    "ਭਂ": 518,
    "ਭਾ": 519,
    "ਭਾਂ": 520,
    "ਭਾ੍ਤਾ": 521,
    "ਭਿ": 522,
    "ਭਿੰ": 523,
    "ਭੀ": 524,
    "ਭੁ": 525,
    "ਭੁਾ": 526,
    "ਭੁੱ": 527,
    "ਭੂ": 528,
    "ਭੂੰ": 529,
    "ਭੇ": 530,
    "ਭੇਂ": 531,
    "ਭੈ": 532,
    "ਭੋ": 533,
    "ਭੰ": 534,
    "ਭੱ": 535,
    "ਮ": 536,
    "ਮु": 537,
    "ਮਁ": 538,
    "ਮਂ": 539,
    "ਮਾ": 540,
    "ਮਾਂ": 541,
    "ਮਾਾ": 542,
    "ਮਿ": 543,
    "ਮਿं": 544,
    "ਮਿਂ": 545,
    "ਮਿ੍ਤ": 546,
    "ਮਿੑ": 547,
    "ਮਿੰ": 548,
    "ਮਿੱ": 549,
    "ਮੀ": 550,
    "ਮੁ": 551,
    "ਮੁੰ": 552,
    "ਮੁੱ": 553,
    "ਮੂ": 554,
    "ਮੂੱ": 555,
    "ਮੇ": 556,
    "ਮੇਂ": 557,
    "ਮੈ": 558,
    "ਮੈਂ": 559,
    "ਮੈਾ": 560,
    "ਮੈਾਾ": 561,
    "ਮੋ": 562,
    "ਮੋਃ": 563,
    "ਮੋੋ": 564,
    "ਮੌ": 565,
    "ਮ੍ਦਿ": 566,
    "ਮ੍ਰਿ": 567,
    "ਮ੍ਰੂ": 568,
    "ਮੰ": 569,
    "ਮੱ": 570,
    "ਯ": 571,
    "ਯਾ": 572,
    "ਯਾਂ": 573,
    "ਯਾੱ": 574,
    "ਯੁ": 575,
    "ਯੁੱ": 576,
    "ਯੂ": 577,
    "ਯੂਃ": 578,
    "ਯੇ": 579,
    "ਯੇਂ": 580,
    "ਯੈ": 581,
    "ਯੋ": 582,
    "ਯੱ": 583,
    "ਰ": 584,
    "ਰਂ": 585,
    "ਰਃ": 586,
    "ਰਾ": 587,
    "ਰਾਂ": 588,
    "ਰਾਾ": 589,
    "ਰਿ": 590,
    "ਰਿਂ": 591,
    "ਰਿਾ": 592,
    "ਰਿੰ": 593,
    "ਰੀ": 594,
    "ਰੀਂ": 595,
    "ਰੀੁ": 596,
    "ਰੁ": 597,
    "ਰੁੱ": 598,
    "ਰੂ": 599,
    "ਰੂੰ": 600,
    "ਰੇ": 601,
    "ਰੇਾਾ": 602,
    "ਰੇਿ": 603,
    "ਰੇੇੂ": 604,
    "ਰੈ": 605,
    "ਰੈਂ": 606,
    "ਰੋ": 607,
    "ਰੋਂ": 608,
    "ਰੌ": 609,
    "ਰ੍ਵ": 610,
    "ਰ੍ਹਾਂ": 611,
    "ਰੰ": 612,
    "ਰੱ": 613,
    "ਲ": 614,
    "ਲें": 615,
    "ਲਾ": 616,
    "ਲਾਂ": 617,
    "ਲਾੇ": 618,
    "ਲਿ": 619,
    "ਲਿਂ": 620,
    "ਲਿਾ": 621,
    "ਲਿੰ": 622,
    "ਲੀ": 623,
    "ਲੁ": 624,
    "ਲੁਾ": 625,
    "ਲੂ": 626,
    "ਲੇ": 627,
    "ਲੇਂ": 628,
    "ਲੇਾ": 629,
    "ਲੇੁ": 630,
    "ਲੇ੍": 631,
    "ਲੈ": 632,
    "ਲੈਂ": 633,
    "ਲੋ": 634,
    "ਲੋਂ": 635,
    "ਲ੍ਜ": 636,
    "ਲ੍ਹਾ": 637,
    "ਲੰ": 638,
    "ਲੱ": 639,
    "ਲ‍": 640,
    "ਲ਼": 641,
    "ਲ਼ੱ": 642,
    "ਵ": 643,
    "ਵਃ": 644,
    "ਵਾ": 645,
    "ਵਾਂ": 646,
    "ਵਿ": 647,
    "ਵਿਂ": 648,
    "ਵਿੰ": 649,
    "ਵਿੱ": 650,
    "ਵੀ": 651,
    "ਵੀਂ": 652,
    "ਵੀ੍": 653,
    "ਵੁ": 654,
    "ਵੂ": 655,
    "ਵੇ": 656,
    "ਵੇਂ": 657,
    "ਵੈ": 658,
    "ਵੋ": 659,
    "ਵੌ": 660,
    "ਵੰ": 661,
    "ਵੱ": 662,
    "ਸ਼": 663,
    "ਸ਼ूੀ": 664,
    "ਸ਼ਾ": 665,
    "ਸ਼ਾਂ": 666,
    "ਸ਼ਿ": 667,
    "ਸ਼ੀ": 668,
    "ਸ਼ੀू": 669,
    "ਸ਼ੀੁ": 670,
    "ਸ਼ੁ": 671,
    "ਸ਼ੂ": 672,
    "ਸ਼ੇ": 673,
    "ਸ਼ੈ": 674,
    "ਸ਼ੋੁ": 675,
    "ਸ਼ੌ": 676,
    "ਸ਼੍ਰੀ": 677,
    "ਸ਼੍ਰੋ": 678,
    "ਸ": 679,
    "ਸी": 680,
    "ਸूੀ": 681,
    "ਸे": 682,
    "ਸਂ": 683,
    "ਸਃ": 684,
    "ਸ਼": 685,
    "ਸ਼ਾ": 686,
    "ਸ਼ਾਂ": 687,
    "ਸ਼ਿ": 688,
    "ਸ਼ੀ": 689,
    "ਸ਼ੁ": 690,
    "ਸ਼ੇ": 691,
    "ਸ਼੍ਰੀ": 692,
    "ਸ਼੍ਰੋ": 693,
    "ਸ਼ੱ": 694,
    "ਸਾ": 695,
    "ਸਾਂ": 696,
    "ਸਿ": 697,
    "ਸਿਂ": 698,
    "ਸਿੰ": 699,
    "ਸਿੱ": 700,
    "ਸੀ": 701,
    "ਸੀਂ": 702,
    "ਸੀ੍": 703,
    "ਸੀ੍ਅੰ": 704,
    "ਸੀ੍ਦ੍ਬ੍ਸਾ": 705,
    "ਸੁ": 706,
    "ਸੁਃ": 707,
    "ਸੁੰ": 708,
    "ਸੁੱ": 709,
    "ਸੂ": 710,
    "ਸੇ": 711,
    "ਸੇਂ": 712,
    "ਸੇੇ": 713,
    "ਸੈ": 714,
    "ਸੈਂ": 715,
    "ਸੋ": 716,
    "ਸੋਂ": 717,
    "ਸੌ": 718,
    "ਸ੍ਮੇ": 719,
    "ਸ੍ਰ": 720,
    "ਸ੍ਰ਼ੀ": 721,
    "ਸ੍ਰੀ": 722,
    "ਸ੍ਰੋ": 723,
    "ਸ੍ਹਾ": 724,
    "ਸੑੀ": 725,
    "ਸੰ": 726,
    "ਸੱ": 727,
    "ਸ‍‍ूੀ": 728,
    "ਹ": 729,
    "ਹूਾ": 730,
    "ਹਂ": 731,
    "ਹਾ": 732,
    "ਹਾਂ": 733,
    "ਹਾੇ": 734,
    "ਹਾੈ": 735,
    "ਹਿ": 736,
    "ਹਿਾ": 737,
    "ਹਿੰ": 738,
    "ਹਿੱ": 739,
    "ਹੀ": 740,
    "ਹੀਂ": 741,
    "ਹੀਾ": 742,
    "ਹੁ": 743,
    "ਹੁਾ": 744,
    "ਹੁੇ": 745,
    "ਹੁੰ": 746,
    "ਹੁੱ": 747,
    "ਹੂ": 748,
    "ਹੂੂ": 749,
    "ਹੂੰ": 750,
    "ਹੇ": 751,
    "ਹੇਾ": 752,
    "ਹੈ": 753,
    "ਹੈਂ": 754,
    "ਹੋ": 755,
    "ਹੋਂ": 756,
    "ਹੌ": 757,
    "ਹੰ": 758,
    "ਹੱ": 759,
    "ਖ਼": 760,
    "ਖ਼ਾ": 761,
    "ਖ਼ੁ": 762,
    "ਖ਼ੁੰ": 763,
    "ਗ਼": 764,
    "ਗ਼ੁ": 765,
    "ਜ਼": 766,
    "ਜ਼ਾ": 767,
    "ਜ਼ਿ": 768,
    "ਜ਼ਿੰ": 769,
    "ਜ਼ੀ": 770,
    "ਜ਼ੂ": 771,
    "ਜ਼ੋ": 772,
    "ਜ਼ੰ": 773,
    "ੜ": 774,
    "ੜਂ": 775,
    "ੜ਼": 776,
    "ੜਾ": 777,
    "ੜਾਂ": 778,
    "ੜਿ": 779,
    "ੜਿੰ": 780,
    "ੜੀ": 781,
    "ੜੇ": 782,
    "ੜੈ": 783,
    "ੜੋ": 784,
    "ੜੋੁ": 785,
    "ੜੌ": 786,
    "ੜ੍": 787,
    "ੜ੍ਰ": 788,
    "ੜ੍ਹ": 789,
    "ੜ੍ਹਾ": 790,
    "ੜ੍ਹੀ": 791,
    "ੜ੍ਹੇ": 792,
    "ੜ੍ਹੈ": 793,
    "ੜ੍ਹੋ": 794,
    "ੜੱ": 795,
    "ਫ਼": 796,
    "ਫ਼ਾ": 797,
    "ਫ਼ਿ": 798,
    "ਫ਼ੈ": 799,
    "੦": 800,
    "੧": 801,
    "੨": 802,
    "੩": 803,
    "੪": 804,
    "੫": 805,
    "੫ु": 806,
    "੫ਾ": 807,
    "੫ਿੰ": 808,
    "੫ੁ": 809,
    "੫ੁੱ": 810,
    "੬": 811,
    "੭": 812,
    "੮": 813,
    "੯": 814,
    "ੲ": 815,
    "ੲਾ": 816,
    "ੲੈ": 817,
    "ੲੋ": 818,
    "ੳ": 819,
    "ੳੇ": 820,
    "ੴ": 821,
    "ੴ੍ਵ": 822
  },
  "metadata": {
    "lang": "punjabi",
    "source_splits": "florence2_splits_synth_punjabi_full.json",
    "num_graphemes": 821,
    "segmenter": "indic-generic (Mn/Mc + virama-join)"
  }
}