{
  "grapheme2idx": {
    "<blank>": 0,
    "<unk>": 1,
    " ‌": 2,
    "!": 3,
    "%": 4,
    "&": 5,
    "'": 6,
    "(": 7,
    ")": 8,
    "+": 9,
    ",": 10,
    "-": 11,
    ".": 12,
    "/": 13,
    "0": 14,
    "1": 15,
    "2": 16,
    "3": 17,
    "3ः": 18,
    "4": 19,
    "5": 20,
    "6": 21,
    "7": 22,
    "8": 23,
    "9": 24,
    ":": 25,
    "=": 26,
    "?": 27,
    "A": 28,
    "B": 29,
    "D": 30,
    "E": 31,
    "G": 32,
    "H": 33,
    "K": 34,
    "L": 35,
    "M": 36,
    "N": 37,
    "O": 38,
    "P": 39,
    "S": 40,
    "T": 41,
    "U": 42,
    "V": 43,
    "W": 44,
    "X": 45,
    "[": 46,
    "|": 47,
    "~": 48,
    "°": 49,
    "×": 50,
    "अ": 51,
    "अं": 52,
    "अा": 53,
    "अां": 54,
    "अि": 55,
    "अी": 56,
    "अु": 57,
    "अुं": 58,
    "अुी": 59,
    "अू": 60,
    "अे": 61,
    "अै": 62,
    "अो": 63,
    "अौ": 64,
    "अ्न": 65,
    "अ्या": 66,
    "अ्वी": 67,
    "अ॰": 68,
    "अॱ": 69,
    "आ": 70,
    "आँ": 71,
    "आं": 72,
    "इ": 73,
    "इँ": 74,
    "इं": 75,
    "इ्": 76,
    "इ॰": 77,
    "इॱ": 78,
    "ई": 79,
    "ईँ": 80,
    "ईं": 81,
    "उ": 82,
    "उं": 83,
    "उाि": 84,
    "उॱ": 85,
    "ऊ": 86,
    "ऊँ": 87,
    "ऊं": 88,
    "ऊा्": 89,
    "ऋ": 90,
    "ऍ": 91,
    "ऎ": 92,
    "ऎं": 93,
    "ऎ‍": 94,
    "ए": 95,
    "एँ": 96,
    "एा": 97,
    "ऐ": 98,
    "ऐं": 99,
    "ऑ": 100,
    "ऒ": 101,
    "ऒं": 102,
    "ऒ‌": 103,
    "ओ": 104,
    "ओँ": 105,
    "ओं": 106,
    "ओ्बा": 107,
    "ओ्य": 108,
    "औ": 109,
    "औं": 110,
    "क": 111,
    "कं": 112,
    "कं‌": 113,
    "कः": 114,
    "का": 115,
    "काँ": 116,
    "कां": 117,
    "काुं": 118,
    "काे": 119,
    "का्": 120,
    "का‍": 121,
    "का‍‌": 122,
    "कि": 123,
    "किं": 124,
    "किाि": 125,
    "की": 126,
    "कीे": 127,
    "कु": 128,
    "कुं": 129,
    "कु॰": 130,
    "कू": 131,
    "कृ": 132,
    "कॆ": 133,
    "कॆं": 134,
    "के": 135,
    "कें": 136,
    "केः": 137,
    "केा": 138,
    "केॆ्टा": 139,
    "के‌": 140,
    "कै": 141,
    "कॉ": 142,
    "कॊ": 143,
    "कॊं": 144,
    "कॊॕ": 145,
    "को": 146,
    "कोँ": 147,
    "कों": 148,
    "कोः": 149,
    "कौ": 150,
    "क्": 151,
    "क्ए": 152,
    "क्क": 153,
    "क्कं": 154,
    "क्का": 155,
    "क्का्": 156,
    "क्कि": 157,
    "क्की": 158,
    "क्कु": 159,
    "क्कू": 160,
    "क्के": 161,
    "क्कॊ": 162,
    "क्को": 163,
    "क्क्": 164,
    "क्क्‌": 165,
    "क्कॗ": 166,
    "क्ख": 167,
    "क्खा": 168,
    "क्च": 169,
    "क्ट": 170,
    "क्टू": 171,
    "क्टो": 172,
    "क्टौ": 173,
    "क्ट्रि": 174,
    "क्ट्रो": 175,
    "क्त": 176,
    "क्ता": 177,
    "क्तां": 178,
    "क्ति": 179,
    "क्ती": 180,
    "क्तीं": 181,
    "क्तु": 182,
    "क्तृ": 183,
    "क्तौ": 184,
    "क्नु": 185,
    "क्नो": 186,
    "क्प": 187,
    "क्पा": 188,
    "क्पां": 189,
    "क्पे": 190,
    "क्पै": 191,
    "क्मि": 192,
    "क्मे": 193,
    "क्य": 194,
    "क्या": 195,
    "क्र": 196,
    "क्रा": 197,
    "क्रि": 198,
    "क्री": 199,
    "क्रु": 200,
    "क्रू": 201,
    "क्रे": 202,
    "क्रो": 203,
    "क्रौ": 204,
    "क्ल": 205,
    "क्ला": 206,
    "क्लि": 207,
    "क्ले": 208,
    "क्वॆ": 209,
    "क्श": 210,
    "क्ष": 211,
    "क्षा": 212,
    "क्षि": 213,
    "क्षिं": 214,
    "क्षी": 215,
    "क्षॆ": 216,
    "क्षे": 217,
    "क्षो": 218,
    "क्ष्मि": 219,
    "क्ष्मी": 220,
    "क्ष्य": 221,
    "क्स": 222,
    "क्सा": 223,
    "क्सी": 224,
    "क्स्": 225,
    "क्स्टा": 226,
    "क्स्फ": 227,
    "क्॰": 228,
    "क्॰ा": 229,
    "क्॰े": 230,
    "क्‌": 231,
    "क्‍": 232,
    "क॰": 233,
    "कॱ": 234,
    "क‌": 235,
    "क‍": 236,
    "ख": 237,
    "खं": 238,
    "खा": 239,
    "खाँ": 240,
    "खां": 241,
    "खि": 242,
    "खी": 243,
    "खु": 244,
    "खू": 245,
    "खृ": 246,
    "खॆ": 247,
    "खे": 248,
    "खें": 249,
    "खेा": 250,
    "खै": 251,
    "खो": 252,
    "ख्च": 253,
    "ख्चोः": 254,
    "ख्ञुं": 255,
    "ख्त": 256,
    "ख्दि": 257,
    "ख्दिः": 258,
    "ख्न": 259,
    "ख्ना": 260,
    "ख्ने": 261,
    "ख्ब": 262,
    "ख्मै": 263,
    "ख्मो": 264,
    "ख्मौ": 265,
    "ख्य": 266,
    "ख्या": 267,
    "ख्यॆ": 268,
    "ख्रीः": 269,
    "ख्ला": 270,
    "ख्लां": 271,
    "ख्लु": 272,
    "ख॰": 273,
    "ग": 274,
    "गं": 275,
    "गा": 276,
    "गाँ": 277,
    "गां": 278,
    "गि": 279,
    "गि॰": 280,
    "गी": 281,
    "गु": 282,
    "गुं": 283,
    "गुः": 284,
    "गू": 285,
    "गृ": 286,
    "गॆ": 287,
    "गे": 288,
    "गें": 289,
    "गे्ड": 290,
    "गॊ": 291,
    "गो": 292,
    "गों": 293,
    "गौ": 294,
    "ग्": 295,
    "ग्ग": 296,
    "ग्गि": 297,
    "ग्गी": 298,
    "ग्गु": 299,
    "ग्गॆ": 300,
    "ग्ण": 301,
    "ग्णा": 302,
    "ग्न": 303,
    "ग्ना": 304,
    "ग्नि": 305,
    "ग्भ": 306,
    "ग्मा": 307,
    "ग्य": 308,
    "ग्या": 309,
    "ग्र": 310,
    "ग्रं": 311,
    "ग्रा": 312,
    "ग्रां": 313,
    "ग्रि": 314,
    "ग्रिः": 315,
    "ग्री": 316,
    "ग्रु": 317,
    "ग्रू": 318,
    "ग्रॆ": 319,
    "ग्रे": 320,
    "ग्रोः": 321,
    "ग्ला": 322,
    "ग्लां": 323,
    "ग्ली": 324,
    "ग्ले": 325,
    "ग्लो": 326,
    "ग्वा": 327,
    "ग्ष": 328,
    "ग्य़ा": 329,
    "ग्॰": 330,
    "ग्॰ा": 331,
    "ग्॰ी": 332,
    "ग्‌": 333,
    "ग॰": 334,
    "गॱ": 335,
    "घ": 336,
    "घं": 337,
    "घा": 338,
    "घी": 339,
    "घु": 340,
    "घुं": 341,
    "घे": 342,
    "घो": 343,
    "घौ": 344,
    "घ्मुं": 345,
    "घ्य": 346,
    "घ्या": 347,
    "घ्यु": 348,
    "घ्यू": 349,
    "घ्लां": 350,
    "घ्ली": 351,
    "ङ": 352,
    "ङा": 353,
    "ङि": 354,
    "ङी": 355,
    "ङु": 356,
    "ङे": 357,
    "ङ्": 358,
    "ङ्अु": 359,
    "ङ्अै": 360,
    "ङ्क": 361,
    "ङ्का": 362,
    "ङ्कि": 363,
    "ङ्कु": 364,
    "ङ्के": 365,
    "ङ्कै": 366,
    "ङ्को": 367,
    "ङ्क्": 368,
    "ङ्क्रा": 369,
    "ङ्ग": 370,
    "ङ्गा": 371,
    "ङ्गि": 372,
    "ङ्गी": 373,
    "ङ्गै": 374,
    "ङ्गो": 375,
    "ङ्ग्रा": 376,
    "ङ्ग्रोः": 377,
    "ङ्ङ": 378,
    "ङ्ङा": 379,
    "ङ्ङि": 380,
    "ङ्ङो": 381,
    "ङ्ङ्‌": 382,
    "ङ्रि": 383,
    "ङ्रे": 384,
    "ङ्वा": 385,
    "ङ्स": 386,
    "ङ्सा": 387,
    "ङ्हा": 388,
    "ङ्‌": 389,
    "च": 390,
    "चं": 391,
    "चंा": 392,
    "चा": 393,
    "चाँ": 394,
    "चां": 395,
    "चा्": 396,
    "चा्जि": 397,
    "चि": 398,
    "चिं": 399,
    "चि़": 400,
    "ची": 401,
    "चीा्": 402,
    "चु": 403,
    "चुः": 404,
    "चुे": 405,
    "चू": 406,
    "चॆ": 407,
    "चे": 408,
    "चेः": 409,
    "चेा्क्कै": 410,
    "चै": 411,
    "चॉ": 412,
    "चॊ": 413,
    "चो": 414,
    "चों": 415,
    "चौ": 416,
    "च्": 417,
    "च्च": 418,
    "च्चं": 419,
    "च्चा": 420,
    "च्चा्": 421,
    "च्चि": 422,
    "च्चिं": 423,
    "च्ची": 424,
    "च्चूा्": 425,
    "च्चे": 426,
    "च्चेाि": 427,
    "च्च्": 428,
    "च्छ": 429,
    "च्छा": 430,
    "च्छि": 431,
    "च्छु": 432,
    "च्छे": 433,
    "च्छ्": 434,
    "च्नै": 435,
    "च्पा": 436,
    "च्य": 437,
    "च्या": 438,
    "च्र": 439,
    "च्रि": 440,
    "च्रे": 441,
    "च्य़ु": 442,
    "च॰": 443,
    "चॱ": 444,
    "छ": 445,
    "छा": 446,
    "छां": 447,
    "छि": 448,
    "छु": 449,
    "छे": 450,
    "छेः": 451,
    "छै": 452,
    "छौ": 453,
    "छ्अि": 454,
    "छ्ङा": 455,
    "छ्नां": 456,
    "छ्ने": 457,
    "छ्मा": 458,
    "छ्ल": 459,
    "छ्ला": 460,
    "ज": 461,
    "जं": 462,
    "ज़": 463,
    "ज़ी": 464,
    "ज़ु": 465,
    "जा": 466,
    "जा्": 467,
    "जि": 468,
    "जिं": 469,
    "जिः": 470,
    "जी": 471,
    "जीं": 472,
    "जु": 473,
    "जुं": 474,
    "जू": 475,
    "जॆ": 476,
    "जे": 477,
    "जै": 478,
    "जो": 479,
    "ज्": 480,
    "ज्ज": 481,
    "ज्जं": 482,
    "ज्जा": 483,
    "ज्ज्व": 484,
    "ज्झ": 485,
    "ज्ञ": 486,
    "ज्ञा": 487,
    "ज्ब": 488,
    "ज्बा": 489,
    "ज्य": 490,
    "ज्यु": 491,
    "ज्यै": 492,
    "ज्यो": 493,
    "ज्र": 494,
    "ज्रा": 495,
    "ज्रू": 496,
    "ज्रे": 497,
    "ज्रौ": 498,
    "ज्ल": 499,
    "ज्व": 500,
    "ज्य़": 501,
    "ज्‌": 502,
    "ज॰": 503,
    "झ": 504,
    "झा": 505,
    "झाँ": 506,
    "झी": 507,
    "झु": 508,
    "झू": 509,
    "झे": 510,
    "झॉ": 511,
    "झ्ङु": 512,
    "झ्नः": 513,
    "झ्मोः": 514,
    "ञ": 515,
    "ञा": 516,
    "ञां": 517,
    "ञि": 518,
    "ञे": 519,
    "ञै": 520,
    "ञ्च": 521,
    "ञ्चा": 522,
    "ञ्चां": 523,
    "ञ्चि": 524,
    "ञ्चुः": 525,
    "ञ्चू": 526,
    "ञ्चे": 527,
    "ञ्च्रां": 528,
    "ञ्च्रै": 529,
    "ञ्ज": 530,
    "ञ्जा": 531,
    "ञ्जां": 532,
    "ञ्जी": 533,
    "ञ्जुः": 534,
    "ञ्जू": 535,
    "ञ्जे": 536,
    "ञ्ञ": 537,
    "ञ्ञा": 538,
    "ञ्ञि": 539,
    "ञ्ञॆ": 540,
    "ञ्ञे": 541,
    "ञ्ञो": 542,
    "ञ्र्चां": 543,
    "ञ्हा": 544,
    "ट": 545,
    "टं": 546,
    "टा": 547,
    "टां": 548,
    "टि": 549,
    "टिं": 550,
    "टिॱ": 551,
    "टी": 552,
    "टु": 553,
    "टुं": 554,
    "टुः": 555,
    "टू": 556,
    "टॅ": 557,
    "टॆ": 558,
    "टॆं": 559,
    "टे": 560,
    "टै": 561,
    "टैं": 562,
    "टॉ": 563,
    "टो": 564,
    "टों": 565,
    "टोः": 566,
    "टोाि": 567,
    "टौ": 568,
    "ट्": 569,
    "ट्क": 570,
    "ट्के": 571,
    "ट्च": 572,
    "ट्चाा्च्च": 573,
    "ट्चि": 574,
    "ट्ट": 575,
    "ट्टं": 576,
    "ट्ट़": 577,
    "ट्टा": 578,
    "ट्टि": 579,
    "ट्टी": 580,
    "ट्टु": 581,
    "ट्टुं": 582,
    "ट्टूा्पु": 583,
    "ट्टॆ": 584,
    "ट्टै": 585,
    "ट्ट्": 586,
    "ट्ठ": 587,
    "ट्ठा": 588,
    "ट्ठि": 589,
    "ट्ण": 590,
    "ट्त": 591,
    "ट्न": 592,
    "ट्नं": 593,
    "ट्पा": 594,
    "ट्य": 595,
    "ट्यू": 596,
    "ट्र": 597,
    "ट्रा": 598,
    "ट्रि": 599,
    "ट्री": 600,
    "ट्रे": 601,
    "ट्रो": 602,
    "ट्र्या": 603,
    "ट्ल": 604,
    "ट्लि": 605,
    "ट्लु": 606,
    "ट्श्री": 607,
    "ट्स": 608,
    "ट्स्": 609,
    "ट्॰": 610,
    "ट्‌": 611,
    "टॗ": 612,
    "ट‌": 613,
    "ठ": 614,
    "ठा": 615,
    "ठि": 616,
    "ठी": 617,
    "ठु": 618,
    "ठू": 619,
    "ठे": 620,
    "ठें": 621,
    "ठो": 622,
    "ठ्ठ": 623,
    "ठ॰": 624,
    "ड": 625,
    "डं": 626,
    "ड़": 627,
    "ड़ा": 628,
    "ड़ि": 629,
    "ड़ी": 630,
    "ड़े": 631,
    "डा": 632,
    "डां": 633,
    "डाः": 634,
    "डि": 635,
    "डी": 636,
    "डीं": 637,
    "डु": 638,
    "डुं": 639,
    "डू": 640,
    "डॆ": 641,
    "डे": 642,
    "डै": 643,
    "डॉ": 644,
    "डॊ": 645,
    "डो": 646,
    "डों": 647,
    "डौ": 648,
    "ड्": 649,
    "ड्क": 650,
    "ड्ड": 651,
    "ड्डा": 652,
    "ड्डि": 653,
    "ड्डु": 654,
    "ड्ढ": 655,
    "ड्पे": 656,
    "ड्या": 657,
    "ड्यां": 658,
    "ड्रि": 659,
    "ड्रो": 660,
    "ड्ल": 661,
    "ड्वु": 662,
    "ड्स": 663,
    "ड्‌": 664,
    "ढ": 665,
    "ढ़ि": 666,
    "ढ़ी": 667,
    "ढि": 668,
    "ढे": 669,
    "ढ॰": 670,
    "ण": 671,
    "णं": 672,
    "ण़": 673,
    "णा": 674,
    "णाः": 675,
    "णि": 676,
    "णी": 677,
    "णु": 678,
    "णुः": 679,
    "णू": 680,
    "णॆ": 681,
    "णे": 682,
    "णेः": 683,
    "णै": 684,
    "णो": 685,
    "णौ": 686,
    "ण्": 687,
    "ण्का": 688,
    "ण्कॊ": 689,
    "ण्ट": 690,
    "ण्टं": 691,
    "ण्टा": 692,
    "ण्टि": 693,
    "ण्टु": 694,
    "ण्टू": 695,
    "ण्टे": 696,
    "ण्टै": 697,
    "ण्टो": 698,
    "ण्ट्": 699,
    "ण्ट्लू": 700,
    "ण्ट्स्": 701,
    "ण्ट्‌": 702,
    "ण्ठ": 703,
    "ण्ठा": 704,
    "ण्ठु": 705,
    "ण्ड": 706,
    "ण्डा": 707,
    "ण्डि": 708,
    "ण्डी": 709,
    "ण्ढ": 710,
    "ण्ण": 711,
    "ण्णा": 712,
    "ण्णि": 713,
    "ण्णी": 714,
    "ण्णू": 715,
    "ण्णूा्": 716,
    "ण्णू‍": 717,
    "ण्णोः": 718,
    "ण्त": 719,
    "ण्ता": 720,
    "ण्ति": 721,
    "ण्तु": 722,
    "ण्ते": 723,
    "ण्तै": 724,
    "ण्तो": 725,
    "ण्प": 726,
    "ण्मै": 727,
    "ण्य": 728,
    "ण्यं": 729,
    "ण्या": 730,
    "ण्र": 731,
    "ण्‌": 732,
    "त": 733,
    "तं": 734,
    "तः": 735,
    "त़ा": 736,
    "ता": 737,
    "ताँ": 738,
    "तां": 739,
    "ति": 740,
    "तिं": 741,
    "तिः": 742,
    "तिाि": 743,
    "ती": 744,
    "तीं": 745,
    "तीा्क": 746,
    "तीा्त्त": 747,
    "तु": 748,
    "तुं": 749,
    "तू": 750,
    "तूा्": 751,
    "तू॰": 752,
    "तृ": 753,
    "तॆ": 754,
    "ते": 755,
    "तें": 756,
    "तै": 757,
    "तॊ": 758,
    "तो": 759,
    "तों": 760,
    "तोः": 761,
    "तौ": 762,
    "त्": 763,
    "त्क": 764,
    "त्का": 765,
    "त्कू": 766,
    "त्कृ": 767,
    "त्त": 768,
    "त्ता": 769,
    "त्ति": 770,
    "त्ती": 771,
    "त्तु": 772,
    "त्तू": 773,
    "त्ते": 774,
    "त्तै": 775,
    "त्तॊ": 776,
    "त्तो": 777,
    "त्तोि": 778,
    "त्त्": 779,
    "त्त्प": 780,
    "त्त्व": 781,
    "त्त्‌": 782,
    "त्थ": 783,
    "त्थि": 784,
    "त्थु": 785,
    "त्न": 786,
    "त्नि": 787,
    "त्नो": 788,
    "त्पा": 789,
    "त्ब": 790,
    "त्बे": 791,
    "त्म": 792,
    "त्मा": 793,
    "त्य": 794,
    "त्या": 795,
    "त्यां": 796,
    "त्यु": 797,
    "त्यू": 798,
    "त्ये": 799,
    "त्र": 800,
    "त्रं": 801,
    "त्रं‌": 802,
    "त्रा": 803,
    "त्रि": 804,
    "त्रिः": 805,
    "त्री": 806,
    "त्रु": 807,
    "त्रू": 808,
    "त्रॆ": 809,
    "त्रे": 810,
    "त्रै": 811,
    "त्र्य": 812,
    "त्र्यं": 813,
    "त्व": 814,
    "त्वं": 815,
    "त्वा": 816,
    "त्वि": 817,
    "त्स": 818,
    "त्सा": 819,
    "त्य़": 820,
    "त्य़ु": 821,
    "त्य़े": 822,
    "त्॰": 823,
    "त्॰ा": 824,
    "त्‌": 825,
    "त॰": 826,
    "तॱ": 827,
    "थ": 828,
    "था": 829,
    "थां": 830,
    "थि": 831,
    "थी": 832,
    "थु": 833,
    "थे": 834,
    "थै": 835,
    "थो": 836,
    "थ्कुं": 837,
    "थ्के": 838,
    "थ्ङै": 839,
    "थ्था": 840,
    "थ्न": 841,
    "थ्ना": 842,
    "थ्नां": 843,
    "थ्बा": 844,
    "थ्म": 845,
    "थ्मी": 846,
    "थ्मे": 847,
    "थ्य": 848,
    "थ्ला": 849,
    "थ्लि": 850,
    "थ्लु": 851,
    "थ्लै": 852,
    "थ्वी": 853,
    "थ॰": 854,
    "थ‍े": 855,
    "द": 856,
    "दं": 857,
    "दा": 858,
    "दां": 859,
    "दि": 860,
    "दि॰": 861,
    "दी": 862,
    "दी्": 863,
    "दु": 864,
    "दू": 865,
    "दूं": 866,
    "दृ": 867,
    "दॆ": 868,
    "दे": 869,
    "देः": 870,
    "दै": 871,
    "दॊ": 872,
    "दो": 873,
    "दौ": 874,
    "द्": 875,
    "द्घा": 876,
    "द्द": 877,
    "द्दा": 878,
    "द्दि": 879,
    "द्दी": 880,
    "द्दु": 881,
    "द्दे": 882,
    "द्ध": 883,
    "द्धा": 884,
    "द्धि": 885,
    "द्धी": 886,
    "द्धे": 887,
    "द्ध्यं": 888,
    "द्फु": 889,
    "द्ब": 890,
    "द्बा": 891,
    "द्बि": 892,
    "द्बी": 893,
    "द्बो": 894,
    "द्म": 895,
    "द्मा": 896,
    "द्य": 897,
    "द्या": 898,
    "द्यां": 899,
    "द्यु": 900,
    "द्यो": 901,
    "द्र": 902,
    "द्रं": 903,
    "द्रा": 904,
    "द्रां": 905,
    "द्रि": 906,
    "द्री": 907,
    "द्रु": 908,
    "द्रे": 909,
    "द्रो": 910,
    "द्ळु": 911,
    "द्व": 912,
    "द्वा": 913,
    "द्वी": 914,
    "द्वे": 915,
    "द्य़": 916,
    "द्य़ा": 917,
    "द्‌": 918,
    "ध": 919,
    "धं": 920,
    "धा": 921,
    "धि": 922,
    "धी": 923,
    "धु": 924,
    "धू": 925,
    "धृ": 926,
    "धे": 927,
    "धो": 928,
    "ध्दी": 929,
    "ध्नू": 930,
    "ध्म": 931,
    "ध्मे": 932,
    "ध्य": 933,
    "ध्या": 934,
    "ध्ये": 935,
    "ध्र": 936,
    "ध्ल": 937,
    "ध्ला": 938,
    "ध्व": 939,
    "ध्वे": 940,
    "ध्य़": 941,
    "न": 942,
    "नं": 943,
    "नः": 944,
    "ना": 945,
    "नां": 946,
    "नाि": 947,
    "नि": 948,
    "निं": 949,
    "निः": 950,
    "निॕ": 951,
    "नी": 952,
    "नीं": 953,
    "नु": 954,
    "नुं": 955,
    "नू": 956,
    "नू॰": 957,
    "नॅ": 958,
    "नॆ": 959,
    "ने": 960,
    "नेः": 961,
    "नै": 962,
    "नॊ": 963,
    "नो": 964,
    "नोः": 965,
    "नौ": 966,
    "न्": 967,
    "न्ज": 968,
    "न्ट": 969,
    "न्टा": 970,
    "न्टे": 971,
    "न्ट्रा": 972,
    "न्ड": 973,
    "न्डा": 974,
    "न्त": 975,
    "न्ता": 976,
    "न्ति": 977,
    "न्ती": 978,
    "न्तु": 979,
    "न्ते": 980,
    "न्तो": 981,
    "न्त्र": 982,
    "न्त्रि": 983,
    "न्त्री": 984,
    "न्त्॰ा": 985,
    "न्त्॰ी": 986,
    "न्थ": 987,
    "न्था": 988,
    "न्थै": 989,
    "न्द": 990,
    "न्दा": 991,
    "न्दि": 992,
    "न्दी": 993,
    "न्दु": 994,
    "न्दे": 995,
    "न्दो": 996,
    "न्द्द": 997,
    "न्द्यो": 998,
    "न्द्र": 999,
    "न्द्रा": 1000,
    "न्द्री": 1001,
    "न्द्॰": 1002,
    "न्द्॰ी": 1003,
    "न्द्‌": 1004,
    "न्ध": 1005,
    "न्धा": 1006,
    "न्धि": 1007,
    "न्धी": 1008,
    "न्ध्यं": 1009,
    "न्न": 1010,
    "न्नं": 1011,
    "न्ना": 1012,
    "न्नि": 1013,
    "न्नि‍": 1014,
    "न्नु": 1015,
    "न्नुं": 1016,
    "न्नू": 1017,
    "न्न्": 1018,
    "न्प": 1019,
    "न्ब": 1020,
    "न्म": 1021,
    "न्म्र": 1022,
    "न्य": 1023,
    "न्या": 1024,
    "न्यु": 1025,
    "न्यू": 1026,
    "न्ये": 1027,
    "न्ऱॆ": 1028,
    "न्ऱ्": 1029,
    "न्ल": 1030,
    "न्ला": 1031,
    "न्लि": 1032,
    "न्ली": 1033,
    "न्लै": 1034,
    "न्व": 1035,
    "न्वे": 1036,
    "न्ष": 1037,
    "न्स": 1038,
    "न्सं": 1039,
    "न्सा": 1040,
    "न्सि": 1041,
    "न्सी": 1042,
    "न्सू": 1043,
    "न्से": 1044,
    "न्सै": 1045,
    "न्स्": 1046,
    "न्स्टि": 1047,
    "न्स्टी": 1048,
    "न्ह": 1049,
    "न्हा": 1050,
    "न्हां": 1051,
    "न्य़ा": 1052,
    "न्‌": 1053,
    "न्‍": 1054,
    "न॰": 1055,
    "नॱ": 1056,
    "ऩ": 1057,
    "ऩा": 1058,
    "ऩा्": 1059,
    "ऩि": 1060,
    "ऩी": 1061,
    "ऩु": 1062,
    "ऩूा्": 1063,
    "ऩे": 1064,
    "ऩै": 1065,
    "ऩ्": 1066,
    "ऩ्क": 1067,
    "ऩ्ट्": 1068,
    "ऩ्ट्र": 1069,
    "ऩ्ऩ": 1070,
    "ऩ्ऩा": 1071,
    "ऩ्ऩि": 1072,
    "ऩ्ऩे": 1073,
    "ऩ्ऩै": 1074,
    "ऩ्प": 1075,
    "ऩ्पु": 1076,
    "ऩ्ऱ": 1077,
    "ऩ्ऱि": 1078,
    "ऩ्वॆ": 1079,
    "प": 1080,
    "पं": 1081,
    "पः": 1082,
    "पा": 1083,
    "पाँ": 1084,
    "पां": 1085,
    "पा्टि": 1086,
    "पि": 1087,
    "पिं": 1088,
    "पिा": 1089,
    "पिाि": 1090,
    "पिु": 1091,
    "पि॰": 1092,
    "पी": 1093,
    "पु": 1094,
    "पू": 1095,
    "पूँ": 1096,
    "पूाि": 1097,
    "पृ": 1098,
    "पॆ": 1099,
    "पॆं": 1100,
    "पे": 1101,
    "पें": 1102,
    "पेः": 1103,
    "पै": 1104,
    "पैा": 1105,
    "पॉ": 1106,
    "पॊ": 1107,
    "पॊं": 1108,
    "पो": 1109,
    "पोः": 1110,
    "पोा्चु": 1111,
    "पौ": 1112,
    "प्": 1113,
    "प्का": 1114,
    "प्जा": 1115,
    "प्ट": 1116,
    "प्टा": 1117,
    "प्टू": 1118,
    "प्टॆ": 1119,
    "प्टे": 1120,
    "प्टें": 1121,
    "प्त": 1122,
    "प्ता": 1123,
    "प्ति": 1124,
    "प्तू": 1125,
    "प्तों": 1126,
    "प्न": 1127,
    "प्प": 1128,
    "प्पं": 1129,
    "प्पा": 1130,
    "प्पि": 1131,
    "प्पिं": 1132,
    "प्पी": 1133,
    "प्पु": 1134,
    "प्पू": 1135,
    "प्पॆ": 1136,
    "प्पे": 1137,
    "प्पै": 1138,
    "प्पॊ": 1139,
    "प्पो": 1140,
    "प्पोा्": 1141,
    "प्प्": 1142,
    "प्प्‌": 1143,
    "प्फा": 1144,
    "प्या": 1145,
    "प्र": 1146,
    "प्रा": 1147,
    "प्रां": 1148,
    "प्राः": 1149,
    "प्रि": 1150,
    "प्री": 1151,
    "प्रीि": 1152,
    "प्रू": 1153,
    "प्रॅ": 1154,
    "प्रॆ": 1155,
    "प्रे": 1156,
    "प्रै": 1157,
    "प्रो": 1158,
    "प्रौ": 1159,
    "प्ल": 1160,
    "प्ला": 1161,
    "प्ले": 1162,
    "प्लै": 1163,
    "प्व": 1164,
    "प्ष": 1165,
    "प्स": 1166,
    "प्॰": 1167,
    "प्॰ि": 1168,
    "प्॰े": 1169,
    "प्‌": 1170,
    "प॰": 1171,
    "पॱ": 1172,
    "प‌": 1173,
    "फ": 1174,
    "फ़": 1175,
    "फा": 1176,
    "फि": 1177,
    "फी": 1178,
    "फु": 1179,
    "फे": 1180,
    "फै": 1181,
    "फो": 1182,
    "फों": 1183,
    "फ्": 1184,
    "फ्अै": 1185,
    "फ्का": 1186,
    "फ्ञे": 1187,
    "फ्ट": 1188,
    "फ्टा": 1189,
    "फ्टे": 1190,
    "फ्ट्": 1191,
    "फ्त": 1192,
    "फ्तु": 1193,
    "फ्ते": 1194,
    "फ्दः": 1195,
    "फ्दा": 1196,
    "फ्दुः": 1197,
    "फ्दे": 1198,
    "फ्दै": 1199,
    "फ्नै": 1200,
    "फ्या": 1201,
    "फ्र": 1202,
    "फ्री": 1203,
    "फ्रॅ": 1204,
    "फ्रो": 1205,
    "फ्ल": 1206,
    "फ्ला": 1207,
    "फ्लि": 1208,
    "फ्लू": 1209,
    "फ्लै": 1210,
    "फ्स": 1211,
    "फ्सं": 1212,
    "फ्सा": 1213,
    "फ्सि": 1214,
    "फ्से": 1215,
    "ब": 1216,
    "बँ": 1217,
    "बं": 1218,
    "बः": 1219,
    "बा": 1220,
    "बां": 1221,
    "बि": 1222,
    "बि॑": 1223,
    "बि॰": 1224,
    "बी": 1225,
    "बु": 1226,
    "बू": 1227,
    "बृ": 1228,
    "बृं": 1229,
    "बॆ": 1230,
    "बॆं": 1231,
    "बे": 1232,
    "बें": 1233,
    "बेॖ": 1234,
    "बै": 1235,
    "बैं": 1236,
    "बॉ": 1237,
    "बॊ": 1238,
    "बो": 1239,
    "बोः": 1240,
    "बौ": 1241,
    "ब्": 1242,
    "ब्थ": 1243,
    "ब्द": 1244,
    "ब्दि": 1245,
    "ब्दी": 1246,
    "ब्दे": 1247,
    "ब्ध": 1248,
    "ब्ब": 1249,
    "ब्बा": 1250,
    "ब्य": 1251,
    "ब्या": 1252,
    "ब्यां": 1253,
    "ब्यु": 1254,
    "ब्यू": 1255,
    "ब्र": 1256,
    "ब्रः": 1257,
    "ब्रा": 1258,
    "ब्रि": 1259,
    "ब्री": 1260,
    "ब्रु": 1261,
    "ब्रे": 1262,
    "ब्रै": 1263,
    "ब्रोः": 1264,
    "ब्ल": 1265,
    "ब्ली": 1266,
    "ब्लु": 1267,
    "ब्व": 1268,
    "ब्सि": 1269,
    "ब्य़": 1270,
    "ब्य़ा": 1271,
    "ब्॰ु": 1272,
    "ब्‌": 1273,
    "ब॰": 1274,
    "बॱ": 1275,
    "भ": 1276,
    "भं": 1277,
    "भा": 1278,
    "भां": 1279,
    "भा‍": 1280,
    "भि": 1281,
    "भी": 1282,
    "भु": 1283,
    "भू": 1284,
    "भृ": 1285,
    "भे": 1286,
    "भें": 1287,
    "भै": 1288,
    "भो": 1289,
    "भौ": 1290,
    "भ्जा": 1291,
    "भ्नं": 1292,
    "भ्नै": 1293,
    "भ्या": 1294,
    "भ्र": 1295,
    "भ्ल": 1296,
    "भ्ला": 1297,
    "भ्ली": 1298,
    "भ्ले": 1299,
    "भ्लौ": 1300,
    "म": 1301,
    "मं": 1302,
    "मः": 1303,
    "मा": 1304,
    "माँ": 1305,
    "मां": 1306,
    "मााि": 1307,
    "माा्च्": 1308,
    "माी": 1309,
    "मि": 1310,
    "मी": 1311,
    "मु": 1312,
    "मुं": 1313,
    "मुॱ": 1314,
    "मू": 1315,
    "मृ": 1316,
    "मॆ": 1317,
    "मॆं": 1318,
    "मे": 1319,
    "में": 1320,
    "मै": 1321,
    "मैं": 1322,
    "मॊ": 1323,
    "मो": 1324,
    "मौ": 1325,
    "म्": 1326,
    "म्A": 1327,
    "म्ः": 1328,
    "म्अ": 1329,
    "म्अा": 1330,
    "म्का": 1331,
    "म्कु": 1332,
    "म्को": 1333,
    "म्ग्र": 1334,
    "म्ङ": 1335,
    "म्चा": 1336,
    "म्ची": 1337,
    "म्जू": 1338,
    "म्टा": 1339,
    "म्टे": 1340,
    "म्ता": 1341,
    "म्ते": 1342,
    "म्तौ": 1343,
    "म्ना": 1344,
    "म्प": 1345,
    "म्पा": 1346,
    "म्पा्": 1347,
    "म्पि": 1348,
    "म्पी": 1349,
    "म्पु": 1350,
    "म्पू": 1351,
    "म्पूा्": 1352,
    "म्पृ": 1353,
    "म्पे": 1354,
    "म्पो": 1355,
    "म्प्": 1356,
    "म्प्या": 1357,
    "म्प्यु": 1358,
    "म्प्यू": 1359,
    "म्प्॰": 1360,
    "म्फ": 1361,
    "म्ब": 1362,
    "म्बा": 1363,
    "म्बि": 1364,
    "म्बु": 1365,
    "म्बे": 1366,
    "म्भ": 1367,
    "म्भा": 1368,
    "म्भु": 1369,
    "म्म": 1370,
    "म्मं": 1371,
    "म्मा": 1372,
    "म्मि": 1373,
    "म्मु": 1374,
    "म्मू": 1375,
    "म्मे": 1376,
    "म्मै": 1377,
    "म्मॊ": 1378,
    "म्य": 1379,
    "म्या": 1380,
    "म्यू": 1381,
    "म्र": 1382,
    "म्रा": 1383,
    "म्रि": 1384,
    "म्रू": 1385,
    "म्रे": 1386,
    "म्रो": 1387,
    "म्रोः": 1388,
    "म्ल": 1389,
    "म्ला": 1390,
    "म्लिः": 1391,
    "म्ले": 1392,
    "म्लै": 1393,
    "म्श": 1394,
    "म्स": 1395,
    "म्सा": 1396,
    "म्सौ": 1397,
    "म्ह": 1398,
    "म्ही": 1399,
    "म्हू": 1400,
    "म्‌": 1401,
    "म॰": 1402,
    "य": 1403,
    "यं": 1404,
    "य़ा": 1405,
    "य़े": 1406,
    "या": 1407,
    "याँ": 1408,
    "यां": 1409,
    "याा्": 1410,
    "याा्पे": 1411,
    "या्": 1412,
    "या‍": 1413,
    "यि": 1414,
    "यिाि": 1415,
    "यी": 1416,
    "यु": 1417,
    "युं": 1418,
    "यू": 1419,
    "यॆ": 1420,
    "ये": 1421,
    "यें": 1422,
    "यै": 1423,
    "यो": 1424,
    "यों": 1425,
    "य्": 1426,
    "य्क्कां": 1427,
    "य्क्क्": 1428,
    "य्भा": 1429,
    "य्म": 1430,
    "य्मै": 1431,
    "य्य": 1432,
    "य्या्": 1433,
    "य्यो": 1434,
    "य्वु": 1435,
    "य्वे": 1436,
    "य्स्री": 1437,
    "य्य़ा": 1438,
    "य्‌": 1439,
    "र": 1440,
    "रं": 1441,
    "ऱ": 1442,
    "रा": 1443,
    "रां": 1444,
    "रा्": 1445,
    "रि": 1446,
    "रिं": 1447,
    "रिः": 1448,
    "रिा": 1449,
    "रि॰": 1450,
    "री": 1451,
    "रीं": 1452,
    "रु": 1453,
    "रुं": 1454,
    "रुः": 1455,
    "रुी": 1456,
    "रू": 1457,
    "रॆ": 1458,
    "रे": 1459,
    "रें": 1460,
    "रै": 1461,
    "रो": 1462,
    "र्": 1463,
    "र्क": 1464,
    "र्का": 1465,
    "र्कि": 1466,
    "र्किं": 1467,
    "र्कॆ": 1468,
    "र्के": 1469,
    "र्कॊं": 1470,
    "र्ग": 1471,
    "र्गा": 1472,
    "र्गि": 1473,
    "र्गी": 1474,
    "र्च": 1475,
    "र्चा": 1476,
    "र्चु": 1477,
    "र्चू": 1478,
    "र्च्चि": 1479,
    "र्ज": 1480,
    "र्जा": 1481,
    "र्जी": 1482,
    "र्ट": 1483,
    "र्टि": 1484,
    "र्टी": 1485,
    "र्ट्": 1486,
    "र्ड": 1487,
    "र्डा": 1488,
    "र्डु": 1489,
    "र्डॆ": 1490,
    "र्ड्": 1491,
    "र्ड्‌": 1492,
    "र्ण": 1493,
    "र्णा": 1494,
    "र्णी": 1495,
    "र्ण्णी": 1496,
    "र्ण्न": 1497,
    "र्त": 1498,
    "र्ति": 1499,
    "र्ती": 1500,
    "र्तू": 1501,
    "र्त्त": 1502,
    "र्थ": 1503,
    "र्थं": 1504,
    "र्थि": 1505,
    "र्थी": 1506,
    "र्दि": 1507,
    "र्दी": 1508,
    "र्दु": 1509,
    "र्दू": 1510,
    "र्दे": 1511,
    "र्दॊ": 1512,
    "र्द्द": 1513,
    "र्ध": 1514,
    "र्न": 1515,
    "र्ना": 1516,
    "र्नी": 1517,
    "र्नू": 1518,
    "र्न्": 1519,
    "र्प": 1520,
    "र्पा": 1521,
    "र्पे": 1522,
    "र्पो": 1523,
    "र्ब": 1524,
    "र्बो": 1525,
    "र्ब्ब": 1526,
    "र्भ": 1527,
    "र्भा": 1528,
    "र्भी": 1529,
    "र्म": 1530,
    "र्मा": 1531,
    "र्मि": 1532,
    "र्मु": 1533,
    "र्मे": 1534,
    "र्म्": 1535,
    "र्य": 1536,
    "र्या": 1537,
    "र्य्या": 1538,
    "र्य्य़": 1539,
    "र्य्य़ा": 1540,
    "र्रि": 1541,
    "र्ल": 1542,
    "र्ला": 1543,
    "र्लु": 1544,
    "र्व": 1545,
    "र्वा": 1546,
    "र्वि": 1547,
    "र्वो": 1548,
    "र्श": 1549,
    "र्शा": 1550,
    "र्शि": 1551,
    "र्ष": 1552,
    "र्षा": 1553,
    "र्षि": 1554,
    "र्स": 1555,
    "र्सी": 1556,
    "र्स्": 1557,
    "र्‌": 1558,
    "र्‍": 1559,
    "र॰": 1560,
    "रॱ": 1561,
    "र‌": 1562,
    "र‍": 1563,
    "ऱ": 1564,
    "ऱं": 1565,
    "ऱा": 1566,
    "ऱि": 1567,
    "ऱिं": 1568,
    "ऱु": 1569,
    "ऱू": 1570,
    "ऱॆ": 1571,
    "ऱै": 1572,
    "ऱॊ": 1573,
    "ऱो": 1574,
    "ऱ्": 1575,
    "ऱ्क": 1576,
    "ऱ्का": 1577,
    "ऱ्कु": 1578,
    "ऱ्कै": 1579,
    "ऱ्चि": 1580,
    "ऱ्प": 1581,
    "ऱ्पू": 1582,
    "ऱ्ऱ": 1583,
    "ऱ्ऱा": 1584,
    "ऱ्ऱि": 1585,
    "ऱ्ऱु": 1586,
    "ऱ्ऱ्": 1587,
    "ल": 1588,
    "लं": 1589,
    "ला": 1590,
    "लां": 1591,
    "लि": 1592,
    "लिं": 1593,
    "ली": 1594,
    "लु": 1595,
    "लुं": 1596,
    "लू": 1597,
    "लूा्": 1598,
    "लॅ": 1599,
    "लॆ": 1600,
    "लॆं": 1601,
    "ले": 1602,
    "लें": 1603,
    "लै": 1604,
    "लॉ": 1605,
    "लॊ": 1606,
    "लो": 1607,
    "लोँ": 1608,
    "लौ": 1609,
    "ल्": 1610,
    "ल्अ": 1611,
    "ल्ऎ": 1612,
    "ल्क": 1613,
    "ल्कै": 1614,
    "ल्क्कु": 1615,
    "ल्ग": 1616,
    "ल्ट": 1617,
    "ल्टि": 1618,
    "ल्टे": 1619,
    "ल्ट्": 1620,
    "ल्ड": 1621,
    "ल्डिं": 1622,
    "ल्डी": 1623,
    "ल्डीं": 1624,
    "ल्ड्": 1625,
    "ल्ड्री": 1626,
    "ल्थ": 1627,
    "ल्द": 1628,
    "ल्दा": 1629,
    "ल्न": 1630,
    "ल्प": 1631,
    "ल्पि": 1632,
    "ल्पी": 1633,
    "ल्पु": 1634,
    "ल्पो": 1635,
    "ल्फे": 1636,
    "ल्भ": 1637,
    "ल्म": 1638,
    "ल्मे": 1639,
    "ल्य": 1640,
    "ल्या": 1641,
    "ल्यु": 1642,
    "ल्यू": 1643,
    "ल्ल": 1644,
    "ल्लं": 1645,
    "ल्ला": 1646,
    "ल्लाि": 1647,
    "ल्ला‍": 1648,
    "ल्लि": 1649,
    "ल्ली": 1650,
    "ल्लु": 1651,
    "ल्लूाि": 1652,
    "ल्लूा्": 1653,
    "ल्लॆ": 1654,
    "ल्ले": 1655,
    "ल्लै": 1656,
    "ल्ल्‌": 1657,
    "ल्वि": 1658,
    "ल्वॆ": 1659,
    "ल्वे": 1660,
    "ल्स": 1661,
    "ल्स्": 1662,
    "ल्ह": 1663,
    "ल्हा": 1664,
    "ल्हे": 1665,
    "ल्‌": 1666,
    "ल॰": 1667,
    "लॱ": 1668,
    "ळ": 1669,
    "ळं": 1670,
    "ळा": 1671,
    "ळां": 1672,
    "ळा्": 1673,
    "ळि": 1674,
    "ळी": 1675,
    "ळु": 1676,
    "ळुं": 1677,
    "ळू": 1678,
    "ळॆ": 1679,
    "ळे": 1680,
    "ळै": 1681,
    "ळो": 1682,
    "ळ्": 1683,
    "ळ्क": 1684,
    "ळ्ट": 1685,
    "ळ्प": 1686,
    "ळ्मि": 1687,
    "ळ्मी": 1688,
    "ळ्या": 1689,
    "ळ्ळ": 1690,
    "ळ्ळा": 1691,
    "ळ्ळि": 1692,
    "ळ्ळु": 1693,
    "ळ्ळे": 1694,
    "ळ‍": 1695,
    "ऴ": 1696,
    "ऴा": 1697,
    "ऴि": 1698,
    "ऴि‌": 1699,
    "ऴु": 1700,
    "ऴेां": 1701,
    "ऴै": 1702,
    "ऴ्": 1703,
    "ऴ्क": 1704,
    "ऴ्च्": 1705,
    "ऴ्न": 1706,
    "ऴ्ना": 1707,
    "ऴ्‌": 1708,
    "व": 1709,
    "वं": 1710,
    "वः": 1711,
    "वा": 1712,
    "वां": 1713,
    "वाि": 1714,
    "वा्": 1715,
    "वा्स्": 1716,
    "वि": 1717,
    "विॱ": 1718,
    "वी": 1719,
    "वीा्": 1720,
    "वु": 1721,
    "वुं": 1722,
    "वू": 1723,
    "वृ": 1724,
    "वॅ": 1725,
    "वॆ": 1726,
    "वॆं": 1727,
    "वे": 1728,
    "वें": 1729,
    "वेा्ल्टु": 1730,
    "वै": 1731,
    "वॉ": 1732,
    "वॊ": 1733,
    "वो": 1734,
    "व्": 1735,
    "व्त": 1736,
    "व्दा": 1737,
    "व्भ": 1738,
    "व्य": 1739,
    "व्या": 1740,
    "व्र": 1741,
    "व्व": 1742,
    "व्वि": 1743,
    "व्वे": 1744,
    "व्ही": 1745,
    "व्‌": 1746,
    "व॰": 1747,
    "व‌": 1748,
    "श": 1749,
    "शं": 1750,
    "शा": 1751,
    "शां": 1752,
    "शाः": 1753,
    "शा‍": 1754,
    "शि": 1755,
    "शिं": 1756,
    "शी": 1757,
    "शु": 1758,
    "शू": 1759,
    "शृ": 1760,
    "शॆ": 1761,
    "शे": 1762,
    "शें": 1763,
    "शै": 1764,
    "शो": 1765,
    "शौ": 1766,
    "श्": 1767,
    "श्च": 1768,
    "श्चि": 1769,
    "श्ब": 1770,
    "श्बा": 1771,
    "श्य": 1772,
    "श्या": 1773,
    "श्यो": 1774,
    "श्र": 1775,
    "श्रा": 1776,
    "श्रि": 1777,
    "श्री": 1778,
    "श्रे": 1779,
    "श्व": 1780,
    "श्वा": 1781,
    "श्शि": 1782,
    "श्शे": 1783,
    "श्॰ी": 1784,
    "श्ॱ": 1785,
    "शॗ": 1786,
    "ष": 1787,
    "षं": 1788,
    "षा": 1789,
    "षि": 1790,
    "षी": 1791,
    "षु": 1792,
    "षू": 1793,
    "षे": 1794,
    "षो": 1795,
    "ष्": 1796,
    "ष्क": 1797,
    "ष्कृ": 1798,
    "ष्ट": 1799,
    "ष्टा": 1800,
    "ष्टि": 1801,
    "ष्टी": 1802,
    "ष्टे": 1803,
    "ष्ट्": 1804,
    "ष्ट्र": 1805,
    "ष्ट्रं": 1806,
    "ष्ट्री": 1807,
    "ष्ट्॰": 1808,
    "ष्ठ": 1809,
    "ष्ठा": 1810,
    "ष्ण": 1811,
    "ष्णा": 1812,
    "ष्णु": 1813,
    "ष्ना": 1814,
    "ष्य": 1815,
    "ष्य़": 1816,
    "ष्‌": 1817,
    "ष्‍": 1818,
    "षॢ": 1819,
    "स": 1820,
    "सं": 1821,
    "सं‌": 1822,
    "सः": 1823,
    "स़": 1824,
    "स़ा": 1825,
    "स़ि": 1826,
    "सा": 1827,
    "सां": 1828,
    "सा्व": 1829,
    "सा‍": 1830,
    "सि": 1831,
    "सिं": 1832,
    "सि॰": 1833,
    "सी": 1834,
    "सीं": 1835,
    "सी‍": 1836,
    "सु": 1837,
    "सुं": 1838,
    "सुी": 1839,
    "सुॱ": 1840,
    "सू": 1841,
    "सूी": 1842,
    "सृ": 1843,
    "सृं": 1844,
    "सॅ": 1845,
    "सॆ": 1846,
    "सॆं": 1847,
    "से": 1848,
    "सें": 1849,
    "सेे": 1850,
    "से्ब": 1851,
    "से‍": 1852,
    "सै": 1853,
    "सैं": 1854,
    "सॊ": 1855,
    "सो": 1856,
    "सोँ": 1857,
    "सौ": 1858,
    "स्": 1859,
    "स्अा": 1860,
    "स्क": 1861,
    "स्का": 1862,
    "स्कु": 1863,
    "स्कृ": 1864,
    "स्क्का": 1865,
    "स्क्री": 1866,
    "स्ग्री": 1867,
    "स्ङा": 1868,
    "स्ङु": 1869,
    "स्ङे": 1870,
    "स्चा": 1871,
    "स्जि": 1872,
    "स्जी": 1873,
    "स्ट": 1874,
    "स्टँ": 1875,
    "स्टा": 1876,
    "स्टि": 1877,
    "स्टी": 1878,
    "स्टु": 1879,
    "स्टू": 1880,
    "स्टे": 1881,
    "स्टो": 1882,
    "स्ट्": 1883,
    "स्ट्री": 1884,
    "स्त": 1885,
    "स्तं": 1886,
    "स्ता": 1887,
    "स्तां": 1888,
    "स्ति": 1889,
    "स्तु": 1890,
    "स्तू": 1891,
    "स्तृ": 1892,
    "स्तॆ": 1893,
    "स्ते": 1894,
    "स्तै": 1895,
    "स्त्र": 1896,
    "स्त्रा": 1897,
    "स्त्रि": 1898,
    "स्त्री": 1899,
    "स्थ": 1900,
    "स्था": 1901,
    "स्थि": 1902,
    "स्थॆ": 1903,
    "स्थे": 1904,
    "स्थ्य": 1905,
    "स्द": 1906,
    "स्दि": 1907,
    "स्दी": 1908,
    "स्दू": 1909,
    "स्ध": 1910,
    "स्धा": 1911,
    "स्न": 1912,
    "स्ना": 1913,
    "स्ने": 1914,
    "स्नो": 1915,
    "स्प": 1916,
    "स्पा": 1917,
    "स्पि": 1918,
    "स्पॆ": 1919,
    "स्पे": 1920,
    "स्पै": 1921,
    "स्ब": 1922,
    "स्बा": 1923,
    "स्बी": 1924,
    "स्बै": 1925,
    "स्ब्री": 1926,
    "स्भा": 1927,
    "स्म": 1928,
    "स्मा": 1929,
    "स्मी": 1930,
    "स्मृ": 1931,
    "स्मौ": 1932,
    "स्य": 1933,
    "स्यः": 1934,
    "स्र": 1935,
    "स्रा": 1936,
    "स्री": 1937,
    "स्रु": 1938,
    "स्रू": 1939,
    "स्रे": 1940,
    "स्रै": 1941,
    "स्र्ता": 1942,
    "स्र्बी": 1943,
    "स्ऱ्ऱ": 1944,
    "स्ऱ्ऱु": 1945,
    "स्ऱ्ऱे": 1946,
    "स्ला": 1947,
    "स्लि": 1948,
    "स्व": 1949,
    "स्वं": 1950,
    "स्वा": 1951,
    "स्वि": 1952,
    "स्वी": 1953,
    "स्वे": 1954,
    "स्स": 1955,
    "स्सा": 1956,
    "स्सि": 1957,
    "स्सी": 1958,
    "स्सु": 1959,
    "स्सो": 1960,
    "स्स्": 1961,
    "स्ह": 1962,
    "स्ही": 1963,
    "स्य़": 1964,
    "स्॰": 1965,
    "स्॰ा": 1966,
    "स्‌": 1967,
    "स्‍": 1968,
    "स॰": 1969,
    "ह": 1970,
    "हं": 1971,
    "हः": 1972,
    "हा": 1973,
    "हाँ": 1974,
    "हां": 1975,
    "हा्ग": 1976,
    "हा॓": 1977,
    "हि": 1978,
    "हिँ": 1979,
    "हिं": 1980,
    "हि॰": 1981,
    "हिॱ": 1982,
    "ही": 1983,
    "हीं": 1984,
    "हु": 1985,
    "हू": 1986,
    "हूँ": 1987,
    "हूा": 1988,
    "हृ": 1989,
    "हॆ": 1990,
    "हे": 1991,
    "है": 1992,
    "हैे": 1993,
    "है‍": 1994,
    "हॉ": 1995,
    "हॊ": 1996,
    "हो": 1997,
    "हौ": 1998,
    "ह्का": 1999,
    "ह्गा": 2000,
    "ह्गि": 2001,
    "ह्गी": 2002,
    "ह्गे": 2003,
    "ह्गो": 2004,
    "ह्तो": 2005,
    "ह्दि": 2006,
    "ह्ने": 2007,
    "ह्म": 2008,
    "ह्मि": 2009,
    "ह्य": 2010,
    "ह्ये": 2011,
    "ह्व": 2012,
    "ह्वा": 2013,
    "ह्वी": 2014,
    "ह्वू": 2015,
    "ह्वे": 2016,
    "ह्स": 2017,
    "ह्सा": 2018,
    "ह्सू": 2019,
    "ह॰": 2020,
    "हॱ": 2021,
    "ह‌": 2022,
    "ऽ": 2023,
    "ा": 2024,
    "ां": 2025,
    "े": 2026,
    "ॎ": 2027,
    "ॐ": 2028,
    "ज़": 2029,
    "ज़ा": 2030,
    "ड़": 2031,
    "ड़ा": 2032,
    "ड़ि": 2033,
    "ड़ी": 2034,
    "ड़े": 2035,
    "ड़्ह": 2036,
    "ड़्हे": 2037,
    "ढ़ि": 2038,
    "ढ़ी": 2039,
    "ढ़ो": 2040,
    "फ़": 2041,
    "फ़्दु": 2042,
    "य़": 2043,
    "य़ा": 2044,
    "य़ां": 2045,
    "य़ि": 2046,
    "य़ी": 2047,
    "य़ु": 2048,
    "य़े": 2049,
    "य़ो": 2050,
    "य़ॗ": 2051,
    "ॠ": 2052,
    "।": 2053,
    "॥": 2054,
    "०": 2055,
    "१": 2056,
    "१ः": 2057,
    "१्को": 2058,
    "२": 2059,
    "२ा": 2060,
    "३": 2061,
    "४": 2062,
    "५": 2063,
    "५ु": 2064,
    "५ुॱ": 2065,
    "५ो": 2066,
    "६": 2067,
    "६ः": 2068,
    "७": 2069,
    "८": 2070,
    "८े": 2071,
    "९": 2072,
    "॰": 2073,
    "॰ा": 2074,
    "॰ि": 2075,
    "॰िः": 2076,
    "॰ी": 2077,
    "॰ु": 2078,
    "॰ू": 2079,
    "॰े": 2080,
    "॰ो": 2081,
    "॰्थ": 2082,
    "॰्प": 2083,
    "॰्ब": 2084,
    "॰्ब्ब": 2085,
    "॰्म्म": 2086,
    "॰्य": 2087,
    "॰्य्य": 2088,
    "ॱ": 2089,
    "ॱा": 2090,
    "ॱि": 2091,
    "ॱे": 2092,
    "ॱो": 2093,
    "ॲ": 2094,
    "ॳ": 2095,
    "ॷ": 2096,
    "ॺ": 2097,
    "ॺ‌": 2098,
    "ॻ": 2099,
    "ॻ्ऱ": 2100,
    "ॻ्ऱॆ": 2101,
    "ॻ्ऱ्": 2102,
    "ॻ्ऱ्स्": 2103,
    "ॻ‌": 2104,
    "ॻ‍": 2105,
    "ॼ": 2106,
    "ॼ‌": 2107,
    "ॼ‍‍": 2108,
    "ॽ": 2109,
    "ॽ‌": 2110,
    "ॾ": 2111,
    "ॾ‌": 2112,
    "​": 2113,
    "↑": 2114
  },
  "metadata": {
    "tag": "zs_loso_rungB_khmer",
    "num_graphemes": 2113,
    "space": "shared-abugida-pivot"
  }
}