{
  "grapheme2idx": {
    "<blank>": 0,
    "<unk>": 1,
    "!": 2,
    "\"": 3,
    "&": 4,
    "'": 5,
    "(": 6,
    ")": 7,
    ",": 8,
    "-": 9,
    ".": 10,
    "/": 11,
    "0": 12,
    "1": 13,
    "2": 14,
    "3": 15,
    "4": 16,
    "5": 17,
    "6": 18,
    "7": 19,
    "8": 20,
    "9": 21,
    ":": 22,
    "?": 23,
    "A": 24,
    "D": 25,
    "G": 26,
    "H": 27,
    "I": 28,
    "O": 29,
    "P": 30,
    "V": 31,
    "[": 32,
    "c": 33,
    "|": 34,
    "°": 35,
    "ا": 36,
    "ت": 37,
    "ج": 38,
    "ر": 39,
    "گ": 40,
    "ی": 41,
    "ँ": 42,
    "अ": 43,
    "अं": 44,
    "अि": 45,
    "अ्या": 46,
    "अ॰": 47,
    "आ": 48,
    "आं": 49,
    "आा्": 50,
    "आे": 51,
    "आॕ": 52,
    "इ": 53,
    "इं": 54,
    "इ्ट": 55,
    "इ॰": 56,
    "इॱ": 57,
    "ई": 58,
    "ईँ": 59,
    "ईं": 60,
    "उ": 61,
    "उाि": 62,
    "उॱ": 63,
    "ऊ": 64,
    "ऊँ": 65,
    "ऊं": 66,
    "ऋ": 67,
    "ऍ": 68,
    "ऎ": 69,
    "ऎं": 70,
    "ए": 71,
    "एँ": 72,
    "एा": 73,
    "ऐ": 74,
    "ऐं": 75,
    "ऑ": 76,
    "ऒ": 77,
    "ऒं": 78,
    "ऒाि": 79,
    "ऒा्क्स्": 80,
    "ऒ‌": 81,
    "ओ": 82,
    "ओँ": 83,
    "ओं": 84,
    "ओ्बा": 85,
    "औ": 86,
    "औं": 87,
    "क": 88,
    "कं": 89,
    "कः": 90,
    "का": 91,
    "काँ": 92,
    "कां": 93,
    "काुं": 94,
    "काे": 95,
    "का्": 96,
    "का‍": 97,
    "का‍‌": 98,
    "कि": 99,
    "किं": 100,
    "किाि": 101,
    "की": 102,
    "कीे": 103,
    "कु": 104,
    "कुं": 105,
    "कु॰": 106,
    "कू": 107,
    "कृ": 108,
    "कॅ": 109,
    "कॅा": 110,
    "कॆ": 111,
    "कॆं": 112,
    "के": 113,
    "कें": 114,
    "केे": 115,
    "कै": 116,
    "कॉ": 117,
    "कॊ": 118,
    "कॊं": 119,
    "को": 120,
    "कोँ": 121,
    "कों": 122,
    "कों‌": 123,
    "क्": 124,
    "क्क": 125,
    "क्कं": 126,
    "क्का": 127,
    "क्कि": 128,
    "क्कु": 129,
    "क्कुं": 130,
    "क्कू": 131,
    "क्कॆ": 132,
    "क्के": 133,
    "क्कै": 134,
    "क्कॊ": 135,
    "क्को": 136,
    "क्क्": 137,
    "क्क्‌": 138,
    "क्ट": 139,
    "क्टो": 140,
    "क्ट्रि": 141,
    "क्ट्रो": 142,
    "क्त": 143,
    "क्तां": 144,
    "क्ति": 145,
    "क्तीं": 146,
    "क्तु": 147,
    "क्नो": 148,
    "क्प": 149,
    "क्पे": 150,
    "क्मि": 151,
    "क्य": 152,
    "क्या": 153,
    "क्यू": 154,
    "क्र": 155,
    "क्रं": 156,
    "क्रा": 157,
    "क्रि": 158,
    "क्री": 159,
    "क्रे": 160,
    "क्रै": 161,
    "क्रो": 162,
    "क्ला": 163,
    "क्ळे": 164,
    "क्व": 165,
    "क्वा": 166,
    "क्वॆ": 167,
    "क्श": 168,
    "क्ष": 169,
    "क्षा": 170,
    "क्षां": 171,
    "क्षि": 172,
    "क्षिं": 173,
    "क्षी": 174,
    "क्षुः": 175,
    "क्षे": 176,
    "क्षो": 177,
    "क्ष्म": 178,
    "क्ष्मि": 179,
    "क्ष्मी": 180,
    "क्ष्य": 181,
    "क्स": 182,
    "क्सि": 183,
    "क्स्": 184,
    "क्य़ा": 185,
    "क्॰": 186,
    "क्॰ा": 187,
    "क्॰े": 188,
    "क्‌": 189,
    "क्‍": 190,
    "क॰": 191,
    "कॱ": 192,
    "क‌": 193,
    "क‍ी": 194,
    "ख": 195,
    "खं": 196,
    "ख़": 197,
    "खा": 198,
    "खाँ": 199,
    "खि": 200,
    "खी": 201,
    "खु": 202,
    "खू": 203,
    "खॆ": 204,
    "खे": 205,
    "खै": 206,
    "खो": 207,
    "ख्त": 208,
    "ख्य": 209,
    "ख्यु": 210,
    "ख्रीः": 211,
    "ग": 212,
    "गं": 213,
    "गा": 214,
    "गां": 215,
    "गि": 216,
    "गि॰": 217,
    "गी": 218,
    "गु": 219,
    "गुं": 220,
    "गू": 221,
    "गृ": 222,
    "गॆ": 223,
    "गॆं": 224,
    "गे": 225,
    "गे्ड": 226,
    "गै": 227,
    "गॊ": 228,
    "गो": 229,
    "गों": 230,
    "गौ": 231,
    "ग्": 232,
    "ग्ग": 233,
    "ग्गि": 234,
    "ग्गॆ": 235,
    "ग्ण": 236,
    "ग्नि": 237,
    "ग्ब": 238,
    "ग्भ": 239,
    "ग्य": 240,
    "ग्या": 241,
    "ग्ये": 242,
    "ग्र": 243,
    "ग्रं": 244,
    "ग्रा": 245,
    "ग्रां": 246,
    "ग्री": 247,
    "ग्रे": 248,
    "ग्ला": 249,
    "ग्ली": 250,
    "ग्वा": 251,
    "ग्ष": 252,
    "ग्स": 253,
    "ग्य़ा": 254,
    "ग्॰ु": 255,
    "ग्‌": 256,
    "ग॰": 257,
    "गॱ": 258,
    "घ": 259,
    "घा": 260,
    "घां": 261,
    "घु": 262,
    "घे": 263,
    "घो": 264,
    "घौ": 265,
    "घ्य": 266,
    "घ्या": 267,
    "घ्र": 268,
    "ङ": 269,
    "ङा": 270,
    "ङि": 271,
    "ङे": 272,
    "ङ्": 273,
    "ङ्क": 274,
    "ङ्का": 275,
    "ङ्कि": 276,
    "ङ्कु": 277,
    "ङ्के": 278,
    "ङ्कै": 279,
    "ङ्को": 280,
    "ङ्क्": 281,
    "ङ्ग": 282,
    "ङ्गा": 283,
    "ङ्गी": 284,
    "ङ्गु": 285,
    "ङ्गे": 286,
    "ङ्गो": 287,
    "ङ्घ": 288,
    "ङ्ङ": 289,
    "ङ्ङा": 290,
    "ङ्ङि": 291,
    "ङ्ङो": 292,
    "ङ्ङों": 293,
    "ङ्ट": 294,
    "ङ्त": 295,
    "ङ्ष": 296,
    "ङ्‌": 297,
    "च": 298,
    "चं": 299,
    "चा": 300,
    "चां": 301,
    "चा्": 302,
    "चा्जि": 303,
    "चा्व": 304,
    "चि": 305,
    "चिं": 306,
    "ची": 307,
    "चु": 308,
    "चुे": 309,
    "चू": 310,
    "चॆ": 311,
    "चे": 312,
    "चें": 313,
    "चेा्ऩ्": 314,
    "चै": 315,
    "चॊ": 316,
    "चो": 317,
    "चौ": 318,
    "च्": 319,
    "च्च": 320,
    "च्चं": 321,
    "च्चा": 322,
    "च्चि": 323,
    "च्ची": 324,
    "च्चे": 325,
    "च्चेाि": 326,
    "च्च्": 327,
    "च्छ": 328,
    "च्छा": 329,
    "च्छु": 330,
    "च्छे": 331,
    "च्छ्": 332,
    "च्ट": 333,
    "च्य": 334,
    "च्या": 335,
    "च्यु": 336,
    "च॑": 337,
    "च॰": 338,
    "चॱ": 339,
    "छ": 340,
    "छा": 341,
    "छि": 342,
    "छु": 343,
    "छुॱ": 344,
    "छे": 345,
    "छें": 346,
    "छो": 347,
    "छोँ": 348,
    "छ॰": 349,
    "ज": 350,
    "जं": 351,
    "ज़": 352,
    "ज़ी": 353,
    "ज़ु": 354,
    "जा": 355,
    "जि": 356,
    "जिं": 357,
    "जि॰": 358,
    "जिॱ": 359,
    "जी": 360,
    "जु": 361,
    "जुॱ": 362,
    "जू": 363,
    "जॆ": 364,
    "जे": 365,
    "जें": 366,
    "जै": 367,
    "जो": 368,
    "ज्": 369,
    "ज्ञ": 370,
    "ज्ञा": 371,
    "ज्ञी": 372,
    "ज्ब": 373,
    "ज्य": 374,
    "ज्यु": 375,
    "ज्यू": 376,
    "ज्येा": 377,
    "ज्यो": 378,
    "ज्यों": 379,
    "ज्व": 380,
    "ज्सि": 381,
    "ज्य़": 382,
    "ज॰": 383,
    "झ": 384,
    "झा": 385,
    "झाँ": 386,
    "झां": 387,
    "झि": 388,
    "झी": 389,
    "झे": 390,
    "झ॰": 391,
    "ञ": 392,
    "ञा": 393,
    "ञ्च": 394,
    "ञ्चा": 395,
    "ञ्चा्": 396,
    "ञ्चि": 397,
    "ञ्ज": 398,
    "ञ्जा": 399,
    "ञ्जि": 400,
    "ञ्जी": 401,
    "ञ्ञ": 402,
    "ञ्ञा": 403,
    "ञ्ञि": 404,
    "ञ्ञॆ": 405,
    "ञ्ञो": 406,
    "ट": 407,
    "टं": 408,
    "टा": 409,
    "टां": 410,
    "टाा": 411,
    "टि": 412,
    "टिं": 413,
    "टी": 414,
    "टु": 415,
    "टू": 416,
    "टॆ": 417,
    "टे": 418,
    "टै": 419,
    "टैं": 420,
    "टो": 421,
    "टौ": 422,
    "ट्": 423,
    "ट्चाा्च्च": 424,
    "ट्चि": 425,
    "ट्ट": 426,
    "ट्टं": 427,
    "ट्टा": 428,
    "ट्टि": 429,
    "ट्टी": 430,
    "ट्टु": 431,
    "ट्टुं": 432,
    "ट्टूा्पु": 433,
    "ट्टॆ": 434,
    "ट्टै": 435,
    "ट्टो": 436,
    "ट्ट्": 437,
    "ट्ण": 438,
    "ट्त": 439,
    "ट्न": 440,
    "ट्नं": 441,
    "ट्प": 442,
    "ट्मि": 443,
    "ट्य": 444,
    "ट्यू": 445,
    "ट्र": 446,
    "ट्रा": 447,
    "ट्रि": 448,
    "ट्रॆ": 449,
    "ट्रे": 450,
    "ट्रै": 451,
    "ट्रो": 452,
    "ट्र्या": 453,
    "ट्ल": 454,
    "ट्लु": 455,
    "ट्व": 456,
    "ट्स्": 457,
    "ट्॰": 458,
    "ट्‌": 459,
    "ट्‍": 460,
    "टॗ": 461,
    "ठ": 462,
    "ठा": 463,
    "ठि": 464,
    "ठि॰": 465,
    "ठी": 466,
    "ठे": 467,
    "ठें": 468,
    "ठो": 469,
    "ठ्ठ": 470,
    "ड": 471,
    "डः": 472,
    "ड़": 473,
    "ड़ा": 474,
    "ड़ि": 475,
    "ड़ी": 476,
    "ड़े": 477,
    "ड़ौ": 478,
    "डा": 479,
    "डाः": 480,
    "डि": 481,
    "डिं": 482,
    "डी": 483,
    "डु": 484,
    "डू": 485,
    "डॆ": 486,
    "डॆं": 487,
    "डे": 488,
    "डै": 489,
    "डो": 490,
    "ड्": 491,
    "ड्क": 492,
    "ड्ड": 493,
    "ड्डा": 494,
    "ड्डि": 495,
    "ड्डु": 496,
    "ड्यं": 497,
    "ड्या": 498,
    "ड्यां": 499,
    "ड्यू": 500,
    "ड्र": 501,
    "ड्रा": 502,
    "ड्रि": 503,
    "ड्री": 504,
    "ड्‌": 505,
    "ड्‍": 506,
    "ढ": 507,
    "ढ़": 508,
    "ढ़ि": 509,
    "ढ़ी": 510,
    "ढि": 511,
    "ढु": 512,
    "ढे": 513,
    "ढे़": 514,
    "ण": 515,
    "णं": 516,
    "ण़": 517,
    "णा": 518,
    "णाः": 519,
    "णि": 520,
    "णी": 521,
    "णीं": 522,
    "णु": 523,
    "णु्": 524,
    "णू": 525,
    "णॆ": 526,
    "णे": 527,
    "णै": 528,
    "णो": 529,
    "ण्": 530,
    "ण्क": 531,
    "ण्का": 532,
    "ण्ट": 533,
    "ण्टं": 534,
    "ण्टा": 535,
    "ण्टि": 536,
    "ण्टी": 537,
    "ण्टु": 538,
    "ण्टू": 539,
    "ण्टै": 540,
    "ण्ट्": 541,
    "ण्ट्स्": 542,
    "ण्ट्‌": 543,
    "ण्ठु": 544,
    "ण्ड": 545,
    "ण्डा": 546,
    "ण्डि": 547,
    "ण्ण": 548,
    "ण्णा": 549,
    "ण्णि": 550,
    "ण्णी": 551,
    "ण्णु": 552,
    "ण्णू": 553,
    "ण्णू‍": 554,
    "ण्ता": 555,
    "ण्ति": 556,
    "ण्पु": 557,
    "ण्मै": 558,
    "ण्य": 559,
    "ण्या": 560,
    "ण्‌": 561,
    "त": 562,
    "तं": 563,
    "तः": 564,
    "त़": 565,
    "त़ा": 566,
    "त़ि": 567,
    "ता": 568,
    "ताँ": 569,
    "तां": 570,
    "ता्का": 571,
    "ति": 572,
    "तिं": 573,
    "तिः": 574,
    "तिाि": 575,
    "ती": 576,
    "तीा्": 577,
    "तीा्त्त": 578,
    "तु": 579,
    "तुं": 580,
    "तू": 581,
    "तूा्": 582,
    "तू॰": 583,
    "तृ": 584,
    "तॆ": 585,
    "तॆ्र्र": 586,
    "ते": 587,
    "तें": 588,
    "तै": 589,
    "तॊ": 590,
    "तो": 591,
    "तों": 592,
    "त्": 593,
    "त्उ": 594,
    "त्क": 595,
    "त्का": 596,
    "त्कू": 597,
    "त्त": 598,
    "त्ता": 599,
    "त्ति": 600,
    "त्ती": 601,
    "त्तु": 602,
    "त्तू": 603,
    "त्तॆ": 604,
    "त्ते": 605,
    "त्तेा्": 606,
    "त्तै": 607,
    "त्तॊ": 608,
    "त्त्": 609,
    "त्त्य": 610,
    "त्त्व": 611,
    "त्त्‌": 612,
    "त्थ": 613,
    "त्थि": 614,
    "त्न": 615,
    "त्प": 616,
    "त्बे": 617,
    "त्भ": 618,
    "त्म": 619,
    "त्मा": 620,
    "त्य": 621,
    "त्या": 622,
    "त्यां": 623,
    "त्यु": 624,
    "त्ये": 625,
    "त्य्": 626,
    "त्र": 627,
    "त्रं": 628,
    "त्रं‌": 629,
    "त्रा": 630,
    "त्रि": 631,
    "त्री": 632,
    "त्रॆ": 633,
    "त्रे": 634,
    "त्रों": 635,
    "त्र्य": 636,
    "त्र्यं": 637,
    "त्व": 638,
    "त्वा": 639,
    "त्वि": 640,
    "त्स": 641,
    "त्सा": 642,
    "त्स्ना": 643,
    "त्य़": 644,
    "त्य़ु": 645,
    "त्य़े": 646,
    "त्॰": 647,
    "त्‌": 648,
    "त्‍": 649,
    "त॰": 650,
    "त‍े": 651,
    "थ": 652,
    "था": 653,
    "थां": 654,
    "थि": 655,
    "थी": 656,
    "थु": 657,
    "थू": 658,
    "थृ": 659,
    "थे": 660,
    "थों": 661,
    "थ्य": 662,
    "द": 663,
    "दं": 664,
    "दा": 665,
    "दां": 666,
    "दि": 667,
    "दिं": 668,
    "दि॰": 669,
    "दी": 670,
    "दु": 671,
    "दुि": 672,
    "दू": 673,
    "दूं": 674,
    "दृ": 675,
    "दॆ": 676,
    "दे": 677,
    "दें": 678,
    "दै": 679,
    "दॊ": 680,
    "दो": 681,
    "दौ": 682,
    "द्": 683,
    "द्घा": 684,
    "द्ट": 685,
    "द्टु": 686,
    "द्द": 687,
    "द्दा": 688,
    "द्दि": 689,
    "द्दु": 690,
    "द्ध": 691,
    "द्धा": 692,
    "द्धि": 693,
    "द्धी": 694,
    "द्ब": 695,
    "द्बा": 696,
    "द्बि": 697,
    "द्बी": 698,
    "द्बो": 699,
    "द्म": 700,
    "द्मा": 701,
    "द्य": 702,
    "द्या": 703,
    "द्यो": 704,
    "द्र": 705,
    "द्रा": 706,
    "द्रि": 707,
    "द्री": 708,
    "द्रु": 709,
    "द्रे": 710,
    "द्रौ": 711,
    "द्व": 712,
    "द्वा": 713,
    "द्वी": 714,
    "द्य़": 715,
    "द्य़ा": 716,
    "द्॰": 717,
    "द्‌": 718,
    "ध": 719,
    "धा": 720,
    "धि": 721,
    "धिि": 722,
    "धी": 723,
    "धीं": 724,
    "धु": 725,
    "धू": 726,
    "धे": 727,
    "धो": 728,
    "ध्दा": 729,
    "ध्दी": 730,
    "ध्ब": 731,
    "ध्य": 732,
    "ध्या": 733,
    "ध्ये": 734,
    "ध्र": 735,
    "ध्व": 736,
    "ध॰": 737,
    "न": 738,
    "नं": 739,
    "नः": 740,
    "ना": 741,
    "नाँ": 742,
    "नां": 743,
    "नाि": 744,
    "ना्": 745,
    "नि": 746,
    "निं": 747,
    "निॕ": 748,
    "नि‍": 749,
    "नी": 750,
    "नीा्": 751,
    "नु": 752,
    "नुं": 753,
    "नू": 754,
    "नू॰": 755,
    "नृ": 756,
    "नॅ": 757,
    "नॆ": 758,
    "ने": 759,
    "नेे": 760,
    "नै": 761,
    "नॊ": 762,
    "नो": 763,
    "नौ": 764,
    "न्": 765,
    "न्कु": 766,
    "न्ट": 767,
    "न्टा": 768,
    "न्ट्र": 769,
    "न्ट्रा": 770,
    "न्ड": 771,
    "न्डि": 772,
    "न्डी": 773,
    "न्डे": 774,
    "न्त": 775,
    "न्ता": 776,
    "न्ति": 777,
    "न्ती": 778,
    "न्तु": 779,
    "न्तू": 780,
    "न्ते": 781,
    "न्तो": 782,
    "न्त्": 783,
    "न्त्य": 784,
    "न्त्र": 785,
    "न्त्रि": 786,
    "न्त्री": 787,
    "न्त्॰ा": 788,
    "न्त्॰ि": 789,
    "न्त्॰ी": 790,
    "न्थ": 791,
    "न्था": 792,
    "न्द": 793,
    "न्दा": 794,
    "न्दि": 795,
    "न्दी": 796,
    "न्दु": 797,
    "न्दे": 798,
    "न्दो": 799,
    "न्द्यो": 800,
    "न्द्र": 801,
    "न्द्रं": 802,
    "न्द्रा": 803,
    "न्द्री": 804,
    "न्द्र्र": 805,
    "न्द्॰": 806,
    "न्द्॰ी": 807,
    "न्द्‌": 808,
    "न्ध": 809,
    "न्धा": 810,
    "न्धि": 811,
    "न्धी": 812,
    "न्ध्यं": 813,
    "न्न": 814,
    "न्नं": 815,
    "न्ना": 816,
    "न्नि": 817,
    "न्नु": 818,
    "न्नू": 819,
    "न्नै": 820,
    "न्न्": 821,
    "न्ब": 822,
    "न्म": 823,
    "न्मा": 824,
    "न्मे": 825,
    "न्मो": 826,
    "न्म्या": 827,
    "न्य": 828,
    "न्यः": 829,
    "न्या": 830,
    "न्यु": 831,
    "न्यू": 832,
    "न्ये": 833,
    "न्ऱ": 834,
    "न्ऱा": 835,
    "न्ऱॆ": 836,
    "न्ऱ्": 837,
    "न्ल": 838,
    "न्वी": 839,
    "न्वे": 840,
    "न्स": 841,
    "न्सा": 842,
    "न्सि": 843,
    "न्सी": 844,
    "न्सू": 845,
    "न्स्": 846,
    "न्स्टि": 847,
    "न्हा": 848,
    "न्हां": 849,
    "न्य़": 850,
    "न्य़ा": 851,
    "न॰": 852,
    "न॰ः": 853,
    "नॱ": 854,
    "ऩ": 855,
    "ऩा": 856,
    "ऩा्": 857,
    "ऩि": 858,
    "ऩी": 859,
    "ऩु": 860,
    "ऩू": 861,
    "ऩे": 862,
    "ऩै": 863,
    "ऩ्": 864,
    "ऩ्टा्": 865,
    "ऩ्ट्": 866,
    "ऩ्ट्र": 867,
    "ऩ्ऩ": 868,
    "ऩ्ऩा": 869,
    "ऩ्ऩूा्": 870,
    "ऩ्ऩै": 871,
    "ऩ्ऩो": 872,
    "ऩ्पु": 873,
    "ऩ्ऱ": 874,
    "ऩ्ऱि": 875,
    "ऩ्वॆ": 876,
    "प": 877,
    "पं": 878,
    "पा": 879,
    "पाँ": 880,
    "पां": 881,
    "पा्": 882,
    "पि": 883,
    "पिं": 884,
    "पिा": 885,
    "पिाि": 886,
    "पिु": 887,
    "पी": 888,
    "पु": 889,
    "पू": 890,
    "पूँ": 891,
    "पॅ": 892,
    "पॆ": 893,
    "पॆं": 894,
    "पे": 895,
    "पेा": 896,
    "पै": 897,
    "पैा": 898,
    "पॉ": 899,
    "पॊ": 900,
    "पॊं": 901,
    "पो": 902,
    "पोा्चु": 903,
    "पौ": 904,
    "प्": 905,
    "प्का": 906,
    "प्टॆ": 907,
    "प्ण": 908,
    "प्त": 909,
    "प्प": 910,
    "प्पं": 911,
    "प्पा": 912,
    "प्पि": 913,
    "प्पिं": 914,
    "प्पु": 915,
    "प्पॆ": 916,
    "प्पे": 917,
    "प्पो": 918,
    "प्प्": 919,
    "प्प्मू": 920,
    "प्या": 921,
    "प्र": 922,
    "प्रा": 923,
    "प्रां": 924,
    "प्राः": 925,
    "प्रि": 926,
    "प्री": 927,
    "प्रीि": 928,
    "प्रॅ": 929,
    "प्रॆ": 930,
    "प्रे": 931,
    "प्रै": 932,
    "प्रॊ": 933,
    "प्रो": 934,
    "प्रौ": 935,
    "प्ल": 936,
    "प्ला": 937,
    "प्ले": 938,
    "प्लॉ": 939,
    "प्ष": 940,
    "प्स्": 941,
    "प्॰": 942,
    "प्॰ि": 943,
    "प्‍": 944,
    "प॰": 945,
    "प‌": 946,
    "फ": 947,
    "फ़": 948,
    "फा": 949,
    "फां": 950,
    "फि": 951,
    "फी": 952,
    "फु": 953,
    "फॆ": 954,
    "फे": 955,
    "फै": 956,
    "फो": 957,
    "फ्": 958,
    "फ्ट्": 959,
    "फ्या": 960,
    "फ्र": 961,
    "फ्री": 962,
    "फ्रू": 963,
    "फ्रो": 964,
    "फ्ला": 965,
    "फ्॰े": 966,
    "ब": 967,
    "बँ": 968,
    "बं": 969,
    "बा": 970,
    "बां": 971,
    "बि": 972,
    "बि॰": 973,
    "बी": 974,
    "बु": 975,
    "बू": 976,
    "बृ": 977,
    "बॆ": 978,
    "बॆं": 979,
    "बे": 980,
    "बें": 981,
    "बै": 982,
    "बैं": 983,
    "बॉ": 984,
    "बो": 985,
    "बौ": 986,
    "ब्": 987,
    "ब्थ": 988,
    "ब्द": 989,
    "ब्दी": 990,
    "ब्दु": 991,
    "ब्ध": 992,
    "ब्ब": 993,
    "ब्बा": 994,
    "ब्य": 995,
    "ब्या": 996,
    "ब्यां": 997,
    "ब्यु": 998,
    "ब्यू": 999,
    "ब्र": 1000,
    "ब्रा": 1001,
    "ब्रि": 1002,
    "ब्रु": 1003,
    "ब्रू": 1004,
    "ब्रे": 1005,
    "ब्ल": 1006,
    "ब्लि": 1007,
    "ब्लु": 1008,
    "ब्ल्यू": 1009,
    "ब्स": 1010,
    "ब्सि": 1011,
    "ब्य़": 1012,
    "ब्य़ा": 1013,
    "ब्॰ु": 1014,
    "ब॰": 1015,
    "बॱ": 1016,
    "भ": 1017,
    "भं": 1018,
    "भा": 1019,
    "भां": 1020,
    "भि": 1021,
    "भिं": 1022,
    "भी": 1023,
    "भु": 1024,
    "भू": 1025,
    "भृा": 1026,
    "भे": 1027,
    "भें": 1028,
    "भै": 1029,
    "भो": 1030,
    "भ्या": 1031,
    "भ्र": 1032,
    "भ॰": 1033,
    "म": 1034,
    "मं": 1035,
    "मः": 1036,
    "मा": 1037,
    "मां": 1038,
    "मााि": 1039,
    "मि": 1040,
    "मी": 1041,
    "मु": 1042,
    "मुं": 1043,
    "मुॱ": 1044,
    "मू": 1045,
    "मूा्त्ति": 1046,
    "मृ": 1047,
    "मॆ": 1048,
    "मे": 1049,
    "में": 1050,
    "मै": 1051,
    "मैं": 1052,
    "मैा": 1053,
    "मॊ": 1054,
    "मो": 1055,
    "मों": 1056,
    "मौ": 1057,
    "म्": 1058,
    "म्A": 1059,
    "म्ः": 1060,
    "म्का": 1061,
    "म्के": 1062,
    "म्प": 1063,
    "म्पा": 1064,
    "म्पि": 1065,
    "म्पु": 1066,
    "म्पू": 1067,
    "म्पे": 1068,
    "म्पो": 1069,
    "म्प्": 1070,
    "म्प्य": 1071,
    "म्प्या": 1072,
    "म्प्यु": 1073,
    "म्प्र": 1074,
    "म्प्॰": 1075,
    "म्ब": 1076,
    "म्बा": 1077,
    "म्बि": 1078,
    "म्बे": 1079,
    "म्ब्न": 1080,
    "म्भ": 1081,
    "म्भा": 1082,
    "म्भु": 1083,
    "म्म": 1084,
    "म्मा": 1085,
    "म्मि": 1086,
    "म्मु": 1087,
    "म्मू": 1088,
    "म्मे": 1089,
    "म्य": 1090,
    "म्या": 1091,
    "म्यां": 1092,
    "म्यु": 1093,
    "म्यू": 1094,
    "म्र": 1095,
    "म्रि": 1096,
    "म्श": 1097,
    "म्स": 1098,
    "म्ह": 1099,
    "म्ही": 1100,
    "म्य़": 1101,
    "म्य़ो": 1102,
    "म्॰ा": 1103,
    "म॰": 1104,
    "मॱ": 1105,
    "य": 1106,
    "यं": 1107,
    "य़": 1108,
    "य़ा": 1109,
    "य़े": 1110,
    "या": 1111,
    "यां": 1112,
    "याा्": 1113,
    "याा्पे": 1114,
    "या‍": 1115,
    "यि": 1116,
    "यिाि": 1117,
    "यी": 1118,
    "यु": 1119,
    "युं": 1120,
    "यू": 1121,
    "ये": 1122,
    "यें": 1123,
    "यै": 1124,
    "यॊ": 1125,
    "यो": 1126,
    "यों": 1127,
    "य्": 1128,
    "य्क्का": 1129,
    "य्त": 1130,
    "य्न्त": 1131,
    "य्भ": 1132,
    "य्म": 1133,
    "य्मा": 1134,
    "य्य": 1135,
    "य्यु": 1136,
    "य्यो": 1137,
    "य्वु": 1138,
    "य्स्री": 1139,
    "य्‌": 1140,
    "र": 1141,
    "रं": 1142,
    "ऱ": 1143,
    "रा": 1144,
    "रां": 1145,
    "राा्": 1146,
    "रा्": 1147,
    "रि": 1148,
    "रि॰": 1149,
    "री": 1150,
    "रीं": 1151,
    "रु": 1152,
    "रुं": 1153,
    "रु‍": 1154,
    "रू": 1155,
    "रॆ": 1156,
    "रॆं": 1157,
    "रे": 1158,
    "रें": 1159,
    "रै": 1160,
    "रॉँ": 1161,
    "रॊ": 1162,
    "रो": 1163,
    "र्": 1164,
    "र्ऎ": 1165,
    "र्क": 1166,
    "र्का": 1167,
    "र्कि": 1168,
    "र्किं": 1169,
    "र्कॆ": 1170,
    "र्के": 1171,
    "र्कॊं": 1172,
    "र्ग": 1173,
    "र्गा": 1174,
    "र्गि": 1175,
    "र्च": 1176,
    "र्चा": 1177,
    "र्चि": 1178,
    "र्चू": 1179,
    "र्च्चि": 1180,
    "र्ज": 1181,
    "र्जा": 1182,
    "र्जि": 1183,
    "र्जी": 1184,
    "र्ट": 1185,
    "र्टि": 1186,
    "र्टी": 1187,
    "र्ट्": 1188,
    "र्ट्स्": 1189,
    "र्ड": 1190,
    "र्डी": 1191,
    "र्डॆ": 1192,
    "र्ण": 1193,
    "र्णा": 1194,
    "र्णि": 1195,
    "र्णी": 1196,
    "र्णो": 1197,
    "र्त": 1198,
    "र्ति": 1199,
    "र्ती": 1200,
    "र्तु": 1201,
    "र्ते": 1202,
    "र्त्त": 1203,
    "र्त्ता": 1204,
    "र्थ": 1205,
    "र्थं": 1206,
    "र्थि": 1207,
    "र्द": 1208,
    "र्दि": 1209,
    "र्दे": 1210,
    "र्द्": 1211,
    "र्ध": 1212,
    "र्न": 1213,
    "र्ना": 1214,
    "र्नी": 1215,
    "र्प": 1216,
    "र्पा": 1217,
    "र्पे": 1218,
    "र्पै": 1219,
    "र्पॊ": 1220,
    "र्पो": 1221,
    "र्फे": 1222,
    "र्ब": 1223,
    "र्बा": 1224,
    "र्बि": 1225,
    "र्बो": 1226,
    "र्ब्ब": 1227,
    "र्भ": 1228,
    "र्भी": 1229,
    "र्म": 1230,
    "र्मा": 1231,
    "र्मि": 1232,
    "र्मी": 1233,
    "र्मु": 1234,
    "र्मे": 1235,
    "र्म्": 1236,
    "र्य": 1237,
    "र्या": 1238,
    "र्य्य": 1239,
    "र्य्या": 1240,
    "र्य्य़": 1241,
    "र्य्य़ा": 1242,
    "र्र": 1243,
    "र्रा": 1244,
    "र्रि": 1245,
    "र्ल": 1246,
    "र्लु": 1247,
    "र्लो": 1248,
    "र्व": 1249,
    "र्वा": 1250,
    "र्वि": 1251,
    "र्वे": 1252,
    "र्श": 1253,
    "र्शि": 1254,
    "र्ष": 1255,
    "र्षा": 1256,
    "र्षि": 1257,
    "र्षे": 1258,
    "र्स": 1259,
    "र्सि": 1260,
    "र्सिं": 1261,
    "र्सी": 1262,
    "र्सु": 1263,
    "र्स्": 1264,
    "र्‌": 1265,
    "र॰": 1266,
    "रॱ": 1267,
    "र‌": 1268,
    "र‍": 1269,
    "ऱ": 1270,
    "ऱं": 1271,
    "ऱा": 1272,
    "ऱि": 1273,
    "ऱिं": 1274,
    "ऱु": 1275,
    "ऱू": 1276,
    "ऱॆ": 1277,
    "ऱे": 1278,
    "ऱै": 1279,
    "ऱो": 1280,
    "ऱ्": 1281,
    "ऱ्क": 1282,
    "ऱ्का": 1283,
    "ऱ्कु": 1284,
    "ऱ्के": 1285,
    "ऱ्प": 1286,
    "ऱ्पू": 1287,
    "ऱ्ऱ": 1288,
    "ऱ्ऱं": 1289,
    "ऱ्ऱा": 1290,
    "ऱ्ऱि": 1291,
    "ऱ्ऱी": 1292,
    "ऱ्ऱु": 1293,
    "ऱ्ऱे": 1294,
    "ऱ्ऱो": 1295,
    "ऱ्ऱ्": 1296,
    "ल": 1297,
    "लं": 1298,
    "ला": 1299,
    "लां": 1300,
    "लि": 1301,
    "लिं": 1302,
    "लिा": 1303,
    "ली": 1304,
    "लु": 1305,
    "लुं": 1306,
    "लू": 1307,
    "लूा्": 1308,
    "लॆ": 1309,
    "लॆं": 1310,
    "ले": 1311,
    "लै": 1312,
    "लॉ": 1313,
    "लो": 1314,
    "लोँ": 1315,
    "लौ": 1316,
    "ल्": 1317,
    "ल्क": 1318,
    "ल्कि": 1319,
    "ल्कै": 1320,
    "ल्क्स्": 1321,
    "ल्गू": 1322,
    "ल्ट": 1323,
    "ल्टि": 1324,
    "ल्टी": 1325,
    "ल्टु": 1326,
    "ल्ट्": 1327,
    "ल्ट्रा": 1328,
    "ल्ड": 1329,
    "ल्डीं": 1330,
    "ल्ड्र": 1331,
    "ल्थ": 1332,
    "ल्दा": 1333,
    "ल्नी": 1334,
    "ल्प": 1335,
    "ल्पी": 1336,
    "ल्पॊ": 1337,
    "ल्फे": 1338,
    "ल्य": 1339,
    "ल्या": 1340,
    "ल्यां": 1341,
    "ल्यु": 1342,
    "ल्ल": 1343,
    "ल्लं": 1344,
    "ल्ला": 1345,
    "ल्ला‍": 1346,
    "ल्लि": 1347,
    "ल्ली": 1348,
    "ल्लु": 1349,
    "ल्लू": 1350,
    "ल्लूाि": 1351,
    "ल्लूा्": 1352,
    "ल्लॆ": 1353,
    "ल्ले": 1354,
    "ल्लै": 1355,
    "ल्वि": 1356,
    "ल्वॆ": 1357,
    "ल्वे": 1358,
    "ल्स्": 1359,
    "ल्हा": 1360,
    "ल्हे": 1361,
    "ल्ह्या": 1362,
    "ल्‌": 1363,
    "ल्‍": 1364,
    "ल॰": 1365,
    "लॱ": 1366,
    "ळ": 1367,
    "ळं": 1368,
    "ळा": 1369,
    "ळां": 1370,
    "ळा्": 1371,
    "ळि": 1372,
    "ळी": 1373,
    "ळु": 1374,
    "ळुं": 1375,
    "ळू": 1376,
    "ळॆ": 1377,
    "ळे": 1378,
    "ळै": 1379,
    "ळो": 1380,
    "ळ्": 1381,
    "ळ्अ": 1382,
    "ळ्ट": 1383,
    "ळ्प": 1384,
    "ळ्मि": 1385,
    "ळ्मी": 1386,
    "ळ्या": 1387,
    "ळ्यां": 1388,
    "ळ्ळ": 1389,
    "ळ्ळा": 1390,
    "ळ्ळि": 1391,
    "ळ्ळी": 1392,
    "ळ्ळु": 1393,
    "ळ‍": 1394,
    "ऴ": 1395,
    "ऴा": 1396,
    "ऴि": 1397,
    "ऴि‌": 1398,
    "ऴु": 1399,
    "ऴॆ": 1400,
    "ऴेां": 1401,
    "ऴै": 1402,
    "ऴ्": 1403,
    "ऴ्क": 1404,
    "ऴ्च्": 1405,
    "ऴ्न": 1406,
    "ऴ्ना": 1407,
    "ऴ्वु": 1408,
    "ऴ्‌": 1409,
    "व": 1410,
    "वं": 1411,
    "वः": 1412,
    "व़": 1413,
    "वा": 1414,
    "वां": 1415,
    "वा्": 1416,
    "वा्स्": 1417,
    "वि": 1418,
    "विं": 1419,
    "वि॰": 1420,
    "विॱ": 1421,
    "वी": 1422,
    "वीं": 1423,
    "वु": 1424,
    "वुं": 1425,
    "वू": 1426,
    "वृ": 1427,
    "वॅ": 1428,
    "वॆ": 1429,
    "वॆं": 1430,
    "वे": 1431,
    "वेा्ल्टु": 1432,
    "वै": 1433,
    "वॉ": 1434,
    "वॊ": 1435,
    "वो": 1436,
    "व्": 1437,
    "व्भ": 1438,
    "व्य": 1439,
    "व्या": 1440,
    "व्र": 1441,
    "व्व": 1442,
    "व्वं": 1443,
    "व्वि": 1444,
    "व्वी": 1445,
    "व्वू": 1446,
    "व्वे": 1447,
    "व्ह": 1448,
    "व्हि": 1449,
    "व्ही": 1450,
    "व्‌": 1451,
    "व॰": 1452,
    "व‌": 1453,
    "श": 1454,
    "शं": 1455,
    "शा": 1456,
    "शां": 1457,
    "शाः": 1458,
    "शि": 1459,
    "शी": 1460,
    "शीू": 1461,
    "शु": 1462,
    "शू": 1463,
    "शृ": 1464,
    "शॅ": 1465,
    "शॆ": 1466,
    "शे": 1467,
    "शै": 1468,
    "शो": 1469,
    "श्": 1470,
    "श्च": 1471,
    "श्चि": 1472,
    "श्ते": 1473,
    "श्ब": 1474,
    "श्मा": 1475,
    "श्य": 1476,
    "श्र": 1477,
    "श्रा": 1478,
    "श्रि": 1479,
    "श्री": 1480,
    "श्रु": 1481,
    "श्रे": 1482,
    "श्व": 1483,
    "श्वा": 1484,
    "श्श": 1485,
    "श्शि": 1486,
    "श्शे": 1487,
    "श्ष": 1488,
    "श्स": 1489,
    "श्य़": 1490,
    "श्॰ी": 1491,
    "श्ॱ": 1492,
    "श्‍": 1493,
    "ष": 1494,
    "षं": 1495,
    "षा": 1496,
    "षि": 1497,
    "षी": 1498,
    "षु": 1499,
    "षू": 1500,
    "षे": 1501,
    "षो": 1502,
    "ष्": 1503,
    "ष्का": 1504,
    "ष्कृ": 1505,
    "ष्ट": 1506,
    "ष्टा": 1507,
    "ष्टि": 1508,
    "ष्टी": 1509,
    "ष्टु": 1510,
    "ष्ट्र": 1511,
    "ष्ट्रा": 1512,
    "ष्ट्री": 1513,
    "ष्ट्॰": 1514,
    "ष्ट्॰ी": 1515,
    "ष्ठ": 1516,
    "ष्ठा": 1517,
    "ष्ण": 1518,
    "ष्णा": 1519,
    "ष्णू": 1520,
    "ष्ना": 1521,
    "ष्पा": 1522,
    "ष्म": 1523,
    "ष्मॆ": 1524,
    "ष्य": 1525,
    "ष्‌": 1526,
    "ष्‍": 1527,
    "षॢ": 1528,
    "स": 1529,
    "सं": 1530,
    "सः": 1531,
    "स़": 1532,
    "स़ा": 1533,
    "स़ि": 1534,
    "सा": 1535,
    "सां": 1536,
    "सा‍": 1537,
    "सि": 1538,
    "सिं": 1539,
    "सि॰": 1540,
    "सी": 1541,
    "सु": 1542,
    "सुँ": 1543,
    "सुं": 1544,
    "सू": 1545,
    "सृ": 1546,
    "सृं": 1547,
    "सॆ": 1548,
    "से": 1549,
    "सें": 1550,
    "से‍": 1551,
    "सै": 1552,
    "सैं": 1553,
    "सो": 1554,
    "सोँ": 1555,
    "सौ": 1556,
    "स्": 1557,
    "स्क": 1558,
    "स्का": 1559,
    "स्कु": 1560,
    "स्कू": 1561,
    "स्कृ": 1562,
    "स्गि": 1563,
    "स्जि": 1564,
    "स्जी": 1565,
    "स्ट": 1566,
    "स्टा": 1567,
    "स्टु": 1568,
    "स्टॆ": 1569,
    "स्टे": 1570,
    "स्टो": 1571,
    "स्ट्": 1572,
    "स्ट्री": 1573,
    "स्ट्रे": 1574,
    "स्त": 1575,
    "स्तं": 1576,
    "स्ता": 1577,
    "स्ति": 1578,
    "स्तु": 1579,
    "स्तू": 1580,
    "स्तृ": 1581,
    "स्तॆ": 1582,
    "स्ते": 1583,
    "स्त्र": 1584,
    "स्त्रा": 1585,
    "स्थ": 1586,
    "स्था": 1587,
    "स्थि": 1588,
    "स्थी": 1589,
    "स्थॆ": 1590,
    "स्थे": 1591,
    "स्थ्य": 1592,
    "स्ध": 1593,
    "स्धा": 1594,
    "स्धॆ": 1595,
    "स्नि": 1596,
    "स्ने": 1597,
    "स्प": 1598,
    "स्पा": 1599,
    "स्पि": 1600,
    "स्पृ": 1601,
    "स्पॆ": 1602,
    "स्पे": 1603,
    "स्फो": 1604,
    "स्ब": 1605,
    "स्बा": 1606,
    "स्म": 1607,
    "स्मा": 1608,
    "स्मृ": 1609,
    "स्य": 1610,
    "स्यः": 1611,
    "स्र": 1612,
    "स्ऱी": 1613,
    "स्री": 1614,
    "स्ऱ्ऱा": 1615,
    "स्ऱ्ऱि": 1616,
    "स्ऱ्ऱे": 1617,
    "स्ऱ्ऱो": 1618,
    "स्ला": 1619,
    "स्लि": 1620,
    "स्लॊ": 1621,
    "स्व": 1622,
    "स्वं": 1623,
    "स्वा": 1624,
    "स्वे": 1625,
    "स्सा": 1626,
    "स्सु": 1627,
    "स्सो": 1628,
    "स्स्": 1629,
    "स्स्मा": 1630,
    "स्स्‌": 1631,
    "स्॰": 1632,
    "स्॰ा": 1633,
    "स्ॱ": 1634,
    "स्‌": 1635,
    "स्‍": 1636,
    "स॰": 1637,
    "सॱ": 1638,
    "ह": 1639,
    "हं": 1640,
    "हः": 1641,
    "हा": 1642,
    "हां": 1643,
    "हा‍": 1644,
    "हि": 1645,
    "हिं": 1646,
    "हिः": 1647,
    "हि॰": 1648,
    "ही": 1649,
    "हीं": 1650,
    "हु": 1651,
    "हु॰": 1652,
    "हू": 1653,
    "हृ": 1654,
    "हॆ": 1655,
    "हे": 1656,
    "हें": 1657,
    "है": 1658,
    "है‍": 1659,
    "हॉ": 1660,
    "हॊ": 1661,
    "हो": 1662,
    "ह्": 1663,
    "ह्दि": 1664,
    "ह्न": 1665,
    "ह्म": 1666,
    "ह्य": 1667,
    "ह्या": 1668,
    "ह्रू": 1669,
    "ह॰": 1670,
    "हॱ": 1671,
    "ऽ": 1672,
    "ा": 1673,
    "े": 1674,
    "ॎ": 1675,
    "ॐ": 1676,
    "ज़ो": 1677,
    "ज़॰": 1678,
    "ड़": 1679,
    "ड़ा": 1680,
    "ड़ी": 1681,
    "ड़े": 1682,
    "ड़ै": 1683,
    "ड़ोु": 1684,
    "ड़्ह": 1685,
    "ड़्हे": 1686,
    "ढ़ि": 1687,
    "ढ़ी": 1688,
    "ढ़ो": 1689,
    "फ़": 1690,
    "फ़्ट": 1691,
    "फ़्दु": 1692,
    "य़": 1693,
    "य़ं": 1694,
    "य़ः": 1695,
    "य़़": 1696,
    "य़ा": 1697,
    "य़ां": 1698,
    "य़ि": 1699,
    "य़ी": 1700,
    "य़ु": 1701,
    "य़े": 1702,
    "य़ो": 1703,
    "य़्या": 1704,
    "य़ॗ": 1705,
    "ॠ": 1706,
    "।": 1707,
    "।‍": 1708,
    "॥": 1709,
    "०": 1710,
    "१": 1711,
    "१्को": 1712,
    "१‌": 1713,
    "२": 1714,
    "२़": 1715,
    "२ा": 1716,
    "३": 1717,
    "४": 1718,
    "५": 1719,
    "५ु": 1720,
    "५ो": 1721,
    "६": 1722,
    "७": 1723,
    "८": 1724,
    "९": 1725,
    "॰": 1726,
    "॰ा": 1727,
    "॰ि": 1728,
    "॰िः": 1729,
    "॰ी": 1730,
    "॰ु": 1731,
    "॰ू": 1732,
    "॰े": 1733,
    "॰ो": 1734,
    "॰्थ": 1735,
    "॰्प": 1736,
    "॰्ब": 1737,
    "॰्मा": 1738,
    "॰्य": 1739,
    "॰्य्य": 1740,
    "॰्य्या": 1741,
    "॰्ष": 1742,
    "ॱ": 1743,
    "ॱा": 1744,
    "ॱि": 1745,
    "ॱे": 1746,
    "ॱो": 1747,
    "ॳ": 1748,
    "ॳे": 1749,
    "ॷ": 1750,
    "ॺ": 1751,
    "ॺ‍": 1752,
    "ॻ": 1753,
    "ॻ्ऱ": 1754,
    "ॻ्ऱॆ": 1755,
    "ॻ्ऱ्": 1756,
    "ॻ‌": 1757,
    "ॻ‌‌": 1758,
    "ॼ": 1759,
    "ॼ‌": 1760,
    "ॼ‍": 1761,
    "ॽ": 1762,
    "ॽ‌": 1763,
    "ॽ‍": 1764,
    "ॾ": 1765,
    "​": 1766
  },
  "metadata": {
    "tag": "zs_scale810_malayalam",
    "num_graphemes": 1765,
    "space": "shared-abugida-pivot"
  }
}