{
  "grapheme2idx": {
    "<blank>": 0,
    "<unk>": 1,
    "'": 2,
    ")": 3,
    ",": 4,
    "-": 5,
    ".": 6,
    "0": 7,
    "1": 8,
    "2": 9,
    "6": 10,
    "7": 11,
    ":": 12,
    "दਿ": 13,
    "दੈ": 14,
    "।": 15,
    "॥": 16,
    "४": 17,
    "ਅ": 18,
    "ਅਂ": 19,
    "ਅੇ": 20,
    "ਅੰ": 21,
    "ਅੱ": 22,
    "ਆ": 23,
    "ਆं": 24,
    "ਆਂ": 25,
    "ਆੇ": 26,
    "ਇ": 27,
    "ਇੰ": 28,
    "ਇੱ": 29,
    "ਈ": 30,
    "ਉ": 31,
    "ਉਂ": 32,
    "ਉੱ": 33,
    "ਊ": 34,
    "ਊਂ": 35,
    "ਏ": 36,
    "ਐ": 37,
    "ਐਂ": 38,
    "ਐੇ": 39,
    "ਓ": 40,
    "ਓੇ": 41,
    "ਔ": 42,
    "ਕ": 43,
    "ਕਾ": 44,
    "ਕਾਂ": 45,
    "ਕਿ": 46,
    "ਕੀ": 47,
    "ਕੁ": 48,
    "ਕੁੰ": 49,
    "ਕੂ": 50,
    "ਕੇ": 51,
    "ਕੇਂ": 52,
    "ਕੋ": 53,
    "ਕੌ": 54,
    "ਕ੍ਰ": 55,
    "ਕ੍ਰਿ": 56,
    "ਕੰ": 57,
    "ਕੱ": 58,
    "ਖ": 59,
    "ਖु": 60,
    "ਖे": 61,
    "ਖ਼": 62,
    "ਖਾ": 63,
    "ਖਾਂ": 64,
    "ਖਿ": 65,
    "ਖਿਾ": 66,
    "ਖੀ": 67,
    "ਖੁ": 68,
    "ਖੂ": 69,
    "ਖੇ": 70,
    "ਖੇਾ": 71,
    "ਖੋ": 72,
    "ਖੰ": 73,
    "ਗ": 74,
    "ਗ਼ਿ": 75,
    "ਗਾ": 76,
    "ਗਾਂ": 77,
    "ਗਿ": 78,
    "ਗਿੰ": 79,
    "ਗੀ": 80,
    "ਗੁ": 81,
    "ਗੁਃ": 82,
    "ਗੂ": 83,
    "ਗੇ": 84,
    "ਗੈ": 85,
    "ਗੋ": 86,
    "ਗੋਂ": 87,
    "ਗ੍ਈ": 88,
    "ਗ੍ਰ": 89,
    "ਗ੍ਰਾ": 90,
    "ਗ੍ਹੱ": 91,
    "ਗੰ": 92,
    "ਗੱ": 93,
    "ਘ": 94,
    "ਘਾ": 95,
    "ਘਾਂ": 96,
    "ਘੋ": 97,
    "ਚ": 98,
    "ਚਾ": 99,
    "ਚਿ": 100,
    "ਚਿਂ": 101,
    "ਚੀ": 102,
    "ਚੁ": 103,
    "ਚੁੇ": 104,
    "ਚੂ": 105,
    "ਚੇ": 106,
    "ਚੇਂ": 107,
    "ਚੈ": 108,
    "ਚੋਂ": 109,
    "ਚੌ": 110,
    "ਚੌਂ": 111,
    "ਚੑ": 112,
    "ਚੰ": 113,
    "ਚੱ": 114,
    "ਛ": 115,
    "ਛਾ": 116,
    "ਛੁੱ": 117,
    "ਛੇ": 118,
    "ਛੋ": 119,
    "ਛੰ": 120,
    "ਜ": 121,
    "ਜ਼": 122,
    "ਜ਼ੀ": 123,
    "ਜਾ": 124,
    "ਜਾੰ": 125,
    "ਜਿ": 126,
    "ਜਿੰ": 127,
    "ਜਿੱ": 128,
    "ਜੀ": 129,
    "ਜੁ": 130,
    "ਜੁੱ": 131,
    "ਜੂ": 132,
    "ਜੇ": 133,
    "ਜੈ": 134,
    "ਜੋ": 135,
    "ਜੰ": 136,
    "ਝਾ": 137,
    "ਝੁ": 138,
    "ਝੇ": 139,
    "ਝੰ": 140,
    "ਟ": 141,
    "ਟਾ": 142,
    "ਟਿ": 143,
    "ਟਿੱ": 144,
    "ਟੀ": 145,
    "ਟੁ": 146,
    "ਟੂ": 147,
    "ਟੇ": 148,
    "ਟੇ੍ਨਿ": 149,
    "ਟੈ": 150,
    "ਟੈਂ": 151,
    "ਟੋ": 152,
    "ਟੌ": 153,
    "ਠ": 154,
    "ਠਾ": 155,
    "ਠਾਂ": 156,
    "ਠਿੰ": 157,
    "ਠੀ": 158,
    "ਠੇ": 159,
    "ਠੰ": 160,
    "ਡ": 161,
    "ਡ਼ੀ": 162,
    "ਡਾ": 163,
    "ਡਾਂ": 164,
    "ਡਿ": 165,
    "ਡੀ": 166,
    "ਡੂ": 167,
    "ਡੇ": 168,
    "ਡੈ": 169,
    "ਢਾ": 170,
    "ਢੰ": 171,
    "ਣ": 172,
    "ਣਾ": 173,
    "ਣੀ": 174,
    "ਣੁ": 175,
    "ਣੇ": 176,
    "ਣੇਂ": 177,
    "ਣੋ": 178,
    "ਣੌ": 179,
    "ਤ": 180,
    "ਤਾ": 181,
    "ਤਾਂ": 182,
    "ਤਿ": 183,
    "ਤਿੰ": 184,
    "ਤੀ": 185,
    "ਤੁ": 186,
    "ਤੂ": 187,
    "ਤੂੰ": 188,
    "ਤੇ": 189,
    "ਤੇਂ": 190,
    "ਤੋ": 191,
    "ਤੋਂ": 192,
    "ਤ੍ਰ": 193,
    "ਤੰ": 194,
    "ਤੱ": 195,
    "ਥ": 196,
    "ਥਾ": 197,
    "ਥਾਂ": 198,
    "ਥਿ": 199,
    "ਥੀ": 200,
    "ਥੂ": 201,
    "ਥੇ": 202,
    "ਥੈ": 203,
    "ਥੰ": 204,
    "ਦ": 205,
    "ਦू": 206,
    "ਦਾ": 207,
    "ਦਿ": 208,
    "ਦਿੰ": 209,
    "ਦੀ": 210,
    "ਦੀ੍": 211,
    "ਦੁ": 212,
    "ਦੇ": 213,
    "ਦੈ": 214,
    "ਦੋ": 215,
    "ਧ": 216,
    "ਧਾ": 217,
    "ਧਿ": 218,
    "ਧੀ": 219,
    "ਧੁ": 220,
    "ਧੂ": 221,
    "ਧੇ": 222,
    "ਧੋ": 223,
    "ਧੌ": 224,
    "ਧੰ": 225,
    "ਨ": 226,
    "ਨਃ": 227,
    "ਨਾ": 228,
    "ਨਾਂ": 229,
    "ਨਿ": 230,
    "ਨੀ": 231,
    "ਨੀਂ": 232,
    "ਨੁ": 233,
    "ਨੂ": 234,
    "ਨੂੰ": 235,
    "ਨੇ": 236,
    "ਨ੍ਹਾ": 237,
    "ਨ੍ਹਾਂ": 238,
    "ਨੰ": 239,
    "ਨੰਃ": 240,
    "ਨੱ": 241,
    "ਪ": 242,
    "ਪਾ": 243,
    "ਪਾਂ": 244,
    "ਪਿ": 245,
    "ਪਿੁ": 246,
    "ਪਿੰ": 247,
    "ਪੀ": 248,
    "ਪੁ": 249,
    "ਪੁੰ": 250,
    "ਪੂ": 251,
    "ਪੇ": 252,
    "ਪੇਂ": 253,
    "ਪੈ": 254,
    "ਪੈਂ": 255,
    "ਪੋ": 256,
    "ਪੌ": 257,
    "ਪ੍ਮਾ": 258,
    "ਪ੍ਰ": 259,
    "ਪ੍ਰਾ": 260,
    "ਪ੍ਰਿ": 261,
    "ਪ੍ਰੀ": 262,
    "ਪ੍ਰੀਿ": 263,
    "ਪ੍ਰੇ": 264,
    "ਪ੍ਰੋ": 265,
    "ਪੰ": 266,
    "ਪੱ": 267,
    "ਫ": 268,
    "ਫ਼": 269,
    "ਫਾ": 270,
    "ਫਿ": 271,
    "ਫੁ": 272,
    "ਫੇ": 273,
    "ਫੈ": 274,
    "ਫੋ": 275,
    "ਫੌ": 276,
    "ਬ": 277,
    "ਬਾ": 278,
    "ਬਾਂ": 279,
    "ਬਿ": 280,
    "ਬਿੑ": 281,
    "ਬਿੰ": 282,
    "ਬੀ": 283,
    "ਬੁ": 284,
    "ਬੁੱ": 285,
    "ਬੂ": 286,
    "ਬੂੰ": 287,
    "ਬੂੱ": 288,
    "ਬੇ": 289,
    "ਬੈ": 290,
    "ਬੈਂ": 291,
    "ਬੋ": 292,
    "ਬ੍ਰ": 293,
    "ਬ੍ਲੀ": 294,
    "ਬੰ": 295,
    "ਬੱ": 296,
    "ਭ": 297,
    "ਭਾ": 298,
    "ਭਿ": 299,
    "ਭੀ": 300,
    "ਭੁ": 301,
    "ਭੁੱ": 302,
    "ਭੂ": 303,
    "ਭੇ": 304,
    "ਭੇਂ": 305,
    "ਭੈ": 306,
    "ਭੰ": 307,
    "ਮ": 308,
    "ਮु": 309,
    "ਮਂ": 310,
    "ਮਾ": 311,
    "ਮਾਂ": 312,
    "ਮਿ": 313,
    "ਮਿ੍ਤ": 314,
    "ਮੀ": 315,
    "ਮੁ": 316,
    "ਮੁੱ": 317,
    "ਮੂ": 318,
    "ਮੇ": 319,
    "ਮੇਂ": 320,
    "ਮੈ": 321,
    "ਮੈਂ": 322,
    "ਮੈਾ": 323,
    "ਮੋ": 324,
    "ਮ੍ਰਿ": 325,
    "ਮੰ": 326,
    "ਮੱ": 327,
    "ਯਾ": 328,
    "ਯਾਂ": 329,
    "ਯੁ": 330,
    "ਯੂ": 331,
    "ਯੂਃ": 332,
    "ਯੋ": 333,
    "ਰ": 334,
    "ਰਾ": 335,
    "ਰਾਂ": 336,
    "ਰਿ": 337,
    "ਰਿਾ": 338,
    "ਰਿੰ": 339,
    "ਰੀ": 340,
    "ਰੀੁ": 341,
    "ਰੁ": 342,
    "ਰੁੱ": 343,
    "ਰੂ": 344,
    "ਰੇ": 345,
    "ਰੈ": 346,
    "ਰੋ": 347,
    "ਰੰ": 348,
    "ਰੱ": 349,
    "ਲ": 350,
    "ਲਾ": 351,
    "ਲਾਂ": 352,
    "ਲਾੇ": 353,
    "ਲਿ": 354,
    "ਲਿਂ": 355,
    "ਲਿਾ": 356,
    "ਲੀ": 357,
    "ਲੁ": 358,
    "ਲੂ": 359,
    "ਲੇ": 360,
    "ਲੇਂ": 361,
    "ਲੈ": 362,
    "ਲੋ": 363,
    "ਲੋਂ": 364,
    "ਲ੍ਹਾ": 365,
    "ਲੰ": 366,
    "ਲੱ": 367,
    "ਲ਼": 368,
    "ਲ਼ੱ": 369,
    "ਵ": 370,
    "ਵਃ": 371,
    "ਵਾ": 372,
    "ਵਾਂ": 373,
    "ਵਿ": 374,
    "ਵਿੰ": 375,
    "ਵਿੱ": 376,
    "ਵੀ": 377,
    "ਵੀਂ": 378,
    "ਵੇ": 379,
    "ਵੇਂ": 380,
    "ਵੈ": 381,
    "ਵੋ": 382,
    "ਵੰ": 383,
    "ਵੱ": 384,
    "ਸ਼": 385,
    "ਸ਼ਾ": 386,
    "ਸ਼ਿ": 387,
    "ਸ਼ੀ": 388,
    "ਸ਼ੀू": 389,
    "ਸ਼ੂ": 390,
    "ਸ਼੍ਰੀ": 391,
    "ਸ": 392,
    "ਸूੀ": 393,
    "ਸਂ": 394,
    "ਸਃ": 395,
    "ਸ਼": 396,
    "ਸ਼ਾ": 397,
    "ਸ਼ਾਂ": 398,
    "ਸ਼ਿ": 399,
    "ਸ਼੍ਰੀ": 400,
    "ਸਾ": 401,
    "ਸਾਂ": 402,
    "ਸਿ": 403,
    "ਸਿੰ": 404,
    "ਸਿੱ": 405,
    "ਸੀ": 406,
    "ਸੀਂ": 407,
    "ਸੀ੍ਅੰ": 408,
    "ਸੁ": 409,
    "ਸੁੱ": 410,
    "ਸੂ": 411,
    "ਸੇ": 412,
    "ਸੇੇ": 413,
    "ਸੈ": 414,
    "ਸੈਂ": 415,
    "ਸੋ": 416,
    "ਸ੍ਮੇ": 417,
    "ਸ੍ਰ": 418,
    "ਸ੍ਰ਼ੀ": 419,
    "ਸ੍ਰੀ": 420,
    "ਸ੍ਰੋ": 421,
    "ਸ੍ਹਾ": 422,
    "ਸੰ": 423,
    "ਸੱ": 424,
    "ਹ": 425,
    "ਹूਾ": 426,
    "ਹਂ": 427,
    "ਹਾ": 428,
    "ਹਾਂ": 429,
    "ਹਿ": 430,
    "ਹਿੰ": 431,
    "ਹਿੱ": 432,
    "ਹੀ": 433,
    "ਹੀਂ": 434,
    "ਹੁ": 435,
    "ਹੁੰ": 436,
    "ਹੂ": 437,
    "ਹੇ": 438,
    "ਹੈ": 439,
    "ਹੈਂ": 440,
    "ਹੋ": 441,
    "ਹੰ": 442,
    "ਹੱ": 443,
    "ਖ਼ੁ": 444,
    "ਖ਼ੁੰ": 445,
    "ਜ਼": 446,
    "ਜ਼ਾ": 447,
    "ਜ਼ਿ": 448,
    "ਜ਼ੋ": 449,
    "ਜ਼ੰ": 450,
    "ੜ": 451,
    "ੜਾ": 452,
    "ੜਿ": 453,
    "ੜੀ": 454,
    "ੜੇ": 455,
    "ੜੈ": 456,
    "ੜੋ": 457,
    "ੜੋੁ": 458,
    "ੜ੍ਹ": 459,
    "ੜ੍ਹੀ": 460,
    "ੜ੍ਹੇ": 461,
    "ਫ਼": 462,
    "੦": 463,
    "੧": 464,
    "੨": 465,
    "੩": 466,
    "੪": 467,
    "੫": 468,
    "੫ੁੱ": 469,
    "੬": 470,
    "੭": 471,
    "੮": 472,
    "੯": 473,
    "ੲ": 474,
    "ੲਾ": 475,
    "ੳ": 476,
    "ੳੇ": 477
  },
  "metadata": {
    "lang": "punjabi",
    "source_splits": "florence2_splits_bstd_punjabi_b1800.json",
    "num_graphemes": 476,
    "segmenter": "indic-generic (Mn/Mc + virama-join)"
  }
}