{
  "grapheme2idx": {
    "<blank>": 0,
    "<unk>": 1,
    "!": 2,
    "\"": 3,
    "&": 4,
    "'": 5,
    "(": 6,
    ")": 7,
    ",": 8,
    "-": 9,
    ".": 10,
    "/": 11,
    "0": 12,
    "1": 13,
    "2": 14,
    "3": 15,
    "4": 16,
    "5": 17,
    "6": 18,
    "7": 19,
    "8": 20,
    "9": 21,
    ":": 22,
    "?": 23,
    "A": 24,
    "D": 25,
    "G": 26,
    "H": 27,
    "I": 28,
    "O": 29,
    "P": 30,
    "V": 31,
    "c": 32,
    "|": 33,
    "°": 34,
    "ا": 35,
    "ت": 36,
    "ج": 37,
    "ر": 38,
    "گ": 39,
    "ی": 40,
    "ँ": 41,
    "अ": 42,
    "अं": 43,
    "अि": 44,
    "अ्या": 45,
    "अ॰": 46,
    "आ": 47,
    "आं": 48,
    "आे": 49,
    "आॕ": 50,
    "इ": 51,
    "इँ": 52,
    "इं": 53,
    "इ॰": 54,
    "इॱ": 55,
    "ई": 56,
    "ईँ": 57,
    "ईं": 58,
    "उ": 59,
    "उॱ": 60,
    "ऊ": 61,
    "ऊँ": 62,
    "ऊं": 63,
    "ऋ": 64,
    "ऍ": 65,
    "ऎ": 66,
    "ऎं": 67,
    "ऎ‍": 68,
    "ए": 69,
    "एँ": 70,
    "एा": 71,
    "ऐ": 72,
    "ऐं": 73,
    "ऑ": 74,
    "ऒ": 75,
    "ऒं": 76,
    "ऒ‌": 77,
    "ओ": 78,
    "ओँ": 79,
    "ओं": 80,
    "ओ्बा": 81,
    "औ": 82,
    "औं": 83,
    "क": 84,
    "कं": 85,
    "कः": 86,
    "का": 87,
    "काँ": 88,
    "कां": 89,
    "काुं": 90,
    "काे": 91,
    "का‍": 92,
    "का‍‌": 93,
    "कि": 94,
    "किं": 95,
    "की": 96,
    "कीे": 97,
    "कु": 98,
    "कुं": 99,
    "कु॰": 100,
    "कू": 101,
    "कृ": 102,
    "कॅ": 103,
    "कॅा": 104,
    "कॆ": 105,
    "कॆं": 106,
    "के": 107,
    "कें": 108,
    "केे": 109,
    "कै": 110,
    "कॉ": 111,
    "कॊ": 112,
    "कॊं": 113,
    "को": 114,
    "कोँ": 115,
    "कों": 116,
    "कों‌": 117,
    "क्": 118,
    "क्क": 119,
    "क्कं": 120,
    "क्का": 121,
    "क्कि": 122,
    "क्की": 123,
    "क्कु": 124,
    "क्कू": 125,
    "क्कॆ": 126,
    "क्के": 127,
    "क्कॊ": 128,
    "क्को": 129,
    "क्क्": 130,
    "क्कॗ": 131,
    "क्ट": 132,
    "क्टो": 133,
    "क्त": 134,
    "क्ता": 135,
    "क्तां": 136,
    "क्ति": 137,
    "क्तीं": 138,
    "क्तु": 139,
    "क्पे": 140,
    "क्मि": 141,
    "क्य": 142,
    "क्या": 143,
    "क्यू": 144,
    "क्र": 145,
    "क्रं": 146,
    "क्रा": 147,
    "क्रि": 148,
    "क्री": 149,
    "क्रे": 150,
    "क्रै": 151,
    "क्रो": 152,
    "क्ला": 153,
    "क्ळ": 154,
    "क्व": 155,
    "क्वा": 156,
    "क्वॆ": 157,
    "क्श": 158,
    "क्ष": 159,
    "क्षा": 160,
    "क्षां": 161,
    "क्षि": 162,
    "क्षिं": 163,
    "क्षी": 164,
    "क्षुः": 165,
    "क्षे": 166,
    "क्षो": 167,
    "क्ष्म": 168,
    "क्ष्मि": 169,
    "क्ष्मी": 170,
    "क्ष्य": 171,
    "क्स": 172,
    "क्सि": 173,
    "क्स्": 174,
    "क्य़ा": 175,
    "क्॰": 176,
    "क्॰ा": 177,
    "क्॰े": 178,
    "क्‌": 179,
    "क्‍": 180,
    "क॰": 181,
    "कॱ": 182,
    "क‌": 183,
    "क‍ी": 184,
    "ख": 185,
    "खं": 186,
    "ख़": 187,
    "खा": 188,
    "खाँ": 189,
    "खां": 190,
    "खि": 191,
    "खी": 192,
    "खु": 193,
    "खू": 194,
    "खॆ": 195,
    "खे": 196,
    "खै": 197,
    "खो": 198,
    "ख्त": 199,
    "ख्य": 200,
    "ख्यु": 201,
    "ख्रीः": 202,
    "ग": 203,
    "गं": 204,
    "गा": 205,
    "गाँ": 206,
    "गां": 207,
    "गि": 208,
    "गि॰": 209,
    "गी": 210,
    "गु": 211,
    "गुं": 212,
    "गू": 213,
    "गृ": 214,
    "गॆ": 215,
    "गॆं": 216,
    "गे": 217,
    "गै": 218,
    "गॊ": 219,
    "गो": 220,
    "गों": 221,
    "गौ": 222,
    "ग्": 223,
    "ग्ग": 224,
    "ग्गि": 225,
    "ग्गॆ": 226,
    "ग्ण": 227,
    "ग्न": 228,
    "ग्नि": 229,
    "ग्ब": 230,
    "ग्य": 231,
    "ग्या": 232,
    "ग्ये": 233,
    "ग्र": 234,
    "ग्रं": 235,
    "ग्रा": 236,
    "ग्रां": 237,
    "ग्री": 238,
    "ग्रू": 239,
    "ग्रे": 240,
    "ग्ला": 241,
    "ग्वा": 242,
    "ग्स": 243,
    "ग्य़ा": 244,
    "ग्॰ु": 245,
    "ग्‌": 246,
    "ग॰": 247,
    "गॱ": 248,
    "घ": 249,
    "घा": 250,
    "घां": 251,
    "घु": 252,
    "घे": 253,
    "घो": 254,
    "घौ": 255,
    "घ्य": 256,
    "घ्या": 257,
    "ङ": 258,
    "ङा": 259,
    "ङि": 260,
    "ङे": 261,
    "ङ्क": 262,
    "ङ्का": 263,
    "ङ्कि": 264,
    "ङ्कु": 265,
    "ङ्क्": 266,
    "ङ्क्षा": 267,
    "ङ्ग": 268,
    "ङ्गि": 269,
    "ङ्गी": 270,
    "ङ्गु": 271,
    "ङ्गे": 272,
    "ङ्गो": 273,
    "ङ्घ": 274,
    "ङ्ङ": 275,
    "ङ्ङा": 276,
    "ङ्ङि": 277,
    "ङ्ङों": 278,
    "ङ्ङ्‌": 279,
    "ङ्‌": 280,
    "च": 281,
    "चं": 282,
    "च़": 283,
    "चा": 284,
    "चां": 285,
    "चि": 286,
    "चिं": 287,
    "ची": 288,
    "चु": 289,
    "चुे": 290,
    "चू": 291,
    "चॆ": 292,
    "चे": 293,
    "चें": 294,
    "चै": 295,
    "चो": 296,
    "चौ": 297,
    "च्च": 298,
    "च्चं": 299,
    "च्चा": 300,
    "च्चि": 301,
    "च्चे": 302,
    "च्च्": 303,
    "च्च्‌": 304,
    "च्छ": 305,
    "च्छा": 306,
    "च्छु": 307,
    "च्छ्": 308,
    "च्ट": 309,
    "च्य": 310,
    "च्या": 311,
    "च्यु": 312,
    "च॑": 313,
    "चॖे": 314,
    "च॰": 315,
    "चॱ": 316,
    "छ": 317,
    "छा": 318,
    "छि": 319,
    "छु": 320,
    "छुॱ": 321,
    "छे": 322,
    "छें": 323,
    "छो": 324,
    "छोँ": 325,
    "छ॰": 326,
    "ज": 327,
    "जं": 328,
    "ज़": 329,
    "ज़ी": 330,
    "ज़ु": 331,
    "जा": 332,
    "जि": 333,
    "जिं": 334,
    "जि॰": 335,
    "जिॱ": 336,
    "जी": 337,
    "जु": 338,
    "जुॱ": 339,
    "जू": 340,
    "जॆ": 341,
    "जे": 342,
    "जें": 343,
    "जै": 344,
    "जो": 345,
    "ज्": 346,
    "ज्ज": 347,
    "ज्जं": 348,
    "ज्ञ": 349,
    "ज्ञा": 350,
    "ज्ञी": 351,
    "ज्ब": 352,
    "ज्य": 353,
    "ज्यु": 354,
    "ज्यू": 355,
    "ज्येा": 356,
    "ज्यो": 357,
    "ज्यों": 358,
    "ज्व": 359,
    "ज्सि": 360,
    "ज्य़": 361,
    "ज्य़ो": 362,
    "ज॰": 363,
    "झ": 364,
    "झा": 365,
    "झाँ": 366,
    "झां": 367,
    "झि": 368,
    "झी": 369,
    "झे": 370,
    "झ॰": 371,
    "ञा": 372,
    "ञ्च": 373,
    "ञ्चा": 374,
    "ञ्चि": 375,
    "ञ्चे": 376,
    "ञ्ज": 377,
    "ञ्जा": 378,
    "ञ्जि": 379,
    "ञ्जी": 380,
    "ञ्ञ": 381,
    "ञ्ञा": 382,
    "ञ्ञि": 383,
    "ञ्ञॆ": 384,
    "ट": 385,
    "टा": 386,
    "टि": 387,
    "टिं": 388,
    "टी": 389,
    "टु": 390,
    "टू": 391,
    "टॆ": 392,
    "टे": 393,
    "टै": 394,
    "टैं": 395,
    "टो": 396,
    "टौ": 397,
    "ट्": 398,
    "ट्ट": 399,
    "ट्टं": 400,
    "ट्ट़": 401,
    "ट्टा": 402,
    "ट्टि": 403,
    "ट्टी": 404,
    "ट्टु": 405,
    "ट्टॆ": 406,
    "ट्टै": 407,
    "ट्टो": 408,
    "ट्ट्": 409,
    "ट्ण": 410,
    "ट्त": 411,
    "ट्न": 412,
    "ट्नं": 413,
    "ट्य": 414,
    "ट्यू": 415,
    "ट्र": 416,
    "ट्रा": 417,
    "ट्रि": 418,
    "ट्रे": 419,
    "ट्रै": 420,
    "ट्रो": 421,
    "ट्र्या": 422,
    "ट्ल": 423,
    "ट्लु": 424,
    "ट्व": 425,
    "ट्स्": 426,
    "ट्॰": 427,
    "ट्‌": 428,
    "ट्‍": 429,
    "ट‌": 430,
    "ठ": 431,
    "ठा": 432,
    "ठि": 433,
    "ठि॰": 434,
    "ठी": 435,
    "ठे": 436,
    "ठें": 437,
    "ठो": 438,
    "ठ्ठ": 439,
    "ड": 440,
    "डः": 441,
    "ड़": 442,
    "ड़ा": 443,
    "ड़ि": 444,
    "ड़ी": 445,
    "ड़े": 446,
    "ड़ौ": 447,
    "डा": 448,
    "डाः": 449,
    "डि": 450,
    "डी": 451,
    "डु": 452,
    "डू": 453,
    "डॆ": 454,
    "डॆं": 455,
    "डे": 456,
    "डै": 457,
    "डो": 458,
    "ड्": 459,
    "ड्क": 460,
    "ड्ड": 461,
    "ड्डा": 462,
    "ड्डि": 463,
    "ड्डु": 464,
    "ड्पे": 465,
    "ड्यं": 466,
    "ड्या": 467,
    "ड्यां": 468,
    "ड्यू": 469,
    "ड्र": 470,
    "ड्रि": 471,
    "ड्री": 472,
    "ड्रो": 473,
    "ड्‌": 474,
    "ड्‍": 475,
    "ढ": 476,
    "ढ़": 477,
    "ढ़ि": 478,
    "ढ़ी": 479,
    "ढि": 480,
    "ढु": 481,
    "ढे": 482,
    "ढे़": 483,
    "ण": 484,
    "णं": 485,
    "णा": 486,
    "णाः": 487,
    "णि": 488,
    "णी": 489,
    "णीं": 490,
    "णु": 491,
    "णू": 492,
    "णॆ": 493,
    "णे": 494,
    "णो": 495,
    "ण्": 496,
    "ण्ट": 497,
    "ण्टं": 498,
    "ण्टि": 499,
    "ण्टु": 500,
    "ण्टॆ": 501,
    "ण्टे": 502,
    "ण्ट्": 503,
    "ण्ट्‌": 504,
    "ण्ड": 505,
    "ण्डा": 506,
    "ण्डि": 507,
    "ण्ढ": 508,
    "ण्ण": 509,
    "ण्णा": 510,
    "ण्णी": 511,
    "ण्णु": 512,
    "ण्णू": 513,
    "ण्ता": 514,
    "ण्य": 515,
    "ण्या": 516,
    "ण्रा": 517,
    "ण्री": 518,
    "ण्‌": 519,
    "ण‍": 520,
    "त": 521,
    "तं": 522,
    "तः": 523,
    "त़": 524,
    "त़ि": 525,
    "ता": 526,
    "ताँ": 527,
    "तां": 528,
    "ति": 529,
    "तिं": 530,
    "तिः": 531,
    "ती": 532,
    "तु": 533,
    "तुं": 534,
    "तू": 535,
    "तू॰": 536,
    "तृ": 537,
    "तॆ": 538,
    "तॆॆ": 539,
    "तॆ्र्र": 540,
    "ते": 541,
    "तें": 542,
    "तॊ": 543,
    "तो": 544,
    "तों": 545,
    "त्": 546,
    "त्उ": 547,
    "त्क": 548,
    "त्का": 549,
    "त्कू": 550,
    "त्त": 551,
    "त्ता": 552,
    "त्ति": 553,
    "त्ती": 554,
    "त्तु": 555,
    "त्तू": 556,
    "त्तॆ": 557,
    "त्तॊ": 558,
    "त्तो": 559,
    "त्त्": 560,
    "त्त्य": 561,
    "त्त्व": 562,
    "त्त्‌": 563,
    "त्थ": 564,
    "त्थि": 565,
    "त्न": 566,
    "त्ब": 567,
    "त्बे": 568,
    "त्भ": 569,
    "त्म": 570,
    "त्मा": 571,
    "त्य": 572,
    "त्या": 573,
    "त्यां": 574,
    "त्यु": 575,
    "त्ये": 576,
    "त्य्": 577,
    "त्र": 578,
    "त्रं": 579,
    "त्रं‌": 580,
    "त्रा": 581,
    "त्रि": 582,
    "त्री": 583,
    "त्रॆ": 584,
    "त्रे": 585,
    "त्रों": 586,
    "त्र्य": 587,
    "त्र्यं": 588,
    "त्व": 589,
    "त्वा": 590,
    "त्वि": 591,
    "त्स": 592,
    "त्सा": 593,
    "त्स्": 594,
    "त्स्ना": 595,
    "त्य़": 596,
    "त्य़ु": 597,
    "त्य़े": 598,
    "त्॰": 599,
    "त्‌": 600,
    "त्‍": 601,
    "त॰": 602,
    "त‍े": 603,
    "थ": 604,
    "था": 605,
    "थां": 606,
    "थि": 607,
    "थी": 608,
    "थु": 609,
    "थू": 610,
    "थृ": 611,
    "थे": 612,
    "थ्य": 613,
    "थ्य़": 614,
    "द": 615,
    "दा": 616,
    "दां": 617,
    "दि": 618,
    "दिं": 619,
    "दि॰": 620,
    "दी": 621,
    "दु": 622,
    "दू": 623,
    "दूं": 624,
    "दृ": 625,
    "दॆ": 626,
    "दे": 627,
    "दें": 628,
    "दै": 629,
    "दॊ": 630,
    "दो": 631,
    "दौ": 632,
    "द्": 633,
    "द्घा": 634,
    "द्ट": 635,
    "द्टु": 636,
    "द्द": 637,
    "द्दा": 638,
    "द्दि": 639,
    "द्दु": 640,
    "द्ध": 641,
    "द्धा": 642,
    "द्धि": 643,
    "द्धी": 644,
    "द्ध्यं": 645,
    "द्ब": 646,
    "द्बा": 647,
    "द्बि": 648,
    "द्बी": 649,
    "द्बो": 650,
    "द्म": 651,
    "द्मा": 652,
    "द्य": 653,
    "द्या": 654,
    "द्यो": 655,
    "द्र": 656,
    "द्रा": 657,
    "द्रि": 658,
    "द्री": 659,
    "द्रु": 660,
    "द्रे": 661,
    "द्रौ": 662,
    "द्व": 663,
    "द्वा": 664,
    "द्वी": 665,
    "द्य़": 666,
    "द्य़ा": 667,
    "द्॰": 668,
    "द्‌": 669,
    "ध": 670,
    "धा": 671,
    "धि": 672,
    "धिि": 673,
    "धी": 674,
    "धीं": 675,
    "धु": 676,
    "धू": 677,
    "धे": 678,
    "धो": 679,
    "ध्दा": 680,
    "ध्दी": 681,
    "ध्ब": 682,
    "ध्य": 683,
    "ध्या": 684,
    "ध्ये": 685,
    "ध्र": 686,
    "ध्व": 687,
    "ध॰": 688,
    "न": 689,
    "नं": 690,
    "नः": 691,
    "ना": 692,
    "नां": 693,
    "नि": 694,
    "निं": 695,
    "निः": 696,
    "निॕ": 697,
    "नि‍": 698,
    "नी": 699,
    "नु": 700,
    "नुं": 701,
    "नू": 702,
    "नू॰": 703,
    "नृ": 704,
    "नॅ": 705,
    "नॆ": 706,
    "ने": 707,
    "नेे": 708,
    "नै": 709,
    "नॊ": 710,
    "नो": 711,
    "नौ": 712,
    "न्": 713,
    "न्कु": 714,
    "न्ट": 715,
    "न्टा": 716,
    "न्ट्र": 717,
    "न्ट्रा": 718,
    "न्ड": 719,
    "न्डि": 720,
    "न्डी": 721,
    "न्डे": 722,
    "न्त": 723,
    "न्ता": 724,
    "न्ति": 725,
    "न्ती": 726,
    "न्तु": 727,
    "न्ते": 728,
    "न्तो": 729,
    "न्त्र": 730,
    "न्त्रि": 731,
    "न्त्री": 732,
    "न्त्॰ा": 733,
    "न्त्॰ि": 734,
    "न्त्॰ी": 735,
    "न्थ": 736,
    "न्था": 737,
    "न्द": 738,
    "न्दा": 739,
    "न्दि": 740,
    "न्दी": 741,
    "न्दु": 742,
    "न्दे": 743,
    "न्दो": 744,
    "न्द्यो": 745,
    "न्द्र": 746,
    "न्द्रं": 747,
    "न्द्रा": 748,
    "न्द्री": 749,
    "न्द्र्र": 750,
    "न्द्॰": 751,
    "न्द्॰ी": 752,
    "न्ध": 753,
    "न्धि": 754,
    "न्धी": 755,
    "न्न": 756,
    "न्नं": 757,
    "न्ना": 758,
    "न्नि": 759,
    "न्नि‍": 760,
    "न्नु": 761,
    "न्नुं": 762,
    "न्नू": 763,
    "न्नै": 764,
    "न्न्": 765,
    "न्ब": 766,
    "न्म": 767,
    "न्मा": 768,
    "न्मे": 769,
    "न्मो": 770,
    "न्म्या": 771,
    "न्य": 772,
    "न्यः": 773,
    "न्या": 774,
    "न्यु": 775,
    "न्यू": 776,
    "न्ये": 777,
    "न्ऱॆ": 778,
    "न्ऱ्": 779,
    "न्ल": 780,
    "न्वी": 781,
    "न्वे": 782,
    "न्स": 783,
    "न्सा": 784,
    "न्सि": 785,
    "न्सी": 786,
    "न्सू": 787,
    "न्स्": 788,
    "न्स्टि": 789,
    "न्हा": 790,
    "न्हां": 791,
    "न्य़": 792,
    "न्य़ा": 793,
    "न्‌": 794,
    "न॰": 795,
    "न॰ः": 796,
    "नॱ": 797,
    "प": 798,
    "पं": 799,
    "पा": 800,
    "पाँ": 801,
    "पां": 802,
    "पि": 803,
    "पिं": 804,
    "पिु": 805,
    "पी": 806,
    "पु": 807,
    "पू": 808,
    "पूँ": 809,
    "पृ": 810,
    "पॅ": 811,
    "पॆ": 812,
    "पॆं": 813,
    "पे": 814,
    "पै": 815,
    "पैा": 816,
    "पॉ": 817,
    "पॊ": 818,
    "पॊं": 819,
    "पो": 820,
    "पौ": 821,
    "प्": 822,
    "प्का": 823,
    "प्ण": 824,
    "प्त": 825,
    "प्ति": 826,
    "प्न": 827,
    "प्प": 828,
    "प्पं": 829,
    "प्पा": 830,
    "प्पि": 831,
    "प्पिं": 832,
    "प्पी": 833,
    "प्पु": 834,
    "प्पॆ": 835,
    "प्पो": 836,
    "प्प्": 837,
    "प्प्‌": 838,
    "प्या": 839,
    "प्र": 840,
    "प्रा": 841,
    "प्रां": 842,
    "प्राः": 843,
    "प्रि": 844,
    "प्री": 845,
    "प्रीि": 846,
    "प्रॅ": 847,
    "प्रॆ": 848,
    "प्रे": 849,
    "प्रै": 850,
    "प्रॊ": 851,
    "प्रो": 852,
    "प्रौ": 853,
    "प्ल": 854,
    "प्ला": 855,
    "प्ले": 856,
    "प्लै": 857,
    "प्लॉ": 858,
    "प्ष": 859,
    "प्॰": 860,
    "प्॰ि": 861,
    "प्‍": 862,
    "प॰": 863,
    "प‌": 864,
    "फ": 865,
    "फ़": 866,
    "फा": 867,
    "फां": 868,
    "फि": 869,
    "फी": 870,
    "फु": 871,
    "फॆ": 872,
    "फे": 873,
    "फै": 874,
    "फो": 875,
    "फ्": 876,
    "फ्ट्": 877,
    "फ्या": 878,
    "फ्र": 879,
    "फ्री": 880,
    "फ्रू": 881,
    "फ्रो": 882,
    "फ्ला": 883,
    "फ्॰े": 884,
    "ब": 885,
    "बँ": 886,
    "बं": 887,
    "बा": 888,
    "बां": 889,
    "बि": 890,
    "बि॰": 891,
    "बी": 892,
    "बु": 893,
    "बू": 894,
    "बृ": 895,
    "बॆ": 896,
    "बॆं": 897,
    "बे": 898,
    "बें": 899,
    "बै": 900,
    "बैं": 901,
    "बॉ": 902,
    "बो": 903,
    "बौ": 904,
    "ब्": 905,
    "ब्थ": 906,
    "ब्द": 907,
    "ब्दी": 908,
    "ब्दु": 909,
    "ब्ध": 910,
    "ब्ब": 911,
    "ब्बा": 912,
    "ब्य": 913,
    "ब्या": 914,
    "ब्यां": 915,
    "ब्यु": 916,
    "ब्यू": 917,
    "ब्र": 918,
    "ब्रा": 919,
    "ब्रि": 920,
    "ब्रु": 921,
    "ब्रू": 922,
    "ब्रे": 923,
    "ब्ल": 924,
    "ब्लु": 925,
    "ब्लो": 926,
    "ब्ल्यू": 927,
    "ब्स": 928,
    "ब्सि": 929,
    "ब्य़ा": 930,
    "ब्॰ु": 931,
    "ब॰": 932,
    "बॱ": 933,
    "भ": 934,
    "भं": 935,
    "भा": 936,
    "भां": 937,
    "भि": 938,
    "भिं": 939,
    "भी": 940,
    "भु": 941,
    "भू": 942,
    "भृा": 943,
    "भे": 944,
    "भें": 945,
    "भै": 946,
    "भो": 947,
    "भ्य": 948,
    "भ्या": 949,
    "भ्र": 950,
    "भ॰": 951,
    "म": 952,
    "मं": 953,
    "मः": 954,
    "मा": 955,
    "मां": 956,
    "मि": 957,
    "मी": 958,
    "मु": 959,
    "मुं": 960,
    "मुॱ": 961,
    "मू": 962,
    "मृ": 963,
    "मॆ": 964,
    "मे": 965,
    "में": 966,
    "मै": 967,
    "मैं": 968,
    "मैा": 969,
    "मॊ": 970,
    "मो": 971,
    "मों": 972,
    "मौ": 973,
    "म्": 974,
    "म्का": 975,
    "म्ना": 976,
    "म्प": 977,
    "म्पा": 978,
    "म्पि": 979,
    "म्पु": 980,
    "म्पू": 981,
    "म्पे": 982,
    "म्प्": 983,
    "म्प्या": 984,
    "म्प्यु": 985,
    "म्प्यू": 986,
    "म्प्ले": 987,
    "म्प्वा": 988,
    "म्प्॰": 989,
    "म्ब": 990,
    "म्बा": 991,
    "म्बि": 992,
    "म्बे": 993,
    "म्ब्न": 994,
    "म्भ": 995,
    "म्भा": 996,
    "म्भु": 997,
    "म्म": 998,
    "म्मा": 999,
    "म्मि": 1000,
    "म्मु": 1001,
    "म्मू": 1002,
    "म्मे": 1003,
    "म्य": 1004,
    "म्या": 1005,
    "म्यां": 1006,
    "म्यु": 1007,
    "म्यू": 1008,
    "म्र": 1009,
    "म्रा": 1010,
    "म्रि": 1011,
    "म्श": 1012,
    "म्स": 1013,
    "म्ह": 1014,
    "म्ही": 1015,
    "म्॰ा": 1016,
    "म्‌": 1017,
    "म॰": 1018,
    "मॱ": 1019,
    "य": 1020,
    "यं": 1021,
    "य़": 1022,
    "य़ा": 1023,
    "य़े": 1024,
    "या": 1025,
    "यां": 1026,
    "या‍": 1027,
    "यि": 1028,
    "यी": 1029,
    "यु": 1030,
    "युं": 1031,
    "यू": 1032,
    "ये": 1033,
    "यें": 1034,
    "यॊ": 1035,
    "यो": 1036,
    "यों": 1037,
    "य्": 1038,
    "य्क्का": 1039,
    "य्क्कां": 1040,
    "य्क्क्": 1041,
    "य्त": 1042,
    "य्म": 1043,
    "य्य": 1044,
    "य्य़ा": 1045,
    "य्‌": 1046,
    "यॖ": 1047,
    "र": 1048,
    "रं": 1049,
    "रा": 1050,
    "रां": 1051,
    "रि": 1052,
    "रि॰": 1053,
    "री": 1054,
    "रीं": 1055,
    "रु": 1056,
    "रुं": 1057,
    "रू": 1058,
    "रॆ": 1059,
    "रॆं": 1060,
    "रे": 1061,
    "रें": 1062,
    "रै": 1063,
    "रॉँ": 1064,
    "रॊ": 1065,
    "रो": 1066,
    "र्": 1067,
    "र्ऎ": 1068,
    "र्क": 1069,
    "र्का": 1070,
    "र्कि": 1071,
    "र्किं": 1072,
    "र्कॆ": 1073,
    "र्के": 1074,
    "र्कॊं": 1075,
    "र्ग": 1076,
    "र्गि": 1077,
    "र्च": 1078,
    "र्चा": 1079,
    "र्चि": 1080,
    "र्चू": 1081,
    "र्च्च": 1082,
    "र्च्चि": 1083,
    "र्ज": 1084,
    "र्जा": 1085,
    "र्जी": 1086,
    "र्ट": 1087,
    "र्टि": 1088,
    "र्टी": 1089,
    "र्ट्": 1090,
    "र्ट्स्": 1091,
    "र्ड": 1092,
    "र्डी": 1093,
    "र्डॆ": 1094,
    "र्ण": 1095,
    "र्णि": 1096,
    "र्णी": 1097,
    "र्णो": 1098,
    "र्ण्णा": 1099,
    "र्ण्णी": 1100,
    "र्ण्न": 1101,
    "र्त": 1102,
    "र्ति": 1103,
    "र्ती": 1104,
    "र्तु": 1105,
    "र्ते": 1106,
    "र्थ": 1107,
    "र्थं": 1108,
    "र्थि": 1109,
    "र्द": 1110,
    "र्दि": 1111,
    "र्दु": 1112,
    "र्दे": 1113,
    "र्द्": 1114,
    "र्ध": 1115,
    "र्न": 1116,
    "र्ना": 1117,
    "र्नी": 1118,
    "र्प": 1119,
    "र्पा": 1120,
    "र्पे": 1121,
    "र्पै": 1122,
    "र्पॊ": 1123,
    "र्पो": 1124,
    "र्फे": 1125,
    "र्ब": 1126,
    "र्बि": 1127,
    "र्बो": 1128,
    "र्ब्ब": 1129,
    "र्भ": 1130,
    "र्भा": 1131,
    "र्भी": 1132,
    "र्म": 1133,
    "र्मा": 1134,
    "र्मि": 1135,
    "र्मी": 1136,
    "र्मु": 1137,
    "र्मे": 1138,
    "र्म्": 1139,
    "र्य": 1140,
    "र्या": 1141,
    "र्य्या": 1142,
    "र्य्य़": 1143,
    "र्य्य़ा": 1144,
    "र्र": 1145,
    "र्रा": 1146,
    "र्रि": 1147,
    "र्ल": 1148,
    "र्लु": 1149,
    "र्लो": 1150,
    "र्व": 1151,
    "र्वा": 1152,
    "र्वि": 1153,
    "र्वे": 1154,
    "र्श": 1155,
    "र्शि": 1156,
    "र्ष": 1157,
    "र्षा": 1158,
    "र्षि": 1159,
    "र्षे": 1160,
    "र्स": 1161,
    "र्सि": 1162,
    "र्सिं": 1163,
    "र्सी": 1164,
    "र्सु": 1165,
    "र्स्": 1166,
    "र्‌": 1167,
    "र॰": 1168,
    "रॱ": 1169,
    "र‌": 1170,
    "र‍": 1171,
    "ऱ": 1172,
    "ऱं": 1173,
    "ऱा": 1174,
    "ऱि": 1175,
    "ऱिं": 1176,
    "ऱु": 1177,
    "ऱॆ": 1178,
    "ऱे": 1179,
    "ऱॊ": 1180,
    "ऱो": 1181,
    "ऱ्": 1182,
    "ऱ्ऱ": 1183,
    "ऱ्ऱा": 1184,
    "ऱ्ऱि": 1185,
    "ऱ्ऱु": 1186,
    "ऱ्ऱे": 1187,
    "ऱ्ऱ्": 1188,
    "ऱ्ऱ्यू": 1189,
    "ऱ्ऱ्ऱ्‌": 1190,
    "ल": 1191,
    "लं": 1192,
    "ला": 1193,
    "लां": 1194,
    "लि": 1195,
    "लिं": 1196,
    "लिा": 1197,
    "ली": 1198,
    "लु": 1199,
    "लुं": 1200,
    "लू": 1201,
    "लॆ": 1202,
    "लॆं": 1203,
    "ले": 1204,
    "लै": 1205,
    "लॉ": 1206,
    "लो": 1207,
    "लोँ": 1208,
    "लौ": 1209,
    "ल्": 1210,
    "ल्क": 1211,
    "ल्कि": 1212,
    "ल्क्कु": 1213,
    "ल्क्स्": 1214,
    "ल्गू": 1215,
    "ल्ट": 1216,
    "ल्टि": 1217,
    "ल्टी": 1218,
    "ल्ट्": 1219,
    "ल्ट्रा": 1220,
    "ल्ड": 1221,
    "ल्डीं": 1222,
    "ल्ड्र": 1223,
    "ल्थ": 1224,
    "ल्दा": 1225,
    "ल्प": 1226,
    "ल्पी": 1227,
    "ल्फे": 1228,
    "ल्या": 1229,
    "ल्यां": 1230,
    "ल्यु": 1231,
    "ल्ल": 1232,
    "ल्ला": 1233,
    "ल्ला‍": 1234,
    "ल्लि": 1235,
    "ल्ली": 1236,
    "ल्लु": 1237,
    "ल्लू": 1238,
    "ल्लॆ": 1239,
    "ल्ले": 1240,
    "ल्ल्": 1241,
    "ल्वॆ": 1242,
    "ल्वे": 1243,
    "ल्स्": 1244,
    "ल्हा": 1245,
    "ल्हे": 1246,
    "ल्ह्या": 1247,
    "ल्‌": 1248,
    "ल्‍": 1249,
    "ल॰": 1250,
    "लॱ": 1251,
    "ळ": 1252,
    "ळं": 1253,
    "ळा": 1254,
    "ळां": 1255,
    "ळि": 1256,
    "ळी": 1257,
    "ळु": 1258,
    "ळू": 1259,
    "ळॆ": 1260,
    "ळे": 1261,
    "ळो": 1262,
    "ळ्": 1263,
    "ळ्क": 1264,
    "ळ्या": 1265,
    "ळ्यां": 1266,
    "ळ्ळ": 1267,
    "ळ्ळा": 1268,
    "ळ्ळि": 1269,
    "ळ्ळु": 1270,
    "ळ‍": 1271,
    "ऴ": 1272,
    "ऴं": 1273,
    "ऴा": 1274,
    "ऴि": 1275,
    "ऴु": 1276,
    "ऴॆ": 1277,
    "ऴ्‌": 1278,
    "व": 1279,
    "वं": 1280,
    "वः": 1281,
    "व़": 1282,
    "वा": 1283,
    "वां": 1284,
    "वि": 1285,
    "विं": 1286,
    "वि॰": 1287,
    "विॱ": 1288,
    "वी": 1289,
    "वीं": 1290,
    "वीः": 1291,
    "वु": 1292,
    "वुं": 1293,
    "वू": 1294,
    "वृ": 1295,
    "वॅ": 1296,
    "वॆ": 1297,
    "वॆं": 1298,
    "वे": 1299,
    "वै": 1300,
    "वॉ": 1301,
    "वॊ": 1302,
    "वो": 1303,
    "व्": 1304,
    "व्य": 1305,
    "व्या": 1306,
    "व्र": 1307,
    "व्वि": 1308,
    "व्वू": 1309,
    "व्वे": 1310,
    "व्ह": 1311,
    "व्हि": 1312,
    "व्ही": 1313,
    "व्‌": 1314,
    "व॰": 1315,
    "व‌": 1316,
    "श": 1317,
    "शं": 1318,
    "शा": 1319,
    "शां": 1320,
    "शाः": 1321,
    "शि": 1322,
    "शी": 1323,
    "शीू": 1324,
    "शु": 1325,
    "शू": 1326,
    "शृ": 1327,
    "शॅ": 1328,
    "शॆ": 1329,
    "शे": 1330,
    "शै": 1331,
    "शो": 1332,
    "श्": 1333,
    "श्च": 1334,
    "श्चि": 1335,
    "श्ते": 1336,
    "श्ब": 1337,
    "श्मा": 1338,
    "श्य": 1339,
    "श्र": 1340,
    "श्रा": 1341,
    "श्रि": 1342,
    "श्री": 1343,
    "श्रु": 1344,
    "श्रे": 1345,
    "श्व": 1346,
    "श्वा": 1347,
    "श्शि": 1348,
    "श्शे": 1349,
    "श्स": 1350,
    "श्॰ी": 1351,
    "श्ॱ": 1352,
    "श्‍": 1353,
    "ष": 1354,
    "षं": 1355,
    "षा": 1356,
    "षि": 1357,
    "षी": 1358,
    "षु": 1359,
    "षू": 1360,
    "षे": 1361,
    "षो": 1362,
    "ष्कृ": 1363,
    "ष्ट": 1364,
    "ष्टा": 1365,
    "ष्टि": 1366,
    "ष्टी": 1367,
    "ष्टु": 1368,
    "ष्टे": 1369,
    "ष्टो": 1370,
    "ष्ट्र": 1371,
    "ष्ट्रा": 1372,
    "ष्ट्री": 1373,
    "ष्ट्॰": 1374,
    "ष्ट्॰ी": 1375,
    "ष्ठ": 1376,
    "ष्ठा": 1377,
    "ष्ण": 1378,
    "ष्णा": 1379,
    "ष्णू": 1380,
    "ष्ना": 1381,
    "ष्पा": 1382,
    "ष्म": 1383,
    "ष्मॆ": 1384,
    "ष्य": 1385,
    "ष्यं": 1386,
    "ष्य़": 1387,
    "ष्‌": 1388,
    "ष्‍": 1389,
    "षॢ": 1390,
    "स": 1391,
    "सं": 1392,
    "सः": 1393,
    "स़": 1394,
    "स़ा": 1395,
    "स़ि": 1396,
    "सा": 1397,
    "सां": 1398,
    "सि": 1399,
    "सिं": 1400,
    "सि॰": 1401,
    "सी": 1402,
    "सु": 1403,
    "सुँ": 1404,
    "सुं": 1405,
    "सू": 1406,
    "सृ": 1407,
    "सृं": 1408,
    "सॆ": 1409,
    "से": 1410,
    "सें": 1411,
    "से‍": 1412,
    "सै": 1413,
    "सैं": 1414,
    "सो": 1415,
    "सोँ": 1416,
    "सौ": 1417,
    "स्": 1418,
    "स्क": 1419,
    "स्का": 1420,
    "स्कु": 1421,
    "स्कू": 1422,
    "स्कृ": 1423,
    "स्गि": 1424,
    "स्जि": 1425,
    "स्जी": 1426,
    "स्ट": 1427,
    "स्टा": 1428,
    "स्टु": 1429,
    "स्टॆ": 1430,
    "स्टे": 1431,
    "स्टो": 1432,
    "स्ट्": 1433,
    "स्ट्र": 1434,
    "स्ट्री": 1435,
    "स्ट्रे": 1436,
    "स्त": 1437,
    "स्तं": 1438,
    "स्ता": 1439,
    "स्ति": 1440,
    "स्तु": 1441,
    "स्तू": 1442,
    "स्तृ": 1443,
    "स्तॆ": 1444,
    "स्ते": 1445,
    "स्त्र": 1446,
    "स्त्रा": 1447,
    "स्थ": 1448,
    "स्था": 1449,
    "स्थि": 1450,
    "स्थी": 1451,
    "स्थॆ": 1452,
    "स्थे": 1453,
    "स्थ्य": 1454,
    "स्ध": 1455,
    "स्धा": 1456,
    "स्धॆ": 1457,
    "स्ना": 1458,
    "स्ने": 1459,
    "स्प": 1460,
    "स्पा": 1461,
    "स्पि": 1462,
    "स्पृ": 1463,
    "स्पे": 1464,
    "स्फो": 1465,
    "स्ब": 1466,
    "स्बा": 1467,
    "स्भा": 1468,
    "स्म": 1469,
    "स्मा": 1470,
    "स्मृ": 1471,
    "स्य": 1472,
    "स्यः": 1473,
    "स्र": 1474,
    "स्ऱी": 1475,
    "स्री": 1476,
    "स्ऱ्ऱ": 1477,
    "स्ऱ्ऱा": 1478,
    "स्ऱ्ऱि": 1479,
    "स्ऱ्ऱे": 1480,
    "स्ऱ्ऱै": 1481,
    "स्ऱ्ऱो": 1482,
    "स्ला": 1483,
    "स्लि": 1484,
    "स्व": 1485,
    "स्वं": 1486,
    "स्वा": 1487,
    "स्वे": 1488,
    "स्सा": 1489,
    "स्सु": 1490,
    "स्स्मा": 1491,
    "स्य़": 1492,
    "स्॰": 1493,
    "स्॰ा": 1494,
    "स्ॱ": 1495,
    "स्‌": 1496,
    "स्‍": 1497,
    "सॗ": 1498,
    "स॰": 1499,
    "सॱ": 1500,
    "ह": 1501,
    "हं": 1502,
    "हः": 1503,
    "हा": 1504,
    "हां": 1505,
    "हा‍": 1506,
    "हि": 1507,
    "हिँ": 1508,
    "हिं": 1509,
    "हिः": 1510,
    "हि॰": 1511,
    "ही": 1512,
    "हीं": 1513,
    "हु": 1514,
    "हु॰": 1515,
    "हू": 1516,
    "हृ": 1517,
    "हॆ": 1518,
    "हे": 1519,
    "हें": 1520,
    "है": 1521,
    "है‍": 1522,
    "हॉ": 1523,
    "हॊ": 1524,
    "हो": 1525,
    "ह्दि": 1526,
    "ह्न": 1527,
    "ह्म": 1528,
    "ह्य": 1529,
    "ह्या": 1530,
    "ह्रू": 1531,
    "ह॰": 1532,
    "हॱ": 1533,
    "ऽ": 1534,
    "ा": 1535,
    "े": 1536,
    "ॎ": 1537,
    "ॐ": 1538,
    "ज़ो": 1539,
    "ज़॰": 1540,
    "ड़": 1541,
    "ड़ा": 1542,
    "ड़ी": 1543,
    "ड़े": 1544,
    "ड़ै": 1545,
    "ड़ोु": 1546,
    "ड़्ह": 1547,
    "ड़्हे": 1548,
    "ढ़ि": 1549,
    "ढ़ी": 1550,
    "ढ़ो": 1551,
    "फ़": 1552,
    "फ़्ट": 1553,
    "फ़्दु": 1554,
    "य़": 1555,
    "य़ं": 1556,
    "य़ः": 1557,
    "य़़": 1558,
    "य़ा": 1559,
    "य़ां": 1560,
    "य़ि": 1561,
    "य़ु": 1562,
    "य़े": 1563,
    "य़ो": 1564,
    "य़्या": 1565,
    "य़ॗ": 1566,
    "ॠ": 1567,
    "।": 1568,
    "।‍": 1569,
    "॥": 1570,
    "०": 1571,
    "१": 1572,
    "१‌": 1573,
    "२": 1574,
    "२़": 1575,
    "२ा": 1576,
    "३": 1577,
    "४": 1578,
    "५": 1579,
    "५ु": 1580,
    "५ो": 1581,
    "६": 1582,
    "७": 1583,
    "८": 1584,
    "९": 1585,
    "॰": 1586,
    "॰ा": 1587,
    "॰ि": 1588,
    "॰िः": 1589,
    "॰ी": 1590,
    "॰ु": 1591,
    "॰ू": 1592,
    "॰े": 1593,
    "॰ो": 1594,
    "॰्थ": 1595,
    "॰्प": 1596,
    "॰्ब": 1597,
    "॰्मा": 1598,
    "॰्य": 1599,
    "॰्य्य": 1600,
    "॰्य्या": 1601,
    "॰्ष": 1602,
    "ॱ": 1603,
    "ॱा": 1604,
    "ॱि": 1605,
    "ॱे": 1606,
    "ॱो": 1607,
    "ॳ": 1608,
    "ॳे": 1609,
    "ॷ": 1610,
    "ॺ": 1611,
    "ॺ‍": 1612,
    "ॻ": 1613,
    "ॻॆ": 1614,
    "ॻ्ऱॆ": 1615,
    "ॻ‌": 1616,
    "ॼ": 1617,
    "ॼ‌": 1618,
    "ॼ‍‍": 1619,
    "ॽ": 1620,
    "ॽ‍": 1621,
    "ॾ": 1622,
    "ॾ‌‌": 1623,
    "​": 1624,
    "’": 1625
  },
  "metadata": {
    "tag": "zs_loso_rungA_tamil",
    "num_graphemes": 1624,
    "space": "shared-abugida-pivot"
  }
}