{
  "grapheme2idx": {
    "<blank>": 0,
    "<unk>": 1,
    " ‌": 2,
    "!": 3,
    "\"": 4,
    "&": 5,
    "'": 6,
    "(": 7,
    ")": 8,
    ",": 9,
    "-": 10,
    "-ा": 11,
    ".": 12,
    "0": 13,
    "1": 14,
    "2": 15,
    "3": 16,
    "4": 17,
    "5": 18,
    "6": 19,
    "7": 20,
    "8": 21,
    "9": 22,
    ":": 23,
    "?": 24,
    "H": 25,
    "I": 26,
    "P": 27,
    "c": 28,
    "|": 29,
    "ا": 30,
    "ك": 31,
    "ل": 32,
    "و": 33,
    "अ": 34,
    "अं": 35,
    "आ": 36,
    "आं": 37,
    "आ्य": 38,
    "आॕ": 39,
    "इ": 40,
    "इं": 41,
    "ई": 42,
    "उ": 43,
    "ऊ": 44,
    "ऋ": 45,
    "ऎ": 46,
    "ऎं": 47,
    "ऎ‍": 48,
    "ए": 49,
    "ऐ": 50,
    "ऒ": 51,
    "ऒं": 52,
    "ऒ‌": 53,
    "ओ": 54,
    "ओं": 55,
    "औ": 56,
    "क": 57,
    "कं": 58,
    "कं‌": 59,
    "कः": 60,
    "का": 61,
    "कां": 62,
    "का‍": 63,
    "कि": 64,
    "किं": 65,
    "की": 66,
    "कु": 67,
    "कू": 68,
    "कृ": 69,
    "कॆ": 70,
    "कॆं": 71,
    "के": 72,
    "कें": 73,
    "केा": 74,
    "केॆ्टा": 75,
    "कै": 76,
    "कॊ": 77,
    "कॊं": 78,
    "कॊॕ": 79,
    "को": 80,
    "कों": 81,
    "कों‌": 82,
    "क्": 83,
    "क्ए": 84,
    "क्क": 85,
    "क्कं": 86,
    "क्का": 87,
    "क्कि": 88,
    "क्की": 89,
    "क्कु": 90,
    "क्कुं": 91,
    "क्कू": 92,
    "क्कॆ": 93,
    "क्के": 94,
    "क्कॊ": 95,
    "क्को": 96,
    "क्क्": 97,
    "क्क्‌": 98,
    "क्कॗ": 99,
    "क्ट": 100,
    "क्टो": 101,
    "क्त": 102,
    "क्ता": 103,
    "क्ति": 104,
    "क्तु": 105,
    "क्ते": 106,
    "क्नो": 107,
    "क्पे": 108,
    "क्य": 109,
    "क्या": 110,
    "क्यू": 111,
    "क्र": 112,
    "क्रा": 113,
    "क्रि": 114,
    "क्री": 115,
    "क्ल": 116,
    "क्लि": 117,
    "क्ली": 118,
    "क्ले": 119,
    "क्व": 120,
    "क्वा": 121,
    "क्वॆ": 122,
    "क्ष": 123,
    "क्षा": 124,
    "क्षि": 125,
    "क्षिं": 126,
    "क्षी": 127,
    "क्षॆ": 128,
    "क्षे": 129,
    "क्ष्म": 130,
    "क्ष्मि": 131,
    "क्ष्मिॕ": 132,
    "क्ष्मी": 133,
    "क्ष्य": 134,
    "क्ष्या": 135,
    "क्स": 136,
    "क्सि": 137,
    "क्स्": 138,
    "क्स्फ": 139,
    "क्‌": 140,
    "कॗ": 141,
    "क‌": 142,
    "ख": 143,
    "खा": 144,
    "खां": 145,
    "खा‍": 146,
    "खॆ": 147,
    "खै": 148,
    "खो": 149,
    "ख्य": 150,
    "ख्यॆ": 151,
    "ग": 152,
    "गं": 153,
    "गा": 154,
    "गां": 155,
    "गि": 156,
    "गी": 157,
    "गु": 158,
    "गुं": 159,
    "गू": 160,
    "गृ": 161,
    "गॆ": 162,
    "गॆं": 163,
    "गे": 164,
    "गें": 165,
    "गॊ": 166,
    "गॊं": 167,
    "गो": 168,
    "गौ": 169,
    "ग्": 170,
    "ग्ग": 171,
    "ग्गा": 172,
    "ग्गि": 173,
    "ग्गॆ": 174,
    "ग्नि": 175,
    "ग्ब": 176,
    "ग्य": 177,
    "ग्र": 178,
    "ग्रं": 179,
    "ग्रा": 180,
    "ग्रां": 181,
    "ग्री": 182,
    "ग्रू": 183,
    "ग्रॆ": 184,
    "ग्रे": 185,
    "ग्ला": 186,
    "ग्ली": 187,
    "ग्ष": 188,
    "ग्‌": 189,
    "घ": 190,
    "घं": 191,
    "घा": 192,
    "घो": 193,
    "ङ": 194,
    "ङ्": 195,
    "ङ्क": 196,
    "ङ्कि": 197,
    "ङ्के": 198,
    "ङ्क्": 199,
    "ङ्क्स्": 200,
    "ङ्ङ": 201,
    "ङ्ङा": 202,
    "ङ्ङि": 203,
    "ङ्ङे": 204,
    "ङ्ङो": 205,
    "ङ्ङों": 206,
    "ङ्ङ्‌": 207,
    "च": 208,
    "चं": 209,
    "चा": 210,
    "चि": 211,
    "चिं": 212,
    "चिॕ": 213,
    "ची": 214,
    "चु": 215,
    "चू": 216,
    "चॆ": 217,
    "चे": 218,
    "चै": 219,
    "चॊ": 220,
    "चौ": 221,
    "च्": 222,
    "च्क": 223,
    "च्च": 224,
    "च्चं": 225,
    "च्चा": 226,
    "च्चि": 227,
    "च्चिं": 228,
    "च्चु": 229,
    "च्चॆ": 230,
    "च्चे": 231,
    "च्च्": 232,
    "च्च्‌": 233,
    "च्छ": 234,
    "च्छा": 235,
    "च्छे": 236,
    "च्छ्": 237,
    "च्ट": 238,
    "च्य": 239,
    "च्यु": 240,
    "च्र": 241,
    "छ": 242,
    "छि": 243,
    "छे": 244,
    "ज": 245,
    "जं": 246,
    "ज़": 247,
    "जा": 248,
    "जि": 249,
    "जिं": 250,
    "जी": 251,
    "जु": 252,
    "जू": 253,
    "जॆ": 254,
    "जे": 255,
    "जें": 256,
    "जै": 257,
    "जॊ": 258,
    "जो": 259,
    "ज्": 260,
    "ज्ज": 261,
    "ज्जं": 262,
    "ज्ज्": 263,
    "ज्ञा": 264,
    "ज्न": 265,
    "ज्य": 266,
    "ज्यु": 267,
    "ज्यू": 268,
    "ज्यो": 269,
    "ज्ल": 270,
    "ज्व": 271,
    "ज्‌": 272,
    "झ": 273,
    "ञा": 274,
    "ञ्च": 275,
    "ञ्चा": 276,
    "ञ्चि": 277,
    "ञ्चे": 278,
    "ञ्ज": 279,
    "ञ्ञ": 280,
    "ञ्ञा": 281,
    "ञ्ञि": 282,
    "ञ्ञॆ": 283,
    "ञ्ञो": 284,
    "ट": 285,
    "टं": 286,
    "टा": 287,
    "टां": 288,
    "टि": 289,
    "टिं": 290,
    "टी": 291,
    "टु": 292,
    "टुं": 293,
    "टू": 294,
    "टॆ": 295,
    "टॆं": 296,
    "टे": 297,
    "टै": 298,
    "टॊ": 299,
    "टो": 300,
    "टों": 301,
    "टौ": 302,
    "ट्": 303,
    "ट्के": 304,
    "ट्ङ": 305,
    "ट्ट": 306,
    "ट्टं": 307,
    "ट्ट़": 308,
    "ट्टा": 309,
    "ट्टि": 310,
    "ट्टी": 311,
    "ट्टु": 312,
    "ट्टुं": 313,
    "ट्टॆ": 314,
    "ट्टो": 315,
    "ट्ट्": 316,
    "ट्त": 317,
    "ट्न": 318,
    "ट्नं": 319,
    "ट्प": 320,
    "ट्यू": 321,
    "ट्र": 322,
    "ट्रा": 323,
    "ट्रि": 324,
    "ट्री": 325,
    "ट्रॆ": 326,
    "ट्रे": 327,
    "ट्रो": 328,
    "ट्ल": 329,
    "ट्लु": 330,
    "ट्व": 331,
    "ट्श्री": 332,
    "ट्स्": 333,
    "ट्‌": 334,
    "ट्‍": 335,
    "टॗ": 336,
    "ट‌": 337,
    "ठ": 338,
    "ठा": 339,
    "ठि": 340,
    "ठु": 341,
    "ठे": 342,
    "ड": 343,
    "डं": 344,
    "डा": 345,
    "डि": 346,
    "डिं": 347,
    "डी": 348,
    "डु": 349,
    "डू": 350,
    "डॆ": 351,
    "डॆं": 352,
    "डे": 353,
    "डै": 354,
    "डॊ": 355,
    "डो": 356,
    "ड्": 357,
    "ड्क": 358,
    "ड्जी": 359,
    "ड्ड": 360,
    "ड्डि": 361,
    "ड्डु": 362,
    "ड्पे": 363,
    "ड्यं": 364,
    "ड्यू": 365,
    "ड्रा": 366,
    "ड्रि": 367,
    "ड्रै": 368,
    "ड्ल": 369,
    "ड्वु": 370,
    "ड्स्": 371,
    "ड्‌": 372,
    "ढ": 373,
    "ण": 374,
    "णं": 375,
    "ण़": 376,
    "णा": 377,
    "णि": 378,
    "णी": 379,
    "णु": 380,
    "णु्": 381,
    "णू": 382,
    "णॆ": 383,
    "णे": 384,
    "णो": 385,
    "ण्": 386,
    "ण्ट": 387,
    "ण्टं": 388,
    "ण्टा": 389,
    "ण्टि": 390,
    "ण्टु": 391,
    "ण्टू": 392,
    "ण्टॆ": 393,
    "ण्टे": 394,
    "ण्ट्": 395,
    "ण्ट्स्": 396,
    "ण्ट्‌": 397,
    "ण्डा": 398,
    "ण्ण": 399,
    "ण्णा": 400,
    "ण्णि": 401,
    "ण्णी": 402,
    "ण्णु": 403,
    "ण्णू": 404,
    "ण्णू‍": 405,
    "ण्प": 406,
    "ण्य": 407,
    "ण्‌": 408,
    "ण‍": 409,
    "त": 410,
    "तं": 411,
    "ता": 412,
    "तां": 413,
    "ति": 414,
    "तिं": 415,
    "ती": 416,
    "तु": 417,
    "तू": 418,
    "तृ": 419,
    "तॆ": 420,
    "तॆॆ": 421,
    "तॆ्र्र": 422,
    "तै": 423,
    "तॊ": 424,
    "तो": 425,
    "त्": 426,
    "त्उ": 427,
    "त्कू": 428,
    "त्कृ": 429,
    "त्त": 430,
    "त्तं": 431,
    "त्ता": 432,
    "त्ति": 433,
    "त्ती": 434,
    "त्तु": 435,
    "त्तू": 436,
    "त्तॆ": 437,
    "त्ते": 438,
    "त्तॊ": 439,
    "त्तो": 440,
    "त्त्": 441,
    "त्त्प": 442,
    "त्त्‌": 443,
    "त्थ": 444,
    "त्थि": 445,
    "त्नं": 446,
    "त्नि": 447,
    "त्प": 448,
    "त्भ": 449,
    "त्म": 450,
    "त्मा": 451,
    "त्य": 452,
    "त्या": 453,
    "त्यु": 454,
    "त्य्": 455,
    "त्र": 456,
    "त्रं": 457,
    "त्रं‌": 458,
    "त्रा": 459,
    "त्रि": 460,
    "त्री": 461,
    "त्रु": 462,
    "त्रॆ": 463,
    "त्व": 464,
    "त्वं": 465,
    "त्स": 466,
    "त्स्": 467,
    "त्ह": 468,
    "त्‌": 469,
    "थ": 470,
    "था": 471,
    "थु": 472,
    "थों": 473,
    "द": 474,
    "दं": 475,
    "दा": 476,
    "दि": 477,
    "दिं": 478,
    "दी": 479,
    "दु": 480,
    "दुं": 481,
    "दू": 482,
    "दॆ": 483,
    "दे": 484,
    "दै": 485,
    "दॊ": 486,
    "दो": 487,
    "दौ": 488,
    "द्": 489,
    "द्गु": 490,
    "द्घा": 491,
    "द्ट": 492,
    "द्टु": 493,
    "द्द": 494,
    "द्दा": 495,
    "द्दां": 496,
    "द्दि": 497,
    "द्दु": 498,
    "द्दू": 499,
    "द्ध": 500,
    "द्धा": 501,
    "द्धि": 502,
    "द्धी": 503,
    "द्ध्फि": 504,
    "द्ध्य": 505,
    "द्ध्यं": 506,
    "द्फु": 507,
    "द्म": 508,
    "द्मा": 509,
    "द्य": 510,
    "द्या": 511,
    "द्यु": 512,
    "द्र": 513,
    "द्रं": 514,
    "द्रा": 515,
    "द्रि": 516,
    "द्रु": 517,
    "द्रे": 518,
    "द्रो": 519,
    "द्रौ": 520,
    "द्ळु": 521,
    "द्व": 522,
    "द्वा": 523,
    "द्शि": 524,
    "द्‌": 525,
    "ध": 526,
    "धं": 527,
    "धा": 528,
    "धि": 529,
    "धी": 530,
    "धु": 531,
    "धू": 532,
    "धृ": 533,
    "ध्य": 534,
    "ध्या": 535,
    "ध्ये": 536,
    "ध्र": 537,
    "ध्व": 538,
    "न": 539,
    "नं": 540,
    "ना": 541,
    "नां": 542,
    "नि": 543,
    "निॕ": 544,
    "नी": 545,
    "नु": 546,
    "नुं": 547,
    "नू": 548,
    "नृ": 549,
    "नॆ": 550,
    "ने": 551,
    "नै": 552,
    "नॊ": 553,
    "नो": 554,
    "नौ": 555,
    "न्": 556,
    "न्कु": 557,
    "न्त": 558,
    "न्ता": 559,
    "न्तु": 560,
    "न्तो": 561,
    "न्त्य": 562,
    "न्त्र": 563,
    "न्त्रि": 564,
    "न्थ": 565,
    "न्द": 566,
    "न्दि": 567,
    "न्द्र": 568,
    "न्द्रं": 569,
    "न्द्री": 570,
    "न्द्‌": 571,
    "न्ध": 572,
    "न्धं": 573,
    "न्धा": 574,
    "न्धि": 575,
    "न्ध्यं": 576,
    "न्न": 577,
    "न्नं": 578,
    "न्ना": 579,
    "न्नि": 580,
    "न्नि‍": 581,
    "न्नी": 582,
    "न्नु": 583,
    "न्नुं": 584,
    "न्नू": 585,
    "न्न्": 586,
    "न्प": 587,
    "न्म": 588,
    "न्मा": 589,
    "न्म्र": 590,
    "न्य": 591,
    "न्या": 592,
    "न्यू": 593,
    "न्ये": 594,
    "न्ऱ": 595,
    "न्ऱा": 596,
    "न्ऱॆ": 597,
    "न्ऱ्": 598,
    "न्ल": 599,
    "न्लु": 600,
    "न्व": 601,
    "न्वी": 602,
    "न्वे": 603,
    "न्ष": 604,
    "न्स": 605,
    "न्सा": 606,
    "न्सि": 607,
    "न्सू": 608,
    "न्स्": 609,
    "न्स्टि": 610,
    "न्ह": 611,
    "न्‌": 612,
    "प": 613,
    "पं": 614,
    "पा": 615,
    "पां": 616,
    "पि": 617,
    "पिं": 618,
    "पिा": 619,
    "पी": 620,
    "पु": 621,
    "पू": 622,
    "पॆ": 623,
    "पॆं": 624,
    "पे": 625,
    "पै": 626,
    "पॊ": 627,
    "पॊं": 628,
    "पो": 629,
    "प्": 630,
    "प्का": 631,
    "प्टि": 632,
    "प्त": 633,
    "प्तं": 634,
    "प्ति": 635,
    "प्तॆ": 636,
    "प्प": 637,
    "प्पं": 638,
    "प्पा": 639,
    "प्पि": 640,
    "प्पिं": 641,
    "प्पी": 642,
    "प्पु": 643,
    "प्पॆ": 644,
    "प्पो": 645,
    "प्प्": 646,
    "प्प्मू": 647,
    "प्प्‌": 648,
    "प्या": 649,
    "प्र": 650,
    "प्रा": 651,
    "प्रां": 652,
    "प्रि": 653,
    "प्रॆ": 654,
    "प्रै": 655,
    "प्रॊ": 656,
    "प्रो": 657,
    "प्ल": 658,
    "प्ला": 659,
    "प्लै": 660,
    "प्ष": 661,
    "प्‌": 662,
    "फ": 663,
    "फा": 664,
    "फां": 665,
    "फि": 666,
    "फी": 667,
    "फु": 668,
    "फॆ": 669,
    "फे": 670,
    "फै": 671,
    "फो": 672,
    "फौ": 673,
    "फ्": 674,
    "फ्को": 675,
    "फ्ट्": 676,
    "फ्या": 677,
    "फ्र": 678,
    "फ्री": 679,
    "फ्रू": 680,
    "फ्रो": 681,
    "फ्र‌": 682,
    "फ्ल": 683,
    "फ्ला": 684,
    "ब": 685,
    "बं": 686,
    "बा": 687,
    "बा‍": 688,
    "बि": 689,
    "बी": 690,
    "बु": 691,
    "बू": 692,
    "बृ": 693,
    "बृं": 694,
    "बॆ": 695,
    "बॆं": 696,
    "बे": 697,
    "बै": 698,
    "बॊ": 699,
    "बो": 700,
    "बौ": 701,
    "ब्": 702,
    "ब्थ": 703,
    "ब्द": 704,
    "ब्दि": 705,
    "ब्ध": 706,
    "ब्ब": 707,
    "ब्बं": 708,
    "ब्बा": 709,
    "ब्य": 710,
    "ब्या": 711,
    "ब्यां": 712,
    "ब्यू": 713,
    "ब्र": 714,
    "ब्रा": 715,
    "ब्रु": 716,
    "ब्रू": 717,
    "ब्ल": 718,
    "ब्लो": 719,
    "ब्स": 720,
    "ब्सि": 721,
    "ब्‌": 722,
    "ब्‍": 723,
    "भ": 724,
    "भं": 725,
    "भा": 726,
    "भि": 727,
    "भु": 728,
    "भू": 729,
    "भृा": 730,
    "भे": 731,
    "भै": 732,
    "भो": 733,
    "भ्य": 734,
    "भ्या": 735,
    "भ्र": 736,
    "म": 737,
    "मं": 738,
    "मः": 739,
    "मा": 740,
    "मां": 741,
    "मा‍": 742,
    "मि": 743,
    "मी": 744,
    "मु": 745,
    "मुं": 746,
    "मू": 747,
    "मृ": 748,
    "मॆ": 749,
    "मॆं": 750,
    "मे": 751,
    "मै": 752,
    "मॊ": 753,
    "मो": 754,
    "मौ": 755,
    "म्": 756,
    "म्ग्र": 757,
    "म्ट": 758,
    "म्प": 759,
    "म्पा": 760,
    "म्पि": 761,
    "म्पु": 762,
    "म्पू": 763,
    "म्पो": 764,
    "म्प्": 765,
    "म्प्य": 766,
    "म्प्या": 767,
    "म्प्यू": 768,
    "म्प्वा": 769,
    "म्म": 770,
    "म्मं": 771,
    "म्मा": 772,
    "म्मि": 773,
    "म्मु": 774,
    "म्मू": 775,
    "म्मे": 776,
    "म्म्न": 777,
    "म्य": 778,
    "म्या": 779,
    "म्यू": 780,
    "म्र": 781,
    "म्श": 782,
    "म्स": 783,
    "मॖ": 784,
    "य": 785,
    "यं": 786,
    "या": 787,
    "यां": 788,
    "या‍": 789,
    "यि": 790,
    "यी": 791,
    "यु": 792,
    "युं": 793,
    "यू": 794,
    "यॆ": 795,
    "ये": 796,
    "यॊ": 797,
    "यो": 798,
    "य्": 799,
    "य्क्का": 800,
    "य्क्कां": 801,
    "य्क्कु": 802,
    "य्क्क्": 803,
    "य्त": 804,
    "य्म": 805,
    "य्य": 806,
    "य्यु": 807,
    "य्यो": 808,
    "य्‌": 809,
    "र": 810,
    "रं": 811,
    "ऱ": 812,
    "रा": 813,
    "रां": 814,
    "रि": 815,
    "रिं": 816,
    "री": 817,
    "रीं": 818,
    "रु": 819,
    "रुं": 820,
    "रु‍": 821,
    "रू": 822,
    "रॆ": 823,
    "रॆं": 824,
    "रे": 825,
    "रें": 826,
    "रै": 827,
    "रॊ": 828,
    "रो": 829,
    "र्": 830,
    "र्ऎ": 831,
    "र्क": 832,
    "र्का": 833,
    "र्किं": 834,
    "र्कॆ": 835,
    "र्कॊं": 836,
    "र्ग": 837,
    "र्गं": 838,
    "र्गा": 839,
    "र्गी": 840,
    "र्च": 841,
    "र्चि": 842,
    "र्चु": 843,
    "र्चू": 844,
    "र्ज": 845,
    "र्ज़": 846,
    "र्जा": 847,
    "र्जु": 848,
    "र्टी": 849,
    "र्ट्": 850,
    "र्ट्स्": 851,
    "र्ड": 852,
    "र्डी": 853,
    "र्डु": 854,
    "र्डॆ": 855,
    "र्ड्": 856,
    "र्ड्‌": 857,
    "र्ण": 858,
    "र्णा": 859,
    "र्त": 860,
    "र्ति": 861,
    "र्तु": 862,
    "र्तू": 863,
    "र्थ": 864,
    "र्थं": 865,
    "र्दि": 866,
    "र्दी": 867,
    "र्दू": 868,
    "र्दॊ": 869,
    "र्धं": 870,
    "र्न": 871,
    "र्ना": 872,
    "र्नी": 873,
    "र्नू": 874,
    "र्ने": 875,
    "र्न्": 876,
    "र्प": 877,
    "र्पा": 878,
    "र्पि": 879,
    "र्पे": 880,
    "र्पै": 881,
    "र्पॊ": 882,
    "र्बो": 883,
    "र्भं": 884,
    "र्म": 885,
    "र्मा": 886,
    "र्मि": 887,
    "र्मु": 888,
    "र्म्": 889,
    "र्य": 890,
    "र्या": 891,
    "र्र": 892,
    "र्रि": 893,
    "र्ल": 894,
    "र्ला": 895,
    "र्लु": 896,
    "र्व": 897,
    "र्वा": 898,
    "र्वे": 899,
    "र्श": 900,
    "र्शि": 901,
    "र्ष": 902,
    "र्षि": 903,
    "र्स": 904,
    "र्सि": 905,
    "र्सिं": 906,
    "र्सी": 907,
    "र्सु": 908,
    "र्स्": 909,
    "र्‌": 910,
    "रॕ": 911,
    "र‌": 912,
    "र‍": 913,
    "ऱ": 914,
    "ऱं": 915,
    "ऱा": 916,
    "ऱि": 917,
    "ऱिं": 918,
    "ऱी": 919,
    "ऱु": 920,
    "ऱुं": 921,
    "ऱू": 922,
    "ऱॆ": 923,
    "ऱे": 924,
    "ऱै": 925,
    "ऱॊ": 926,
    "ऱो": 927,
    "ऱ्": 928,
    "ऱ्ऱ": 929,
    "ऱ्ऱं": 930,
    "ऱ्ऱा": 931,
    "ऱ्ऱि": 932,
    "ऱ्ऱी": 933,
    "ऱ्ऱु": 934,
    "ऱ्ऱे": 935,
    "ऱ्ऱो": 936,
    "ऱ्ऱ्": 937,
    "ऱ्ऱ्यू": 938,
    "ऱ्ऱ्ऱ्‌": 939,
    "ल": 940,
    "लं": 941,
    "ला": 942,
    "लां": 943,
    "लि": 944,
    "लिं": 945,
    "ली": 946,
    "लु": 947,
    "लुं": 948,
    "लू": 949,
    "लॆ": 950,
    "लॆं": 951,
    "ले": 952,
    "लै": 953,
    "लॊ": 954,
    "लो": 955,
    "ल्": 956,
    "ल्कि": 957,
    "ल्की": 958,
    "ल्क्कु": 959,
    "ल्क्स्": 960,
    "ल्ग": 961,
    "ल्गू": 962,
    "ल्गॊ": 963,
    "ल्ट": 964,
    "ल्टि": 965,
    "ल्टे": 966,
    "ल्ट्": 967,
    "ल्ट्रा": 968,
    "ल्ड्": 969,
    "ल्त्": 970,
    "ल्द": 971,
    "ल्दा": 972,
    "ल्द्": 973,
    "ल्पु": 974,
    "ल्म": 975,
    "ल्य": 976,
    "ल्या": 977,
    "ल्यू": 978,
    "ल्ल": 979,
    "ल्लं": 980,
    "ल्ला": 981,
    "ल्ला‍": 982,
    "ल्लि": 983,
    "ल्लु": 984,
    "ल्लू": 985,
    "ल्लॆ": 986,
    "ल्ले": 987,
    "ल्ल्": 988,
    "ल्ल्‌": 989,
    "ल्व": 990,
    "ल्वॆ": 991,
    "ल्वे": 992,
    "ल्स": 993,
    "ल्स्": 994,
    "ल्‌": 995,
    "ळ": 996,
    "ळं": 997,
    "ळा": 998,
    "ळि": 999,
    "ळिं": 1000,
    "ळी": 1001,
    "ळु": 1002,
    "ळुं": 1003,
    "ळू": 1004,
    "ळॆ": 1005,
    "ळे": 1006,
    "ळ्": 1007,
    "ळ्या": 1008,
    "ळ्ळ": 1009,
    "ळ्ळा": 1010,
    "ळ्ळि": 1011,
    "ळ्ळी": 1012,
    "ळ्ळु": 1013,
    "ळ्ळे": 1014,
    "ळ‍": 1015,
    "ऴ": 1016,
    "ऴं": 1017,
    "ऴा": 1018,
    "ऴि": 1019,
    "ऴि‌": 1020,
    "ऴु": 1021,
    "ऴॆ": 1022,
    "ऴेां": 1023,
    "ऴों": 1024,
    "ऴ्त्त": 1025,
    "ऴ्स्": 1026,
    "ऴ्‌": 1027,
    "व": 1028,
    "वं": 1029,
    "वः": 1030,
    "वा": 1031,
    "वां": 1032,
    "वि": 1033,
    "वी": 1034,
    "वीः": 1035,
    "वु": 1036,
    "वुं": 1037,
    "वू": 1038,
    "वृ": 1039,
    "वॆ": 1040,
    "वॆं": 1041,
    "वे": 1042,
    "वें": 1043,
    "वै": 1044,
    "वॊ": 1045,
    "वो": 1046,
    "व्": 1047,
    "व्त": 1048,
    "व्भ": 1049,
    "व्य": 1050,
    "व्या": 1051,
    "व्र": 1052,
    "व्व": 1053,
    "व्वं": 1054,
    "व्वा": 1055,
    "व्वि": 1056,
    "व्वी": 1057,
    "व्वू": 1058,
    "व्वॆं": 1059,
    "व्वे": 1060,
    "व्ह": 1061,
    "व्‌": 1062,
    "व‌": 1063,
    "श": 1064,
    "शं": 1065,
    "शा": 1066,
    "शां": 1067,
    "शा‍": 1068,
    "शि": 1069,
    "शी": 1070,
    "शु": 1071,
    "शृ": 1072,
    "शॆ": 1073,
    "शे": 1074,
    "शै": 1075,
    "शो": 1076,
    "शौ": 1077,
    "श्": 1078,
    "श्च": 1079,
    "श्य": 1080,
    "श्र": 1081,
    "श्रा": 1082,
    "श्रि": 1083,
    "श्री": 1084,
    "श्रे": 1085,
    "श्ले": 1086,
    "श्व": 1087,
    "श्श": 1088,
    "श्शि": 1089,
    "श्शे": 1090,
    "श्ष": 1091,
    "श्स": 1092,
    "शॗ": 1093,
    "ष": 1094,
    "षं": 1095,
    "षा": 1096,
    "षि": 1097,
    "षु": 1098,
    "षू": 1099,
    "षे": 1100,
    "षो": 1101,
    "ष्": 1102,
    "ष्क": 1103,
    "ष्क्": 1104,
    "ष्ट": 1105,
    "ष्टि": 1106,
    "ष्टु": 1107,
    "ष्ट्र": 1108,
    "ष्ट्रं": 1109,
    "ष्ट्री": 1110,
    "ष्ठ": 1111,
    "ष्ण": 1112,
    "ष्णा": 1113,
    "ष्म": 1114,
    "ष्मॆ": 1115,
    "ष्य": 1116,
    "ष्यं": 1117,
    "ष्‌": 1118,
    "षॢ": 1119,
    "स": 1120,
    "सं": 1121,
    "सं‌": 1122,
    "सः": 1123,
    "सा": 1124,
    "सां": 1125,
    "सा‍": 1126,
    "सि": 1127,
    "सिं": 1128,
    "सी": 1129,
    "सु": 1130,
    "सुं": 1131,
    "सू": 1132,
    "सृ": 1133,
    "सृं": 1134,
    "सॆ": 1135,
    "सॆं": 1136,
    "से": 1137,
    "सै": 1138,
    "सॊ": 1139,
    "सो": 1140,
    "सौ": 1141,
    "स्": 1142,
    "स्क": 1143,
    "स्का": 1144,
    "स्कु": 1145,
    "स्कू": 1146,
    "स्कृ": 1147,
    "स्क्का": 1148,
    "स्गि": 1149,
    "स्ट": 1150,
    "स्टा": 1151,
    "स्टि": 1152,
    "स्टी": 1153,
    "स्टॆ": 1154,
    "स्टे": 1155,
    "स्टो": 1156,
    "स्ट्": 1157,
    "स्ट्र": 1158,
    "स्ट्री": 1159,
    "स्ट्रे": 1160,
    "स्ठ": 1161,
    "स्ड": 1162,
    "स्त": 1163,
    "स्तं": 1164,
    "स्ता": 1165,
    "स्ति": 1166,
    "स्तु": 1167,
    "स्तॆ": 1168,
    "स्त्र": 1169,
    "स्थ": 1170,
    "स्था": 1171,
    "स्थि": 1172,
    "स्थी": 1173,
    "स्थू": 1174,
    "स्थॆ": 1175,
    "स्दु": 1176,
    "स्ध": 1177,
    "स्धा": 1178,
    "स्धॆ": 1179,
    "स्ना": 1180,
    "स्ने": 1181,
    "स्प": 1182,
    "स्पा": 1183,
    "स्पि": 1184,
    "स्पॆ": 1185,
    "स्पे": 1186,
    "स्प्पि": 1187,
    "स्फि": 1188,
    "स्भा": 1189,
    "स्म": 1190,
    "स्मा": 1191,
    "स्य": 1192,
    "स्यः": 1193,
    "स्या": 1194,
    "स्र": 1195,
    "स्रा": 1196,
    "स्ऱ्ऱ": 1197,
    "स्ऱ्ऱा": 1198,
    "स्ऱ्ऱि": 1199,
    "स्ऱ्ऱु": 1200,
    "स्ऱ्ऱे": 1201,
    "स्ऱ्ऱै": 1202,
    "स्ऱ्ऱो": 1203,
    "स्ऱ्ऱ्": 1204,
    "स्ला": 1205,
    "स्लि": 1206,
    "स्लॊ": 1207,
    "स्व": 1208,
    "स्वं": 1209,
    "स्वा": 1210,
    "स्वि": 1211,
    "स्वी": 1212,
    "स्वे": 1213,
    "स्सा": 1214,
    "स्सि": 1215,
    "स्सु": 1216,
    "स्से": 1217,
    "स्सो": 1218,
    "स्स्": 1219,
    "स्स्मा": 1220,
    "स्स्‌": 1221,
    "स्ह": 1222,
    "स्‌": 1223,
    "स्‍": 1224,
    "सॗ": 1225,
    "ह": 1226,
    "हं": 1227,
    "हा": 1228,
    "हि": 1229,
    "हिं": 1230,
    "ही": 1231,
    "हीं": 1232,
    "हु": 1233,
    "हू": 1234,
    "हृ": 1235,
    "हॆ": 1236,
    "हे": 1237,
    "है": 1238,
    "हॊ": 1239,
    "हो": 1240,
    "हौ": 1241,
    "ह्": 1242,
    "ह्दि": 1243,
    "ह्न": 1244,
    "ह्म": 1245,
    "ह्मि": 1246,
    "ह्य": 1247,
    "ह्या": 1248,
    "ह्रू": 1249,
    "ऽ": 1250,
    "ा": 1251,
    "फ़": 1252,
    "फ़्ट": 1253,
    "फ़्दु": 1254,
    "।": 1255,
    "॥": 1256,
    "०": 1257,
    "१": 1258,
    "२": 1259,
    "३": 1260,
    "४": 1261,
    "५": 1262,
    "६": 1263,
    "७": 1264,
    "८": 1265,
    "९": 1266,
    "ॺ": 1267,
    "ॺ‌": 1268,
    "ॺ‍": 1269,
    "ॻ": 1270,
    "ॻॆ": 1271,
    "ॻ्ऱ": 1272,
    "ॻ्ऱॆ": 1273,
    "ॻ्ऱ्": 1274,
    "ॻ्ऱ्स्": 1275,
    "ॻ‌": 1276,
    "ॻ‌‌": 1277,
    "ॻ‍": 1278,
    "ॼ": 1279,
    "ॼ‌": 1280,
    "ॼ‍": 1281,
    "ॼ‍‍": 1282,
    "ॽ": 1283,
    "ॽ‌": 1284,
    "ॽ‍": 1285,
    "ॾ": 1286,
    "ॾ‌": 1287,
    "ॾ‌‌": 1288
  },
  "metadata": {
    "tag": "zs_rungA_tamil",
    "num_graphemes": 1287,
    "space": "shared-abugida-pivot"
  }
}