{
  "grapheme2idx": {
    "<blank>": 0,
    "<unk>": 1,
    "!": 2,
    "\"": 3,
    "&": 4,
    "'": 5,
    "(": 6,
    ")": 7,
    ",": 8,
    "-": 9,
    ".": 10,
    "/": 11,
    "0": 12,
    "1": 13,
    "2": 14,
    "3": 15,
    "4": 16,
    "5": 17,
    "6": 18,
    "7": 19,
    "8": 20,
    "9": 21,
    ":": 22,
    "?": 23,
    "A": 24,
    "D": 25,
    "E": 26,
    "G": 27,
    "H": 28,
    "I": 29,
    "O": 30,
    "P": 31,
    "V": 32,
    "[": 33,
    "c": 34,
    "|": 35,
    "°": 36,
    "ا": 37,
    "ت": 38,
    "ج": 39,
    "ر": 40,
    "گ": 41,
    "ی": 42,
    "ँ": 43,
    "अ": 44,
    "अं": 45,
    "अि": 46,
    "अ्या": 47,
    "अ॰": 48,
    "आ": 49,
    "आं": 50,
    "आा्": 51,
    "आे": 52,
    "आॕ": 53,
    "इ": 54,
    "इँ": 55,
    "इं": 56,
    "इ॰": 57,
    "इॱ": 58,
    "ई": 59,
    "ईँ": 60,
    "ईं": 61,
    "उ": 62,
    "उाि": 63,
    "उॱ": 64,
    "ऊ": 65,
    "ऊँ": 66,
    "ऊं": 67,
    "ऊा्": 68,
    "ऋ": 69,
    "ऍ": 70,
    "ऎ": 71,
    "ऎं": 72,
    "ऎ‍": 73,
    "ए": 74,
    "एँ": 75,
    "एा": 76,
    "ऐ": 77,
    "ऐं": 78,
    "ऑ": 79,
    "ऒ": 80,
    "ऒं": 81,
    "ऒा्क्स्": 82,
    "ऒ‌": 83,
    "ओ": 84,
    "ओँ": 85,
    "ओं": 86,
    "ओ्बा": 87,
    "औ": 88,
    "औं": 89,
    "क": 90,
    "कं": 91,
    "कः": 92,
    "का": 93,
    "काँ": 94,
    "कां": 95,
    "काुं": 96,
    "काे": 97,
    "का्": 98,
    "का‍": 99,
    "का‍‌": 100,
    "कि": 101,
    "किं": 102,
    "की": 103,
    "कीे": 104,
    "कु": 105,
    "कुं": 106,
    "कु॰": 107,
    "कू": 108,
    "कृ": 109,
    "कॅ": 110,
    "कॅा": 111,
    "कॆ": 112,
    "कॆं": 113,
    "के": 114,
    "कें": 115,
    "केा": 116,
    "केा्": 117,
    "केे": 118,
    "कै": 119,
    "कॉ": 120,
    "कॊ": 121,
    "कॊं": 122,
    "को": 123,
    "कोँ": 124,
    "कों": 125,
    "कों‌": 126,
    "क्": 127,
    "क्ए": 128,
    "क्क": 129,
    "क्कं": 130,
    "क्का": 131,
    "क्कि": 132,
    "क्की": 133,
    "क्कु": 134,
    "क्कू": 135,
    "क्कॆ": 136,
    "क्के": 137,
    "क्कै": 138,
    "क्कॊ": 139,
    "क्को": 140,
    "क्क्": 141,
    "क्कॗ": 142,
    "क्ट": 143,
    "क्टो": 144,
    "क्ट्रि": 145,
    "क्त": 146,
    "क्ता": 147,
    "क्तां": 148,
    "क्ति": 149,
    "क्तीं": 150,
    "क्तु": 151,
    "क्ऩा": 152,
    "क्पे": 153,
    "क्मि": 154,
    "क्य": 155,
    "क्या": 156,
    "क्यू": 157,
    "क्र": 158,
    "क्रं": 159,
    "क्रा": 160,
    "क्रि": 161,
    "क्री": 162,
    "क्रे": 163,
    "क्रै": 164,
    "क्रो": 165,
    "क्ला": 166,
    "क्ळ": 167,
    "क्वा": 168,
    "क्वॆ": 169,
    "क्श": 170,
    "क्ष": 171,
    "क्षा": 172,
    "क्षां": 173,
    "क्षि": 174,
    "क्षिं": 175,
    "क्षी": 176,
    "क्षुः": 177,
    "क्षे": 178,
    "क्षो": 179,
    "क्ष्मि": 180,
    "क्ष्मी": 181,
    "क्ष्य": 182,
    "क्स": 183,
    "क्सि": 184,
    "क्स्": 185,
    "क्य़ा": 186,
    "क्॰": 187,
    "क्॰ा": 188,
    "क्॰े": 189,
    "क्‌": 190,
    "क्‍": 191,
    "क॰": 192,
    "कॱ": 193,
    "क‌": 194,
    "क‍ी": 195,
    "ख": 196,
    "खं": 197,
    "ख़": 198,
    "खा": 199,
    "खाँ": 200,
    "खां": 201,
    "खि": 202,
    "खी": 203,
    "खु": 204,
    "खू": 205,
    "खॆ": 206,
    "खे": 207,
    "खै": 208,
    "खो": 209,
    "ख्त": 210,
    "ख्य": 211,
    "ख्यु": 212,
    "ख्रीः": 213,
    "ग": 214,
    "गं": 215,
    "गा": 216,
    "गाँ": 217,
    "गां": 218,
    "गि": 219,
    "गि॰": 220,
    "गी": 221,
    "गु": 222,
    "गुं": 223,
    "गू": 224,
    "गृ": 225,
    "गॆ": 226,
    "गे": 227,
    "गै": 228,
    "गॊ": 229,
    "गॊं": 230,
    "गो": 231,
    "गों": 232,
    "गौ": 233,
    "ग्": 234,
    "ग्ग": 235,
    "ग्गि": 236,
    "ग्गॆ": 237,
    "ग्ण": 238,
    "ग्न": 239,
    "ग्नि": 240,
    "ग्ब": 241,
    "ग्य": 242,
    "ग्या": 243,
    "ग्ये": 244,
    "ग्र": 245,
    "ग्रं": 246,
    "ग्रा": 247,
    "ग्री": 248,
    "ग्रू": 249,
    "ग्रे": 250,
    "ग्ला": 251,
    "ग्ली": 252,
    "ग्वा": 253,
    "ग्स": 254,
    "ग्य़ा": 255,
    "ग्॰ु": 256,
    "ग्‌": 257,
    "ग॰": 258,
    "गॱ": 259,
    "घ": 260,
    "घा": 261,
    "घां": 262,
    "घु": 263,
    "घे": 264,
    "घो": 265,
    "घौ": 266,
    "घ्य": 267,
    "घ्या": 268,
    "ङ": 269,
    "ङा": 270,
    "ङि": 271,
    "ङे": 272,
    "ङ्क": 273,
    "ङ्का": 274,
    "ङ्कि": 275,
    "ङ्कु": 276,
    "ङ्के": 277,
    "ङ्कै": 278,
    "ङ्क्": 279,
    "ङ्क्षा": 280,
    "ङ्ग": 281,
    "ङ्गि": 282,
    "ङ्गी": 283,
    "ङ्गु": 284,
    "ङ्गे": 285,
    "ङ्गो": 286,
    "ङ्घ": 287,
    "ङ्ङ": 288,
    "ङ्ङा": 289,
    "ङ्ङि": 290,
    "ङ्ङों": 291,
    "ङ्ङ्‌": 292,
    "ङ्‌": 293,
    "च": 294,
    "चं": 295,
    "च़": 296,
    "चा": 297,
    "चां": 298,
    "चा्": 299,
    "चि": 300,
    "चिं": 301,
    "ची": 302,
    "चीा्": 303,
    "चु": 304,
    "चुे": 305,
    "चू": 306,
    "चॆ": 307,
    "चे": 308,
    "चें": 309,
    "चेा्क्कै": 310,
    "चै": 311,
    "चॊ": 312,
    "चो": 313,
    "चौ": 314,
    "च्": 315,
    "च्च": 316,
    "च्चं": 317,
    "च्चा": 318,
    "च्चा्": 319,
    "च्चि": 320,
    "च्चिं": 321,
    "च्ची": 322,
    "च्चे": 323,
    "च्चेाि": 324,
    "च्च्": 325,
    "च्च्‌": 326,
    "च्छ": 327,
    "च्छा": 328,
    "च्छु": 329,
    "च्छ्": 330,
    "च्ट": 331,
    "च्य": 332,
    "च्या": 333,
    "च्यु": 334,
    "च॑": 335,
    "चॖे": 336,
    "च॰": 337,
    "चॱ": 338,
    "छ": 339,
    "छा": 340,
    "छि": 341,
    "छु": 342,
    "छुॱ": 343,
    "छे": 344,
    "छें": 345,
    "छो": 346,
    "छोँ": 347,
    "छ॰": 348,
    "ज": 349,
    "जं": 350,
    "ज़": 351,
    "ज़ी": 352,
    "ज़ु": 353,
    "जा": 354,
    "जा्": 355,
    "जि": 356,
    "जिं": 357,
    "जि॰": 358,
    "जिॱ": 359,
    "जी": 360,
    "जु": 361,
    "जुॱ": 362,
    "जू": 363,
    "जॆ": 364,
    "जे": 365,
    "जें": 366,
    "जै": 367,
    "जॊ": 368,
    "जो": 369,
    "ज्": 370,
    "ज्ज": 371,
    "ज्जं": 372,
    "ज्ञ": 373,
    "ज्ञा": 374,
    "ज्ञी": 375,
    "ज्न": 376,
    "ज्ब": 377,
    "ज्य": 378,
    "ज्यु": 379,
    "ज्येा": 380,
    "ज्यो": 381,
    "ज्यों": 382,
    "ज्व": 383,
    "ज्सि": 384,
    "ज्य़": 385,
    "ज्य़ो": 386,
    "ज॰": 387,
    "झ": 388,
    "झा": 389,
    "झाँ": 390,
    "झां": 391,
    "झि": 392,
    "झी": 393,
    "झे": 394,
    "झ॰": 395,
    "ञ": 396,
    "ञा": 397,
    "ञा्": 398,
    "ञ्च": 399,
    "ञ्चा": 400,
    "ञ्चि": 401,
    "ञ्चे": 402,
    "ञ्ज": 403,
    "ञ्जा": 404,
    "ञ्जि": 405,
    "ञ्जी": 406,
    "ञ्ञ": 407,
    "ञ्ञा": 408,
    "ञ्ञि": 409,
    "ञ्ञॆ": 410,
    "ट": 411,
    "टा": 412,
    "टाा": 413,
    "टााि": 414,
    "टि": 415,
    "टिं": 416,
    "टी": 417,
    "टु": 418,
    "टू": 419,
    "टॆ": 420,
    "टे": 421,
    "टै": 422,
    "टैं": 423,
    "टो": 424,
    "टोाि": 425,
    "टौ": 426,
    "ट्": 427,
    "ट्क": 428,
    "ट्च": 429,
    "ट्चि": 430,
    "ट्ट": 431,
    "ट्टं": 432,
    "ट्ट़": 433,
    "ट्टा": 434,
    "ट्टा्": 435,
    "ट्टि": 436,
    "ट्टी": 437,
    "ट्टु": 438,
    "ट्टूा्पु": 439,
    "ट्टॆ": 440,
    "ट्टै": 441,
    "ट्टो": 442,
    "ट्ट्": 443,
    "ट्ण": 444,
    "ट्त": 445,
    "ट्न": 446,
    "ट्नं": 447,
    "ट्प": 448,
    "ट्पा": 449,
    "ट्य": 450,
    "ट्यू": 451,
    "ट्र": 452,
    "ट्रा": 453,
    "ट्रि": 454,
    "ट्रे": 455,
    "ट्रै": 456,
    "ट्रो": 457,
    "ट्र्या": 458,
    "ट्ल": 459,
    "ट्लु": 460,
    "ट्स्": 461,
    "ट्॰": 462,
    "ट्‌": 463,
    "ट्‍": 464,
    "ट‌": 465,
    "ठ": 466,
    "ठा": 467,
    "ठि": 468,
    "ठि॰": 469,
    "ठी": 470,
    "ठे": 471,
    "ठें": 472,
    "ठो": 473,
    "ठ्ठ": 474,
    "ड": 475,
    "डः": 476,
    "ड़": 477,
    "ड़ा": 478,
    "ड़ि": 479,
    "ड़ी": 480,
    "ड़े": 481,
    "ड़ौ": 482,
    "डा": 483,
    "डाः": 484,
    "डि": 485,
    "डी": 486,
    "डु": 487,
    "डू": 488,
    "डॆ": 489,
    "डॆं": 490,
    "डे": 491,
    "डै": 492,
    "डो": 493,
    "ड्": 494,
    "ड्क": 495,
    "ड्ड": 496,
    "ड्डा": 497,
    "ड्डि": 498,
    "ड्डु": 499,
    "ड्पे": 500,
    "ड्यं": 501,
    "ड्या": 502,
    "ड्यां": 503,
    "ड्यू": 504,
    "ड्र": 505,
    "ड्रि": 506,
    "ड्री": 507,
    "ड्रो": 508,
    "ड्वु": 509,
    "ड्स्": 510,
    "ड्‌": 511,
    "ड्‍": 512,
    "ढ": 513,
    "ढ़": 514,
    "ढ़ि": 515,
    "ढ़ी": 516,
    "ढि": 517,
    "ढु": 518,
    "ढे": 519,
    "ढे़": 520,
    "ण": 521,
    "णं": 522,
    "णा": 523,
    "णाः": 524,
    "णि": 525,
    "णी": 526,
    "णीं": 527,
    "णु": 528,
    "णू": 529,
    "णॆ": 530,
    "णे": 531,
    "णै": 532,
    "णो": 533,
    "ण्": 534,
    "ण्क": 535,
    "ण्का": 536,
    "ण्कॊ": 537,
    "ण्ट": 538,
    "ण्टं": 539,
    "ण्टा": 540,
    "ण्टि": 541,
    "ण्टु": 542,
    "ण्टॆ": 543,
    "ण्टे": 544,
    "ण्ट्": 545,
    "ण्ट्लू": 546,
    "ण्ट्‌": 547,
    "ण्ड": 548,
    "ण्डा": 549,
    "ण्डि": 550,
    "ण्ढ": 551,
    "ण्ण": 552,
    "ण्णा": 553,
    "ण्णी": 554,
    "ण्णु": 555,
    "ण्णू": 556,
    "ण्ता": 557,
    "ण्मै": 558,
    "ण्य": 559,
    "ण्या": 560,
    "ण्रा": 561,
    "ण्री": 562,
    "ण्‌": 563,
    "ण‍": 564,
    "त": 565,
    "तं": 566,
    "तः": 567,
    "त़": 568,
    "त़ि": 569,
    "ता": 570,
    "ताँ": 571,
    "तां": 572,
    "ता्": 573,
    "ति": 574,
    "तिं": 575,
    "तिः": 576,
    "तिाि": 577,
    "ती": 578,
    "तीा्": 579,
    "तीा्क": 580,
    "तु": 581,
    "तुं": 582,
    "तू": 583,
    "तू॰": 584,
    "तृ": 585,
    "तॆ": 586,
    "तॆॆ": 587,
    "तॆ्र्र": 588,
    "ते": 589,
    "तें": 590,
    "तै": 591,
    "तॊ": 592,
    "तो": 593,
    "तों": 594,
    "त्": 595,
    "त्उ": 596,
    "त्क": 597,
    "त्का": 598,
    "त्त": 599,
    "त्ता": 600,
    "त्ति": 601,
    "त्ती": 602,
    "त्तु": 603,
    "त्तू": 604,
    "त्तॆ": 605,
    "त्तेा्": 606,
    "त्तै": 607,
    "त्तॊ": 608,
    "त्तो": 609,
    "त्त्": 610,
    "त्त्य": 611,
    "त्त्व": 612,
    "त्त्‌": 613,
    "त्थ": 614,
    "त्थि": 615,
    "त्न": 616,
    "त्नं": 617,
    "त्नि": 618,
    "त्ब": 619,
    "त्बे": 620,
    "त्भ": 621,
    "त्म": 622,
    "त्मा": 623,
    "त्य": 624,
    "त्या": 625,
    "त्यां": 626,
    "त्यु": 627,
    "त्ये": 628,
    "त्य्": 629,
    "त्र": 630,
    "त्रं": 631,
    "त्रं‌": 632,
    "त्रा": 633,
    "त्रि": 634,
    "त्री": 635,
    "त्रॆ": 636,
    "त्रे": 637,
    "त्रों": 638,
    "त्र्य": 639,
    "त्र्यं": 640,
    "त्व": 641,
    "त्वं": 642,
    "त्वा": 643,
    "त्वि": 644,
    "त्स": 645,
    "त्सा": 646,
    "त्स्": 647,
    "त्स्ना": 648,
    "त्य़": 649,
    "त्य़ु": 650,
    "त्य़े": 651,
    "त्॰": 652,
    "त्‌": 653,
    "त्‍": 654,
    "त॰": 655,
    "त‍े": 656,
    "थ": 657,
    "था": 658,
    "थां": 659,
    "थि": 660,
    "थी": 661,
    "थु": 662,
    "थू": 663,
    "थृ": 664,
    "थे": 665,
    "थ्य": 666,
    "थ्य़": 667,
    "द": 668,
    "दा": 669,
    "दां": 670,
    "दि": 671,
    "दि॰": 672,
    "दी": 673,
    "दु": 674,
    "दू": 675,
    "दूं": 676,
    "दृ": 677,
    "दॆ": 678,
    "दे": 679,
    "दें": 680,
    "दै": 681,
    "दॊ": 682,
    "दो": 683,
    "दौ": 684,
    "द्": 685,
    "द्घा": 686,
    "द्ट": 687,
    "द्टु": 688,
    "द्द": 689,
    "द्दा": 690,
    "द्दि": 691,
    "द्दु": 692,
    "द्दू": 693,
    "द्ध": 694,
    "द्धा": 695,
    "द्धि": 696,
    "द्धी": 697,
    "द्ध्फि": 698,
    "द्ध्यं": 699,
    "द्ब": 700,
    "द्बा": 701,
    "द्बि": 702,
    "द्बी": 703,
    "द्बो": 704,
    "द्म": 705,
    "द्मा": 706,
    "द्य": 707,
    "द्या": 708,
    "द्यो": 709,
    "द्र": 710,
    "द्रा": 711,
    "द्रि": 712,
    "द्री": 713,
    "द्रु": 714,
    "द्रे": 715,
    "द्रौ": 716,
    "द्व": 717,
    "द्वा": 718,
    "द्वी": 719,
    "द्य़": 720,
    "द्य़ा": 721,
    "द्॰": 722,
    "द्‌": 723,
    "ध": 724,
    "धा": 725,
    "धि": 726,
    "धिि": 727,
    "धी": 728,
    "धीं": 729,
    "धु": 730,
    "धू": 731,
    "धे": 732,
    "धो": 733,
    "ध्दा": 734,
    "ध्दी": 735,
    "ध्ब": 736,
    "ध्य": 737,
    "ध्या": 738,
    "ध्ये": 739,
    "ध्र": 740,
    "ध्व": 741,
    "ध॰": 742,
    "न": 743,
    "नं": 744,
    "नः": 745,
    "ना": 746,
    "नां": 747,
    "ना्": 748,
    "नि": 749,
    "निं": 750,
    "निः": 751,
    "निॕ": 752,
    "नि‍": 753,
    "नी": 754,
    "नीा्": 755,
    "नु": 756,
    "नुं": 757,
    "नू": 758,
    "नू॰": 759,
    "नॅ": 760,
    "नॆ": 761,
    "ने": 762,
    "नेे": 763,
    "नै": 764,
    "नॊ": 765,
    "नो": 766,
    "नौ": 767,
    "न्": 768,
    "न्कु": 769,
    "न्ट": 770,
    "न्टा": 771,
    "न्ट्र": 772,
    "न्ट्रा": 773,
    "न्ड": 774,
    "न्डि": 775,
    "न्डी": 776,
    "न्डे": 777,
    "न्त": 778,
    "न्ता": 779,
    "न्ति": 780,
    "न्ती": 781,
    "न्तु": 782,
    "न्ते": 783,
    "न्तै": 784,
    "न्तो": 785,
    "न्त्": 786,
    "न्त्र": 787,
    "न्त्रि": 788,
    "न्त्री": 789,
    "न्त्॰ा": 790,
    "न्त्॰ि": 791,
    "न्त्॰ी": 792,
    "न्थ": 793,
    "न्था": 794,
    "न्द": 795,
    "न्दा": 796,
    "न्दि": 797,
    "न्दी": 798,
    "न्दु": 799,
    "न्दे": 800,
    "न्दो": 801,
    "न्द्यो": 802,
    "न्द्र": 803,
    "न्द्रं": 804,
    "न्द्रा": 805,
    "न्द्री": 806,
    "न्द्र्र": 807,
    "न्द्॰": 808,
    "न्द्॰ी": 809,
    "न्ध": 810,
    "न्धि": 811,
    "न्धी": 812,
    "न्न": 813,
    "न्नं": 814,
    "न्ना": 815,
    "न्नि": 816,
    "न्नि‍": 817,
    "न्नु": 818,
    "न्नुं": 819,
    "न्नू": 820,
    "न्नै": 821,
    "न्न्": 822,
    "न्ब": 823,
    "न्म": 824,
    "न्मा": 825,
    "न्मे": 826,
    "न्मो": 827,
    "न्म्या": 828,
    "न्य": 829,
    "न्यः": 830,
    "न्या": 831,
    "न्यु": 832,
    "न्यू": 833,
    "न्ये": 834,
    "न्ऱॆ": 835,
    "न्ऱ्": 836,
    "न्ल": 837,
    "न्वी": 838,
    "न्वे": 839,
    "न्ष": 840,
    "न्स": 841,
    "न्सा": 842,
    "न्सि": 843,
    "न्सी": 844,
    "न्सू": 845,
    "न्स्": 846,
    "न्हा": 847,
    "न्हां": 848,
    "न्य़": 849,
    "न्य़ा": 850,
    "न्‌": 851,
    "न॰": 852,
    "न॰ः": 853,
    "नॱ": 854,
    "ऩ": 855,
    "ऩा": 856,
    "ऩाा्": 857,
    "ऩा्क": 858,
    "ऩि": 859,
    "ऩी": 860,
    "ऩु": 861,
    "ऩू": 862,
    "ऩूा्": 863,
    "ऩै": 864,
    "ऩ्": 865,
    "ऩ्टा्": 866,
    "ऩ्ट्": 867,
    "ऩ्ट्र": 868,
    "ऩ्ऩ": 869,
    "ऩ्ऩा": 870,
    "ऩ्ऩि": 871,
    "ऩ्ऩै": 872,
    "ऩ्ऩो": 873,
    "ऩ्प": 874,
    "ऩ्पु": 875,
    "ऩ्मै": 876,
    "ऩ्ऱ": 877,
    "ऩ्ऱि": 878,
    "ऩ्ऱु": 879,
    "ऩ्ऱॆ": 880,
    "ऩ्वॆ": 881,
    "ऩ्स्": 882,
    "प": 883,
    "पं": 884,
    "पा": 885,
    "पाँ": 886,
    "पां": 887,
    "पि": 888,
    "पिं": 889,
    "पिु": 890,
    "पी": 891,
    "पु": 892,
    "पू": 893,
    "पूँ": 894,
    "पृ": 895,
    "पॅ": 896,
    "पॆ": 897,
    "पॆं": 898,
    "पे": 899,
    "पेा": 900,
    "पै": 901,
    "पैा": 902,
    "पॉ": 903,
    "पॊ": 904,
    "पॊं": 905,
    "पो": 906,
    "पोा्चु": 907,
    "पौ": 908,
    "प्": 909,
    "प्का": 910,
    "प्ट": 911,
    "प्टॆ": 912,
    "प्ण": 913,
    "प्त": 914,
    "प्ति": 915,
    "प्न": 916,
    "प्प": 917,
    "प्पं": 918,
    "प्पा": 919,
    "प्पि": 920,
    "प्पिं": 921,
    "प्पी": 922,
    "प्पु": 923,
    "प्पूा्": 924,
    "प्पॆ": 925,
    "प्पॊ": 926,
    "प्पो": 927,
    "प्प्": 928,
    "प्प्‌": 929,
    "प्या": 930,
    "प्र": 931,
    "प्रा": 932,
    "प्राः": 933,
    "प्रि": 934,
    "प्री": 935,
    "प्रीि": 936,
    "प्रॅ": 937,
    "प्रॆ": 938,
    "प्रे": 939,
    "प्रै": 940,
    "प्रो": 941,
    "प्रौ": 942,
    "प्ल": 943,
    "प्ला": 944,
    "प्ले": 945,
    "प्लै": 946,
    "प्लॉ": 947,
    "प्ष": 948,
    "प्स्": 949,
    "प्॰": 950,
    "प्॰ि": 951,
    "प्‍": 952,
    "प॰": 953,
    "प‌": 954,
    "फ": 955,
    "फ़": 956,
    "फा": 957,
    "फां": 958,
    "फि": 959,
    "फी": 960,
    "फु": 961,
    "फॆ": 962,
    "फे": 963,
    "फै": 964,
    "फो": 965,
    "फ्": 966,
    "फ्को": 967,
    "फ्ट्": 968,
    "फ्या": 969,
    "फ्र": 970,
    "फ्री": 971,
    "फ्रू": 972,
    "फ्रो": 973,
    "फ्ला": 974,
    "फ्॰े": 975,
    "ब": 976,
    "बँ": 977,
    "बं": 978,
    "बा": 979,
    "बां": 980,
    "बि": 981,
    "बि॰": 982,
    "बी": 983,
    "बु": 984,
    "बू": 985,
    "बृ": 986,
    "बॆ": 987,
    "बॆं": 988,
    "बे": 989,
    "बें": 990,
    "बै": 991,
    "बैं": 992,
    "बॉ": 993,
    "बॊ": 994,
    "बो": 995,
    "बौ": 996,
    "ब्": 997,
    "ब्थ": 998,
    "ब्द": 999,
    "ब्दी": 1000,
    "ब्दु": 1001,
    "ब्ब": 1002,
    "ब्बं": 1003,
    "ब्बा": 1004,
    "ब्य": 1005,
    "ब्या": 1006,
    "ब्यां": 1007,
    "ब्यु": 1008,
    "ब्यू": 1009,
    "ब्र": 1010,
    "ब्रा": 1011,
    "ब्रि": 1012,
    "ब्रु": 1013,
    "ब्रू": 1014,
    "ब्रे": 1015,
    "ब्ल": 1016,
    "ब्लु": 1017,
    "ब्लो": 1018,
    "ब्ल्यू": 1019,
    "ब्सि": 1020,
    "ब्य़ा": 1021,
    "ब्॰ु": 1022,
    "ब॰": 1023,
    "बॱ": 1024,
    "भ": 1025,
    "भं": 1026,
    "भा": 1027,
    "भां": 1028,
    "भि": 1029,
    "भिं": 1030,
    "भी": 1031,
    "भु": 1032,
    "भू": 1033,
    "भृा": 1034,
    "भे": 1035,
    "भें": 1036,
    "भै": 1037,
    "भो": 1038,
    "भ्य": 1039,
    "भ्या": 1040,
    "भ्र": 1041,
    "भ॰": 1042,
    "म": 1043,
    "मं": 1044,
    "मः": 1045,
    "मा": 1046,
    "मां": 1047,
    "मि": 1048,
    "मी": 1049,
    "मु": 1050,
    "मुं": 1051,
    "मुॱ": 1052,
    "मू": 1053,
    "मूा्त्ति": 1054,
    "मृ": 1055,
    "मॆ": 1056,
    "मे": 1057,
    "में": 1058,
    "मै": 1059,
    "मैं": 1060,
    "मैा": 1061,
    "मॊ": 1062,
    "मो": 1063,
    "मों": 1064,
    "मौ": 1065,
    "म्": 1066,
    "म्ः": 1067,
    "म्का": 1068,
    "म्न": 1069,
    "म्ना": 1070,
    "म्प": 1071,
    "म्पा": 1072,
    "म्पा्": 1073,
    "म्पि": 1074,
    "म्पु": 1075,
    "म्पू": 1076,
    "म्पूा्": 1077,
    "म्पे": 1078,
    "म्प्": 1079,
    "म्प्या": 1080,
    "म्प्यु": 1081,
    "म्प्यू": 1082,
    "म्प्ले": 1083,
    "म्प्वा": 1084,
    "म्प्॰": 1085,
    "म्ब": 1086,
    "म्बा": 1087,
    "म्बि": 1088,
    "म्बे": 1089,
    "म्ब्न": 1090,
    "म्भ": 1091,
    "म्भा": 1092,
    "म्भु": 1093,
    "म्म": 1094,
    "म्मा": 1095,
    "म्मि": 1096,
    "म्मु": 1097,
    "म्मू": 1098,
    "म्मे": 1099,
    "म्मै": 1100,
    "म्य": 1101,
    "म्या": 1102,
    "म्यां": 1103,
    "म्यु": 1104,
    "म्यू": 1105,
    "म्र": 1106,
    "म्रा": 1107,
    "म्रि": 1108,
    "म्श": 1109,
    "म्स": 1110,
    "म्ह": 1111,
    "म्ही": 1112,
    "म्॰ा": 1113,
    "म्‌": 1114,
    "म॰": 1115,
    "मॱ": 1116,
    "य": 1117,
    "यं": 1118,
    "य़": 1119,
    "य़ा": 1120,
    "य़े": 1121,
    "या": 1122,
    "यां": 1123,
    "याा्": 1124,
    "या‍": 1125,
    "यि": 1126,
    "यी": 1127,
    "यु": 1128,
    "युं": 1129,
    "यू": 1130,
    "ये": 1131,
    "यें": 1132,
    "यै": 1133,
    "यॊ": 1134,
    "यो": 1135,
    "यों": 1136,
    "य्": 1137,
    "य्क": 1138,
    "य्क्का": 1139,
    "य्क्कां": 1140,
    "य्क्क्": 1141,
    "य्ञ्चि": 1142,
    "य्त": 1143,
    "य्न्त": 1144,
    "य्म": 1145,
    "य्मा": 1146,
    "य्मै": 1147,
    "य्य": 1148,
    "य्या्": 1149,
    "य्व": 1150,
    "य्वि": 1151,
    "य्वु": 1152,
    "य्स्री": 1153,
    "य्य़ा": 1154,
    "य्‌": 1155,
    "यॖ": 1156,
    "र": 1157,
    "रं": 1158,
    "रा": 1159,
    "रां": 1160,
    "राा्": 1161,
    "रा्": 1162,
    "रि": 1163,
    "रिं": 1164,
    "रि॰": 1165,
    "री": 1166,
    "रीं": 1167,
    "रु": 1168,
    "रुं": 1169,
    "रू": 1170,
    "रूा्": 1171,
    "रॆ": 1172,
    "रॆं": 1173,
    "रे": 1174,
    "रें": 1175,
    "रै": 1176,
    "रॉँ": 1177,
    "रॊ": 1178,
    "रो": 1179,
    "र्": 1180,
    "र्ऎ": 1181,
    "र्क": 1182,
    "र्का": 1183,
    "र्कि": 1184,
    "र्किं": 1185,
    "र्कॆ": 1186,
    "र्के": 1187,
    "र्कॊं": 1188,
    "र्ग": 1189,
    "र्गं": 1190,
    "र्गि": 1191,
    "र्च": 1192,
    "र्चा": 1193,
    "र्चु": 1194,
    "र्च्च": 1195,
    "र्च्चि": 1196,
    "र्ज": 1197,
    "र्जी": 1198,
    "र्जु": 1199,
    "र्ट": 1200,
    "र्टि": 1201,
    "र्ट्": 1202,
    "र्ट्स्": 1203,
    "र्ड": 1204,
    "र्डी": 1205,
    "र्ण": 1206,
    "र्णा": 1207,
    "र्णि": 1208,
    "र्णी": 1209,
    "र्णो": 1210,
    "र्ण्णा": 1211,
    "र्ण्णी": 1212,
    "र्ण्न": 1213,
    "र्त": 1214,
    "र्ति": 1215,
    "र्ती": 1216,
    "र्तु": 1217,
    "र्तू": 1218,
    "र्ते": 1219,
    "र्थ": 1220,
    "र्थं": 1221,
    "र्थि": 1222,
    "र्द": 1223,
    "र्दि": 1224,
    "र्दु": 1225,
    "र्दे": 1226,
    "र्द्": 1227,
    "र्ध": 1228,
    "र्न": 1229,
    "र्ना": 1230,
    "र्नी": 1231,
    "र्नू": 1232,
    "र्ने": 1233,
    "र्प": 1234,
    "र्पा": 1235,
    "र्पे": 1236,
    "र्पॊ": 1237,
    "र्पो": 1238,
    "र्फे": 1239,
    "र्ब": 1240,
    "र्बि": 1241,
    "र्बो": 1242,
    "र्ब्ब": 1243,
    "र्भ": 1244,
    "र्भं": 1245,
    "र्भा": 1246,
    "र्भी": 1247,
    "र्म": 1248,
    "र्मा": 1249,
    "र्मि": 1250,
    "र्मी": 1251,
    "र्मु": 1252,
    "र्मे": 1253,
    "र्म्": 1254,
    "र्य": 1255,
    "र्या": 1256,
    "र्य्या": 1257,
    "र्य्य़": 1258,
    "र्य्य़ा": 1259,
    "र्र": 1260,
    "र्रा": 1261,
    "र्रि": 1262,
    "र्ल": 1263,
    "र्लो": 1264,
    "र्व": 1265,
    "र्वा": 1266,
    "र्वि": 1267,
    "र्वे": 1268,
    "र्श": 1269,
    "र्शि": 1270,
    "र्ष": 1271,
    "र्षा": 1272,
    "र्षि": 1273,
    "र्षे": 1274,
    "र्स": 1275,
    "र्सि": 1276,
    "र्सी": 1277,
    "र्स्": 1278,
    "र्‌": 1279,
    "र॰": 1280,
    "रॱ": 1281,
    "र‌": 1282,
    "र‍": 1283,
    "ऱ": 1284,
    "ऱं": 1285,
    "ऱा": 1286,
    "ऱि": 1287,
    "ऱिं": 1288,
    "ऱु": 1289,
    "ऱॆ": 1290,
    "ऱे": 1291,
    "ऱै": 1292,
    "ऱॊ": 1293,
    "ऱो": 1294,
    "ऱ्": 1295,
    "ऱ्का": 1296,
    "ऱ्कु": 1297,
    "ऱ्कै": 1298,
    "ऱ्चि": 1299,
    "ऱ्प": 1300,
    "ऱ्ऱ": 1301,
    "ऱ्ऱा": 1302,
    "ऱ्ऱि": 1303,
    "ऱ्ऱु": 1304,
    "ऱ्ऱे": 1305,
    "ऱ्ऱ्": 1306,
    "ऱ्ऱ्यू": 1307,
    "ऱ्ऱ्ऱ्‌": 1308,
    "ल": 1309,
    "लं": 1310,
    "ला": 1311,
    "लां": 1312,
    "ला्क": 1313,
    "लि": 1314,
    "लिं": 1315,
    "लिा": 1316,
    "ली": 1317,
    "लु": 1318,
    "लुं": 1319,
    "लू": 1320,
    "लूा्": 1321,
    "लॆ": 1322,
    "लॆं": 1323,
    "ले": 1324,
    "लै": 1325,
    "लॉ": 1326,
    "लो": 1327,
    "लोँ": 1328,
    "लौ": 1329,
    "ल्": 1330,
    "ल्ऎ": 1331,
    "ल्क": 1332,
    "ल्कि": 1333,
    "ल्की": 1334,
    "ल्कु": 1335,
    "ल्क्कु": 1336,
    "ल्क्स्": 1337,
    "ल्ग": 1338,
    "ल्गू": 1339,
    "ल्ट": 1340,
    "ल्टि": 1341,
    "ल्टी": 1342,
    "ल्ट्": 1343,
    "ल्ड": 1344,
    "ल्डीं": 1345,
    "ल्ड्र": 1346,
    "ल्थ": 1347,
    "ल्दा": 1348,
    "ल्न": 1349,
    "ल्नी": 1350,
    "ल्प": 1351,
    "ल्पी": 1352,
    "ल्पु": 1353,
    "ल्पॊ": 1354,
    "ल्पो": 1355,
    "ल्फे": 1356,
    "ल्या": 1357,
    "ल्यां": 1358,
    "ल्यु": 1359,
    "ल्ल": 1360,
    "ल्लं": 1361,
    "ल्ला": 1362,
    "ल्ला‍": 1363,
    "ल्लि": 1364,
    "ल्ली": 1365,
    "ल्लु": 1366,
    "ल्लू": 1367,
    "ल्लूाि": 1368,
    "ल्लूा्": 1369,
    "ल्लॆ": 1370,
    "ल्ले": 1371,
    "ल्लै": 1372,
    "ल्ल्": 1373,
    "ल्वि": 1374,
    "ल्वॆ": 1375,
    "ल्वे": 1376,
    "ल्स्": 1377,
    "ल्हा": 1378,
    "ल्हे": 1379,
    "ल्ह्या": 1380,
    "ल्‌": 1381,
    "ल्‍": 1382,
    "ल॰": 1383,
    "लॱ": 1384,
    "ळ": 1385,
    "ळं": 1386,
    "ळा": 1387,
    "ळां": 1388,
    "ळा्": 1389,
    "ळि": 1390,
    "ळी": 1391,
    "ळु": 1392,
    "ळू": 1393,
    "ळॆ": 1394,
    "ळे": 1395,
    "ळै": 1396,
    "ळो": 1397,
    "ळ्": 1398,
    "ळ्अ": 1399,
    "ळ्क": 1400,
    "ळ्मि": 1401,
    "ळ्मी": 1402,
    "ळ्या": 1403,
    "ळ्यां": 1404,
    "ळ्ळ": 1405,
    "ळ्ळा": 1406,
    "ळ्ळि": 1407,
    "ळ्ळु": 1408,
    "ळ‍": 1409,
    "ऴ": 1410,
    "ऴं": 1411,
    "ऴा": 1412,
    "ऴि": 1413,
    "ऴु": 1414,
    "ऴॆ": 1415,
    "ऴ्": 1416,
    "ऴ्चॆ": 1417,
    "ऴ्न": 1418,
    "ऴ्ना": 1419,
    "ऴ्वु": 1420,
    "ऴ्‌": 1421,
    "व": 1422,
    "वं": 1423,
    "वः": 1424,
    "व़": 1425,
    "वा": 1426,
    "वां": 1427,
    "वाा्टु": 1428,
    "वाि": 1429,
    "वा्": 1430,
    "वा्क": 1431,
    "वि": 1432,
    "विं": 1433,
    "वि॰": 1434,
    "विॱ": 1435,
    "वी": 1436,
    "वीं": 1437,
    "वीः": 1438,
    "वु": 1439,
    "वुं": 1440,
    "वू": 1441,
    "वृ": 1442,
    "वॅ": 1443,
    "वॆ": 1444,
    "वॆं": 1445,
    "वे": 1446,
    "वेा्ल्टु": 1447,
    "वै": 1448,
    "वॉ": 1449,
    "वॊ": 1450,
    "वो": 1451,
    "व्": 1452,
    "व्य": 1453,
    "व्या": 1454,
    "व्र": 1455,
    "व्व": 1456,
    "व्वा": 1457,
    "व्वि": 1458,
    "व्वू": 1459,
    "व्वे": 1460,
    "व्ह": 1461,
    "व्हि": 1462,
    "व्ही": 1463,
    "व्‌": 1464,
    "व॰": 1465,
    "व‌": 1466,
    "श": 1467,
    "शं": 1468,
    "शा": 1469,
    "शां": 1470,
    "शाः": 1471,
    "शि": 1472,
    "शी": 1473,
    "शीू": 1474,
    "शु": 1475,
    "शू": 1476,
    "शृ": 1477,
    "शॅ": 1478,
    "शॆ": 1479,
    "शे": 1480,
    "शै": 1481,
    "शो": 1482,
    "श्": 1483,
    "श्च": 1484,
    "श्चि": 1485,
    "श्ते": 1486,
    "श्ब": 1487,
    "श्मा": 1488,
    "श्य": 1489,
    "श्र": 1490,
    "श्रा": 1491,
    "श्रि": 1492,
    "श्री": 1493,
    "श्रु": 1494,
    "श्रे": 1495,
    "श्व": 1496,
    "श्वा": 1497,
    "श्शि": 1498,
    "श्शे": 1499,
    "श्स": 1500,
    "श्॰ी": 1501,
    "श्ॱ": 1502,
    "श्‍": 1503,
    "ष": 1504,
    "षं": 1505,
    "षा": 1506,
    "षि": 1507,
    "षी": 1508,
    "षु": 1509,
    "षू": 1510,
    "षे": 1511,
    "षो": 1512,
    "ष्कृ": 1513,
    "ष्ट": 1514,
    "ष्टा": 1515,
    "ष्टि": 1516,
    "ष्टी": 1517,
    "ष्टु": 1518,
    "ष्टे": 1519,
    "ष्टो": 1520,
    "ष्ट्र": 1521,
    "ष्ट्रं": 1522,
    "ष्ट्रा": 1523,
    "ष्ट्री": 1524,
    "ष्ट्॰": 1525,
    "ष्ट्॰ी": 1526,
    "ष्ठ": 1527,
    "ष्ठा": 1528,
    "ष्ण": 1529,
    "ष्णा": 1530,
    "ष्णू": 1531,
    "ष्ना": 1532,
    "ष्पा": 1533,
    "ष्म": 1534,
    "ष्मॆ": 1535,
    "ष्य": 1536,
    "ष्यं": 1537,
    "ष्य़": 1538,
    "ष्‌": 1539,
    "ष्‍": 1540,
    "षॢ": 1541,
    "स": 1542,
    "सं": 1543,
    "सः": 1544,
    "स़": 1545,
    "स़ा": 1546,
    "स़ि": 1547,
    "सा": 1548,
    "सां": 1549,
    "सि": 1550,
    "सिं": 1551,
    "सि॰": 1552,
    "सी": 1553,
    "सु": 1554,
    "सुँ": 1555,
    "सुं": 1556,
    "सू": 1557,
    "सृ": 1558,
    "सॆ": 1559,
    "सॆं": 1560,
    "से": 1561,
    "सें": 1562,
    "से‍": 1563,
    "सै": 1564,
    "सैं": 1565,
    "सो": 1566,
    "सोँ": 1567,
    "सौ": 1568,
    "स्": 1569,
    "स्क": 1570,
    "स्का": 1571,
    "स्कु": 1572,
    "स्कू": 1573,
    "स्कृ": 1574,
    "स्गि": 1575,
    "स्जि": 1576,
    "स्जी": 1577,
    "स्ट": 1578,
    "स्टा": 1579,
    "स्टी": 1580,
    "स्टु": 1581,
    "स्टॆ": 1582,
    "स्टे": 1583,
    "स्टो": 1584,
    "स्टोा्स्": 1585,
    "स्ट्": 1586,
    "स्ट्र": 1587,
    "स्ट्री": 1588,
    "स्त": 1589,
    "स्तं": 1590,
    "स्ता": 1591,
    "स्ति": 1592,
    "स्तु": 1593,
    "स्तू": 1594,
    "स्तृ": 1595,
    "स्तॆ": 1596,
    "स्ते": 1597,
    "स्त्र": 1598,
    "स्त्रा": 1599,
    "स्थ": 1600,
    "स्था": 1601,
    "स्थि": 1602,
    "स्थी": 1603,
    "स्थू": 1604,
    "स्थॆ": 1605,
    "स्थे": 1606,
    "स्थ्य": 1607,
    "स्ध": 1608,
    "स्धा": 1609,
    "स्धॆ": 1610,
    "स्ना": 1611,
    "स्ने": 1612,
    "स्प": 1613,
    "स्पा": 1614,
    "स्पृ": 1615,
    "स्पॆ": 1616,
    "स्पे": 1617,
    "स्फो": 1618,
    "स्ब": 1619,
    "स्बा": 1620,
    "स्भा": 1621,
    "स्म": 1622,
    "स्मा": 1623,
    "स्मृ": 1624,
    "स्य": 1625,
    "स्यः": 1626,
    "स्र": 1627,
    "स्ऱी": 1628,
    "स्री": 1629,
    "स्ऱ्ऱ": 1630,
    "स्ऱ्ऱा": 1631,
    "स्ऱ्ऱि": 1632,
    "स्ऱ्ऱे": 1633,
    "स्ऱ्ऱै": 1634,
    "स्ऱ्ऱो": 1635,
    "स्ला": 1636,
    "स्लि": 1637,
    "स्व": 1638,
    "स्वं": 1639,
    "स्वा": 1640,
    "स्वी": 1641,
    "स्वे": 1642,
    "स्सा": 1643,
    "स्सु": 1644,
    "स्से": 1645,
    "स्स्मा": 1646,
    "स्य़": 1647,
    "स्॰": 1648,
    "स्॰ा": 1649,
    "स्ॱ": 1650,
    "स्‌": 1651,
    "स्‍": 1652,
    "सॗ": 1653,
    "स॰": 1654,
    "सॱ": 1655,
    "ह": 1656,
    "हं": 1657,
    "हः": 1658,
    "हा": 1659,
    "हां": 1660,
    "हा‍": 1661,
    "हि": 1662,
    "हिँ": 1663,
    "हिं": 1664,
    "हिः": 1665,
    "हि॰": 1666,
    "ही": 1667,
    "हीं": 1668,
    "हु": 1669,
    "हु॰": 1670,
    "हू": 1671,
    "हृ": 1672,
    "हॆ": 1673,
    "हे": 1674,
    "हें": 1675,
    "है": 1676,
    "है‍": 1677,
    "हॉ": 1678,
    "हॊ": 1679,
    "हो": 1680,
    "ह्दि": 1681,
    "ह्न": 1682,
    "ह्म": 1683,
    "ह्य": 1684,
    "ह्या": 1685,
    "ह्रू": 1686,
    "ह॰": 1687,
    "हॱ": 1688,
    "ऽ": 1689,
    "ा": 1690,
    "े": 1691,
    "ॎ": 1692,
    "ॐ": 1693,
    "ज़ो": 1694,
    "ज़॰": 1695,
    "ड़": 1696,
    "ड़ा": 1697,
    "ड़ी": 1698,
    "ड़े": 1699,
    "ड़ै": 1700,
    "ड़ोु": 1701,
    "ड़्ह": 1702,
    "ड़्हे": 1703,
    "ढ़ि": 1704,
    "ढ़ी": 1705,
    "ढ़ो": 1706,
    "फ़": 1707,
    "फ़्ट": 1708,
    "फ़्दु": 1709,
    "य़": 1710,
    "य़ं": 1711,
    "य़ः": 1712,
    "य़़": 1713,
    "य़ा": 1714,
    "य़ां": 1715,
    "य़ि": 1716,
    "य़ु": 1717,
    "य़े": 1718,
    "य़ो": 1719,
    "य़्या": 1720,
    "य़ॗ": 1721,
    "ॠ": 1722,
    "।": 1723,
    "।‍": 1724,
    "॥": 1725,
    "०": 1726,
    "१": 1727,
    "१्को": 1728,
    "१‌": 1729,
    "२": 1730,
    "२़": 1731,
    "२ा": 1732,
    "३": 1733,
    "४": 1734,
    "५": 1735,
    "५ु": 1736,
    "५ो": 1737,
    "६": 1738,
    "७": 1739,
    "८": 1740,
    "९": 1741,
    "॰": 1742,
    "॰ा": 1743,
    "॰ि": 1744,
    "॰िः": 1745,
    "॰ी": 1746,
    "॰ु": 1747,
    "॰ू": 1748,
    "॰े": 1749,
    "॰ो": 1750,
    "॰्थ": 1751,
    "॰्प": 1752,
    "॰्ब": 1753,
    "॰्मा": 1754,
    "॰्य": 1755,
    "॰्य्य": 1756,
    "॰्य्या": 1757,
    "॰्ष": 1758,
    "ॱ": 1759,
    "ॱा": 1760,
    "ॱि": 1761,
    "ॱे": 1762,
    "ॱो": 1763,
    "ॳ": 1764,
    "ॳे": 1765,
    "ॷ": 1766,
    "ॹ": 1767,
    "ॺ": 1768,
    "ॺ‍": 1769,
    "ॻ": 1770,
    "ॻॆ": 1771,
    "ॻ्ऱॆ": 1772,
    "ॻ‌": 1773,
    "ॼ": 1774,
    "ॼ‌": 1775,
    "ॼ‍‍": 1776,
    "ॽ": 1777,
    "ॽ‍": 1778,
    "ॾ": 1779,
    "ॾ‌‌": 1780,
    "​": 1781,
    "’": 1782
  },
  "metadata": {
    "tag": "zs_scale810_telugu",
    "num_graphemes": 1781,
    "space": "shared-abugida-pivot"
  }
}