{
  "grapheme2idx": {
    "<blank>": 0,
    "<unk>": 1,
    " ‌": 2,
    "!": 3,
    "\"": 4,
    "&": 5,
    "'": 6,
    "(": 7,
    ")": 8,
    ",": 9,
    "-": 10,
    "-ा": 11,
    ".": 12,
    "/": 13,
    "0": 14,
    "1": 15,
    "2": 16,
    "3": 17,
    "3ः": 18,
    "4": 19,
    "5": 20,
    "6": 21,
    "7": 22,
    "8": 23,
    "9": 24,
    ":": 25,
    "?": 26,
    "A": 27,
    "D": 28,
    "G": 29,
    "H": 30,
    "I": 31,
    "L": 32,
    "N": 33,
    "O": 34,
    "P": 35,
    "U": 36,
    "V": 37,
    "W": 38,
    "[": 39,
    "c": 40,
    "|": 41,
    "°": 42,
    "ا": 43,
    "ت": 44,
    "ج": 45,
    "ر": 46,
    "گ": 47,
    "ی": 48,
    "ँ": 49,
    "अ": 50,
    "अं": 51,
    "अि": 52,
    "अे": 53,
    "अ्या": 54,
    "अ॰": 55,
    "अॱ": 56,
    "आ": 57,
    "आं": 58,
    "आा्": 59,
    "आे": 60,
    "आ्य": 61,
    "इ": 62,
    "इं": 63,
    "इ्ट": 64,
    "इ॰": 65,
    "इॱ": 66,
    "ई": 67,
    "ईँ": 68,
    "ईं": 69,
    "उ": 70,
    "उं": 71,
    "उाि": 72,
    "उॱ": 73,
    "ऊ": 74,
    "ऊँ": 75,
    "ऊं": 76,
    "ऋ": 77,
    "ऍ": 78,
    "ऎ": 79,
    "ऎं": 80,
    "ऎ‍": 81,
    "ए": 82,
    "एँ": 83,
    "एा": 84,
    "ऐ": 85,
    "ऐं": 86,
    "ऐे": 87,
    "ऑ": 88,
    "ऒ": 89,
    "ऒं": 90,
    "ऒाि": 91,
    "ऒा्क्स्": 92,
    "ऒ‌": 93,
    "ओ": 94,
    "ओँ": 95,
    "ओं": 96,
    "ओ्बा": 97,
    "औ": 98,
    "औं": 99,
    "क": 100,
    "कं": 101,
    "कं‌": 102,
    "कः": 103,
    "का": 104,
    "काँ": 105,
    "कां": 106,
    "काुं": 107,
    "काे": 108,
    "का्": 109,
    "का‍": 110,
    "का‍‌": 111,
    "कि": 112,
    "किं": 113,
    "किाि": 114,
    "की": 115,
    "कीे": 116,
    "कु": 117,
    "कुं": 118,
    "कू": 119,
    "कृ": 120,
    "कॅ": 121,
    "कॅा": 122,
    "कॆ": 123,
    "कॆं": 124,
    "के": 125,
    "कें": 126,
    "केा": 127,
    "केॆ्टा": 128,
    "केे": 129,
    "कै": 130,
    "कॉ": 131,
    "कॊ": 132,
    "कॊं": 133,
    "कॊॕ": 134,
    "को": 135,
    "कोँ": 136,
    "कों": 137,
    "कौ": 138,
    "क्": 139,
    "क्क": 140,
    "क्कं": 141,
    "क्का": 142,
    "क्कि": 143,
    "क्कु": 144,
    "क्कू": 145,
    "क्कॆ": 146,
    "क्के": 147,
    "क्कै": 148,
    "क्कॊ": 149,
    "क्को": 150,
    "क्क्": 151,
    "क्क्‌": 152,
    "क्कॗ": 153,
    "क्ट": 154,
    "क्टो": 155,
    "क्ट्रि": 156,
    "क्ट्रो": 157,
    "क्त": 158,
    "क्ता": 159,
    "क्तां": 160,
    "क्ति": 161,
    "क्तीं": 162,
    "क्तु": 163,
    "क्ते": 164,
    "क्नो": 165,
    "क्प": 166,
    "क्पे": 167,
    "क्मि": 168,
    "क्य": 169,
    "क्या": 170,
    "क्यू": 171,
    "क्र": 172,
    "क्रं": 173,
    "क्रा": 174,
    "क्रि": 175,
    "क्री": 176,
    "क्रे": 177,
    "क्रै": 178,
    "क्रो": 179,
    "क्ल": 180,
    "क्ला": 181,
    "क्लि": 182,
    "क्ळे": 183,
    "क्व": 184,
    "क्वा": 185,
    "क्वॆ": 186,
    "क्श": 187,
    "क्ष": 188,
    "क्षा": 189,
    "क्षां": 190,
    "क्षि": 191,
    "क्षिं": 192,
    "क्षी": 193,
    "क्षुः": 194,
    "क्षॆ": 195,
    "क्षे": 196,
    "क्षो": 197,
    "क्ष्म": 198,
    "क्ष्मि": 199,
    "क्ष्मिॕ": 200,
    "क्ष्मी": 201,
    "क्ष्य": 202,
    "क्स": 203,
    "क्सि": 204,
    "क्स्": 205,
    "क्य़ा": 206,
    "क्॰": 207,
    "क्॰ा": 208,
    "क्॰े": 209,
    "क्‌": 210,
    "क्‍": 211,
    "क॰": 212,
    "क‌": 213,
    "क‍ी": 214,
    "ख": 215,
    "खं": 216,
    "खा": 217,
    "खाँ": 218,
    "खां": 219,
    "खि": 220,
    "खी": 221,
    "खु": 222,
    "खू": 223,
    "खे": 224,
    "खेा": 225,
    "खै": 226,
    "खो": 227,
    "ख्त": 228,
    "ख्य": 229,
    "ख्या": 230,
    "ख्यु": 231,
    "ख्यॆ": 232,
    "ख्रीः": 233,
    "ग": 234,
    "गं": 235,
    "ग़ि": 236,
    "गा": 237,
    "गां": 238,
    "गि": 239,
    "गि॰": 240,
    "गी": 241,
    "गु": 242,
    "गुं": 243,
    "गू": 244,
    "गृ": 245,
    "गॆ": 246,
    "गॆं": 247,
    "गे": 248,
    "गे्ड": 249,
    "गै": 250,
    "गॊ": 251,
    "गो": 252,
    "गों": 253,
    "गौ": 254,
    "ग्": 255,
    "ग्ई": 256,
    "ग्ग": 257,
    "ग्गि": 258,
    "ग्गॆ": 259,
    "ग्ण": 260,
    "ग्नि": 261,
    "ग्भ": 262,
    "ग्य": 263,
    "ग्या": 264,
    "ग्ये": 265,
    "ग्र": 266,
    "ग्रं": 267,
    "ग्रा": 268,
    "ग्रां": 269,
    "ग्री": 270,
    "ग्रू": 271,
    "ग्रे": 272,
    "ग्ला": 273,
    "ग्लां": 274,
    "ग्लो": 275,
    "ग्वा": 276,
    "ग्ष": 277,
    "ग्स": 278,
    "ग्य़ा": 279,
    "ग्॰ु": 280,
    "गॱ": 281,
    "घ": 282,
    "घं": 283,
    "घा": 284,
    "घु": 285,
    "घे": 286,
    "घो": 287,
    "घौ": 288,
    "घ्य": 289,
    "घ्या": 290,
    "घ्र": 291,
    "ङ": 292,
    "ङा": 293,
    "ङि": 294,
    "ङे": 295,
    "ङ्": 296,
    "ङ्क": 297,
    "ङ्का": 298,
    "ङ्कि": 299,
    "ङ्कु": 300,
    "ङ्के": 301,
    "ङ्कै": 302,
    "ङ्को": 303,
    "ङ्क्": 304,
    "ङ्ग": 305,
    "ङ्गा": 306,
    "ङ्गी": 307,
    "ङ्गु": 308,
    "ङ्गे": 309,
    "ङ्गो": 310,
    "ङ्घ": 311,
    "ङ्ङ": 312,
    "ङ्ङा": 313,
    "ङ्ङि": 314,
    "ङ्ङे": 315,
    "ङ्ङों": 316,
    "ङ्ङ्‌": 317,
    "ङ्ट": 318,
    "ङ्त": 319,
    "ङ्ष": 320,
    "ङ्‌": 321,
    "च": 322,
    "चं": 323,
    "चा": 324,
    "चां": 325,
    "चा्": 326,
    "चा्जि": 327,
    "चा्व": 328,
    "चि": 329,
    "चिं": 330,
    "चिॕ": 331,
    "ची": 332,
    "चु": 333,
    "चू": 334,
    "चॆ": 335,
    "चे": 336,
    "चेा्ऩ्": 337,
    "चै": 338,
    "चॉ": 339,
    "चॊ": 340,
    "चो": 341,
    "चों": 342,
    "चौ": 343,
    "च्": 344,
    "च्च": 345,
    "च्चं": 346,
    "च्चा": 347,
    "च्चि": 348,
    "च्ची": 349,
    "च्चु": 350,
    "च्चे": 351,
    "च्चेाि": 352,
    "च्च्": 353,
    "च्च्‌": 354,
    "च्छ": 355,
    "च्छा": 356,
    "च्छु": 357,
    "च्छे": 358,
    "च्छ्": 359,
    "च्य": 360,
    "च्या": 361,
    "च॰": 362,
    "चॱ": 363,
    "छ": 364,
    "छा": 365,
    "छि": 366,
    "छी": 367,
    "छु": 368,
    "छे": 369,
    "छें": 370,
    "छो": 371,
    "छोँ": 372,
    "छ॰": 373,
    "ज": 374,
    "जं": 375,
    "ज़": 376,
    "ज़ी": 377,
    "ज़ु": 378,
    "जा": 379,
    "जि": 380,
    "जिं": 381,
    "जि॰": 382,
    "जिॱ": 383,
    "जी": 384,
    "जु": 385,
    "जुॱ": 386,
    "जू": 387,
    "जॆ": 388,
    "जे": 389,
    "जै": 390,
    "जो": 391,
    "ज्": 392,
    "ज्ञ": 393,
    "ज्ञा": 394,
    "ज्ञी": 395,
    "ज्ब": 396,
    "ज्य": 397,
    "ज्यु": 398,
    "ज्यू": 399,
    "ज्येा": 400,
    "ज्यो": 401,
    "ज्यों": 402,
    "ज्ल": 403,
    "ज्व": 404,
    "ज्सि": 405,
    "ज्य़": 406,
    "ज॰": 407,
    "झ": 408,
    "झा": 409,
    "झाँ": 410,
    "झां": 411,
    "झि": 412,
    "झी": 413,
    "झु": 414,
    "झे": 415,
    "झॉ": 416,
    "झ॰": 417,
    "ञ": 418,
    "ञा": 419,
    "ञ्च": 420,
    "ञ्चा": 421,
    "ञ्चा्": 422,
    "ञ्चि": 423,
    "ञ्ज": 424,
    "ञ्जा": 425,
    "ञ्जि": 426,
    "ञ्जी": 427,
    "ञ्ञ": 428,
    "ञ्ञि": 429,
    "ञ्ञो": 430,
    "ट": 431,
    "टं": 432,
    "टा": 433,
    "टाा": 434,
    "टि": 435,
    "टिं": 436,
    "टिॱ": 437,
    "टी": 438,
    "टु": 439,
    "टुं": 440,
    "टू": 441,
    "टॆ": 442,
    "टे": 443,
    "टे्नि": 444,
    "टै": 445,
    "टैं": 446,
    "टो": 447,
    "टौ": 448,
    "ट्": 449,
    "ट्चाा्च्च": 450,
    "ट्चि": 451,
    "ट्ट": 452,
    "ट्टं": 453,
    "ट्टा": 454,
    "ट्टि": 455,
    "ट्टी": 456,
    "ट्टु": 457,
    "ट्टूा्पु": 458,
    "ट्टै": 459,
    "ट्टो": 460,
    "ट्ट्": 461,
    "ट्ण": 462,
    "ट्न": 463,
    "ट्नं": 464,
    "ट्प": 465,
    "ट्मि": 466,
    "ट्य": 467,
    "ट्यू": 468,
    "ट्र": 469,
    "ट्रा": 470,
    "ट्रि": 471,
    "ट्री": 472,
    "ट्रॆ": 473,
    "ट्रे": 474,
    "ट्रै": 475,
    "ट्रो": 476,
    "ट्र्या": 477,
    "ट्ल": 478,
    "ट्लु": 479,
    "ट्व": 480,
    "ट्श्री": 481,
    "ट्स": 482,
    "ट्स्": 483,
    "ट्॰": 484,
    "टॗ": 485,
    "ठ": 486,
    "ठा": 487,
    "ठां": 488,
    "ठि": 489,
    "ठि॰": 490,
    "ठी": 491,
    "ठु": 492,
    "ठे": 493,
    "ठें": 494,
    "ठो": 495,
    "ठ्ठ": 496,
    "ड": 497,
    "डः": 498,
    "ड़": 499,
    "ड़ा": 500,
    "ड़ि": 501,
    "ड़े": 502,
    "ड़ौ": 503,
    "डा": 504,
    "डां": 505,
    "डाः": 506,
    "डि": 507,
    "डिं": 508,
    "डी": 509,
    "डीं": 510,
    "डु": 511,
    "डुं": 512,
    "डू": 513,
    "डॆ": 514,
    "डॆं": 515,
    "डे": 516,
    "डै": 517,
    "डो": 518,
    "ड्": 519,
    "ड्क": 520,
    "ड्ड": 521,
    "ड्डा": 522,
    "ड्डि": 523,
    "ड्डु": 524,
    "ड्या": 525,
    "ड्यां": 526,
    "ड्र": 527,
    "ड्रा": 528,
    "ड्रि": 529,
    "ड्री": 530,
    "ड्स": 531,
    "ड्‌": 532,
    "ड्‍": 533,
    "ढ": 534,
    "ढ़": 535,
    "ढ़ि": 536,
    "ढ़ी": 537,
    "ढि": 538,
    "ढु": 539,
    "ढे": 540,
    "ढे़": 541,
    "ण": 542,
    "णं": 543,
    "ण़": 544,
    "णा": 545,
    "णाः": 546,
    "णि": 547,
    "णी": 548,
    "णीं": 549,
    "णु": 550,
    "णु्": 551,
    "णू": 552,
    "णॆ": 553,
    "णे": 554,
    "णें": 555,
    "णै": 556,
    "णो": 557,
    "णौ": 558,
    "ण्": 559,
    "ण्क": 560,
    "ण्का": 561,
    "ण्ट": 562,
    "ण्टं": 563,
    "ण्टा": 564,
    "ण्टि": 565,
    "ण्टी": 566,
    "ण्टु": 567,
    "ण्टे": 568,
    "ण्टै": 569,
    "ण्ट्": 570,
    "ण्ट्स्": 571,
    "ण्ट्‌": 572,
    "ण्ठु": 573,
    "ण्ड": 574,
    "ण्डा": 575,
    "ण्डि": 576,
    "ण्ण": 577,
    "ण्णा": 578,
    "ण्णि": 579,
    "ण्णु": 580,
    "ण्णू": 581,
    "ण्ता": 582,
    "ण्ति": 583,
    "ण्पु": 584,
    "ण्मै": 585,
    "ण्य": 586,
    "ण्या": 587,
    "ण‍": 588,
    "त": 589,
    "तं": 590,
    "तः": 591,
    "त़": 592,
    "त़ा": 593,
    "त़ि": 594,
    "ता": 595,
    "ताँ": 596,
    "तां": 597,
    "ता्का": 598,
    "ति": 599,
    "तिं": 600,
    "तिः": 601,
    "तिाि": 602,
    "ति॰": 603,
    "ती": 604,
    "तीा्": 605,
    "तीा्त्त": 606,
    "तु": 607,
    "तुं": 608,
    "तू": 609,
    "तूा्": 610,
    "तू॰": 611,
    "तृ": 612,
    "तॆ": 613,
    "तॆॆ": 614,
    "ते": 615,
    "तै": 616,
    "तॊ": 617,
    "तो": 618,
    "तों": 619,
    "त्": 620,
    "त्क": 621,
    "त्का": 622,
    "त्कू": 623,
    "त्कृ": 624,
    "त्त": 625,
    "त्ता": 626,
    "त्ति": 627,
    "त्ती": 628,
    "त्तु": 629,
    "त्तू": 630,
    "त्तॆ": 631,
    "त्ते": 632,
    "त्तेा्": 633,
    "त्तै": 634,
    "त्तॊ": 635,
    "त्त्": 636,
    "त्त्य": 637,
    "त्त्व": 638,
    "त्त्‌": 639,
    "त्थ": 640,
    "त्थि": 641,
    "त्न": 642,
    "त्प": 643,
    "त्बे": 644,
    "त्म": 645,
    "त्मा": 646,
    "त्य": 647,
    "त्या": 648,
    "त्यां": 649,
    "त्यु": 650,
    "त्ये": 651,
    "त्र": 652,
    "त्रं": 653,
    "त्रं‌": 654,
    "त्रा": 655,
    "त्रि": 656,
    "त्री": 657,
    "त्रॆ": 658,
    "त्रे": 659,
    "त्रों": 660,
    "त्र्य": 661,
    "त्र्यं": 662,
    "त्व": 663,
    "त्वा": 664,
    "त्वि": 665,
    "त्स": 666,
    "त्सा": 667,
    "त्स्ना": 668,
    "त्ह": 669,
    "त्य़": 670,
    "त्य़ु": 671,
    "त्य़े": 672,
    "त्॰": 673,
    "त्‌": 674,
    "त्‍": 675,
    "त॰": 676,
    "त‍े": 677,
    "थ": 678,
    "था": 679,
    "थां": 680,
    "थि": 681,
    "थी": 682,
    "थु": 683,
    "थू": 684,
    "थृ": 685,
    "थे": 686,
    "थो": 687,
    "थ्था": 688,
    "थ्य": 689,
    "थ॰": 690,
    "द": 691,
    "दा": 692,
    "दां": 693,
    "दि": 694,
    "दिं": 695,
    "दी": 696,
    "दु": 697,
    "दुं": 698,
    "दुि": 699,
    "दू": 700,
    "दूं": 701,
    "दृ": 702,
    "दॆ": 703,
    "दे": 704,
    "दें": 705,
    "दै": 706,
    "दॊ": 707,
    "दो": 708,
    "दौ": 709,
    "द्": 710,
    "द्घा": 711,
    "द्ट": 712,
    "द्द": 713,
    "द्दा": 714,
    "द्दि": 715,
    "द्दी": 716,
    "द्दु": 717,
    "द्दू": 718,
    "द्ध": 719,
    "द्धा": 720,
    "द्धि": 721,
    "द्धी": 722,
    "द्फु": 723,
    "द्ब": 724,
    "द्बा": 725,
    "द्बि": 726,
    "द्बी": 727,
    "द्बो": 728,
    "द्म": 729,
    "द्मा": 730,
    "द्य": 731,
    "द्या": 732,
    "द्यु": 733,
    "द्यो": 734,
    "द्र": 735,
    "द्रा": 736,
    "द्रि": 737,
    "द्री": 738,
    "द्रु": 739,
    "द्रे": 740,
    "द्ळु": 741,
    "द्वा": 742,
    "द्वी": 743,
    "द्शि": 744,
    "द्य़": 745,
    "द्य़ा": 746,
    "द्॰": 747,
    "द्‌": 748,
    "ध": 749,
    "धा": 750,
    "धि": 751,
    "धिि": 752,
    "धी": 753,
    "धीं": 754,
    "धु": 755,
    "धू": 756,
    "धे": 757,
    "धो": 758,
    "धौ": 759,
    "ध्दा": 760,
    "ध्दी": 761,
    "ध्ब": 762,
    "ध्य": 763,
    "ध्या": 764,
    "ध्ये": 765,
    "ध्र": 766,
    "ध्व": 767,
    "न": 768,
    "नं": 769,
    "नः": 770,
    "ना": 771,
    "नाँ": 772,
    "नां": 773,
    "नाि": 774,
    "ना्": 775,
    "नि": 776,
    "निं": 777,
    "निॕ": 778,
    "नि‍": 779,
    "नी": 780,
    "नीा्": 781,
    "नु": 782,
    "नुं": 783,
    "नू": 784,
    "नू॰": 785,
    "नृ": 786,
    "नॅ": 787,
    "नॆ": 788,
    "ने": 789,
    "नेे": 790,
    "नै": 791,
    "नॊ": 792,
    "नो": 793,
    "नौ": 794,
    "न्": 795,
    "न्क": 796,
    "न्कु": 797,
    "न्ज": 798,
    "न्जी": 799,
    "न्ट": 800,
    "न्टा": 801,
    "न्टे": 802,
    "न्ट्र": 803,
    "न्ट्रा": 804,
    "न्ड": 805,
    "न्डि": 806,
    "न्डी": 807,
    "न्डे": 808,
    "न्त": 809,
    "न्ता": 810,
    "न्ति": 811,
    "न्ती": 812,
    "न्तु": 813,
    "न्तू": 814,
    "न्ते": 815,
    "न्तो": 816,
    "न्त्": 817,
    "न्त्य": 818,
    "न्त्र": 819,
    "न्त्रि": 820,
    "न्त्री": 821,
    "न्त्॰ा": 822,
    "न्त्॰ि": 823,
    "न्त्॰ी": 824,
    "न्थ": 825,
    "न्था": 826,
    "न्द": 827,
    "न्दा": 828,
    "न्दि": 829,
    "न्दी": 830,
    "न्दु": 831,
    "न्दे": 832,
    "न्दो": 833,
    "न्द्द": 834,
    "न्द्यो": 835,
    "न्द्र": 836,
    "न्द्रं": 837,
    "न्द्रा": 838,
    "न्द्री": 839,
    "न्द्र्र": 840,
    "न्द्॰": 841,
    "न्द्॰ी": 842,
    "न्द्‌": 843,
    "न्ध": 844,
    "न्धं": 845,
    "न्धि": 846,
    "न्धी": 847,
    "न्ध्यं": 848,
    "न्न": 849,
    "न्ना": 850,
    "न्नि": 851,
    "न्नु": 852,
    "न्नुं": 853,
    "न्नू": 854,
    "न्नै": 855,
    "न्ब": 856,
    "न्म": 857,
    "न्मा": 858,
    "न्मे": 859,
    "न्मो": 860,
    "न्म्या": 861,
    "न्य": 862,
    "न्यः": 863,
    "न्या": 864,
    "न्यु": 865,
    "न्यू": 866,
    "न्ये": 867,
    "न्ऱ": 868,
    "न्ऱॆ": 869,
    "न्ऱ्": 870,
    "न्ल": 871,
    "न्लु": 872,
    "न्व": 873,
    "न्स": 874,
    "न्सि": 875,
    "न्सी": 876,
    "न्सू": 877,
    "न्स्": 878,
    "न्स्टि": 879,
    "न्स्टी": 880,
    "न्हा": 881,
    "न्हां": 882,
    "न्य़": 883,
    "न्य़ा": 884,
    "न्‌": 885,
    "न॰": 886,
    "नॱ": 887,
    "ऩ": 888,
    "ऩा": 889,
    "ऩा्": 890,
    "ऩि": 891,
    "ऩी": 892,
    "ऩु": 893,
    "ऩू": 894,
    "ऩे": 895,
    "ऩै": 896,
    "ऩ्": 897,
    "ऩ्टा्": 898,
    "ऩ्ट्": 899,
    "ऩ्ट्र": 900,
    "ऩ्ऩ": 901,
    "ऩ्ऩा": 902,
    "ऩ्ऩूा्": 903,
    "ऩ्ऩै": 904,
    "ऩ्ऩो": 905,
    "ऩ्पु": 906,
    "ऩ्ऱ": 907,
    "ऩ्ऱि": 908,
    "ऩ्वॆ": 909,
    "प": 910,
    "पं": 911,
    "पा": 912,
    "पाँ": 913,
    "पां": 914,
    "पा्": 915,
    "पि": 916,
    "पिं": 917,
    "पिाि": 918,
    "पि॰": 919,
    "पी": 920,
    "पु": 921,
    "पू": 922,
    "पूँ": 923,
    "पॅ": 924,
    "पॆ": 925,
    "पॆं": 926,
    "पे": 927,
    "पेा": 928,
    "पै": 929,
    "पैा": 930,
    "पॉ": 931,
    "पॊ": 932,
    "पॊं": 933,
    "पो": 934,
    "पोा्चु": 935,
    "पौ": 936,
    "प्": 937,
    "प्टॆ": 938,
    "प्ण": 939,
    "प्त": 940,
    "प्तं": 941,
    "प्तॆ": 942,
    "प्प": 943,
    "प्पं": 944,
    "प्पा": 945,
    "प्पि": 946,
    "प्पी": 947,
    "प्पु": 948,
    "प्पॆ": 949,
    "प्पे": 950,
    "प्पो": 951,
    "प्प्": 952,
    "प्प्मू": 953,
    "प्या": 954,
    "प्र": 955,
    "प्रा": 956,
    "प्रां": 957,
    "प्राः": 958,
    "प्रि": 959,
    "प्री": 960,
    "प्रॅ": 961,
    "प्रॆ": 962,
    "प्रे": 963,
    "प्रै": 964,
    "प्रॊ": 965,
    "प्रो": 966,
    "प्रौ": 967,
    "प्ला": 968,
    "प्ले": 969,
    "प्लै": 970,
    "प्लॉ": 971,
    "प्ष": 972,
    "प्स": 973,
    "प्स्": 974,
    "प्॰": 975,
    "प्॰ि": 976,
    "प्‍": 977,
    "प॰": 978,
    "पॱ": 979,
    "प‌": 980,
    "फ": 981,
    "फ़": 982,
    "फा": 983,
    "फां": 984,
    "फि": 985,
    "फी": 986,
    "फु": 987,
    "फॅ": 988,
    "फॆ": 989,
    "फे": 990,
    "फै": 991,
    "फो": 992,
    "फ्": 993,
    "फ्या": 994,
    "फ्र": 995,
    "फ्॰े": 996,
    "ब": 997,
    "बँ": 998,
    "बं": 999,
    "बा": 1000,
    "बां": 1001,
    "बा‍": 1002,
    "बि": 1003,
    "बि॑": 1004,
    "बि॰": 1005,
    "बी": 1006,
    "बु": 1007,
    "बू": 1008,
    "बृ": 1009,
    "बॅ": 1010,
    "बॆ": 1011,
    "बे": 1012,
    "बें": 1013,
    "बै": 1014,
    "बैं": 1015,
    "बॉ": 1016,
    "बॊ": 1017,
    "बो": 1018,
    "बौ": 1019,
    "ब्": 1020,
    "ब्थ": 1021,
    "ब्द": 1022,
    "ब्दी": 1023,
    "ब्दु": 1024,
    "ब्ध": 1025,
    "ब्ब": 1026,
    "ब्बा": 1027,
    "ब्य": 1028,
    "ब्या": 1029,
    "ब्यां": 1030,
    "ब्यु": 1031,
    "ब्र": 1032,
    "ब्रा": 1033,
    "ब्रि": 1034,
    "ब्रु": 1035,
    "ब्रे": 1036,
    "ब्ल": 1037,
    "ब्लि": 1038,
    "ब्ली": 1039,
    "ब्लु": 1040,
    "ब्लो": 1041,
    "ब्ल्यू": 1042,
    "ब्स": 1043,
    "ब्सि": 1044,
    "ब्य़": 1045,
    "ब्य़ा": 1046,
    "ब्॰ु": 1047,
    "ब्‌": 1048,
    "ब॰": 1049,
    "बॱ": 1050,
    "भ": 1051,
    "भं": 1052,
    "भा": 1053,
    "भां": 1054,
    "भि": 1055,
    "भिं": 1056,
    "भी": 1057,
    "भु": 1058,
    "भुॱ": 1059,
    "भू": 1060,
    "भृ": 1061,
    "भृा": 1062,
    "भे": 1063,
    "भें": 1064,
    "भै": 1065,
    "भो": 1066,
    "भ्या": 1067,
    "भ्र": 1068,
    "भ॰": 1069,
    "म": 1070,
    "मं": 1071,
    "मः": 1072,
    "मा": 1073,
    "मां": 1074,
    "मााि": 1075,
    "माी": 1076,
    "मा‍": 1077,
    "मि": 1078,
    "मी": 1079,
    "मु": 1080,
    "मुं": 1081,
    "मुॱ": 1082,
    "मू": 1083,
    "मूा्त्ति": 1084,
    "मृ": 1085,
    "मॆ": 1086,
    "मे": 1087,
    "में": 1088,
    "मै": 1089,
    "मैा": 1090,
    "मॉ": 1091,
    "मॊ": 1092,
    "मो": 1093,
    "मों": 1094,
    "मौ": 1095,
    "म्": 1096,
    "म्A": 1097,
    "म्ः": 1098,
    "म्का": 1099,
    "म्के": 1100,
    "म्ट": 1101,
    "म्प": 1102,
    "म्पा": 1103,
    "म्पि": 1104,
    "म्पु": 1105,
    "म्पू": 1106,
    "म्पे": 1107,
    "म्पो": 1108,
    "म्प्": 1109,
    "म्प्य": 1110,
    "म्प्यु": 1111,
    "म्प्र": 1112,
    "म्प्वा": 1113,
    "म्प्॰": 1114,
    "म्ब": 1115,
    "म्बा": 1116,
    "म्बि": 1117,
    "म्बे": 1118,
    "म्ब्न": 1119,
    "म्भ": 1120,
    "म्भा": 1121,
    "म्भु": 1122,
    "म्म": 1123,
    "म्मा": 1124,
    "म्मि": 1125,
    "म्मु": 1126,
    "म्मे": 1127,
    "म्य": 1128,
    "म्या": 1129,
    "म्यां": 1130,
    "म्यु": 1131,
    "म्यू": 1132,
    "म्र": 1133,
    "म्रि": 1134,
    "म्श": 1135,
    "म्ह": 1136,
    "म्ही": 1137,
    "म्य़": 1138,
    "म्य़ो": 1139,
    "म्॰ा": 1140,
    "म॰": 1141,
    "य": 1142,
    "यं": 1143,
    "य़": 1144,
    "य़ा": 1145,
    "य़े": 1146,
    "या": 1147,
    "यां": 1148,
    "याा्": 1149,
    "याा्पे": 1150,
    "या‍": 1151,
    "यि": 1152,
    "यिाि": 1153,
    "यी": 1154,
    "यु": 1155,
    "युं": 1156,
    "यू": 1157,
    "यॆ": 1158,
    "ये": 1159,
    "यें": 1160,
    "यै": 1161,
    "यॊ": 1162,
    "यो": 1163,
    "यों": 1164,
    "य्": 1165,
    "य्क्कां": 1166,
    "य्क्कु": 1167,
    "य्क्क्": 1168,
    "य्त": 1169,
    "य्न्त": 1170,
    "य्भ": 1171,
    "य्म": 1172,
    "य्मा": 1173,
    "य्य": 1174,
    "य्यु": 1175,
    "य्यो": 1176,
    "य्वु": 1177,
    "य्स्री": 1178,
    "य्‌": 1179,
    "र": 1180,
    "रं": 1181,
    "ऱ": 1182,
    "रा": 1183,
    "रां": 1184,
    "राा्": 1185,
    "रा्": 1186,
    "रि": 1187,
    "रिं": 1188,
    "रि॰": 1189,
    "री": 1190,
    "रीं": 1191,
    "रु": 1192,
    "रुं": 1193,
    "रु‍": 1194,
    "रू": 1195,
    "रॆ": 1196,
    "रॆं": 1197,
    "रे": 1198,
    "रें": 1199,
    "रै": 1200,
    "रॉँ": 1201,
    "रो": 1202,
    "र्": 1203,
    "र्क": 1204,
    "र्का": 1205,
    "र्कि": 1206,
    "र्किं": 1207,
    "र्कॆ": 1208,
    "र्के": 1209,
    "र्कॊं": 1210,
    "र्ग": 1211,
    "र्गा": 1212,
    "र्गि": 1213,
    "र्च": 1214,
    "र्चा": 1215,
    "र्चि": 1216,
    "र्चू": 1217,
    "र्च्चि": 1218,
    "र्ज": 1219,
    "र्ज़": 1220,
    "र्जा": 1221,
    "र्जि": 1222,
    "र्जी": 1223,
    "र्जु": 1224,
    "र्ट": 1225,
    "र्टि": 1226,
    "र्टी": 1227,
    "र्ट्": 1228,
    "र्ट्स": 1229,
    "र्ड": 1230,
    "र्डा": 1231,
    "र्डी": 1232,
    "र्डॆ": 1233,
    "र्ण": 1234,
    "र्णा": 1235,
    "र्णि": 1236,
    "र्णी": 1237,
    "र्णो": 1238,
    "र्त": 1239,
    "र्ति": 1240,
    "र्ती": 1241,
    "र्तु": 1242,
    "र्ते": 1243,
    "र्त्त": 1244,
    "र्त्ता": 1245,
    "र्थ": 1246,
    "र्थं": 1247,
    "र्थि": 1248,
    "र्थी": 1249,
    "र्द": 1250,
    "र्दि": 1251,
    "र्दे": 1252,
    "र्दॊ": 1253,
    "र्द्": 1254,
    "र्ध": 1255,
    "र्न": 1256,
    "र्ना": 1257,
    "र्नी": 1258,
    "र्प": 1259,
    "र्पा": 1260,
    "र्पे": 1261,
    "र्पै": 1262,
    "र्पॊ": 1263,
    "र्पो": 1264,
    "र्फे": 1265,
    "र्ब": 1266,
    "र्बा": 1267,
    "र्बि": 1268,
    "र्बो": 1269,
    "र्ब्ब": 1270,
    "र्भ": 1271,
    "र्भी": 1272,
    "र्म": 1273,
    "र्मा": 1274,
    "र्मि": 1275,
    "र्मी": 1276,
    "र्मु": 1277,
    "र्मे": 1278,
    "र्य": 1279,
    "र्या": 1280,
    "र्य्य": 1281,
    "र्य्या": 1282,
    "र्य्य़": 1283,
    "र्य्य़ा": 1284,
    "र्र": 1285,
    "र्रा": 1286,
    "र्रि": 1287,
    "र्ल": 1288,
    "र्लु": 1289,
    "र्लो": 1290,
    "र्व": 1291,
    "र्वा": 1292,
    "र्वि": 1293,
    "र्वे": 1294,
    "र्वो": 1295,
    "र्श": 1296,
    "र्शि": 1297,
    "र्ष": 1298,
    "र्षा": 1299,
    "र्षि": 1300,
    "र्षे": 1301,
    "र्स": 1302,
    "र्सि": 1303,
    "र्सिं": 1304,
    "र्सी": 1305,
    "र्सु": 1306,
    "र्स्": 1307,
    "र॰": 1308,
    "रॱ": 1309,
    "र‌": 1310,
    "र‍": 1311,
    "ऱ": 1312,
    "ऱा": 1313,
    "ऱि": 1314,
    "ऱिं": 1315,
    "ऱु": 1316,
    "ऱुं": 1317,
    "ऱू": 1318,
    "ऱॆ": 1319,
    "ऱे": 1320,
    "ऱै": 1321,
    "ऱॊ": 1322,
    "ऱो": 1323,
    "ऱ्": 1324,
    "ऱ्क": 1325,
    "ऱ्का": 1326,
    "ऱ्कु": 1327,
    "ऱ्के": 1328,
    "ऱ्प": 1329,
    "ऱ्पू": 1330,
    "ऱ्ऱ": 1331,
    "ऱ्ऱं": 1332,
    "ऱ्ऱा": 1333,
    "ऱ्ऱि": 1334,
    "ऱ्ऱी": 1335,
    "ऱ्ऱु": 1336,
    "ऱ्ऱे": 1337,
    "ऱ्ऱ्": 1338,
    "ऱ्ऱ्यू": 1339,
    "ल": 1340,
    "लं": 1341,
    "ला": 1342,
    "लां": 1343,
    "लि": 1344,
    "लिं": 1345,
    "ली": 1346,
    "लु": 1347,
    "लुं": 1348,
    "लू": 1349,
    "लूा्": 1350,
    "लॆ": 1351,
    "लॆं": 1352,
    "ले": 1353,
    "लें": 1354,
    "लै": 1355,
    "लॉ": 1356,
    "लो": 1357,
    "लोँ": 1358,
    "लों": 1359,
    "लौ": 1360,
    "ल्": 1361,
    "ल्क": 1362,
    "ल्कै": 1363,
    "ल्गू": 1364,
    "ल्ट": 1365,
    "ल्टि": 1366,
    "ल्टी": 1367,
    "ल्टु": 1368,
    "ल्ट्": 1369,
    "ल्ट्रा": 1370,
    "ल्ड": 1371,
    "ल्डी": 1372,
    "ल्डीं": 1373,
    "ल्ड्र": 1374,
    "ल्ड्री": 1375,
    "ल्ड्रीं": 1376,
    "ल्त्": 1377,
    "ल्थ": 1378,
    "ल्दा": 1379,
    "ल्नी": 1380,
    "ल्प": 1381,
    "ल्पी": 1382,
    "ल्पॊ": 1383,
    "ल्फे": 1384,
    "ल्य": 1385,
    "ल्या": 1386,
    "ल्यां": 1387,
    "ल्यु": 1388,
    "ल्यू": 1389,
    "ल्ल": 1390,
    "ल्लं": 1391,
    "ल्ला": 1392,
    "ल्लि": 1393,
    "ल्ली": 1394,
    "ल्लु": 1395,
    "ल्लू": 1396,
    "ल्लूाि": 1397,
    "ल्लूा्": 1398,
    "ल्लॆ": 1399,
    "ल्ले": 1400,
    "ल्लै": 1401,
    "ल्ल्": 1402,
    "ल्ल्‌": 1403,
    "ल्वि": 1404,
    "ल्वे": 1405,
    "ल्स": 1406,
    "ल्स्": 1407,
    "ल्हा": 1408,
    "ल्हे": 1409,
    "ल्ह्या": 1410,
    "ल्‌": 1411,
    "ल्‍": 1412,
    "ल॰": 1413,
    "लॱ": 1414,
    "ळ": 1415,
    "ळं": 1416,
    "ळा": 1417,
    "ळां": 1418,
    "ळा्": 1419,
    "ळि": 1420,
    "ळिं": 1421,
    "ळी": 1422,
    "ळु": 1423,
    "ळुं": 1424,
    "ळू": 1425,
    "ळॆ": 1426,
    "ळे": 1427,
    "ळै": 1428,
    "ळो": 1429,
    "ळ्": 1430,
    "ळ्अ": 1431,
    "ळ्ट": 1432,
    "ळ्प": 1433,
    "ळ्मि": 1434,
    "ळ्मी": 1435,
    "ळ्या": 1436,
    "ळ्यां": 1437,
    "ळ्ळ": 1438,
    "ळ्ळा": 1439,
    "ळ्ळि": 1440,
    "ळ्ळी": 1441,
    "ळ्ळु": 1442,
    "ळ्ळे": 1443,
    "ळ‍": 1444,
    "ऴ": 1445,
    "ऴा": 1446,
    "ऴि": 1447,
    "ऴि‌": 1448,
    "ऴु": 1449,
    "ऴॆ": 1450,
    "ऴै": 1451,
    "ऴ्": 1452,
    "ऴ्क": 1453,
    "ऴ्च्": 1454,
    "ऴ्त्त": 1455,
    "ऴ्न": 1456,
    "ऴ्ना": 1457,
    "ऴ्वु": 1458,
    "ऴ्स्": 1459,
    "ऴ्‌": 1460,
    "व": 1461,
    "वं": 1462,
    "वः": 1463,
    "व़": 1464,
    "वा": 1465,
    "वां": 1466,
    "वा्": 1467,
    "वा्स्": 1468,
    "वि": 1469,
    "विं": 1470,
    "वि॰": 1471,
    "विॱ": 1472,
    "वी": 1473,
    "वु": 1474,
    "वुं": 1475,
    "वू": 1476,
    "वृ": 1477,
    "वॅ": 1478,
    "वॆ": 1479,
    "वॆं": 1480,
    "वे": 1481,
    "वेा्ल्टु": 1482,
    "वै": 1483,
    "वॉ": 1484,
    "वॊ": 1485,
    "वो": 1486,
    "व्": 1487,
    "व्य": 1488,
    "व्या": 1489,
    "व्युं": 1490,
    "व्व": 1491,
    "व्वं": 1492,
    "व्वि": 1493,
    "व्वी": 1494,
    "व्वू": 1495,
    "व्वे": 1496,
    "व्ह": 1497,
    "व्हि": 1498,
    "व्ही": 1499,
    "व्‌": 1500,
    "व॰": 1501,
    "वॱ": 1502,
    "श": 1503,
    "शं": 1504,
    "शा": 1505,
    "शां": 1506,
    "शाः": 1507,
    "शि": 1508,
    "शी": 1509,
    "शु": 1510,
    "शू": 1511,
    "शृ": 1512,
    "शॅ": 1513,
    "शे": 1514,
    "शै": 1515,
    "शॉ": 1516,
    "शो": 1517,
    "शौ": 1518,
    "श्": 1519,
    "श्च": 1520,
    "श्चि": 1521,
    "श्ते": 1522,
    "श्ब": 1523,
    "श्मा": 1524,
    "श्य": 1525,
    "श्र": 1526,
    "श्रा": 1527,
    "श्री": 1528,
    "श्रु": 1529,
    "श्रे": 1530,
    "श्ले": 1531,
    "श्व": 1532,
    "श्वा": 1533,
    "श्श": 1534,
    "श्शि": 1535,
    "श्शे": 1536,
    "श्ष": 1537,
    "श्य़": 1538,
    "श्॰ी": 1539,
    "श्ॱ": 1540,
    "श्‍": 1541,
    "शॗ": 1542,
    "ष": 1543,
    "षं": 1544,
    "षा": 1545,
    "षि": 1546,
    "षी": 1547,
    "षु": 1548,
    "षू": 1549,
    "षे": 1550,
    "ष्": 1551,
    "ष्का": 1552,
    "ष्कृ": 1553,
    "ष्ट": 1554,
    "ष्टा": 1555,
    "ष्टि": 1556,
    "ष्टी": 1557,
    "ष्टु": 1558,
    "ष्ट्र": 1559,
    "ष्ट्रा": 1560,
    "ष्ट्री": 1561,
    "ष्ट्॰": 1562,
    "ष्ट्॰ी": 1563,
    "ष्ठ": 1564,
    "ष्ठा": 1565,
    "ष्ण": 1566,
    "ष्णा": 1567,
    "ष्णू": 1568,
    "ष्ना": 1569,
    "ष्पा": 1570,
    "ष्म": 1571,
    "ष्मॆ": 1572,
    "ष्य": 1573,
    "ष्यं": 1574,
    "ष्‌": 1575,
    "ष्‍": 1576,
    "षॢ": 1577,
    "स": 1578,
    "सं": 1579,
    "सः": 1580,
    "स़": 1581,
    "स़ा": 1582,
    "स़ि": 1583,
    "सा": 1584,
    "सां": 1585,
    "सि": 1586,
    "सिं": 1587,
    "सि॰": 1588,
    "सिॱ": 1589,
    "सी": 1590,
    "सीं": 1591,
    "सु": 1592,
    "सुँ": 1593,
    "सुं": 1594,
    "सू": 1595,
    "सूी": 1596,
    "सृ": 1597,
    "सृं": 1598,
    "सॅ": 1599,
    "सॆ": 1600,
    "सॆं": 1601,
    "से": 1602,
    "सें": 1603,
    "सेे": 1604,
    "से‍": 1605,
    "सै": 1606,
    "सॊ": 1607,
    "सो": 1608,
    "सोँ": 1609,
    "सौ": 1610,
    "स्": 1611,
    "स्क": 1612,
    "स्का": 1613,
    "स्कु": 1614,
    "स्कृ": 1615,
    "स्क्री": 1616,
    "स्गि": 1617,
    "स्जि": 1618,
    "स्जी": 1619,
    "स्ट": 1620,
    "स्टा": 1621,
    "स्टि": 1622,
    "स्टी": 1623,
    "स्टु": 1624,
    "स्टू": 1625,
    "स्टॆ": 1626,
    "स्टे": 1627,
    "स्टो": 1628,
    "स्ट्": 1629,
    "स्ट्री": 1630,
    "स्ट्रे": 1631,
    "स्ठ": 1632,
    "स्ड": 1633,
    "स्त": 1634,
    "स्तं": 1635,
    "स्ता": 1636,
    "स्ति": 1637,
    "स्तु": 1638,
    "स्तू": 1639,
    "स्तृ": 1640,
    "स्ते": 1641,
    "स्तो": 1642,
    "स्त्र": 1643,
    "स्त्रा": 1644,
    "स्थ": 1645,
    "स्था": 1646,
    "स्थि": 1647,
    "स्थी": 1648,
    "स्थॆ": 1649,
    "स्थे": 1650,
    "स्थ्य": 1651,
    "स्दु": 1652,
    "स्ध": 1653,
    "स्धा": 1654,
    "स्नि": 1655,
    "स्ने": 1656,
    "स्प": 1657,
    "स्पा": 1658,
    "स्पि": 1659,
    "स्पृ": 1660,
    "स्पॆ": 1661,
    "स्पे": 1662,
    "स्प्पि": 1663,
    "स्फो": 1664,
    "स्ब": 1665,
    "स्बा": 1666,
    "स्भा": 1667,
    "स्म": 1668,
    "स्मा": 1669,
    "स्मृ": 1670,
    "स्य": 1671,
    "स्र": 1672,
    "स्रा": 1673,
    "स्री": 1674,
    "स्ऱ्ऱा": 1675,
    "स्ऱ्ऱि": 1676,
    "स्ऱ्ऱु": 1677,
    "स्ऱ्ऱे": 1678,
    "स्ऱ्ऱै": 1679,
    "स्ऱ्ऱ्": 1680,
    "स्लि": 1681,
    "स्व": 1682,
    "स्वं": 1683,
    "स्वा": 1684,
    "स्वी": 1685,
    "स्वे": 1686,
    "स्सा": 1687,
    "स्सु": 1688,
    "स्स्": 1689,
    "स्स्मा": 1690,
    "स्स्‌": 1691,
    "स्ह": 1692,
    "स्॰": 1693,
    "स्॰ा": 1694,
    "स्ॱ": 1695,
    "स्‌": 1696,
    "स्‍": 1697,
    "स॰": 1698,
    "सॱ": 1699,
    "ह": 1700,
    "हं": 1701,
    "हः": 1702,
    "हा": 1703,
    "हां": 1704,
    "हा‍": 1705,
    "हि": 1706,
    "हिं": 1707,
    "हिः": 1708,
    "हि॰": 1709,
    "ही": 1710,
    "हीं": 1711,
    "हु": 1712,
    "हु॰": 1713,
    "हू": 1714,
    "हृ": 1715,
    "हॆ": 1716,
    "हे": 1717,
    "हें": 1718,
    "है": 1719,
    "हैं": 1720,
    "है‍": 1721,
    "हॉ": 1722,
    "हॊ": 1723,
    "हो": 1724,
    "ह्दि": 1725,
    "ह्न": 1726,
    "ह्म": 1727,
    "ह्मां": 1728,
    "ह्य": 1729,
    "ह्या": 1730,
    "ह्रू": 1731,
    "हॱ": 1732,
    "ऽ": 1733,
    "ा": 1734,
    "ु": 1735,
    "े": 1736,
    "ॎ": 1737,
    "ॐ": 1738,
    "ख़ु": 1739,
    "ज़ा": 1740,
    "ड़": 1741,
    "ड़ा": 1742,
    "ड़ी": 1743,
    "ड़े": 1744,
    "ड़ो": 1745,
    "ड़्ह": 1746,
    "ड़्हे": 1747,
    "ढ़ि": 1748,
    "ढ़ी": 1749,
    "ढ़ो": 1750,
    "फ़": 1751,
    "फ़्ट": 1752,
    "फ़्दु": 1753,
    "य़": 1754,
    "य़ं": 1755,
    "य़ः": 1756,
    "य़़": 1757,
    "य़ा": 1758,
    "य़ां": 1759,
    "य़ि": 1760,
    "य़ी": 1761,
    "य़ु": 1762,
    "य़े": 1763,
    "य़ो": 1764,
    "य़्या": 1765,
    "य़ॗ": 1766,
    "ॠ": 1767,
    "।": 1768,
    "।‍": 1769,
    "॥": 1770,
    "०": 1771,
    "१": 1772,
    "१्को": 1773,
    "१‌": 1774,
    "२": 1775,
    "२़": 1776,
    "२ा": 1777,
    "३": 1778,
    "४": 1779,
    "५": 1780,
    "५ा": 1781,
    "५ी": 1782,
    "५ु": 1783,
    "५ू": 1784,
    "५ो": 1785,
    "६": 1786,
    "६ः": 1787,
    "७": 1788,
    "८": 1789,
    "८े": 1790,
    "९": 1791,
    "॰": 1792,
    "॰ा": 1793,
    "॰ि": 1794,
    "॰िः": 1795,
    "॰ी": 1796,
    "॰ु": 1797,
    "॰ू": 1798,
    "॰े": 1799,
    "॰ो": 1800,
    "॰्थ": 1801,
    "॰्प": 1802,
    "॰्ब": 1803,
    "॰्मा": 1804,
    "॰्य": 1805,
    "॰्य्य": 1806,
    "॰्य्या": 1807,
    "॰्ष": 1808,
    "ॱ": 1809,
    "ॱा": 1810,
    "ॱि": 1811,
    "ॱे": 1812,
    "ॱो": 1813,
    "ॲा": 1814,
    "ॳ": 1815,
    "ॳे": 1816,
    "ॷ": 1817,
    "ॺ": 1818,
    "ॺ‌": 1819,
    "ॺ‍": 1820,
    "ॻ": 1821,
    "ॻ्ऱॆ": 1822,
    "ॻ्ऱ्": 1823,
    "ॻ‌": 1824,
    "ॻ‌‌": 1825,
    "ॻ‍": 1826,
    "ॼ": 1827,
    "ॼ‌": 1828,
    "ॼ‍‍": 1829,
    "ॽ": 1830,
    "ॽ‌": 1831,
    "ॽ‍": 1832,
    "ॾ": 1833,
    "ॾ‌": 1834,
    "ॾ‌‌": 1835,
    "​": 1836
  },
  "metadata": {
    "tag": "zs_loso_rungB_gujarati",
    "num_graphemes": 1835,
    "space": "shared-abugida-pivot"
  }
}