{
  "grapheme2idx": {
    "<blank>": 0,
    "<unk>": 1,
    "(": 2,
    ")": 3,
    ",": 4,
    "-": 5,
    ".": 6,
    "0": 7,
    "1": 8,
    "2": 9,
    "3": 10,
    "4": 11,
    "5": 12,
    "6": 13,
    "7": 14,
    "8": 15,
    "9": 16,
    ":": 17,
    "?": 18,
    "H": 19,
    "I": 20,
    "P": 21,
    "ती": 22,
    "भा": 23,
    "य": 24,
    "र": 25,
    "।": 26,
    "ಅ": 27,
    "ಅಂ": 28,
    "ಆ": 29,
    "ಆಂ": 30,
    "ಆ್ಯ": 31,
    "ಆೕ": 32,
    "ಇ": 33,
    "ಇಂ": 34,
    "ಈ": 35,
    "ಉ": 36,
    "ಊ": 37,
    "ಋ": 38,
    "ಎ": 39,
    "ಎಂ": 40,
    "ಏ": 41,
    "ಐ": 42,
    "ಒ": 43,
    "ಓ": 44,
    "ಕ": 45,
    "ಕಂ": 46,
    "ಕಃ": 47,
    "ಕಾ": 48,
    "ಕಾಂ": 49,
    "ಕಿ": 50,
    "ಕೀ": 51,
    "ಕು": 52,
    "ಕೂ": 53,
    "ಕೃ": 54,
    "ಕೆ": 55,
    "ಕೆಂ": 56,
    "ಕೇ": 57,
    "ಕೈ": 58,
    "ಕೊ": 59,
    "ಕೋ": 60,
    "ಕೋ": 61,
    "ಕ್": 62,
    "ಕ್ಕ": 63,
    "ಕ್ಕಾ": 64,
    "ಕ್ಕಿ": 65,
    "ಕ್ಕು": 66,
    "ಕ್ಕೆ": 67,
    "ಕ್ಕೇ": 68,
    "ಕ್ಟಿ": 69,
    "ಕ್ತ": 70,
    "ಕ್ತಾ": 71,
    "ಕ್ತಿ": 72,
    "ಕ್ತೇ": 73,
    "ಕ್ಯ": 74,
    "ಕ್ಯಾ": 75,
    "ಕ್ರ": 76,
    "ಕ್ರಾ": 77,
    "ಕ್ರಿ": 78,
    "ಕ್ರೀ": 79,
    "ಕ್ಲ": 80,
    "ಕ್ಲೇ": 81,
    "ಕ್ಷ": 82,
    "ಕ್ಷಿ": 83,
    "ಕ್ಷೆ": 84,
    "ಕ್ಷೇ": 85,
    "ಕ್ಷ್ಮಿ": 86,
    "ಕ್ಷ್ಮೀ": 87,
    "ಕ್ಷ್ಮೀ": 88,
    "ಕ್ಷ್ಯ": 89,
    "ಕ್ಷ್ಯಾ": 90,
    "ಕ್ಸ": 91,
    "ಕ್ಸಿ": 92,
    "ಕ್ಸ್": 93,
    "ಕ‌": 94,
    "ಖ": 95,
    "ಖಾ": 96,
    "ಖೆ": 97,
    "ಖೋ": 98,
    "ಖ್ಖ": 99,
    "ಖ್ಯೆ": 100,
    "ಖ್ರಿ": 101,
    "ಗ": 102,
    "ಗಂ": 103,
    "ಗಾ": 104,
    "ಗಾಂ": 105,
    "ಗಿ": 106,
    "ಗು": 107,
    "ಗುಂ": 108,
    "ಗೂ": 109,
    "ಗೃ": 110,
    "ಗೆ": 111,
    "ಗೇ": 112,
    "ಗೇಂ": 113,
    "ಗೊ": 114,
    "ಗೋ": 115,
    "ಗೌ": 116,
    "ಗ್": 117,
    "ಗ್ಗ": 118,
    "ಗ್ಗೆ": 119,
    "ಗ್ಬ": 120,
    "ಗ್ಯ": 121,
    "ಗ್ರ": 122,
    "ಗ್ರಂ": 123,
    "ಗ್ರಾ": 124,
    "ಗ್ರೇ": 125,
    "ಗ್ಲಾ": 126,
    "ಘ": 127,
    "ಘಾ": 128,
    "ಚ": 129,
    "ಚಂ": 130,
    "ಚಾ": 131,
    "ಚಿ": 132,
    "ಚೀ": 133,
    "ಚು": 134,
    "ಚೂ": 135,
    "ಚೇ": 136,
    "ಚೈ": 137,
    "ಚೌ": 138,
    "ಚ್": 139,
    "ಚ್ಚ": 140,
    "ಚ್ಚು": 141,
    "ಚ್ಛ": 142,
    "ಚ್ಟ": 143,
    "ಚ್ಯ": 144,
    "ಛ": 145,
    "ಛೇ": 146,
    "ಜ": 147,
    "ಜಂ": 148,
    "ಜ಼": 149,
    "ಜಾ": 150,
    "ಜಿ": 151,
    "ಜೀ": 152,
    "ಜು": 153,
    "ಜೆ": 154,
    "ಜೇ": 155,
    "ಜೇಂ": 156,
    "ಜೈ": 157,
    "ಜೋ": 158,
    "ಜ್": 159,
    "ಜ್ಞಾ": 160,
    "ಜ್ಯ": 161,
    "ಜ್ಯೋ": 162,
    "ಜ್ಲ": 163,
    "ಜ್‌": 164,
    "ಟ": 165,
    "ಟಾ": 166,
    "ಟಿ": 167,
    "ಟೀ": 168,
    "ಟು": 169,
    "ಟೆ": 170,
    "ಟೆಂ": 171,
    "ಟೇ": 172,
    "ಟೈ": 173,
    "ಟೊ": 174,
    "ಟೋ": 175,
    "ಟೌ": 176,
    "ಟ್": 177,
    "ಟ್ಟ": 178,
    "ಟ್ಟಿ": 179,
    "ಟ್ಟು": 180,
    "ಟ್ಟೆ": 181,
    "ಟ್ತ": 182,
    "ಟ್ಯೂ": 183,
    "ಟ್ರ": 184,
    "ಟ್ರಾ": 185,
    "ಟ್ರಿ": 186,
    "ಟ್ರೀ": 187,
    "ಟ್ರೋ": 188,
    "ಟ್ಲ": 189,
    "ಟ್ಸ್": 190,
    "ಟ್‌": 191,
    "ಠ": 192,
    "ಠಾ": 193,
    "ಠು": 194,
    "ಡ": 195,
    "ಡಾ": 196,
    "ಡಿ": 197,
    "ಡೀ": 198,
    "ಡು": 199,
    "ಡೆ": 200,
    "ಡೇ": 201,
    "ಡೊ": 202,
    "ಡೋ": 203,
    "ಡ್": 204,
    "ಡ್ಕ": 205,
    "ಡ್ಡ": 206,
    "ಡ್ಯಂ": 207,
    "ಡ್ಯೂ": 208,
    "ಢ": 209,
    "ಣ": 210,
    "ಣಾ": 211,
    "ಣಿ": 212,
    "ಣೆ": 213,
    "ಣೇ": 214,
    "ಣ್ಣ": 215,
    "ಣ್ಣೀ": 216,
    "ಣ್ಪ": 217,
    "ಣ್ಯ": 218,
    "ತ": 219,
    "ತಂ": 220,
    "ತಾ": 221,
    "ತಿ": 222,
    "ತಿಂ": 223,
    "ತೀ": 224,
    "ತು": 225,
    "ತೂ": 226,
    "ತೆ": 227,
    "ತೆ್ರ್ರ": 228,
    "ತೊ": 229,
    "ತೋ": 230,
    "ತ್": 231,
    "ತ್ಉ": 232,
    "ತ್ಕೃ": 233,
    "ತ್ತ": 234,
    "ತ್ತಂ": 235,
    "ತ್ತಿ": 236,
    "ತ್ತು": 237,
    "ತ್ತೂ": 238,
    "ತ್ಪ": 239,
    "ತ್ಮ": 240,
    "ತ್ಮಾ": 241,
    "ತ್ಯ": 242,
    "ತ್ಯಂ": 243,
    "ತ್ಯ್": 244,
    "ತ್ರ": 245,
    "ತ್ರಾ": 246,
    "ತ್ರಿ": 247,
    "ತ್ರೆ": 248,
    "ತ್ವ": 249,
    "ತ್ಸ": 250,
    "ತ್ಹ": 251,
    "ಥ": 252,
    "ಥಾ": 253,
    "ಥು": 254,
    "ದ": 255,
    "ದಾ": 256,
    "ದಿ": 257,
    "ದೀ": 258,
    "ದು": 259,
    "ದುಂ": 260,
    "ದೂ": 261,
    "ದೆ": 262,
    "ದೇ": 263,
    "ದೈ": 264,
    "ದೊ": 265,
    "ದ್": 266,
    "ದ್ಟ": 267,
    "ದ್ಟು": 268,
    "ದ್ದಾ": 269,
    "ದ್ದೂ": 270,
    "ದ್ಧ": 271,
    "ದ್ಧಿ": 272,
    "ದ್ಫು": 273,
    "ದ್ಮ": 274,
    "ದ್ಯ": 275,
    "ದ್ಯಾ": 276,
    "ದ್ಯು": 277,
    "ದ್ರ": 278,
    "ದ್ರಾ": 279,
    "ದ್ರಿ": 280,
    "ದ್ರೇ": 281,
    "ದ್ರೋ": 282,
    "ದ್ರೌ": 283,
    "ದ್ಳು": 284,
    "ದ್ವ": 285,
    "ದ್ವಾ": 286,
    "ಧ": 287,
    "ಧಾ": 288,
    "ಧಿ": 289,
    "ಧೀ": 290,
    "ಧು": 291,
    "ಧೂ": 292,
    "ಧ್ಯ": 293,
    "ಧ್ವ": 294,
    "ನ": 295,
    "ನಂ": 296,
    "ನಾ": 297,
    "ನಾಂ": 298,
    "ನಿ": 299,
    "ನೀ": 300,
    "ನೀ": 301,
    "ನು": 302,
    "ನೂ": 303,
    "ನೆ": 304,
    "ನೇ": 305,
    "ನೈ": 306,
    "ನೊ": 307,
    "ನೋ": 308,
    "ನೌ": 309,
    "ನ್": 310,
    "ನ್ನ": 311,
    "ನ್ನಂ": 312,
    "ನ್ನಿ": 313,
    "ನ್ನು": 314,
    "ನ್ಮ": 315,
    "ನ್ಮಾ": 316,
    "ನ್ಮ್ರ": 317,
    "ನ್ಯ": 318,
    "ನ್ಯಾ": 319,
    "ನ್ಯೇ": 320,
    "ನ್ಲು": 321,
    "ನ್ವ": 322,
    "ನ್ವೀ": 323,
    "ನ್ಸ": 324,
    "ನ್ಸಾ": 325,
    "ನ್ಸ್": 326,
    "ನ್ಹ": 327,
    "ಪ": 328,
    "ಪಂ": 329,
    "ಪಾ": 330,
    "ಪಾಂ": 331,
    "ಪಿ": 332,
    "ಪೀ": 333,
    "ಪು": 334,
    "ಪೂ": 335,
    "ಪೆ": 336,
    "ಪೇ": 337,
    "ಪೈ": 338,
    "ಪೊ": 339,
    "ಪೋ": 340,
    "ಪ್": 341,
    "ಪ್ಕಾ": 342,
    "ಪ್ತೆ": 343,
    "ಪ್ಪ": 344,
    "ಪ್ಪು": 345,
    "ಪ್ಯಾ": 346,
    "ಪ್ರ": 347,
    "ಪ್ರಾ": 348,
    "ಪ್ರಿ": 349,
    "ಪ್ರೆ": 350,
    "ಪ್ರೈ": 351,
    "ಪ್ಲಾ": 352,
    "ಪ್ಲೈ": 353,
    "ಪ್ಷ": 354,
    "ಫ": 355,
    "ಫಾ": 356,
    "ಫಿ": 357,
    "ಫೀ": 358,
    "ಫು": 359,
    "ಫೆ": 360,
    "ಫೋ": 361,
    "ಫ್": 362,
    "ಫ್ಟ್": 363,
    "ಫ್ಯಾ": 364,
    "ಫ್ರೀ": 365,
    "ಫ್ರೂ": 366,
    "ಫ್ಲ": 367,
    "ಫ್ಲಾ": 368,
    "ಬ": 369,
    "ಬಾ": 370,
    "ಬಿ": 371,
    "ಬೀ": 372,
    "ಬು": 373,
    "ಬೃ": 374,
    "ಬೆ": 375,
    "ಬೆಂ": 376,
    "ಬೇ": 377,
    "ಬೈ": 378,
    "ಬೊ": 379,
    "ಬೋ": 380,
    "ಬೌ": 381,
    "ಬ್": 382,
    "ಬ್ಬ": 383,
    "ಬ್ಬಾ": 384,
    "ಬ್ಯಾ": 385,
    "ಬ್ಯಾಂ": 386,
    "ಬ್ಲ": 387,
    "ಭ": 388,
    "ಭಾ": 389,
    "ಭಿ": 390,
    "ಭು": 391,
    "ಭೂ": 392,
    "ಭೇ": 393,
    "ಭ್ಯ": 394,
    "ಭ್ರ": 395,
    "ಮ": 396,
    "ಮಂ": 397,
    "ಮಃ": 398,
    "ಮಾ": 399,
    "ಮಾಂ": 400,
    "ಮಿ": 401,
    "ಮೀ": 402,
    "ಮು": 403,
    "ಮುಂ": 404,
    "ಮೂ": 405,
    "ಮೃ": 406,
    "ಮೆ": 407,
    "ಮೆಂ": 408,
    "ಮೇ": 409,
    "ಮೈ": 410,
    "ಮೊ": 411,
    "ಮೋ": 412,
    "ಮೌ": 413,
    "ಮ್": 414,
    "ಮ್ಗ್ರ": 415,
    "ಮ್ಟ": 416,
    "ಮ್ಮ": 417,
    "ಮ್ಮ್ನ": 418,
    "ಮ್ಯ": 419,
    "ಮ್ಯಾ": 420,
    "ಮ್ರ": 421,
    "ಮ್ಶ": 422,
    "ಮ್ಸ": 423,
    "ಮೖ": 424,
    "ಯ": 425,
    "ಯಂ": 426,
    "ಯಾ": 427,
    "ಯಿ": 428,
    "ಯು": 429,
    "ಯೂ": 430,
    "ಯೆ": 431,
    "ಯೇ": 432,
    "ಯೋ": 433,
    "ಯ್": 434,
    "ಯ್ತ": 435,
    "ಯ್ಯ": 436,
    "ರ": 437,
    "ರಂ": 438,
    "ರಾ": 439,
    "ರಾಂ": 440,
    "ರಿ": 441,
    "ರಿಂ": 442,
    "ರೀ": 443,
    "ರು": 444,
    "ರೂ": 445,
    "ರೆ": 446,
    "ರೇ": 447,
    "ರೈ": 448,
    "ರೊ": 449,
    "ರೋ": 450,
    "ರ್": 451,
    "ರ್ಎ": 452,
    "ರ್ಕ": 453,
    "ರ್ಕಾ": 454,
    "ರ್ಗ": 455,
    "ರ್ಗಃ": 456,
    "ರ್ಗಾ": 457,
    "ರ್ಜ಼": 458,
    "ರ್ಜು": 459,
    "ರ್ಟ್ಸ್": 460,
    "ರ್ಡ್‌": 461,
    "ರ್ಣ": 462,
    "ರ್ಣಾ": 463,
    "ರ್ತ": 464,
    "ರ್ತು": 465,
    "ರ್ದೊ": 466,
    "ರ್ನಾ": 467,
    "ರ್ನ್": 468,
    "ರ್ಪ": 469,
    "ರ್ಪೊ": 470,
    "ರ್ಬೋ": 471,
    "ರ್ಮ": 472,
    "ರ್ಮಾ": 473,
    "ರ್ಮಿ": 474,
    "ರ್ಮ್": 475,
    "ರ್ಯ": 476,
    "ರ್ಯಾ": 477,
    "ರ್ಲಾ": 478,
    "ರ್ವ": 479,
    "ರ್ಶ": 480,
    "ರ್ಷ": 481,
    "ರ್ಸ್": 482,
    "ರ್‌": 483,
    "ರೕ": 484,
    "ಱ": 485,
    "ಲ": 486,
    "ಲಾ": 487,
    "ಲಿ": 488,
    "ಲಿಂ": 489,
    "ಲೀ": 490,
    "ಲು": 491,
    "ಲೂ": 492,
    "ಲೆ": 493,
    "ಲೆಂ": 494,
    "ಲೇ": 495,
    "ಲೈ": 496,
    "ಲೋ": 497,
    "ಲ್": 498,
    "ಲ್ಕಿ": 499,
    "ಲ್ಕ್ಸ್": 500,
    "ಲ್ಟಿ": 501,
    "ಲ್ಟೇ": 502,
    "ಲ್ಡ್": 503,
    "ಲ್ತ್": 504,
    "ಲ್ದಾ": 505,
    "ಲ್ಯೂ": 506,
    "ಲ್ಲ": 507,
    "ಲ್ಲಾ": 508,
    "ಲ್ಲಿ": 509,
    "ಲ್ಲು": 510,
    "ಲ್ಲೆ": 511,
    "ಲ್ವ": 512,
    "ಲ್ವೆ": 513,
    "ಲ್ಸ": 514,
    "ಲ್ಸ್": 515,
    "ಲ್‌": 516,
    "ಳ": 517,
    "ಳಂ": 518,
    "ಳಃ": 519,
    "ಳಾ": 520,
    "ಳಿ": 521,
    "ಳೀ": 522,
    "ಳು": 523,
    "ಳೂ": 524,
    "ಳೆ": 525,
    "ಳೇ": 526,
    "ಳ್": 527,
    "ಳ್ಳ": 528,
    "ಳ್ಳಾ": 529,
    "ಳ್ಳಿ": 530,
    "ಳ್ಳು": 531,
    "ಳ್ಳೇ": 532,
    "ವ": 533,
    "ವಂ": 534,
    "ವಾ": 535,
    "ವಾಂ": 536,
    "ವಿ": 537,
    "ವೀ": 538,
    "ವು": 539,
    "ವೂ": 540,
    "ವೃ": 541,
    "ವೆ": 542,
    "ವೆಂ": 543,
    "ವೇ": 544,
    "ವೇಂ": 545,
    "ವೈ": 546,
    "ವೊ": 547,
    "ವೋ": 548,
    "ವ್": 549,
    "ವ್ತ": 550,
    "ವ್ಯ": 551,
    "ವ್ಯಾ": 552,
    "ವ್ವ": 553,
    "ವ್ಹ": 554,
    "ವ್‌": 555,
    "ಶ": 556,
    "ಶಾ": 557,
    "ಶಿ": 558,
    "ಶೀ": 559,
    "ಶು": 560,
    "ಶೆ": 561,
    "ಶೇ": 562,
    "ಶೋ": 563,
    "ಶೌ": 564,
    "ಶ್": 565,
    "ಶ್ಚ": 566,
    "ಶ್ರ": 567,
    "ಶ್ರಾ": 568,
    "ಶ್ರೀ": 569,
    "ಶ್ಲೇ": 570,
    "ಶ್ವ": 571,
    "ಶ್ಸ": 572,
    "ಷ": 573,
    "ಷಾ": 574,
    "ಷೇ": 575,
    "ಷ್ಕ": 576,
    "ಷ್ಕ್": 577,
    "ಷ್ಟ": 578,
    "ಷ್ಟಿ": 579,
    "ಷ್ಟು": 580,
    "ಷ್ಟ್ರೀ": 581,
    "ಷ್ಠ": 582,
    "ಷ್ಣ": 583,
    "ಷ್ಮ": 584,
    "ಷ್ಮೆ": 585,
    "ಷ್ಯ": 586,
    "ಷೢ": 587,
    "ಸ": 588,
    "ಸಂ": 589,
    "ಸಾ": 590,
    "ಸಿ": 591,
    "ಸಿಂ": 592,
    "ಸೀ": 593,
    "ಸು": 594,
    "ಸೂ": 595,
    "ಸೃ": 596,
    "ಸೆ": 597,
    "ಸೆಂ": 598,
    "ಸೇ": 599,
    "ಸೈ": 600,
    "ಸೊ": 601,
    "ಸೋ": 602,
    "ಸೌ": 603,
    "ಸ್": 604,
    "ಸ್ಕಾ": 605,
    "ಸ್ಕು": 606,
    "ಸ್ಕೂ": 607,
    "ಸ್ಕೃ": 608,
    "ಸ್ಟ": 609,
    "ಸ್ಟಾ": 610,
    "ಸ್ಟಿ": 611,
    "ಸ್ಟೀ": 612,
    "ಸ್ಟೆ": 613,
    "ಸ್ಟೇ": 614,
    "ಸ್ಟೋ": 615,
    "ಸ್ಟ್": 616,
    "ಸ್ಠ": 617,
    "ಸ್ಡ": 618,
    "ಸ್ತ": 619,
    "ಸ್ತಿ": 620,
    "ಸ್ತು": 621,
    "ಸ್ತೆ": 622,
    "ಸ್ತ್ರ": 623,
    "ಸ್ಥ": 624,
    "ಸ್ಥಾ": 625,
    "ಸ್ಥೆ": 626,
    "ಸ್ಧಾ": 627,
    "ಸ್ಧೆ": 628,
    "ಸ್ನಾ": 629,
    "ಸ್ಪ": 630,
    "ಸ್ಪೆ": 631,
    "ಸ್ಪೇ": 632,
    "ಸ್ಮ": 633,
    "ಸ್ಮಾ": 634,
    "ಸ್ಯ": 635,
    "ಸ್ಯಃ": 636,
    "ಸ್ರಾ": 637,
    "ಸ್ಲಿ": 638,
    "ಸ್ವ": 639,
    "ಸ್ವಾ": 640,
    "ಸ್ವಿ": 641,
    "ಸ್ವೀ": 642,
    "ಸ್ಸಾ": 643,
    "ಸ್ಸ್": 644,
    "ಸ್ಹ": 645,
    "ಹ": 646,
    "ಹಂ": 647,
    "ಹಾ": 648,
    "ಹಿ": 649,
    "ಹಿಂ": 650,
    "ಹೀ": 651,
    "ಹು": 652,
    "ಹೂ": 653,
    "ಹೃ": 654,
    "ಹೆ": 655,
    "ಹೇ": 656,
    "ಹೈ": 657,
    "ಹೊ": 658,
    "ಹೋ": 659,
    "ಹ್ನ": 660,
    "ಹ್ಯಾ": 661,
    "ಹ್ಯಾಂ": 662,
    "ಽ": 663,
    "ಾ": 664,
    "ೞ": 665,
    "ೞ್ಟ": 666,
    "ೞ್ದು": 667,
    "೦": 668,
    "೧": 669,
    "೨": 670,
    "೩": 671,
    "೪": 672,
    "೫": 673,
    "೬": 674,
    "೭": 675,
    "೮": 676,
    "೯": 677
  },
  "metadata": {
    "lang": "kannada",
    "source_splits": "florence2_splits_bstd_kannada_b1800.json",
    "num_graphemes": 676,
    "segmenter": "indic-generic (Mn/Mc + virama-join)"
  }
}