{
  "grapheme2idx": {
    "<blank>": 0,
    "<unk>": 1,
    " ‍": 2,
    "!": 3,
    "\"": 4,
    "$": 5,
    "(": 6,
    ")": 7,
    ",": 8,
    "-": 9,
    ".": 10,
    "/": 11,
    "0": 12,
    "0ः": 13,
    "1": 14,
    "2": 15,
    "3": 16,
    "4": 17,
    "5": 18,
    "6": 19,
    "7": 20,
    "8": 21,
    "9": 22,
    ":": 23,
    "=": 24,
    "A": 25,
    "D": 26,
    "E": 27,
    "F": 28,
    "G": 29,
    "L": 30,
    "M": 31,
    "N": 32,
    "O": 33,
    "P": 34,
    "R": 35,
    "T": 36,
    "Y": 37,
    "\\": 38,
    "]": 39,
    "a": 40,
    "e": 41,
    "i": 42,
    "l": 43,
    "m": 44,
    "o": 45,
    "r": 46,
    "s": 47,
    "t": 48,
    "|": 49,
    "अ": 50,
    "अं": 51,
    "अ‍ॅ": 52,
    "आ": 53,
    "आँ": 54,
    "आं": 55,
    "इ": 56,
    "इं": 57,
    "ई": 58,
    "ईं": 59,
    "ईः": 60,
    "उ": 61,
    "उँ": 62,
    "उं": 63,
    "उॆਂ": 64,
    "उ्ल्ला": 65,
    "ऊ": 66,
    "ऊँ": 67,
    "ऊं": 68,
    "ऋ": 69,
    "ऎ": 70,
    "ए": 71,
    "एँ": 72,
    "एं": 73,
    "एा": 74,
    "ए्क": 75,
    "ऐ": 76,
    "ऑ": 77,
    "ओ": 78,
    "ओँ": 79,
    "ओं": 80,
    "औ": 81,
    "क": 82,
    "कं": 83,
    "कः": 84,
    "क़ै": 85,
    "का": 86,
    "काँ": 87,
    "कां": 88,
    "काॆ": 89,
    "काे": 90,
    "का‌": 91,
    "का‍": 92,
    "का‍‌": 93,
    "कि": 94,
    "किं": 95,
    "कि‍": 96,
    "की": 97,
    "कीं": 98,
    "कीे": 99,
    "की‌": 100,
    "की‍": 101,
    "कु": 102,
    "कुँ": 103,
    "कुं": 104,
    "कू": 105,
    "कृ": 106,
    "कॄ": 107,
    "कॅा": 108,
    "कॆ": 109,
    "के": 110,
    "कें": 111,
    "कें‍": 112,
    "केा": 113,
    "केे": 114,
    "के॓": 115,
    "के‌": 116,
    "के‌‌": 117,
    "के‍": 118,
    "के‍‍": 119,
    "कै": 120,
    "कैं": 121,
    "कॉ": 122,
    "कॊ": 123,
    "कॊं": 124,
    "को": 125,
    "कों": 126,
    "को‌": 127,
    "को‍": 128,
    "कौ": 129,
    "क्": 130,
    "क्क": 131,
    "क्का": 132,
    "क्कि": 133,
    "क्की": 134,
    "क्कु": 135,
    "क्कू": 136,
    "क्को": 137,
    "क्कों": 138,
    "क्ख": 139,
    "क्खों": 140,
    "क्चू": 141,
    "क्ज": 142,
    "क्ट": 143,
    "क्टू": 144,
    "क्टो": 145,
    "क्ट्री": 146,
    "क्ट्रॉ": 147,
    "क्ट्रो": 148,
    "क्ड": 149,
    "क्त": 150,
    "क्ता": 151,
    "क्ति": 152,
    "क्तू": 153,
    "क्ते": 154,
    "क्तॊं": 155,
    "क्तों": 156,
    "क्मि": 157,
    "क्या": 158,
    "क्र": 159,
    "क्रा": 160,
    "क्रां": 161,
    "क्रि": 162,
    "क्री": 163,
    "क्रू": 164,
    "क्रे": 165,
    "क्रै": 166,
    "क्ल": 167,
    "क्ला": 168,
    "क्लि": 169,
    "क्ले": 170,
    "क्लो": 171,
    "क्वॉ": 172,
    "क्श": 173,
    "क्शं": 174,
    "क्श्न": 175,
    "क्ष": 176,
    "क्षं": 177,
    "क्षा": 178,
    "क्षां": 179,
    "क्षि": 180,
    "क्षी": 181,
    "क्षे": 182,
    "क्षो": 183,
    "क्ष्": 184,
    "क्ष्म": 185,
    "क्ष्मी": 186,
    "क्ष्य": 187,
    "क्स": 188,
    "क्सी": 189,
    "क्स्टा": 190,
    "क्ज़ि": 191,
    "क्‍": 192,
    "क॓": 193,
    "कੇ": 194,
    "क‌": 195,
    "क‌‌ੇ": 196,
    "क‍": 197,
    "क‍ी": 198,
    "क‍े": 199,
    "क‍ो": 200,
    "ख": 201,
    "खं": 202,
    "खः": 203,
    "ख़": 204,
    "ख़ा": 205,
    "ख़ु": 206,
    "खा": 207,
    "खाँ": 208,
    "खा‍": 209,
    "खि": 210,
    "खि़": 211,
    "खि‍": 212,
    "खी": 213,
    "खीं": 214,
    "खु": 215,
    "खु़": 216,
    "खे": 217,
    "खें": 218,
    "खै": 219,
    "खो": 220,
    "खौ": 221,
    "ख्त": 222,
    "ख्ते": 223,
    "ख्य": 224,
    "ख्या": 225,
    "ख्‍": 226,
    "ग": 227,
    "गं": 228,
    "ग़": 229,
    "ग़ा": 230,
    "गा": 231,
    "गाँ": 232,
    "गां": 233,
    "गि": 234,
    "गि‍": 235,
    "गी": 236,
    "गु": 237,
    "गुं": 238,
    "गुः": 239,
    "गू": 240,
    "गूं": 241,
    "गृ": 242,
    "गॆ": 243,
    "गे": 244,
    "गें": 245,
    "गै": 246,
    "गॉ": 247,
    "गो": 248,
    "गों": 249,
    "गौ": 250,
    "ग्": 251,
    "ग्ग": 252,
    "ग्घां": 253,
    "ग्ढ": 254,
    "ग्न": 255,
    "ग्नि": 256,
    "ग्नी": 257,
    "ग्मो": 258,
    "ग्य": 259,
    "ग्या": 260,
    "ग्र": 261,
    "ग्रँ": 262,
    "ग्रं": 263,
    "ग्रा": 264,
    "ग्रि": 265,
    "ग्री": 266,
    "ग्रु": 267,
    "ग्रे": 268,
    "ग्रो": 269,
    "ग्ला": 270,
    "ग्लो": 271,
    "ग्व": 272,
    "ग्वा": 273,
    "गੁ": 274,
    "घ": 275,
    "घं": 276,
    "घा": 277,
    "घि": 278,
    "घी": 279,
    "घु": 280,
    "घृ": 281,
    "घॆ": 282,
    "घे": 283,
    "घो": 284,
    "घ्या": 285,
    "घ्र": 286,
    "ङ": 287,
    "ङ्": 288,
    "ङ्ग": 289,
    "च": 290,
    "चं": 291,
    "च़्र्": 292,
    "चा": 293,
    "चाँ": 294,
    "चां": 295,
    "चाै": 296,
    "चि": 297,
    "चिं": 298,
    "चि‍": 299,
    "ची": 300,
    "चु": 301,
    "चू": 302,
    "चे": 303,
    "चें": 304,
    "चै": 305,
    "चॉ": 306,
    "चो": 307,
    "चोे": 308,
    "चौ": 309,
    "चौं": 310,
    "च्च": 311,
    "च्चा": 312,
    "च्चि": 313,
    "च्ची": 314,
    "च्चे": 315,
    "च्चों": 316,
    "च्छ": 317,
    "च्छा": 318,
    "च्छु": 319,
    "च्छ्जी": 320,
    "च्‍": 321,
    "छ": 322,
    "छा": 323,
    "छु": 324,
    "छो": 325,
    "छ्ठी": 326,
    "ज": 327,
    "जँ": 328,
    "जं": 329,
    "जंः": 330,
    "जं॒": 331,
    "ज़": 332,
    "ज़ा": 333,
    "ज़ि": 334,
    "ज़ी": 335,
    "ज़ु": 336,
    "जा": 337,
    "जाँ": 338,
    "जा़": 339,
    "जा‍": 340,
    "जि": 341,
    "जिं": 342,
    "जिः": 343,
    "जि‍": 344,
    "जी": 345,
    "जीे": 346,
    "जी‍": 347,
    "जु": 348,
    "जू": 349,
    "जे": 350,
    "जें": 351,
    "जे़": 352,
    "जै": 353,
    "जॉं": 354,
    "जो": 355,
    "जों": 356,
    "जो़": 357,
    "जौ": 358,
    "ज्ज़": 359,
    "ज्जा़": 360,
    "ज्ज्व": 361,
    "ज्ञ": 362,
    "ज्ञा": 363,
    "ज्बे": 364,
    "ज्मा": 365,
    "ज्य": 366,
    "ज्यी": 367,
    "ज्ये": 368,
    "ज्यॊ": 369,
    "ज्यो": 370,
    "ज्यों": 371,
    "ज्व": 372,
    "ज्वा": 373,
    "ज्वे": 374,
    "ज्वै": 375,
    "ज्‍": 376,
    "झ": 377,
    "झा": 378,
    "झाँ": 379,
    "झी": 380,
    "झो": 381,
    "ञ": 382,
    "ञ्च": 383,
    "ञ्य": 384,
    "ट": 385,
    "टा": 386,
    "टां": 387,
    "टि": 388,
    "टी": 389,
    "टीं": 390,
    "टु": 391,
    "टू": 392,
    "टे": 393,
    "टें": 394,
    "टै": 395,
    "टैं": 396,
    "टॉ": 397,
    "टो": 398,
    "टों": 399,
    "ट्": 400,
    "ट्क्का": 401,
    "ट्ट": 402,
    "ट्टां": 403,
    "ट्टि": 404,
    "ट्टी": 405,
    "ट्टु": 406,
    "ट्टै": 407,
    "ट्ण": 408,
    "ट्पे": 409,
    "ट्यां": 410,
    "ट्र": 411,
    "ट्रा": 412,
    "ट्रां": 413,
    "ट्रि": 414,
    "ट्री": 415,
    "ट्रे": 416,
    "ट्रै": 417,
    "ट्रो": 418,
    "ट्रौ": 419,
    "ठ": 420,
    "ठं": 421,
    "ठा": 422,
    "ठि": 423,
    "ठी": 424,
    "ठू": 425,
    "ठे": 426,
    "ठें": 427,
    "ठै": 428,
    "ठ्ठ": 429,
    "ड": 430,
    "डं": 431,
    "ड़": 432,
    "ड़ा": 433,
    "ड़ि": 434,
    "ड़ी": 435,
    "ड़ीं": 436,
    "ड़ी़": 437,
    "ड़े": 438,
    "ड़ो": 439,
    "ड़ौ": 440,
    "डा": 441,
    "डाँ": 442,
    "डां": 443,
    "डा़": 444,
    "डाॅ": 445,
    "डि": 446,
    "डिं": 447,
    "डी": 448,
    "डु": 449,
    "डू": 450,
    "डॆ": 451,
    "डे": 452,
    "डे़": 453,
    "डै": 454,
    "डॉ": 455,
    "डो": 456,
    "डों": 457,
    "डौ": 458,
    "ड्डा": 459,
    "ड्डू": 460,
    "ड्डे": 461,
    "ड्यु": 462,
    "ड्र": 463,
    "ड्रि": 464,
    "ड्री": 465,
    "ड्रे": 466,
    "ड्स": 467,
    "ड्‌": 468,
    "ढ": 469,
    "ढ़": 470,
    "ढ़ा": 471,
    "ढ़ी": 472,
    "ढा": 473,
    "ढि": 474,
    "ढी": 475,
    "ढीं": 476,
    "ढे": 477,
    "ढें": 478,
    "ढे़": 479,
    "ण": 480,
    "णं": 481,
    "णः": 482,
    "णा": 483,
    "णि": 484,
    "णी": 485,
    "णु": 486,
    "णे": 487,
    "णो": 488,
    "णों": 489,
    "ण्ट": 490,
    "ण्ड": 491,
    "ण्ड़": 492,
    "ण्ड़ी": 493,
    "ण्डा": 494,
    "ण्डि": 495,
    "ण्डी": 496,
    "ण्डे": 497,
    "ण्ण": 498,
    "ण्णू": 499,
    "ण्म": 500,
    "ण्य": 501,
    "ण्या": 502,
    "ण्व": 503,
    "ण्‍": 504,
    "त": 505,
    "तं": 506,
    "तः": 507,
    "ता": 508,
    "तां": 509,
    "ति": 510,
    "तिं": 511,
    "तिः": 512,
    "ति‍": 513,
    "ती": 514,
    "तु": 515,
    "तू": 516,
    "तृ": 517,
    "ते": 518,
    "तें": 519,
    "ते‍": 520,
    "तै": 521,
    "तो": 522,
    "तों": 523,
    "त्": 524,
    "त्क": 525,
    "त्कृ": 526,
    "त्ख": 527,
    "त्त": 528,
    "त्ता": 529,
    "त्ति": 530,
    "त्ती": 531,
    "त्तु": 532,
    "त्तू": 533,
    "त्त्ते": 534,
    "त्त्त्रा": 535,
    "त्त्य": 536,
    "त्त्र": 537,
    "त्त्रा": 538,
    "त्त्व": 539,
    "त्थ": 540,
    "त्थे": 541,
    "त्न": 542,
    "त्नी": 543,
    "त्पा": 544,
    "त्म": 545,
    "त्मा": 546,
    "त्य": 547,
    "त्यं": 548,
    "त्या": 549,
    "त्यु": 550,
    "त्ये": 551,
    "त्र": 552,
    "त्रा": 553,
    "त्रि": 554,
    "त्री": 555,
    "त्रैः": 556,
    "त्रो": 557,
    "त्रों": 558,
    "त्र्यां": 559,
    "त्व": 560,
    "त्वं": 561,
    "त्वि": 562,
    "त्स": 563,
    "त्सा": 564,
    "त्स्यि": 565,
    "त्‌": 566,
    "त्‍": 567,
    "त‌": 568,
    "थ": 569,
    "थः": 570,
    "थ़ी": 571,
    "थ़े": 572,
    "था": 573,
    "था़": 574,
    "था‍": 575,
    "थि": 576,
    "थी": 577,
    "थु": 578,
    "थू": 579,
    "थे": 580,
    "थे‌": 581,
    "थे‍": 582,
    "थै": 583,
    "थ्यू": 584,
    "थ्री": 585,
    "थ्वी": 586,
    "थ‍े": 587,
    "द": 588,
    "दं": 589,
    "दा": 590,
    "दां": 591,
    "दा़": 592,
    "दि": 593,
    "दी": 594,
    "दु": 595,
    "दुं": 596,
    "दु‍": 597,
    "दू": 598,
    "दूं": 599,
    "दू‍": 600,
    "दृ": 601,
    "दॅा": 602,
    "दे": 603,
    "दें": 604,
    "दै": 605,
    "दॉ": 606,
    "दो": 607,
    "दों": 608,
    "दौ": 609,
    "द्": 610,
    "द्गु": 611,
    "द्घ": 612,
    "द्घा": 613,
    "द्था": 614,
    "द्द": 615,
    "द्दा": 616,
    "द्दी": 617,
    "द्दु": 618,
    "द्ध": 619,
    "द्धं": 620,
    "द्धा": 621,
    "द्धि": 622,
    "द्धु": 623,
    "द्धे": 624,
    "द्भा": 625,
    "द्म": 626,
    "द्य": 627,
    "द्यं": 628,
    "द्या": 629,
    "द्यी": 630,
    "द्यो": 631,
    "द्र": 632,
    "द्रा": 633,
    "द्रि": 634,
    "द्री": 635,
    "द्री़": 636,
    "द्रु": 637,
    "द्लि": 638,
    "द्व": 639,
    "द्वा": 640,
    "द्वि": 641,
    "द्वी": 642,
    "द्वौ": 643,
    "द्‌": 644,
    "द्‍": 645,
    "ध": 646,
    "धा": 647,
    "धां": 648,
    "धि": 649,
    "धी": 650,
    "धु": 651,
    "धू": 652,
    "धू्म्र": 653,
    "धृ": 654,
    "धे": 655,
    "धै": 656,
    "धो": 657,
    "धौ": 658,
    "ध्द": 659,
    "ध्धी": 660,
    "ध्य": 661,
    "ध्या": 662,
    "ध्रा": 663,
    "ध्व": 664,
    "ध्वे": 665,
    "ध्‍": 666,
    "न": 667,
    "नं": 668,
    "नः": 669,
    "ना": 670,
    "नाँ": 671,
    "नां": 672,
    "ना‌": 673,
    "नि": 674,
    "निं": 675,
    "निः": 676,
    "नि‍": 677,
    "नी": 678,
    "नु": 679,
    "नुं": 680,
    "नू": 681,
    "ने": 682,
    "नें": 683,
    "नेे": 684,
    "नै": 685,
    "नॉ": 686,
    "नॊ": 687,
    "नो": 688,
    "नों": 689,
    "नौ": 690,
    "न्": 691,
    "न्अ": 692,
    "न्क": 693,
    "न्क़": 694,
    "न्क्ले": 695,
    "न्ख": 696,
    "न्ग": 697,
    "न्ग्रा": 698,
    "न्जी": 699,
    "न्ट": 700,
    "न्टो": 701,
    "न्ट्र": 702,
    "न्ट्रे": 703,
    "न्ट्स": 704,
    "न्ड": 705,
    "न्त": 706,
    "न्ता": 707,
    "न्ति": 708,
    "न्ती": 709,
    "न्तु": 710,
    "न्तो": 711,
    "न्त्रि": 712,
    "न्था": 713,
    "न्थी": 714,
    "न्थ्रा": 715,
    "न्द": 716,
    "न्दा": 717,
    "न्दि": 718,
    "न्दी": 719,
    "न्दु": 720,
    "न्दू": 721,
    "न्दे": 722,
    "न्दौ": 723,
    "न्द्र": 724,
    "न्द्रा": 725,
    "न्द्री": 726,
    "न्ध": 727,
    "न्धु": 728,
    "न्ध्रा": 729,
    "न्न": 730,
    "न्नं": 731,
    "न्ना": 732,
    "न्नि": 733,
    "न्नी": 734,
    "न्नू": 735,
    "न्ने": 736,
    "न्नै": 737,
    "न्फा": 738,
    "न्म": 739,
    "न्मा": 740,
    "न्मे": 741,
    "न्मो": 742,
    "न्य": 743,
    "न्यः": 744,
    "न्या": 745,
    "न्यु": 746,
    "न्यू": 747,
    "न्र्दी": 748,
    "न्वा": 749,
    "न्वि": 750,
    "न्श्यो": 751,
    "न्स": 752,
    "न्स्पे": 753,
    "न्ह": 754,
    "न्हा": 755,
    "न्हु": 756,
    "न्हे": 757,
    "न्है": 758,
    "न्‌": 759,
    "न्‍": 760,
    "न‌": 761,
    "प": 762,
    "पं": 763,
    "पः": 764,
    "पा": 765,
    "पाँ": 766,
    "पां": 767,
    "पा‍": 768,
    "पि": 769,
    "पिं": 770,
    "पी": 771,
    "पु": 772,
    "पु‍": 773,
    "पू": 774,
    "पूँ": 775,
    "पूं": 776,
    "पू्र्ण": 777,
    "पृ": 778,
    "पे": 779,
    "पें": 780,
    "पै": 781,
    "पैं": 782,
    "पैा": 783,
    "पॉ": 784,
    "पो": 785,
    "पौ": 786,
    "प्": 787,
    "प्त": 788,
    "प्ता": 789,
    "प्ति": 790,
    "प्तों": 791,
    "प्प": 792,
    "प्पा": 793,
    "प्पु": 794,
    "प्पे": 795,
    "प्या": 796,
    "प्र": 797,
    "प्रा": 798,
    "प्रां": 799,
    "प्रि": 800,
    "प्री": 801,
    "प्रॆ": 802,
    "प्रे": 803,
    "प्रै": 804,
    "प्रो": 805,
    "प्रौ": 806,
    "प्ला": 807,
    "प्ले": 808,
    "प्लैं": 809,
    "प्लॉ": 810,
    "प्सू": 811,
    "प्‍": 812,
    "प‍": 813,
    "प‍‍": 814,
    "फ": 815,
    "फं": 816,
    "फ़": 817,
    "फ़ि": 818,
    "फ़ी": 819,
    "फ़ॉ": 820,
    "फा": 821,
    "फां": 822,
    "फि": 823,
    "फी": 824,
    "फु": 825,
    "फू": 826,
    "फूं": 827,
    "फे": 828,
    "फें": 829,
    "फै": 830,
    "फॉ": 831,
    "फो": 832,
    "फों": 833,
    "फ्ट": 834,
    "फ्त": 835,
    "फ्फा": 836,
    "फ्फ्रो": 837,
    "फ्र": 838,
    "फ्रं": 839,
    "फ्री": 840,
    "फ्रे": 841,
    "फ्ला": 842,
    "फ्ले": 843,
    "फ्लो": 844,
    "फ‌": 845,
    "ब": 846,
    "बँ": 847,
    "बं": 848,
    "बा": 849,
    "बाँ": 850,
    "बां": 851,
    "बि": 852,
    "बी": 853,
    "बी‍": 854,
    "बु": 855,
    "बू": 856,
    "बृ": 857,
    "बे": 858,
    "बें": 859,
    "बै": 860,
    "बैँ": 861,
    "बैं": 862,
    "बैे": 863,
    "बैਂ": 864,
    "बॉ": 865,
    "बो": 866,
    "बौ": 867,
    "ब्जि": 868,
    "ब्दां": 869,
    "ब्दी": 870,
    "ब्दु": 871,
    "ब्ध": 872,
    "ब्ब": 873,
    "ब्बा": 874,
    "ब्य": 875,
    "ब्या": 876,
    "ब्यू": 877,
    "ब्र": 878,
    "ब्रा": 879,
    "ब्रि": 880,
    "ब्री": 881,
    "ब्रु": 882,
    "ब्रू": 883,
    "ब्रे": 884,
    "ब्ल": 885,
    "ब्ला": 886,
    "ब्लि": 887,
    "ब्लु": 888,
    "ब्लॉ": 889,
    "ब्लो": 890,
    "ब्ल्यु": 891,
    "ब्ल्यू": 892,
    "ब्वा": 893,
    "ब्सि": 894,
    "ब्‍": 895,
    "ब‍": 896,
    "भ": 897,
    "भं": 898,
    "भा": 899,
    "भां": 900,
    "भाे": 901,
    "भा‍": 902,
    "भि": 903,
    "भी": 904,
    "भी‍": 905,
    "भु": 906,
    "भू": 907,
    "भे": 908,
    "भें": 909,
    "भै": 910,
    "भो": 911,
    "भौ": 912,
    "भ्या": 913,
    "भ्याा": 914,
    "म": 915,
    "मं": 916,
    "मः": 917,
    "म़ी": 918,
    "मा": 919,
    "माँ": 920,
    "मां": 921,
    "मा‌": 922,
    "मि": 923,
    "मिं": 924,
    "मि‍": 925,
    "मी": 926,
    "मी‍": 927,
    "मु": 928,
    "मुं": 929,
    "मुंं": 930,
    "मू": 931,
    "मूं": 932,
    "मूी": 933,
    "मृ": 934,
    "मॆ": 935,
    "मे": 936,
    "में": 937,
    "मेे": 938,
    "मे‍": 939,
    "मै": 940,
    "मैं": 941,
    "मॉ": 942,
    "मॊ": 943,
    "मो": 944,
    "मों": 945,
    "मौ": 946,
    "म्": 947,
    "म्प": 948,
    "म्पं": 949,
    "म्पा": 950,
    "म्पि": 951,
    "म्पे": 952,
    "म्प्ले": 953,
    "म्ब": 954,
    "म्बा": 955,
    "म्बी": 956,
    "म्बु": 957,
    "म्बू": 958,
    "म्बे": 959,
    "म्भ": 960,
    "म्भा": 961,
    "म्म": 962,
    "म्मं": 963,
    "म्मा": 964,
    "म्मि": 965,
    "म्मु": 966,
    "म्मू": 967,
    "म्मे": 968,
    "म्यू": 969,
    "म्यो": 970,
    "म्र": 971,
    "म्व": 972,
    "म्वां": 973,
    "म्स": 974,
    "म्हा": 975,
    "म्ही": 976,
    "म्हे": 977,
    "म्हें": 978,
    "म्‌": 979,
    "म्‍": 980,
    "य": 981,
    "यं": 982,
    "या": 983,
    "याँ": 984,
    "यां": 985,
    "याॅ": 986,
    "या‌": 987,
    "या‍": 988,
    "यि": 989,
    "यी": 990,
    "यु": 991,
    "यू": 992,
    "ये": 993,
    "यें": 994,
    "येे": 995,
    "यो": 996,
    "यों": 997,
    "य्ना": 998,
    "य्य": 999,
    "य‌": 1000,
    "र": 1001,
    "रं": 1002,
    "रंं": 1003,
    "रः": 1004,
    "रा": 1005,
    "राँ": 1006,
    "रां": 1007,
    "राः": 1008,
    "रा़": 1009,
    "रा‍": 1010,
    "रि": 1011,
    "रिं": 1012,
    "रिः": 1013,
    "री": 1014,
    "रु": 1015,
    "रुं": 1016,
    "रू": 1017,
    "रू‍": 1018,
    "रे": 1019,
    "रें": 1020,
    "रै": 1021,
    "रॉ": 1022,
    "रॉँ": 1023,
    "रो": 1024,
    "रों": 1025,
    "रौ": 1026,
    "रौं": 1027,
    "र्": 1028,
    "र्क": 1029,
    "र्कि": 1030,
    "र्किं": 1031,
    "र्की": 1032,
    "र्के": 1033,
    "र्क्स": 1034,
    "र्ग": 1035,
    "र्गा": 1036,
    "र्गो": 1037,
    "र्घा": 1038,
    "र्च": 1039,
    "र्चा": 1040,
    "र्चें": 1041,
    "र्ज": 1042,
    "र्ज़": 1043,
    "र्जा": 1044,
    "र्जि": 1045,
    "र्जी": 1046,
    "र्जु": 1047,
    "र्ट": 1048,
    "र्टि": 1049,
    "र्टी": 1050,
    "र्ट्‌": 1051,
    "र्ड": 1052,
    "र्ड़": 1053,
    "र्डा": 1054,
    "र्डिं": 1055,
    "र्डी": 1056,
    "र्डे": 1057,
    "र्ड्‌": 1058,
    "र्ण": 1059,
    "र्णो": 1060,
    "र्त": 1061,
    "र्ता": 1062,
    "र्ति": 1063,
    "र्ती": 1064,
    "र्त्त": 1065,
    "र्त्ता": 1066,
    "र्त्ति": 1067,
    "र्थ": 1068,
    "र्थं": 1069,
    "र्थि": 1070,
    "र्थी": 1071,
    "र्थो": 1072,
    "र्थ्य": 1073,
    "र्द": 1074,
    "र्दा": 1075,
    "र्दि": 1076,
    "र्दे": 1077,
    "र्द्ध": 1078,
    "र्द्यी": 1079,
    "र्द्व": 1080,
    "र्ध": 1081,
    "र्न": 1082,
    "र्ना": 1083,
    "र्नू": 1084,
    "र्न्त": 1085,
    "र्प": 1086,
    "र्पि": 1087,
    "र्पो": 1088,
    "र्फ": 1089,
    "र्फी": 1090,
    "र्ब": 1091,
    "र्भ": 1092,
    "र्म": 1093,
    "र्मं": 1094,
    "र्मः": 1095,
    "र्मा": 1096,
    "र्मि": 1097,
    "र्मू": 1098,
    "र्में": 1099,
    "र्मो": 1100,
    "र्मों": 1101,
    "र्य": 1102,
    "र्या": 1103,
    "र्र": 1104,
    "र्रा": 1105,
    "र्रि": 1106,
    "र्री": 1107,
    "र्ल": 1108,
    "र्ला": 1109,
    "र्लिं": 1110,
    "र्ले": 1111,
    "र्लो": 1112,
    "र्ल्स": 1113,
    "र्व": 1114,
    "र्वा": 1115,
    "र्वि": 1116,
    "र्वी": 1117,
    "र्वॆ": 1118,
    "र्वे": 1119,
    "र्वो": 1120,
    "र्व्या": 1121,
    "र्व‍": 1122,
    "र्श": 1123,
    "र्शा": 1124,
    "र्शि": 1125,
    "र्ष": 1126,
    "र्षि": 1127,
    "र्षो": 1128,
    "र्षों": 1129,
    "र्स": 1130,
    "र्सि": 1131,
    "र्सी": 1132,
    "र्से": 1133,
    "र्सो": 1134,
    "र्ह": 1135,
    "र्है": 1136,
    "र‌": 1137,
    "र‍": 1138,
    "ऱ्ह": 1139,
    "ल": 1140,
    "लं": 1141,
    "लः": 1142,
    "ला": 1143,
    "लाँ": 1144,
    "लां": 1145,
    "लाे": 1146,
    "ला‌": 1147,
    "ला‍": 1148,
    "लि": 1149,
    "लिं": 1150,
    "लि‍": 1151,
    "ली": 1152,
    "ली‍": 1153,
    "लु": 1154,
    "लुं": 1155,
    "लू": 1156,
    "ले": 1157,
    "लें": 1158,
    "ले्म": 1159,
    "ले‌": 1160,
    "लै": 1161,
    "लॉ": 1162,
    "लो": 1163,
    "लों": 1164,
    "लो‍": 1165,
    "ल्": 1166,
    "ल्क": 1167,
    "ल्की": 1168,
    "ल्ट": 1169,
    "ल्टा": 1170,
    "ल्टे": 1171,
    "ल्ड": 1172,
    "ल्डिं": 1173,
    "ल्डीं": 1174,
    "ल्ड्रिं": 1175,
    "ल्ड्रे": 1176,
    "ल्ता": 1177,
    "ल्त्ती": 1178,
    "ल्थ": 1179,
    "ल्नि": 1180,
    "ल्प": 1181,
    "ल्पी": 1182,
    "ल्फी": 1183,
    "ल्मी": 1184,
    "ल्य": 1185,
    "ल्या": 1186,
    "ल्यां": 1187,
    "ल्यु": 1188,
    "ल्ल": 1189,
    "ल्ला": 1190,
    "ल्लि": 1191,
    "ल्लिं": 1192,
    "ल्ली": 1193,
    "ल्लु": 1194,
    "ल्लू": 1195,
    "ल्वे": 1196,
    "ल्स": 1197,
    "ल्‌": 1198,
    "ल्‍": 1199,
    "ल‌": 1200,
    "ल‍": 1201,
    "ळ": 1202,
    "ळा": 1203,
    "ळे": 1204,
    "व": 1205,
    "वं": 1206,
    "वः": 1207,
    "व़": 1208,
    "वा": 1209,
    "वाँ": 1210,
    "वां": 1211,
    "वा‌": 1212,
    "वि": 1213,
    "विं": 1214,
    "वि‍": 1215,
    "वी": 1216,
    "वीं": 1217,
    "वु": 1218,
    "वू": 1219,
    "वृ": 1220,
    "वृृ": 1221,
    "वे": 1222,
    "वें": 1223,
    "वै": 1224,
    "वॉ": 1225,
    "वॉँ": 1226,
    "वॉं": 1227,
    "वो": 1228,
    "वों": 1229,
    "व्": 1230,
    "व्ज": 1231,
    "व्द": 1232,
    "व्दि": 1233,
    "व्य": 1234,
    "व्या": 1235,
    "व्यां": 1236,
    "व्रा": 1237,
    "व्वा": 1238,
    "व्वू": 1239,
    "व्ह": 1240,
    "व्हें": 1241,
    "व्‍": 1242,
    "वੋ": 1243,
    "व‌": 1244,
    "व‌‌": 1245,
    "व‍": 1246,
    "श": 1247,
    "शं": 1248,
    "शा": 1249,
    "शां": 1250,
    "शाः": 1251,
    "शि": 1252,
    "शी": 1253,
    "शु": 1254,
    "शुः": 1255,
    "शु़": 1256,
    "शू": 1257,
    "शे": 1258,
    "शें": 1259,
    "शै": 1260,
    "शॉ": 1261,
    "शो": 1262,
    "शौ": 1263,
    "श्चि": 1264,
    "श्ते": 1265,
    "श्तों": 1266,
    "श्न": 1267,
    "श्मी": 1268,
    "श्य": 1269,
    "श्या": 1270,
    "श्यो": 1271,
    "श्र": 1272,
    "श्रा": 1273,
    "श्री": 1274,
    "श्रीः": 1275,
    "श्रु": 1276,
    "श्रे": 1277,
    "श्व": 1278,
    "श्वा": 1279,
    "श्वे": 1280,
    "श्शि": 1281,
    "श्‍": 1282,
    "ष": 1283,
    "ष़ि": 1284,
    "षा": 1285,
    "षि": 1286,
    "षी": 1287,
    "षुं": 1288,
    "षे": 1289,
    "ष्का": 1290,
    "ष्ट": 1291,
    "ष्टा": 1292,
    "ष्टी": 1293,
    "ष्ट्र": 1294,
    "ष्ट्रि": 1295,
    "ष्ट्री": 1296,
    "ष्ट्र्र": 1297,
    "ष्ठ": 1298,
    "ष्ठा": 1299,
    "ष्ण": 1300,
    "ष्णा": 1301,
    "ष्णु": 1302,
    "ष्णों": 1303,
    "ष्प": 1304,
    "ष्पा": 1305,
    "ष्पां": 1306,
    "ष्फो": 1307,
    "ष्य": 1308,
    "ष्‍": 1309,
    "ष‌": 1310,
    "स": 1311,
    "सं": 1312,
    "स़": 1313,
    "सा": 1314,
    "सां": 1315,
    "साਂ": 1316,
    "सि": 1317,
    "सिं": 1318,
    "सी": 1319,
    "सीं": 1320,
    "सी‍": 1321,
    "सु": 1322,
    "सुं": 1323,
    "सू": 1324,
    "सृ": 1325,
    "सॆ": 1326,
    "से": 1327,
    "सें": 1328,
    "सेॆ": 1329,
    "सेे": 1330,
    "से‍": 1331,
    "सै": 1332,
    "सैं": 1333,
    "सॉ": 1334,
    "सो": 1335,
    "सौ": 1336,
    "स्": 1337,
    "स्ं": 1338,
    "स्क": 1339,
    "स्का": 1340,
    "स्कू": 1341,
    "स्कृ": 1342,
    "स्कॉ": 1343,
    "स्को": 1344,
    "स्क्री": 1345,
    "स्जि": 1346,
    "स्ट": 1347,
    "स्टा": 1348,
    "स्टी": 1349,
    "स्टु": 1350,
    "स्टे": 1351,
    "स्टै": 1352,
    "स्टॉ": 1353,
    "स्टो": 1354,
    "स्ट्रा": 1355,
    "स्ट्रि": 1356,
    "स्ट्री": 1357,
    "स्त": 1358,
    "स्तं": 1359,
    "स्ता": 1360,
    "स्ती": 1361,
    "स्तु": 1362,
    "स्तू": 1363,
    "स्तृ": 1364,
    "स्त्र": 1365,
    "स्त्रा": 1366,
    "स्त्रि": 1367,
    "स्त्री": 1368,
    "स्त्रों": 1369,
    "स्थ": 1370,
    "स्था": 1371,
    "स्थि": 1372,
    "स्थे": 1373,
    "स्थ्य": 1374,
    "स्न्य": 1375,
    "स्प": 1376,
    "स्पि": 1377,
    "स्पे": 1378,
    "स्पो": 1379,
    "स्फो": 1380,
    "स्म": 1381,
    "स्मा": 1382,
    "स्मृ": 1383,
    "स्में": 1384,
    "स्य": 1385,
    "स्या": 1386,
    "स्र": 1387,
    "स्ला": 1388,
    "स्लि": 1389,
    "स्ली": 1390,
    "स्ले": 1391,
    "स्व": 1392,
    "स्वं": 1393,
    "स्वा": 1394,
    "स्वी": 1395,
    "स्सी": 1396,
    "स्‌": 1397,
    "स्‍": 1398,
    "स‍": 1399,
    "स‍ी": 1400,
    "स‍े": 1401,
    "ह": 1402,
    "हँ": 1403,
    "हं": 1404,
    "हः": 1405,
    "हा": 1406,
    "हाँ": 1407,
    "हां": 1408,
    "हाॅ": 1409,
    "हाे": 1410,
    "हा॓": 1411,
    "हा‌": 1412,
    "हा‍": 1413,
    "हि": 1414,
    "हिं": 1415,
    "हि‍": 1416,
    "ही": 1417,
    "हीं": 1418,
    "ही‍": 1419,
    "हु": 1420,
    "हुँ": 1421,
    "हू": 1422,
    "हूँ": 1423,
    "हृ": 1424,
    "हे": 1425,
    "हें": 1426,
    "हेै": 1427,
    "है": 1428,
    "हैं": 1429,
    "हैे": 1430,
    "है॑": 1431,
    "है॓": 1432,
    "है‍": 1433,
    "हॉ": 1434,
    "हो": 1435,
    "हों": 1436,
    "हो‍": 1437,
    "हौ": 1438,
    "ह्त": 1439,
    "ह्म": 1440,
    "ह‌ी": 1441,
    "ऽ": 1442,
    "ां": 1443,
    "ॐ": 1444,
    "ज़": 1445,
    "ड़ा": 1446,
    "ढ़": 1447,
    "।": 1448,
    "।‍": 1449,
    "॥": 1450,
    "०": 1451,
    "०ा": 1452,
    "१": 1453,
    "१ः": 1454,
    "२": 1455,
    "३": 1456,
    "४": 1457,
    "५": 1458,
    "५ां": 1459,
    "६": 1460,
    "६ः": 1461,
    "७": 1462,
    "७ि": 1463,
    "८": 1464,
    "९": 1465,
    "॰": 1466,
    "ॱ": 1467,
    "ॲ": 1468,
    "ਲੀ": 1469,
    "૧": 1470,
    "​": 1471,
    "“": 1472,
    "₹": 1473
  },
  "metadata": {
    "lang": "hindi",
    "source_splits": "florence2_splits_synth_hindi_full.json",
    "num_graphemes": 1472,
    "segmenter": "indic-generic (Mn/Mc + virama-join)"
  }
}