{
  "grapheme2idx": {
    "<blank>": 0,
    "<unk>": 1,
    " ‌": 2,
    "!": 3,
    "\"": 4,
    "&": 5,
    "'": 6,
    "(": 7,
    ")": 8,
    ",": 9,
    "-": 10,
    ".": 11,
    "/": 12,
    "0": 13,
    "1": 14,
    "2": 15,
    "3": 16,
    "3ः": 17,
    "4": 18,
    "5": 19,
    "6": 20,
    "7": 21,
    "8": 22,
    "9": 23,
    ":": 24,
    "?": 25,
    "A": 26,
    "D": 27,
    "E": 28,
    "G": 29,
    "H": 30,
    "I": 31,
    "L": 32,
    "N": 33,
    "O": 34,
    "P": 35,
    "U": 36,
    "V": 37,
    "W": 38,
    "c": 39,
    "|": 40,
    "°": 41,
    "अ": 42,
    "अं": 43,
    "अे": 44,
    "अ्या": 45,
    "अ॰": 46,
    "अॱ": 47,
    "आ": 48,
    "आं": 49,
    "आा्": 50,
    "इ": 51,
    "इँ": 52,
    "इं": 53,
    "इ॰": 54,
    "इॱ": 55,
    "ई": 56,
    "उ": 57,
    "उं": 58,
    "उाि": 59,
    "उॱ": 60,
    "ऊ": 61,
    "ऊा्": 62,
    "ऋ": 63,
    "ऎ": 64,
    "ऎं": 65,
    "ऎ‍": 66,
    "ए": 67,
    "एँ": 68,
    "ऐ": 69,
    "ऐं": 70,
    "ऑ": 71,
    "ऒ": 72,
    "ऒा्क्स्": 73,
    "ऒ‌": 74,
    "ओ": 75,
    "ओँ": 76,
    "ओं": 77,
    "ओ्बा": 78,
    "औ": 79,
    "क": 80,
    "कं": 81,
    "कं‌": 82,
    "कः": 83,
    "का": 84,
    "कां": 85,
    "काुं": 86,
    "काे": 87,
    "का्": 88,
    "कि": 89,
    "किं": 90,
    "किाि": 91,
    "की": 92,
    "कु": 93,
    "कु॰": 94,
    "कू": 95,
    "कृ": 96,
    "कॆ": 97,
    "कॆं": 98,
    "के": 99,
    "केा": 100,
    "केा्": 101,
    "केॆ्टा": 102,
    "कै": 103,
    "कॊ": 104,
    "कॊं": 105,
    "कॊॕ": 106,
    "को": 107,
    "कोँ": 108,
    "कों": 109,
    "कों‌": 110,
    "कौ": 111,
    "क्": 112,
    "क्ए": 113,
    "क्क": 114,
    "क्कं": 115,
    "क्का": 116,
    "क्कि": 117,
    "क्कु": 118,
    "क्कुं": 119,
    "क्कू": 120,
    "क्कॆ": 121,
    "क्के": 122,
    "क्कॊ": 123,
    "क्को": 124,
    "क्क्": 125,
    "क्क्‌": 126,
    "क्कॗ": 127,
    "क्ट": 128,
    "क्टा्": 129,
    "क्टो": 130,
    "क्ट्रि": 131,
    "क्त": 132,
    "क्ति": 133,
    "क्ते": 134,
    "क्नो": 135,
    "क्य": 136,
    "क्या": 137,
    "क्यू": 138,
    "क्र": 139,
    "क्रा": 140,
    "क्रि": 141,
    "क्री": 142,
    "क्रे": 143,
    "क्ळे": 144,
    "क्वॆ": 145,
    "क्श": 146,
    "क्ष": 147,
    "क्षा": 148,
    "क्षि": 149,
    "क्षिं": 150,
    "क्षी": 151,
    "क्षुः": 152,
    "क्षॆ": 153,
    "क्षे": 154,
    "क्षो": 155,
    "क्ष्मि": 156,
    "क्ष्मिॕ": 157,
    "क्ष्मी": 158,
    "क्ष्य": 159,
    "क्स": 160,
    "क्स्": 161,
    "क्य़ा": 162,
    "क्॰": 163,
    "क्॰ा": 164,
    "क्॰े": 165,
    "क्‌": 166,
    "क॰": 167,
    "क‌": 168,
    "ख": 169,
    "खा": 170,
    "खाँ": 171,
    "खि": 172,
    "खी": 173,
    "खु": 174,
    "खू": 175,
    "खॆ": 176,
    "खे": 177,
    "खै": 178,
    "खो": 179,
    "ख्य": 180,
    "ख्यु": 181,
    "ख्यॆ": 182,
    "ख्री": 183,
    "ख्रीः": 184,
    "ग": 185,
    "गं": 186,
    "गा": 187,
    "गां": 188,
    "गि": 189,
    "गी": 190,
    "गु": 191,
    "गुं": 192,
    "गुः": 193,
    "गू": 194,
    "गृ": 195,
    "गॆ": 196,
    "गे": 197,
    "गै": 198,
    "गॊ": 199,
    "गॊं": 200,
    "गो": 201,
    "गों": 202,
    "गौ": 203,
    "ग्": 204,
    "ग्ई": 205,
    "ग्ग": 206,
    "ग्गॆ": 207,
    "ग्धा": 208,
    "ग्ना": 209,
    "ग्नि": 210,
    "ग्भ": 211,
    "ग्य": 212,
    "ग्या": 213,
    "ग्ये": 214,
    "ग्र": 215,
    "ग्रं": 216,
    "ग्रा": 217,
    "ग्रि": 218,
    "ग्री": 219,
    "ग्रू": 220,
    "ग्रे": 221,
    "ग्ला": 222,
    "ग्लां": 223,
    "ग्ली": 224,
    "ग्ष": 225,
    "ग्स": 226,
    "ग्य़ा": 227,
    "ग्॰ु": 228,
    "घ": 229,
    "घा": 230,
    "घां": 231,
    "घु": 232,
    "घे": 233,
    "घो": 234,
    "घौ": 235,
    "घ्र": 236,
    "ङ": 237,
    "ङा": 238,
    "ङि": 239,
    "ङे": 240,
    "ङ्": 241,
    "ङ्क": 242,
    "ङ्का": 243,
    "ङ्कि": 244,
    "ङ्कु": 245,
    "ङ्के": 246,
    "ङ्कै": 247,
    "ङ्को": 248,
    "ङ्क्": 249,
    "ङ्क्षा": 250,
    "ङ्ग": 251,
    "ङ्गा": 252,
    "ङ्गु": 253,
    "ङ्गे": 254,
    "ङ्गो": 255,
    "ङ्घ": 256,
    "ङ्ङ": 257,
    "ङ्ङा": 258,
    "ङ्ङि": 259,
    "ङ्ङो": 260,
    "ङ्ङों": 261,
    "ङ्चा": 262,
    "ङ्ट": 263,
    "ङ्ष": 264,
    "च": 265,
    "चं": 266,
    "चा": 267,
    "चा्": 268,
    "चा्जि": 269,
    "चा्व": 270,
    "चि": 271,
    "ची": 272,
    "चु": 273,
    "चू": 274,
    "चॆ": 275,
    "चे": 276,
    "चें": 277,
    "चै": 278,
    "चॉ": 279,
    "चॊ": 280,
    "चो": 281,
    "चों": 282,
    "चौ": 283,
    "च्": 284,
    "च्च": 285,
    "च्चं": 286,
    "च्चा": 287,
    "च्चि": 288,
    "च्ची": 289,
    "च्चूा्": 290,
    "च्चे": 291,
    "च्चेाि": 292,
    "च्च्": 293,
    "च्छ": 294,
    "च्छा": 295,
    "च्छे": 296,
    "च्य": 297,
    "च्यु": 298,
    "च्र": 299,
    "च्य़ु": 300,
    "च॑": 301,
    "चॖे": 302,
    "च॰": 303,
    "छ": 304,
    "छा": 305,
    "छि": 306,
    "छु": 307,
    "छे": 308,
    "छें": 309,
    "छो": 310,
    "छोँ": 311,
    "ज": 312,
    "जं": 313,
    "ज़": 314,
    "जा": 315,
    "जा्": 316,
    "जि": 317,
    "जिं": 318,
    "जिॱ": 319,
    "जी": 320,
    "जु": 321,
    "जुॱ": 322,
    "जू": 323,
    "जॆ": 324,
    "जे": 325,
    "जें": 326,
    "जै": 327,
    "जो": 328,
    "ज्": 329,
    "ज्जं": 330,
    "ज्ज्": 331,
    "ज्ञ": 332,
    "ज्ञा": 333,
    "ज्ञी": 334,
    "ज्न": 335,
    "ज्ब": 336,
    "ज्य": 337,
    "ज्यु": 338,
    "ज्यू": 339,
    "ज्यो": 340,
    "ज्य़": 341,
    "ज॰": 342,
    "झ": 343,
    "झा": 344,
    "झि": 345,
    "झु": 346,
    "झे": 347,
    "झॉ": 348,
    "ञ": 349,
    "ञा": 350,
    "ञा्": 351,
    "ञ्च": 352,
    "ञ्चा": 353,
    "ञ्चि": 354,
    "ञ्ज": 355,
    "ञ्जा": 356,
    "ञ्जि": 357,
    "ञ्जी": 358,
    "ञ्ञ": 359,
    "ञ्ञा": 360,
    "ञ्ञि": 361,
    "ट": 362,
    "टं": 363,
    "टा": 364,
    "टाा": 365,
    "टि": 366,
    "टिं": 367,
    "टिॱ": 368,
    "टी": 369,
    "टु": 370,
    "टुं": 371,
    "टू": 372,
    "टॆ": 373,
    "टॆं": 374,
    "टे": 375,
    "टे्नि": 376,
    "टै": 377,
    "टो": 378,
    "टों": 379,
    "टोाि": 380,
    "टौ": 381,
    "ट्": 382,
    "ट्क": 383,
    "ट्ङ": 384,
    "ट्च": 385,
    "ट्चाा्च्च": 386,
    "ट्चि": 387,
    "ट्ट": 388,
    "ट्टा": 389,
    "ट्टाा्": 390,
    "ट्टि": 391,
    "ट्टी": 392,
    "ट्टु": 393,
    "ट्टुं": 394,
    "ट्टॆ": 395,
    "ट्टै": 396,
    "ट्टो": 397,
    "ट्ट्": 398,
    "ट्नं": 399,
    "ट्प": 400,
    "ट्य": 401,
    "ट्यू": 402,
    "ट्र": 403,
    "ट्रा": 404,
    "ट्रि": 405,
    "ट्रॆ": 406,
    "ट्रे": 407,
    "ट्रो": 408,
    "ट्र्या": 409,
    "ट्ल": 410,
    "ट्लि": 411,
    "ट्लु": 412,
    "ट्श्री": 413,
    "ट्स्": 414,
    "ट्॰": 415,
    "ट्‌": 416,
    "टॗ": 417,
    "ठ": 418,
    "ठा": 419,
    "ठां": 420,
    "ठि": 421,
    "ठि॰": 422,
    "ठी": 423,
    "ठु": 424,
    "ठो": 425,
    "ठ॰": 426,
    "ड": 427,
    "डं": 428,
    "ड़": 429,
    "ड़ा": 430,
    "ड़ि": 431,
    "ड़ी": 432,
    "ड़े": 433,
    "डा": 434,
    "डां": 435,
    "डाः": 436,
    "डि": 437,
    "डिं": 438,
    "डी": 439,
    "डीं": 440,
    "डु": 441,
    "डू": 442,
    "डॆ": 443,
    "डॆं": 444,
    "डे": 445,
    "डै": 446,
    "डो": 447,
    "ड्": 448,
    "ड्क": 449,
    "ड्ड": 450,
    "ड्डि": 451,
    "ड्डु": 452,
    "ड्यं": 453,
    "ड्रा": 454,
    "ड्रि": 455,
    "ड्वु": 456,
    "ड्‌": 457,
    "ढ": 458,
    "ढ़ि": 459,
    "ढ़ी": 460,
    "ढा": 461,
    "ढे": 462,
    "ण": 463,
    "णं": 464,
    "णा": 465,
    "णाः": 466,
    "णि": 467,
    "णी": 468,
    "णु": 469,
    "णू": 470,
    "णॆ": 471,
    "णे": 472,
    "णै": 473,
    "णो": 474,
    "ण्": 475,
    "ण्क": 476,
    "ण्का": 477,
    "ण्कॊ": 478,
    "ण्ट": 479,
    "ण्टं": 480,
    "ण्टा": 481,
    "ण्टि": 482,
    "ण्टु": 483,
    "ण्टू": 484,
    "ण्टॆ": 485,
    "ण्ट्": 486,
    "ण्ट्लू": 487,
    "ण्ट्स्": 488,
    "ण्ठु": 489,
    "ण्ड": 490,
    "ण्डा": 491,
    "ण्डि": 492,
    "ण्ण": 493,
    "ण्णा": 494,
    "ण्णि": 495,
    "ण्णु": 496,
    "ण्णू": 497,
    "ण्णूा्": 498,
    "ण्त": 499,
    "ण्ता": 500,
    "ण्ति": 501,
    "ण्पु": 502,
    "ण्मै": 503,
    "ण्य": 504,
    "ण्या": 505,
    "ण्रा": 506,
    "ण्‌": 507,
    "त": 508,
    "तं": 509,
    "तः": 510,
    "त़": 511,
    "त़ि": 512,
    "ता": 513,
    "ताँ": 514,
    "तां": 515,
    "ता्": 516,
    "ता्का": 517,
    "ति": 518,
    "तिं": 519,
    "तिाि": 520,
    "ति॰": 521,
    "ती": 522,
    "तु": 523,
    "तू": 524,
    "तूा्": 525,
    "तृ": 526,
    "तॆ": 527,
    "तॆॆ": 528,
    "तॆ्र्र": 529,
    "ते": 530,
    "तें": 531,
    "तै": 532,
    "तॊ": 533,
    "तो": 534,
    "तों": 535,
    "त्": 536,
    "त्क": 537,
    "त्का": 538,
    "त्कृ": 539,
    "त्त": 540,
    "त्ता": 541,
    "त्ताा्": 542,
    "त्ति": 543,
    "त्ती": 544,
    "त्तु": 545,
    "त्तू": 546,
    "त्तॆ": 547,
    "त्तै": 548,
    "त्तॊ": 549,
    "त्तो": 550,
    "त्तोि": 551,
    "त्त्": 552,
    "त्त्प": 553,
    "त्त्‌": 554,
    "त्थि": 555,
    "त्पा": 556,
    "त्ब": 557,
    "त्बे": 558,
    "त्भ": 559,
    "त्म": 560,
    "त्मा": 561,
    "त्य": 562,
    "त्या": 563,
    "त्यु": 564,
    "त्र": 565,
    "त्रं": 566,
    "त्रं‌": 567,
    "त्रा": 568,
    "त्रि": 569,
    "त्री": 570,
    "त्रॆ": 571,
    "त्रे": 572,
    "त्र्य": 573,
    "त्व": 574,
    "त्स": 575,
    "त्सा": 576,
    "त्य़ु": 577,
    "त्य़े": 578,
    "त्॰": 579,
    "त्‌": 580,
    "त॰": 581,
    "तॱ": 582,
    "थ": 583,
    "था": 584,
    "थि": 585,
    "थी": 586,
    "थु": 587,
    "थू": 588,
    "थृ": 589,
    "थे": 590,
    "थै": 591,
    "थो": 592,
    "थ्य": 593,
    "थ॰": 594,
    "द": 595,
    "दं": 596,
    "दा": 597,
    "दि": 598,
    "दि॰": 599,
    "दी": 600,
    "दी्": 601,
    "दु": 602,
    "दुि": 603,
    "दू": 604,
    "दृ": 605,
    "दॆ": 606,
    "दे": 607,
    "दॊ": 608,
    "दो": 609,
    "दौ": 610,
    "द्": 611,
    "द्गु": 612,
    "द्घा": 613,
    "द्द": 614,
    "द्दा": 615,
    "द्दि": 616,
    "द्दी": 617,
    "द्दू": 618,
    "द्ध": 619,
    "द्धा": 620,
    "द्धि": 621,
    "द्ध्फि": 622,
    "द्ध्यं": 623,
    "द्ब": 624,
    "द्बा": 625,
    "द्बि": 626,
    "द्बी": 627,
    "द्बो": 628,
    "द्म": 629,
    "द्मा": 630,
    "द्य": 631,
    "द्या": 632,
    "द्यो": 633,
    "द्र": 634,
    "द्रा": 635,
    "द्रि": 636,
    "द्री": 637,
    "द्रु": 638,
    "द्ळु": 639,
    "द्वा": 640,
    "द्य़": 641,
    "द्य़ा": 642,
    "द्॰": 643,
    "द्‌": 644,
    "ध": 645,
    "धं": 646,
    "धा": 647,
    "धि": 648,
    "धी": 649,
    "धु": 650,
    "धू": 651,
    "धे": 652,
    "धो": 653,
    "धौ": 654,
    "ध्ब": 655,
    "ध्य": 656,
    "ध्या": 657,
    "ध्र": 658,
    "ध्व": 659,
    "ध्य़": 660,
    "न": 661,
    "नं": 662,
    "ना": 663,
    "नाँ": 664,
    "नां": 665,
    "नाि": 666,
    "नि": 667,
    "निं": 668,
    "नी": 669,
    "नीा्": 670,
    "नु": 671,
    "नुं": 672,
    "नू": 673,
    "नू॰": 674,
    "नॆ": 675,
    "ने": 676,
    "नै": 677,
    "नॊ": 678,
    "नो": 679,
    "नौ": 680,
    "न्": 681,
    "न्क": 682,
    "न्जी": 683,
    "न्ट": 684,
    "न्टा": 685,
    "न्टे": 686,
    "न्ट्रा": 687,
    "न्ड": 688,
    "न्डि": 689,
    "न्डे": 690,
    "न्त": 691,
    "न्ता": 692,
    "न्ति": 693,
    "न्ती": 694,
    "न्तु": 695,
    "न्तूा्पे": 696,
    "न्ते": 697,
    "न्तै": 698,
    "न्तो": 699,
    "न्त्": 700,
    "न्त्र": 701,
    "न्त्रि": 702,
    "न्त्री": 703,
    "न्त्॰ा": 704,
    "न्त्॰ि": 705,
    "न्त्॰ी": 706,
    "न्थ": 707,
    "न्था": 708,
    "न्द": 709,
    "न्दा": 710,
    "न्दि": 711,
    "न्दु": 712,
    "न्दे": 713,
    "न्दो": 714,
    "न्द्द": 715,
    "न्द्यो": 716,
    "न्द्र": 717,
    "न्द्रं": 718,
    "न्द्रा": 719,
    "न्द्र्र": 720,
    "न्द्॰": 721,
    "न्द्॰ी": 722,
    "न्ध": 723,
    "न्धं": 724,
    "न्धा": 725,
    "न्धि": 726,
    "न्धी": 727,
    "न्न": 728,
    "न्नं": 729,
    "न्ना": 730,
    "न्नि": 731,
    "न्नु": 732,
    "न्नुं": 733,
    "न्नू": 734,
    "न्ब": 735,
    "न्म": 736,
    "न्मे": 737,
    "न्मो": 738,
    "न्म्र": 739,
    "न्य": 740,
    "न्या": 741,
    "न्यू": 742,
    "न्ये": 743,
    "न्ऱॆ": 744,
    "न्ष": 745,
    "न्स": 746,
    "न्सा": 747,
    "न्सि": 748,
    "न्सी": 749,
    "न्सू": 750,
    "न्से": 751,
    "न्स्": 752,
    "न्स्टि": 753,
    "न्स्टी": 754,
    "न्ह": 755,
    "न्य़": 756,
    "न्‌": 757,
    "न॰": 758,
    "न॰ः": 759,
    "ऩ": 760,
    "ऩा": 761,
    "ऩा्क": 762,
    "ऩि": 763,
    "ऩी": 764,
    "ऩु": 765,
    "ऩू": 766,
    "ऩूा्": 767,
    "ऩे": 768,
    "ऩै": 769,
    "ऩ्": 770,
    "ऩ्ऩ": 771,
    "ऩ्ऩि": 772,
    "ऩ्ऩै": 773,
    "ऩ्ऩो": 774,
    "ऩ्प": 775,
    "ऩ्ऱ": 776,
    "ऩ्ऱु": 777,
    "ऩ्ऱॆ": 778,
    "ऩ्सी": 779,
    "प": 780,
    "पं": 781,
    "पा": 782,
    "पाँ": 783,
    "पा्": 784,
    "पा्टि": 785,
    "पि": 786,
    "पिं": 787,
    "पिा": 788,
    "पी": 789,
    "पु": 790,
    "पु॰": 791,
    "पू": 792,
    "पूाि": 793,
    "पृ": 794,
    "पॆ": 795,
    "पॆं": 796,
    "पे": 797,
    "पें": 798,
    "पेा": 799,
    "पै": 800,
    "पैं": 801,
    "पॊ": 802,
    "पो": 803,
    "पौ": 804,
    "प्": 805,
    "प्टॆ": 806,
    "प्ण": 807,
    "प्त": 808,
    "प्ति": 809,
    "प्न": 810,
    "प्प": 811,
    "प्पं": 812,
    "प्पा": 813,
    "प्पि": 814,
    "प्पिं": 815,
    "प्पी": 816,
    "प्पु": 817,
    "प्पू": 818,
    "प्पॆ": 819,
    "प्पे": 820,
    "प्पॊ": 821,
    "प्पो": 822,
    "प्प्": 823,
    "प्प्मू": 824,
    "प्प्‌": 825,
    "प्या": 826,
    "प्र": 827,
    "प्रा": 828,
    "प्राः": 829,
    "प्रि": 830,
    "प्री": 831,
    "प्रे": 832,
    "प्रै": 833,
    "प्ल": 834,
    "प्ला": 835,
    "प्ले": 836,
    "प्लै": 837,
    "प्व": 838,
    "प्स्": 839,
    "प्॰": 840,
    "प्॰ि": 841,
    "प॰": 842,
    "पॱ": 843,
    "फ": 844,
    "फ़": 845,
    "फा": 846,
    "फि": 847,
    "फी": 848,
    "फु": 849,
    "फॅ": 850,
    "फॆ": 851,
    "फे": 852,
    "फै": 853,
    "फो": 854,
    "फ्": 855,
    "फ्या": 856,
    "फ्ल": 857,
    "फ्॰े": 858,
    "ब": 859,
    "बँ": 860,
    "बं": 861,
    "बा": 862,
    "बां": 863,
    "बि": 864,
    "बिं": 865,
    "बि॰": 866,
    "बी": 867,
    "बु": 868,
    "बू": 869,
    "बृ": 870,
    "बॅ": 871,
    "बॆ": 872,
    "बॆं": 873,
    "बे": 874,
    "बें": 875,
    "बै": 876,
    "बैं": 877,
    "बॊ": 878,
    "बो": 879,
    "बौ": 880,
    "ब्थ": 881,
    "ब्द": 882,
    "ब्दी": 883,
    "ब्ध": 884,
    "ब्ब": 885,
    "ब्बा": 886,
    "ब्य": 887,
    "ब्या": 888,
    "ब्यां": 889,
    "ब्यु": 890,
    "ब्यू": 891,
    "ब्र": 892,
    "ब्रि": 893,
    "ब्रु": 894,
    "ब्रे": 895,
    "ब्ल": 896,
    "ब्लु": 897,
    "ब्लो": 898,
    "ब्य़ा": 899,
    "ब्॰ु": 900,
    "ब्‍": 901,
    "ब॰": 902,
    "बॱ": 903,
    "भ": 904,
    "भं": 905,
    "भा": 906,
    "भि": 907,
    "भु": 908,
    "भुॱ": 909,
    "भू": 910,
    "भृ": 911,
    "भे": 912,
    "भै": 913,
    "भो": 914,
    "भ्या": 915,
    "भ्र": 916,
    "भ॰": 917,
    "म": 918,
    "मं": 919,
    "मः": 920,
    "मा": 921,
    "मां": 922,
    "मि": 923,
    "मि्त": 924,
    "मी": 925,
    "मु": 926,
    "मुं": 927,
    "मुॱ": 928,
    "मू": 929,
    "मृ": 930,
    "मॆ": 931,
    "मॆं": 932,
    "मे": 933,
    "में": 934,
    "मै": 935,
    "मैं": 936,
    "मॉ": 937,
    "मॊ": 938,
    "मो": 939,
    "मौ": 940,
    "म्": 941,
    "म्A": 942,
    "म्इ": 943,
    "म्को": 944,
    "म्ट": 945,
    "म्प": 946,
    "म्पा": 947,
    "म्पा्": 948,
    "म्पि": 949,
    "म्पु": 950,
    "म्पू": 951,
    "म्पूा्": 952,
    "म्पो": 953,
    "म्प्": 954,
    "म्प्यु": 955,
    "म्प्॰": 956,
    "म्ब": 957,
    "म्बा": 958,
    "म्बि": 959,
    "म्बे": 960,
    "म्ब्न": 961,
    "म्भ": 962,
    "म्भा": 963,
    "म्भु": 964,
    "म्म": 965,
    "म्मा": 966,
    "म्मि": 967,
    "म्मे": 968,
    "म्मै": 969,
    "म्म्न": 970,
    "म्य": 971,
    "म्या": 972,
    "म्र": 973,
    "म्रि": 974,
    "म्श": 975,
    "म्य़": 976,
    "म्॰ा": 977,
    "म्‌": 978,
    "म॰": 979,
    "य": 980,
    "यं": 981,
    "य़": 982,
    "य़ा": 983,
    "य़े": 984,
    "या": 985,
    "यां": 986,
    "याा्": 987,
    "या्": 988,
    "यि": 989,
    "यी": 990,
    "यु": 991,
    "युं": 992,
    "यू": 993,
    "यूः": 994,
    "ये": 995,
    "यै": 996,
    "यॊ": 997,
    "यो": 998,
    "य्": 999,
    "य्क्कु": 1000,
    "य्त": 1001,
    "य्न्त": 1002,
    "य्म": 1003,
    "य्मा": 1004,
    "य्मै": 1005,
    "य्य": 1006,
    "य्या्": 1007,
    "य्यु": 1008,
    "य्यो": 1009,
    "य्व": 1010,
    "य्वि": 1011,
    "य्वु": 1012,
    "य्स्री": 1013,
    "य्य़ा": 1014,
    "य्‌": 1015,
    "यॖ": 1016,
    "र": 1017,
    "रं": 1018,
    "रा": 1019,
    "रां": 1020,
    "रा्": 1021,
    "रि": 1022,
    "रिं": 1023,
    "रिा": 1024,
    "रि॰": 1025,
    "री": 1026,
    "रीं": 1027,
    "रीु": 1028,
    "रु": 1029,
    "रुं": 1030,
    "रुॱ": 1031,
    "रु‍": 1032,
    "रू": 1033,
    "रूा्": 1034,
    "रॆ": 1035,
    "रे": 1036,
    "रें": 1037,
    "रै": 1038,
    "रॊ": 1039,
    "रो": 1040,
    "र्": 1041,
    "र्क": 1042,
    "र्का": 1043,
    "र्किं": 1044,
    "र्कॆ": 1045,
    "र्के": 1046,
    "र्ग": 1047,
    "र्गा": 1048,
    "र्च": 1049,
    "र्चा": 1050,
    "र्चि": 1051,
    "र्चु": 1052,
    "र्ज": 1053,
    "र्ज़": 1054,
    "र्जि": 1055,
    "र्जी": 1056,
    "र्जु": 1057,
    "र्ट": 1058,
    "र्टि": 1059,
    "र्टी": 1060,
    "र्ट्": 1061,
    "र्ट्स": 1062,
    "र्ट्स्": 1063,
    "र्ड": 1064,
    "र्डा": 1065,
    "र्डी": 1066,
    "र्ड्": 1067,
    "र्ण": 1068,
    "र्णा": 1069,
    "र्ण्णा": 1070,
    "र्ण्न": 1071,
    "र्त": 1072,
    "र्ति": 1073,
    "र्ती": 1074,
    "र्तु": 1075,
    "र्तू": 1076,
    "र्ते": 1077,
    "र्थ": 1078,
    "र्थं": 1079,
    "र्थि": 1080,
    "र्थी": 1081,
    "र्दि": 1082,
    "र्दु": 1083,
    "र्दे": 1084,
    "र्ध": 1085,
    "र्न": 1086,
    "र्ना": 1087,
    "र्नी": 1088,
    "र्नू": 1089,
    "र्प": 1090,
    "र्पा": 1091,
    "र्पि": 1092,
    "र्पे": 1093,
    "र्पॊ": 1094,
    "र्पो": 1095,
    "र्ब": 1096,
    "र्बा": 1097,
    "र्बि": 1098,
    "र्ब्ब": 1099,
    "र्भ": 1100,
    "र्भा": 1101,
    "र्म": 1102,
    "र्मा": 1103,
    "र्मि": 1104,
    "र्मु": 1105,
    "र्मे": 1106,
    "र्य": 1107,
    "र्या": 1108,
    "र्य्य": 1109,
    "र्य्या": 1110,
    "र्य्य़": 1111,
    "र्य्य़ा": 1112,
    "र्र": 1113,
    "र्ल": 1114,
    "र्लु": 1115,
    "र्व": 1116,
    "र्वे": 1117,
    "र्वो": 1118,
    "र्श": 1119,
    "र्शि": 1120,
    "र्ष": 1121,
    "र्षा": 1122,
    "र्षि": 1123,
    "र्स": 1124,
    "र्सि": 1125,
    "र्स्": 1126,
    "रॕ": 1127,
    "र॰": 1128,
    "रॱ": 1129,
    "र‌": 1130,
    "ऱ": 1131,
    "ऱं": 1132,
    "ऱा": 1133,
    "ऱि": 1134,
    "ऱिं": 1135,
    "ऱी": 1136,
    "ऱु": 1137,
    "ऱू": 1138,
    "ऱॆ": 1139,
    "ऱे": 1140,
    "ऱै": 1141,
    "ऱो": 1142,
    "ऱ्क": 1143,
    "ऱ्का": 1144,
    "ऱ्कु": 1145,
    "ऱ्कै": 1146,
    "ऱ्चि": 1147,
    "ऱ्प": 1148,
    "ऱ्पू": 1149,
    "ऱ्ऱ": 1150,
    "ऱ्ऱं": 1151,
    "ऱ्ऱा": 1152,
    "ऱ्ऱि": 1153,
    "ऱ्ऱु": 1154,
    "ऱ्ऱे": 1155,
    "ऱ्ऱो": 1156,
    "ऱ्ऱ्": 1157,
    "ऱ्ऱ्यू": 1158,
    "ऱ्ऱ्ऱ्‌": 1159,
    "ल": 1160,
    "लं": 1161,
    "ला": 1162,
    "लां": 1163,
    "ला्क": 1164,
    "लि": 1165,
    "लिं": 1166,
    "ली": 1167,
    "लु": 1168,
    "लुं": 1169,
    "लू": 1170,
    "लूा्": 1171,
    "लॆ": 1172,
    "लॆं": 1173,
    "ले": 1174,
    "लै": 1175,
    "लो": 1176,
    "लोँ": 1177,
    "लौ": 1178,
    "ल्": 1179,
    "ल्ऎ": 1180,
    "ल्क": 1181,
    "ल्की": 1182,
    "ल्कु": 1183,
    "ल्कै": 1184,
    "ल्क्कु": 1185,
    "ल्क्स्": 1186,
    "ल्गू": 1187,
    "ल्ट": 1188,
    "ल्टे": 1189,
    "ल्ट्": 1190,
    "ल्ट्रा": 1191,
    "ल्ड": 1192,
    "ल्डी": 1193,
    "ल्ड्": 1194,
    "ल्ड्र": 1195,
    "ल्ड्री": 1196,
    "ल्द": 1197,
    "ल्दा": 1198,
    "ल्न": 1199,
    "ल्प": 1200,
    "ल्पु": 1201,
    "ल्पॊ": 1202,
    "ल्म": 1203,
    "ल्य": 1204,
    "ल्या": 1205,
    "ल्ल": 1206,
    "ल्लं": 1207,
    "ल्ला": 1208,
    "ल्ला‍": 1209,
    "ल्लि": 1210,
    "ल्लु": 1211,
    "ल्लू": 1212,
    "ल्लूाि": 1213,
    "ल्लॆ": 1214,
    "ल्ले": 1215,
    "ल्लै": 1216,
    "ल्ल्": 1217,
    "ल्वि": 1218,
    "ल्वॆ": 1219,
    "ल्वे": 1220,
    "ल्स": 1221,
    "ल्स्": 1222,
    "ल्हा": 1223,
    "ल्‌": 1224,
    "ल॰": 1225,
    "लॱ": 1226,
    "ळ": 1227,
    "ळं": 1228,
    "ळा": 1229,
    "ळां": 1230,
    "ळा्": 1231,
    "ळि": 1232,
    "ळी": 1233,
    "ळु": 1234,
    "ळुं": 1235,
    "ळू": 1236,
    "ळॆ": 1237,
    "ळे": 1238,
    "ळै": 1239,
    "ळो": 1240,
    "ळ्": 1241,
    "ळ्ट": 1242,
    "ळ्प": 1243,
    "ळ्मि": 1244,
    "ळ्मी": 1245,
    "ळ्ळ": 1246,
    "ळ्ळा": 1247,
    "ळ्ळि": 1248,
    "ळ्ळु": 1249,
    "ळ‍": 1250,
    "ऴ": 1251,
    "ऴा": 1252,
    "ऴि": 1253,
    "ऴु": 1254,
    "ऴेां": 1255,
    "ऴै": 1256,
    "ऴ्": 1257,
    "ऴ्क": 1258,
    "ऴ्चॆ": 1259,
    "ऴ्न": 1260,
    "ऴ्ना": 1261,
    "ऴ्स्": 1262,
    "ऴ्‌": 1263,
    "व": 1264,
    "वं": 1265,
    "वः": 1266,
    "वा": 1267,
    "वां": 1268,
    "वा्": 1269,
    "वि": 1270,
    "विं": 1271,
    "विॱ": 1272,
    "वी": 1273,
    "वीः": 1274,
    "वीा्": 1275,
    "वु": 1276,
    "वुं": 1277,
    "वू": 1278,
    "वृ": 1279,
    "वॅ": 1280,
    "वॆ": 1281,
    "वॆं": 1282,
    "वे": 1283,
    "वेा्ल्टु": 1284,
    "वै": 1285,
    "वॉ": 1286,
    "वो": 1287,
    "व्": 1288,
    "व्य": 1289,
    "व्या": 1290,
    "व्युं": 1291,
    "व्र": 1292,
    "व्व": 1293,
    "व्वं": 1294,
    "व्वी": 1295,
    "व्वॆं": 1296,
    "व्वे": 1297,
    "व्ह": 1298,
    "व्‌": 1299,
    "व॰": 1300,
    "वॱ": 1301,
    "व‌": 1302,
    "श": 1303,
    "शं": 1304,
    "शा": 1305,
    "शि": 1306,
    "शी": 1307,
    "शीू": 1308,
    "शु": 1309,
    "शू": 1310,
    "शे": 1311,
    "शै": 1312,
    "शो": 1313,
    "शौ": 1314,
    "श्": 1315,
    "श्च": 1316,
    "श्चि": 1317,
    "श्ब": 1318,
    "श्य": 1319,
    "श्र": 1320,
    "श्रा": 1321,
    "श्रि": 1322,
    "श्री": 1323,
    "श्रु": 1324,
    "श्व": 1325,
    "श्वा": 1326,
    "श्श": 1327,
    "श्शि": 1328,
    "श्ष": 1329,
    "श्स": 1330,
    "श्॰ी": 1331,
    "श्ॱ": 1332,
    "शॗ": 1333,
    "ष": 1334,
    "षं": 1335,
    "षा": 1336,
    "षि": 1337,
    "षी": 1338,
    "षु": 1339,
    "षू": 1340,
    "षे": 1341,
    "षो": 1342,
    "ष्": 1343,
    "ष्क": 1344,
    "ष्कृ": 1345,
    "ष्ट": 1346,
    "ष्टा": 1347,
    "ष्टि": 1348,
    "ष्टु": 1349,
    "ष्टो": 1350,
    "ष्ट्र": 1351,
    "ष्ट्रा": 1352,
    "ष्ट्री": 1353,
    "ष्ट्॰": 1354,
    "ष्ट्॰ी": 1355,
    "ष्ठ": 1356,
    "ष्ठा": 1357,
    "ष्ण": 1358,
    "ष्णा": 1359,
    "ष्ना": 1360,
    "ष्पा": 1361,
    "ष्मॆ": 1362,
    "ष्य": 1363,
    "ष्य़": 1364,
    "ष्‌": 1365,
    "षॢ": 1366,
    "स": 1367,
    "सं": 1368,
    "सः": 1369,
    "स़": 1370,
    "स़ा": 1371,
    "स़ि": 1372,
    "सा": 1373,
    "सां": 1374,
    "सा‍": 1375,
    "सि": 1376,
    "सिं": 1377,
    "सि॰": 1378,
    "सिॱ": 1379,
    "सी": 1380,
    "सीं": 1381,
    "सी्अ॰": 1382,
    "सु": 1383,
    "सुँ": 1384,
    "सुं": 1385,
    "सुॱ": 1386,
    "सू": 1387,
    "सृ": 1388,
    "सृं": 1389,
    "सॅ": 1390,
    "सॆ": 1391,
    "से": 1392,
    "सै": 1393,
    "सैं": 1394,
    "सॊ": 1395,
    "सो": 1396,
    "सोँ": 1397,
    "सौ": 1398,
    "स्": 1399,
    "स्का": 1400,
    "स्कु": 1401,
    "स्कू": 1402,
    "स्कृ": 1403,
    "स्क्का": 1404,
    "स्क्रि": 1405,
    "स्जि": 1406,
    "स्ट": 1407,
    "स्टा": 1408,
    "स्टि": 1409,
    "स्टु": 1410,
    "स्टॆ": 1411,
    "स्टे": 1412,
    "स्टो": 1413,
    "स्टोा्स्": 1414,
    "स्ट्": 1415,
    "स्ट्री": 1416,
    "स्ठ": 1417,
    "स्ड": 1418,
    "स्त": 1419,
    "स्तं": 1420,
    "स्ता": 1421,
    "स्ति": 1422,
    "स्तु": 1423,
    "स्तू": 1424,
    "स्तो": 1425,
    "स्त्र": 1426,
    "स्त्रा": 1427,
    "स्थ": 1428,
    "स्था": 1429,
    "स्थि": 1430,
    "स्थू": 1431,
    "स्थॆ": 1432,
    "स्थ्य": 1433,
    "स्दु": 1434,
    "स्ध": 1435,
    "स्धा": 1436,
    "स्धॆ": 1437,
    "स्प": 1438,
    "स्पा": 1439,
    "स्पि": 1440,
    "स्पृ": 1441,
    "स्पॆ": 1442,
    "स्पे": 1443,
    "स्ब": 1444,
    "स्बा": 1445,
    "स्भा": 1446,
    "स्म": 1447,
    "स्मा": 1448,
    "स्मृ": 1449,
    "स्मे": 1450,
    "स्य": 1451,
    "स्या": 1452,
    "स्र": 1453,
    "स्ऱी": 1454,
    "स्रा": 1455,
    "स्री": 1456,
    "स्रो": 1457,
    "स्ऱ्ऱ": 1458,
    "स्ऱ्ऱा": 1459,
    "स्ऱ्ऱि": 1460,
    "स्ऱ्ऱु": 1461,
    "स्ऱ्ऱे": 1462,
    "स्ऱ्ऱै": 1463,
    "स्ऱ्ऱ्": 1464,
    "स्लि": 1465,
    "स्लॊ": 1466,
    "स्व": 1467,
    "स्वं": 1468,
    "स्वा": 1469,
    "स्वी": 1470,
    "स्वे": 1471,
    "स्सा": 1472,
    "स्सि": 1473,
    "स्सु": 1474,
    "स्से": 1475,
    "स्स्‌": 1476,
    "स्ह": 1477,
    "स्॰": 1478,
    "स्॰ा": 1479,
    "स्ॱ": 1480,
    "स्‌": 1481,
    "सॗ": 1482,
    "स॰": 1483,
    "सॱ": 1484,
    "ह": 1485,
    "हं": 1486,
    "हा": 1487,
    "हां": 1488,
    "हि": 1489,
    "हिँ": 1490,
    "हिं": 1491,
    "हिः": 1492,
    "हि॰": 1493,
    "हिॱ": 1494,
    "ही": 1495,
    "हीं": 1496,
    "हु": 1497,
    "हु॰": 1498,
    "हू": 1499,
    "हृ": 1500,
    "हॆ": 1501,
    "हे": 1502,
    "है": 1503,
    "हैं": 1504,
    "हॉ": 1505,
    "हॊ": 1506,
    "हो": 1507,
    "हौ": 1508,
    "ह्": 1509,
    "ह्दि": 1510,
    "ह्न": 1511,
    "ह्म": 1512,
    "ह्मां": 1513,
    "ह्मि": 1514,
    "ह्य": 1515,
    "े": 1516,
    "ॎ": 1517,
    "ॐ": 1518,
    "ख़ु": 1519,
    "ज़ो": 1520,
    "ज़॰": 1521,
    "ड़": 1522,
    "ड़ा": 1523,
    "ड़ि": 1524,
    "ड़ी": 1525,
    "ड़े": 1526,
    "ड़ो": 1527,
    "ड़्ह": 1528,
    "ढ़ि": 1529,
    "ढ़ी": 1530,
    "ढ़ो": 1531,
    "फ़": 1532,
    "फ़्ट": 1533,
    "फ़्दु": 1534,
    "य़": 1535,
    "य़ं": 1536,
    "य़ः": 1537,
    "य़़": 1538,
    "य़ा": 1539,
    "य़ां": 1540,
    "य़ि": 1541,
    "य़ु": 1542,
    "य़े": 1543,
    "य़ो": 1544,
    "य़्या": 1545,
    "य़ॗ": 1546,
    "ॠ": 1547,
    "।": 1548,
    "॥": 1549,
    "०": 1550,
    "१": 1551,
    "१्को": 1552,
    "२": 1553,
    "२ा": 1554,
    "३": 1555,
    "४": 1556,
    "५": 1557,
    "६": 1558,
    "६ः": 1559,
    "७": 1560,
    "८": 1561,
    "८े": 1562,
    "९": 1563,
    "॰": 1564,
    "॰ा": 1565,
    "॰ि": 1566,
    "॰िः": 1567,
    "॰ी": 1568,
    "॰ु": 1569,
    "॰ू": 1570,
    "॰े": 1571,
    "॰ो": 1572,
    "॰्थ": 1573,
    "॰्प": 1574,
    "॰्ब": 1575,
    "॰्मा": 1576,
    "॰्य": 1577,
    "॰्य्य": 1578,
    "॰्य्या": 1579,
    "॰्ष": 1580,
    "ॱ": 1581,
    "ॱा": 1582,
    "ॱि": 1583,
    "ॱे": 1584,
    "ॱो": 1585,
    "ॳ": 1586,
    "ॳे": 1587,
    "ॷ": 1588,
    "ॺ": 1589,
    "ॺ‌": 1590,
    "ॻ": 1591,
    "ॻॆ": 1592,
    "ॻ्ऱ": 1593,
    "ॻ्ऱॆ": 1594,
    "ॻ्ऱ्": 1595,
    "ॻ्ऱ्स्": 1596,
    "ॻ‌": 1597,
    "ॻ‌‌": 1598,
    "ॻ‍": 1599,
    "ॼ": 1600,
    "ॼ‌": 1601,
    "ॼ‍‍": 1602,
    "ॽ": 1603,
    "ॽ‌": 1604,
    "ॽ‍": 1605,
    "ॾ": 1606,
    "↑": 1607
  },
  "metadata": {
    "tag": "zs_loso_rungA_devanagari",
    "num_graphemes": 1606,
    "space": "shared-abugida-pivot"
  }
}