{
  "grapheme2idx": {
    "<blank>": 0,
    "<unk>": 1,
    "\"": 2,
    "&": 3,
    "(": 4,
    ")": 5,
    ",": 6,
    "-": 7,
    ".": 8,
    "0": 9,
    "1": 10,
    "2": 11,
    "3": 12,
    "4": 13,
    "5": 14,
    "6": 15,
    "7": 16,
    "8": 17,
    "9": 18,
    ":": 19,
    "c": 20,
    "|": 21,
    "ا": 22,
    "ك": 23,
    "ل": 24,
    "و": 25,
    "॥": 26,
    "అ": 27,
    "అం": 28,
    "ఆ": 29,
    "ఆం": 30,
    "ఇ": 31,
    "ఇం": 32,
    "ఈ": 33,
    "ఉ": 34,
    "ఊ": 35,
    "ఋ": 36,
    "ఎ": 37,
    "ఎం": 38,
    "ఏ": 39,
    "ఒ": 40,
    "ఒం": 41,
    "ఓ": 42,
    "ఓం": 43,
    "ఔ": 44,
    "క": 45,
    "కం": 46,
    "కా": 47,
    "కాం": 48,
    "కి": 49,
    "కిం": 50,
    "కీ": 51,
    "కు": 52,
    "కూ": 53,
    "కృ": 54,
    "కె": 55,
    "కెం": 56,
    "కే": 57,
    "కేం": 58,
    "కై": 59,
    "కొ": 60,
    "కొం": 61,
    "కో": 62,
    "కోం": 63,
    "క్": 64,
    "క్ఏ": 65,
    "క్క": 66,
    "క్కు": 67,
    "క్ట": 68,
    "క్టో": 69,
    "క్తి": 70,
    "క్తు": 71,
    "క్పే": 72,
    "క్యా": 73,
    "క్ర": 74,
    "క్రి": 75,
    "క్రీ": 76,
    "క్లీ": 77,
    "క్లె": 78,
    "క్వ": 79,
    "క్వె": 80,
    "క్ష": 81,
    "క్షి": 82,
    "క్షిం": 83,
    "క్షీ": 84,
    "క్షే": 85,
    "క్ష్మ": 86,
    "క్ష్మి": 87,
    "క్ష్మీ": 88,
    "క్స": 89,
    "క్స్": 90,
    "క్స్ప్రె": 91,
    "క్స్ఫ": 92,
    "ఖ": 93,
    "ఖా": 94,
    "ఖై": 95,
    "ఖ్య": 96,
    "గ": 97,
    "గం": 98,
    "గా": 99,
    "గి": 100,
    "గు": 101,
    "గుం": 102,
    "గూ": 103,
    "గెం": 104,
    "గే": 105,
    "గొ": 106,
    "గొం": 107,
    "గో": 108,
    "గౌ": 109,
    "గ్": 110,
    "గ్గ": 111,
    "గ్గి": 112,
    "గ్య": 113,
    "గ్ర": 114,
    "గ్రా": 115,
    "గ్రాం": 116,
    "గ్రీ": 117,
    "గ్రె": 118,
    "గ్లీ": 119,
    "ఘ": 120,
    "ఘం": 121,
    "చ": 122,
    "చం": 123,
    "చా": 124,
    "చి": 125,
    "చీ": 126,
    "చు": 127,
    "చూ": 128,
    "చె": 129,
    "చే": 130,
    "చై": 131,
    "చో": 132,
    "చౌ": 133,
    "చ్": 134,
    "చ్క": 135,
    "చ్చ": 136,
    "చ్చిం": 137,
    "చ్చె": 138,
    "చ్చే": 139,
    "చ్ఛ": 140,
    "చ్ఛా": 141,
    "చ్ర": 142,
    "జ": 143,
    "జం": 144,
    "జా": 145,
    "జి": 146,
    "జిం": 147,
    "జీ": 148,
    "జు": 149,
    "జూ": 150,
    "జె": 151,
    "జే": 152,
    "జై": 153,
    "జొ": 154,
    "జో": 155,
    "జ్": 156,
    "జ్ఞా": 157,
    "జ్న": 158,
    "జ్యు": 159,
    "జ్యూ": 160,
    "ఝ": 161,
    "ట": 162,
    "టా": 163,
    "టి": 164,
    "టిం": 165,
    "టీ": 166,
    "టు": 167,
    "టూ": 168,
    "టె": 169,
    "టెం": 170,
    "టే": 171,
    "టై": 172,
    "టో": 173,
    "టౌ": 174,
    "ట్": 175,
    "ట్కే": 176,
    "ట్ఙ": 177,
    "ట్ట": 178,
    "ట్టం": 179,
    "ట్టి": 180,
    "ట్టు": 181,
    "ట్న": 182,
    "ట్నం": 183,
    "ట్ప": 184,
    "ట్యూ": 185,
    "ట్ర": 186,
    "ట్రా": 187,
    "ట్లం": 188,
    "ట్లు": 189,
    "ట్వ": 190,
    "ట్స్": 191,
    "ఠ": 192,
    "ఠా": 193,
    "ఠే": 194,
    "డ": 195,
    "డం": 196,
    "డా": 197,
    "డి": 198,
    "డీ": 199,
    "డు": 200,
    "డూ": 201,
    "డె": 202,
    "డెం": 203,
    "డే": 204,
    "డై": 205,
    "డో": 206,
    "డ్": 207,
    "డ్జీ": 208,
    "డ్డ": 209,
    "డ్డి": 210,
    "డ్డు": 211,
    "డ్రి": 212,
    "డ్రై": 213,
    "డ్ల": 214,
    "డ్వు": 215,
    "డ్స్": 216,
    "ఢ": 217,
    "ణ": 218,
    "ణం": 219,
    "ణా": 220,
    "ణి": 221,
    "ణీ": 222,
    "ణు": 223,
    "ణ్య": 224,
    "త": 225,
    "తం": 226,
    "తా": 227,
    "తి": 228,
    "తిం": 229,
    "తీ": 230,
    "తు": 231,
    "తూ": 232,
    "తె": 233,
    "తొ": 234,
    "తో": 235,
    "త్": 236,
    "త్కూ": 237,
    "త్త": 238,
    "త్తి": 239,
    "త్తు": 240,
    "త్తూ": 241,
    "త్తె": 242,
    "త్నం": 243,
    "త్ని": 244,
    "త్మ": 245,
    "త్య": 246,
    "త్యా": 247,
    "త్యు": 248,
    "త్ర": 249,
    "త్రా": 250,
    "త్రి": 251,
    "త్రు": 252,
    "త్వ": 253,
    "త్వం": 254,
    "త్స": 255,
    "త్సా": 256,
    "థ": 257,
    "థు": 258,
    "ద": 259,
    "దా": 260,
    "ది": 261,
    "దిం": 262,
    "దీ": 263,
    "దు": 264,
    "దూ": 265,
    "దే": 266,
    "దొ": 267,
    "దో": 268,
    "దౌ": 269,
    "ద్": 270,
    "ద్ద": 271,
    "ద్దా": 272,
    "ద్దాం": 273,
    "ద్ది": 274,
    "ద్దు": 275,
    "ద్దూ": 276,
    "ద్ధ": 277,
    "ద్ధి": 278,
    "ద్ధ్ఫి": 279,
    "ద్మా": 280,
    "ద్య": 281,
    "ద్యా": 282,
    "ద్ర": 283,
    "ద్రా": 284,
    "ద్రి": 285,
    "ద్రు": 286,
    "ద్వ": 287,
    "ద్వా": 288,
    "ధ": 289,
    "ధం": 290,
    "ధా": 291,
    "ధి": 292,
    "ధీ": 293,
    "ధు": 294,
    "ధూ": 295,
    "ధృ": 296,
    "ధ్యా": 297,
    "ధ్యే": 298,
    "ధ్ర": 299,
    "న": 300,
    "నం": 301,
    "నా": 302,
    "ని": 303,
    "నీ": 304,
    "ను": 305,
    "నుం": 306,
    "నూ": 307,
    "నృ": 308,
    "నె": 309,
    "నే": 310,
    "నై": 311,
    "నో": 312,
    "నౌ": 313,
    "న్": 314,
    "న్కు": 315,
    "న్న": 316,
    "న్నా": 317,
    "న్ని": 318,
    "న్నూ": 319,
    "న్నో": 320,
    "న్ప": 321,
    "న్మ": 322,
    "న్మా": 323,
    "న్య": 324,
    "న్యూ": 325,
    "న్ల": 326,
    "న్ష": 327,
    "న్సి": 328,
    "న్సూ": 329,
    "న్స్": 330,
    "న్స్టి": 331,
    "ప": 332,
    "పం": 333,
    "పా": 334,
    "పాం": 335,
    "పి": 336,
    "పిం": 337,
    "పీ": 338,
    "పు": 339,
    "పూ": 340,
    "పె": 341,
    "పెం": 342,
    "పే": 343,
    "పై": 344,
    "పొ": 345,
    "పొం": 346,
    "పో": 347,
    "ప్": 348,
    "ప్టి": 349,
    "ప్టెం": 350,
    "ప్త": 351,
    "ప్తి": 352,
    "ప్ప": 353,
    "ప్పా": 354,
    "ప్పు": 355,
    "ప్ర": 356,
    "ప్రా": 357,
    "ప్రాం": 358,
    "ప్రి": 359,
    "ప్రె": 360,
    "ప్రొ": 361,
    "ప్లా": 362,
    "ఫ": 363,
    "ఫా": 364,
    "ఫి": 365,
    "ఫు": 366,
    "ఫె": 367,
    "ఫై": 368,
    "ఫో": 369,
    "ఫౌ": 370,
    "ఫ్": 371,
    "ఫ్కో": 372,
    "ఫ్యా": 373,
    "బ": 374,
    "బం": 375,
    "బా": 376,
    "బి": 377,
    "బు": 378,
    "బూ": 379,
    "బృ": 380,
    "బృం": 381,
    "బె": 382,
    "బెం": 383,
    "బే": 384,
    "బై": 385,
    "బొ": 386,
    "బో": 387,
    "బౌ": 388,
    "బ్": 389,
    "బ్థ": 390,
    "బ్ద": 391,
    "బ్ది": 392,
    "బ్ధ": 393,
    "బ్బం": 394,
    "బ్య": 395,
    "బ్యా": 396,
    "బ్యాం": 397,
    "బ్ర": 398,
    "బ్రా": 399,
    "బ్స": 400,
    "బ్సి": 401,
    "భ": 402,
    "భా": 403,
    "భి": 404,
    "భు": 405,
    "భూ": 406,
    "భై": 407,
    "భో": 408,
    "మ": 409,
    "మం": 410,
    "మః": 411,
    "మా": 412,
    "మాం": 413,
    "మి": 414,
    "మీ": 415,
    "ము": 416,
    "ముం": 417,
    "మూ": 418,
    "మె": 419,
    "మెం": 420,
    "మే": 421,
    "మై": 422,
    "మొ": 423,
    "మో": 424,
    "మౌ": 425,
    "మ్మ": 426,
    "మ్మం": 427,
    "మ్ము": 428,
    "మ్య": 429,
    "మ్యా": 430,
    "మ్ర": 431,
    "య": 432,
    "యం": 433,
    "యా": 434,
    "యి": 435,
    "యీ": 436,
    "యు": 437,
    "యూ": 438,
    "యే": 439,
    "యొ": 440,
    "యో": 441,
    "య్": 442,
    "య్య": 443,
    "ర": 444,
    "రం": 445,
    "రా": 446,
    "రి": 447,
    "రిం": 448,
    "రీ": 449,
    "రీం": 450,
    "రు": 451,
    "రూ": 452,
    "రె": 453,
    "రెం": 454,
    "రే": 455,
    "రేం": 456,
    "రై": 457,
    "రో": 458,
    "ర్": 459,
    "ర్క": 460,
    "ర్కిం": 461,
    "ర్కె": 462,
    "ర్కొ": 463,
    "ర్కొం": 464,
    "ర్గ": 465,
    "ర్గం": 466,
    "ర్గా": 467,
    "ర్గీ": 468,
    "ర్చ": 469,
    "ర్చి": 470,
    "ర్చు": 471,
    "ర్చూ": 472,
    "ర్జ": 473,
    "ర్జా": 474,
    "ర్జు": 475,
    "ర్టీ": 476,
    "ర్ట్": 477,
    "ర్ట్స్": 478,
    "ర్డ": 479,
    "ర్డీ": 480,
    "ర్డు": 481,
    "ర్డె": 482,
    "ర్డ్": 483,
    "ర్ణ": 484,
    "ర్త": 485,
    "ర్తి": 486,
    "ర్తూ": 487,
    "ర్థ": 488,
    "ర్థం": 489,
    "ర్ది": 490,
    "ర్దీ": 491,
    "ర్దూ": 492,
    "ర్ధ": 493,
    "ర్ధం": 494,
    "ర్న": 495,
    "ర్నీ": 496,
    "ర్నూ": 497,
    "ర్నే": 498,
    "ర్ప": 499,
    "ర్పం": 500,
    "ర్పా": 501,
    "ర్పి": 502,
    "ర్పే": 503,
    "ర్పై": 504,
    "ర్భం": 505,
    "ర్మ": 506,
    "ర్మా": 507,
    "ర్మి": 508,
    "ర్మిం": 509,
    "ర్ము": 510,
    "ర్య": 511,
    "ర్యా": 512,
    "ర్ర": 513,
    "ర్రి": 514,
    "ర్ల": 515,
    "ర్లా": 516,
    "ర్లు": 517,
    "ర్వ": 518,
    "ర్వా": 519,
    "ర్వే": 520,
    "ర్శ": 521,
    "ర్శి": 522,
    "ర్షి": 523,
    "ర్స": 524,
    "ర్సి": 525,
    "ర్సిం": 526,
    "ర్సీ": 527,
    "ర్సు": 528,
    "ర్స్": 529,
    "ఱు": 530,
    "ల": 531,
    "లం": 532,
    "లా": 533,
    "లాం": 534,
    "లి": 535,
    "లిం": 536,
    "లీ": 537,
    "లు": 538,
    "లుం": 539,
    "లూ": 540,
    "లె": 541,
    "లెం": 542,
    "లే": 543,
    "లై": 544,
    "లొ": 545,
    "లో": 546,
    "ల్": 547,
    "ల్కీ": 548,
    "ల్గ": 549,
    "ల్గూ": 550,
    "ల్గొ": 551,
    "ల్ట": 552,
    "ల్ట్": 553,
    "ల్ట్రా": 554,
    "ల్డ్": 555,
    "ల్ద": 556,
    "ల్దా": 557,
    "ల్ద్": 558,
    "ల్పు": 559,
    "ల్మ": 560,
    "ల్యా": 561,
    "ల్ల": 562,
    "ల్లం": 563,
    "ల్లా": 564,
    "ల్లి": 565,
    "ల్లు": 566,
    "ల్లె": 567,
    "ల్వే": 568,
    "ల్స": 569,
    "ల్స్": 570,
    "ళ": 571,
    "ళా": 572,
    "ళి": 573,
    "ళూ": 574,
    "ళ్యా": 575,
    "వ": 576,
    "వం": 577,
    "వః": 578,
    "వా": 579,
    "వి": 580,
    "వీ": 581,
    "వు": 582,
    "వూ": 583,
    "వృ": 584,
    "వె": 585,
    "వెం": 586,
    "వే": 587,
    "వేం": 588,
    "వై": 589,
    "వో": 590,
    "వ్యా": 591,
    "వ్వ": 592,
    "వ్వా": 593,
    "వ్వెం": 594,
    "శ": 595,
    "శం": 596,
    "శా": 597,
    "శాం": 598,
    "శి": 599,
    "శీ": 600,
    "శు": 601,
    "శృ": 602,
    "శె": 603,
    "శై": 604,
    "శో": 605,
    "శ్": 606,
    "శ్చ": 607,
    "శ్ర": 608,
    "శ్రి": 609,
    "శ్రీ": 610,
    "శ్రే": 611,
    "శ్వ": 612,
    "ష": 613,
    "షా": 614,
    "షు": 615,
    "షే": 616,
    "ష్": 617,
    "ష్ట": 618,
    "ష్టి": 619,
    "ష్ట్ర": 620,
    "ష్ట్రం": 621,
    "ష్ఠ": 622,
    "ష్ణ": 623,
    "ష్ణా": 624,
    "ష్య": 625,
    "స": 626,
    "సం": 627,
    "సా": 628,
    "సి": 629,
    "సిం": 630,
    "సీ": 631,
    "సు": 632,
    "సుం": 633,
    "సూ": 634,
    "సృం": 635,
    "సె": 636,
    "సెం": 637,
    "సే": 638,
    "సై": 639,
    "స్": 640,
    "స్క": 641,
    "స్కా": 642,
    "స్కృ": 643,
    "స్గి": 644,
    "స్ట": 645,
    "స్టా": 646,
    "స్టే": 647,
    "స్టో": 648,
    "స్ట్": 649,
    "స్ట్ర": 650,
    "స్ట్రీ": 651,
    "స్ట్రే": 652,
    "స్త": 653,
    "స్తం": 654,
    "స్తా": 655,
    "స్త్ర": 656,
    "స్థ": 657,
    "స్థా": 658,
    "స్థి": 659,
    "స్థీ": 660,
    "స్థూ": 661,
    "స్ధ": 662,
    "స్నే": 663,
    "స్ప": 664,
    "స్పా": 665,
    "స్పి": 666,
    "స్పె": 667,
    "స్ఫి": 668,
    "స్మ": 669,
    "స్మా": 670,
    "స్యా": 671,
    "స్ర": 672,
    "స్వ": 673,
    "స్వం": 674,
    "స్వా": 675,
    "స్వే": 676,
    "స్సా": 677,
    "స్సు": 678,
    "స్సే": 679,
    "హ": 680,
    "హం": 681,
    "హా": 682,
    "హి": 683,
    "హిం": 684,
    "హీ": 685,
    "హీం": 686,
    "హు": 687,
    "హె": 688,
    "హై": 689,
    "హో": 690,
    "హౌ": 691,
    "హ్న": 692,
    "హ్మ": 693,
    "హ్మి": 694,
    "హ్రూ": 695,
    "ఽ": 696,
    "౦": 697,
    "౧": 698,
    "౩": 699,
    "౪": 700,
    "౬": 701,
    "౯": 702
  },
  "metadata": {
    "lang": "telugu",
    "source_splits": "florence2_splits_bstd_telugu_b1800.json",
    "num_graphemes": 701,
    "segmenter": "indic-generic (Mn/Mc + virama-join)"
  }
}