{
  "grapheme2idx": {
    "<blank>": 0,
    "<unk>": 1,
    " ‌": 2,
    "!": 3,
    "\"": 4,
    "&": 5,
    "'": 6,
    "(": 7,
    ")": 8,
    ",": 9,
    "-": 10,
    "-ा": 11,
    ".": 12,
    "/": 13,
    "0": 14,
    "1": 15,
    "2": 16,
    "3": 17,
    "4": 18,
    "5": 19,
    "6": 20,
    "7": 21,
    "8": 22,
    "9": 23,
    ":": 24,
    "?": 25,
    "A": 26,
    "D": 27,
    "G": 28,
    "H": 29,
    "O": 30,
    "P": 31,
    "V": 32,
    "[": 33,
    "c": 34,
    "|": 35,
    "°": 36,
    "ا": 37,
    "ت": 38,
    "ج": 39,
    "ر": 40,
    "گ": 41,
    "ی": 42,
    "ँ": 43,
    "अ": 44,
    "अं": 45,
    "अि": 46,
    "अ्या": 47,
    "अ॰": 48,
    "आ": 49,
    "आं": 50,
    "आा्": 51,
    "आे": 52,
    "इ": 53,
    "इं": 54,
    "इ्ट": 55,
    "इ॰": 56,
    "इॱ": 57,
    "ई": 58,
    "ईँ": 59,
    "ईं": 60,
    "उ": 61,
    "उाि": 62,
    "उॱ": 63,
    "ऊ": 64,
    "ऊँ": 65,
    "ऊं": 66,
    "ऋ": 67,
    "ऍ": 68,
    "ऎ": 69,
    "ऎं": 70,
    "ऎ‍": 71,
    "ए": 72,
    "एँ": 73,
    "एा": 74,
    "ऐ": 75,
    "ऐं": 76,
    "ऑ": 77,
    "ऒ": 78,
    "ऒं": 79,
    "ऒाि": 80,
    "ऒा्क्स्": 81,
    "ऒ‌": 82,
    "ओ": 83,
    "ओँ": 84,
    "ओं": 85,
    "ओ्बा": 86,
    "औ": 87,
    "औं": 88,
    "क": 89,
    "कं": 90,
    "कं‌": 91,
    "कः": 92,
    "का": 93,
    "काँ": 94,
    "कां": 95,
    "काुं": 96,
    "काे": 97,
    "का्": 98,
    "का‍": 99,
    "का‍‌": 100,
    "कि": 101,
    "किं": 102,
    "किाि": 103,
    "की": 104,
    "कीे": 105,
    "कु": 106,
    "कुं": 107,
    "कु॰": 108,
    "कू": 109,
    "कृ": 110,
    "कॅ": 111,
    "कॅा": 112,
    "कॆ": 113,
    "कॆं": 114,
    "के": 115,
    "कें": 116,
    "केा": 117,
    "केॆ्टा": 118,
    "केे": 119,
    "कै": 120,
    "कॉ": 121,
    "कॊ": 122,
    "कॊं": 123,
    "को": 124,
    "कोँ": 125,
    "कों": 126,
    "क्": 127,
    "क्क": 128,
    "क्कं": 129,
    "क्का": 130,
    "क्कि": 131,
    "क्कु": 132,
    "क्कू": 133,
    "क्कॆ": 134,
    "क्के": 135,
    "क्कै": 136,
    "क्कॊ": 137,
    "क्को": 138,
    "क्क्": 139,
    "क्क्‌": 140,
    "क्कॗ": 141,
    "क्ट": 142,
    "क्टो": 143,
    "क्ट्रि": 144,
    "क्ट्रो": 145,
    "क्त": 146,
    "क्तां": 147,
    "क्ति": 148,
    "क्तीं": 149,
    "क्तु": 150,
    "क्नो": 151,
    "क्प": 152,
    "क्पे": 153,
    "क्मि": 154,
    "क्य": 155,
    "क्या": 156,
    "क्यू": 157,
    "क्र": 158,
    "क्रं": 159,
    "क्रा": 160,
    "क्रि": 161,
    "क्री": 162,
    "क्रे": 163,
    "क्रै": 164,
    "क्रो": 165,
    "क्ला": 166,
    "क्लि": 167,
    "क्ळे": 168,
    "क्व": 169,
    "क्वा": 170,
    "क्वॆ": 171,
    "क्श": 172,
    "क्ष": 173,
    "क्षा": 174,
    "क्षां": 175,
    "क्षि": 176,
    "क्षिं": 177,
    "क्षी": 178,
    "क्षुः": 179,
    "क्षे": 180,
    "क्षो": 181,
    "क्ष्म": 182,
    "क्ष्मि": 183,
    "क्ष्मी": 184,
    "क्स": 185,
    "क्स्": 186,
    "क्य़ा": 187,
    "क्॰": 188,
    "क्॰ा": 189,
    "क्॰े": 190,
    "क्‌": 191,
    "क्‍": 192,
    "क॰": 193,
    "कॱ": 194,
    "क‌": 195,
    "क‍ी": 196,
    "ख": 197,
    "खं": 198,
    "ख़": 199,
    "खा": 200,
    "खाँ": 201,
    "खां": 202,
    "खि": 203,
    "खी": 204,
    "खु": 205,
    "खू": 206,
    "खे": 207,
    "खै": 208,
    "खो": 209,
    "ख्त": 210,
    "ख्य": 211,
    "ख्यु": 212,
    "ख्रीः": 213,
    "ग": 214,
    "गं": 215,
    "गा": 216,
    "गां": 217,
    "गि": 218,
    "गि॰": 219,
    "गी": 220,
    "गु": 221,
    "गुं": 222,
    "गू": 223,
    "गृ": 224,
    "गॆं": 225,
    "गे": 226,
    "गे्ड": 227,
    "गै": 228,
    "गॊ": 229,
    "गो": 230,
    "गों": 231,
    "गौ": 232,
    "ग्": 233,
    "ग्गि": 234,
    "ग्ण": 235,
    "ग्नि": 236,
    "ग्भ": 237,
    "ग्य": 238,
    "ग्या": 239,
    "ग्ये": 240,
    "ग्र": 241,
    "ग्रं": 242,
    "ग्रा": 243,
    "ग्रां": 244,
    "ग्री": 245,
    "ग्रू": 246,
    "ग्रे": 247,
    "ग्ला": 248,
    "ग्वा": 249,
    "ग्ष": 250,
    "ग्स": 251,
    "ग्य़ा": 252,
    "ग्॰ु": 253,
    "ग॰": 254,
    "गॱ": 255,
    "घ": 256,
    "घं": 257,
    "घा": 258,
    "घां": 259,
    "घु": 260,
    "घे": 261,
    "घो": 262,
    "घौ": 263,
    "घ्य": 264,
    "घ्या": 265,
    "घ्र": 266,
    "ङ": 267,
    "ङा": 268,
    "ङि": 269,
    "ङे": 270,
    "ङ्": 271,
    "ङ्क": 272,
    "ङ्का": 273,
    "ङ्कि": 274,
    "ङ्कु": 275,
    "ङ्के": 276,
    "ङ्कै": 277,
    "ङ्को": 278,
    "ङ्क्": 279,
    "ङ्ग": 280,
    "ङ्गा": 281,
    "ङ्गी": 282,
    "ङ्गु": 283,
    "ङ्गे": 284,
    "ङ्गो": 285,
    "ङ्घ": 286,
    "ङ्ङ": 287,
    "ङ्ङा": 288,
    "ङ्ङि": 289,
    "ङ्ङे": 290,
    "ङ्ङों": 291,
    "ङ्ङ्‌": 292,
    "ङ्ट": 293,
    "ङ्त": 294,
    "ङ्ष": 295,
    "ङ्‌": 296,
    "च": 297,
    "चं": 298,
    "चा": 299,
    "चां": 300,
    "चा्": 301,
    "चा्जि": 302,
    "चा्व": 303,
    "चि": 304,
    "चिं": 305,
    "ची": 306,
    "चु": 307,
    "चुे": 308,
    "चू": 309,
    "चॆ": 310,
    "चे": 311,
    "चें": 312,
    "चेा्ऩ्": 313,
    "चै": 314,
    "चॊ": 315,
    "चो": 316,
    "चौ": 317,
    "च्": 318,
    "च्च": 319,
    "च्चं": 320,
    "च्चा": 321,
    "च्चि": 322,
    "च्ची": 323,
    "च्चु": 324,
    "च्चे": 325,
    "च्चेाि": 326,
    "च्च्": 327,
    "च्च्‌": 328,
    "च्छ": 329,
    "च्छा": 330,
    "च्छु": 331,
    "च्छे": 332,
    "च्छ्": 333,
    "च्य": 334,
    "च्या": 335,
    "च॑": 336,
    "च॰": 337,
    "चॱ": 338,
    "छ": 339,
    "छा": 340,
    "छि": 341,
    "छु": 342,
    "छुॱ": 343,
    "छे": 344,
    "छें": 345,
    "छो": 346,
    "छोँ": 347,
    "छ॰": 348,
    "ज": 349,
    "जं": 350,
    "ज़": 351,
    "ज़ी": 352,
    "ज़ु": 353,
    "जा": 354,
    "जि": 355,
    "जिं": 356,
    "जि॰": 357,
    "जिॱ": 358,
    "जी": 359,
    "जु": 360,
    "जुॱ": 361,
    "जू": 362,
    "जॆ": 363,
    "जे": 364,
    "जै": 365,
    "जो": 366,
    "ज्": 367,
    "ज्ञ": 368,
    "ज्ञा": 369,
    "ज्ञी": 370,
    "ज्ब": 371,
    "ज्य": 372,
    "ज्यु": 373,
    "ज्यू": 374,
    "ज्येा": 375,
    "ज्यो": 376,
    "ज्यों": 377,
    "ज्व": 378,
    "ज्सि": 379,
    "ज्य़": 380,
    "ज॰": 381,
    "झ": 382,
    "झा": 383,
    "झाँ": 384,
    "झां": 385,
    "झि": 386,
    "झी": 387,
    "झे": 388,
    "झ॰": 389,
    "ञ": 390,
    "ञा": 391,
    "ञ्च": 392,
    "ञ्चा": 393,
    "ञ्चा्": 394,
    "ञ्चि": 395,
    "ञ्ज": 396,
    "ञ्जा": 397,
    "ञ्जि": 398,
    "ञ्जी": 399,
    "ञ्ञ": 400,
    "ञ्ञि": 401,
    "ञ्ञो": 402,
    "ट": 403,
    "टं": 404,
    "टा": 405,
    "टाा": 406,
    "टि": 407,
    "टिं": 408,
    "टी": 409,
    "टु": 410,
    "टुं": 411,
    "टू": 412,
    "टॆ": 413,
    "टे": 414,
    "टै": 415,
    "टैं": 416,
    "टो": 417,
    "टौ": 418,
    "ट्": 419,
    "ट्चाा्च्च": 420,
    "ट्चि": 421,
    "ट्ट": 422,
    "ट्टं": 423,
    "ट्टा": 424,
    "ट्टि": 425,
    "ट्टी": 426,
    "ट्टु": 427,
    "ट्टूा्पु": 428,
    "ट्टै": 429,
    "ट्टो": 430,
    "ट्ट्": 431,
    "ट्ण": 432,
    "ट्न": 433,
    "ट्नं": 434,
    "ट्प": 435,
    "ट्मि": 436,
    "ट्य": 437,
    "ट्यू": 438,
    "ट्र": 439,
    "ट्रा": 440,
    "ट्रॆ": 441,
    "ट्रे": 442,
    "ट्रै": 443,
    "ट्रो": 444,
    "ट्र्या": 445,
    "ट्ल": 446,
    "ट्लु": 447,
    "ट्व": 448,
    "ट्श्री": 449,
    "ट्॰": 450,
    "टॗ": 451,
    "ठ": 452,
    "ठा": 453,
    "ठि": 454,
    "ठि॰": 455,
    "ठी": 456,
    "ठे": 457,
    "ठें": 458,
    "ठो": 459,
    "ठ्ठ": 460,
    "ड": 461,
    "डः": 462,
    "ड़": 463,
    "ड़ा": 464,
    "ड़ि": 465,
    "ड़ी": 466,
    "ड़े": 467,
    "ड़ौ": 468,
    "डा": 469,
    "डाः": 470,
    "डि": 471,
    "डिं": 472,
    "डी": 473,
    "डु": 474,
    "डू": 475,
    "डॆ": 476,
    "डॆं": 477,
    "डे": 478,
    "डै": 479,
    "डो": 480,
    "ड्": 481,
    "ड्क": 482,
    "ड्ड": 483,
    "ड्डा": 484,
    "ड्डि": 485,
    "ड्डु": 486,
    "ड्या": 487,
    "ड्यां": 488,
    "ड्र": 489,
    "ड्रा": 490,
    "ड्रि": 491,
    "ड्री": 492,
    "ड्‌": 493,
    "ड्‍": 494,
    "ढ": 495,
    "ढ़": 496,
    "ढ़ि": 497,
    "ढ़ी": 498,
    "ढि": 499,
    "ढु": 500,
    "ढे": 501,
    "ढे़": 502,
    "ण": 503,
    "णं": 504,
    "ण़": 505,
    "णा": 506,
    "णाः": 507,
    "णि": 508,
    "णी": 509,
    "णीं": 510,
    "णु": 511,
    "णु्": 512,
    "णू": 513,
    "णॆ": 514,
    "णे": 515,
    "णै": 516,
    "णो": 517,
    "ण्": 518,
    "ण्क": 519,
    "ण्का": 520,
    "ण्ट": 521,
    "ण्टं": 522,
    "ण्टा": 523,
    "ण्टि": 524,
    "ण्टी": 525,
    "ण्टु": 526,
    "ण्टे": 527,
    "ण्टै": 528,
    "ण्ट्": 529,
    "ण्ट्स्": 530,
    "ण्ट्‌": 531,
    "ण्ठु": 532,
    "ण्ड": 533,
    "ण्डा": 534,
    "ण्डि": 535,
    "ण्ण": 536,
    "ण्णा": 537,
    "ण्णि": 538,
    "ण्णु": 539,
    "ण्णू": 540,
    "ण्ता": 541,
    "ण्ति": 542,
    "ण्पु": 543,
    "ण्मै": 544,
    "ण्य": 545,
    "ण्या": 546,
    "ण‍": 547,
    "त": 548,
    "तं": 549,
    "तः": 550,
    "त़": 551,
    "त़ा": 552,
    "त़ि": 553,
    "ता": 554,
    "ताँ": 555,
    "तां": 556,
    "ता्का": 557,
    "ति": 558,
    "तिं": 559,
    "तिः": 560,
    "तिाि": 561,
    "ती": 562,
    "तीा्": 563,
    "तीा्त्त": 564,
    "तु": 565,
    "तुं": 566,
    "तू": 567,
    "तूा्": 568,
    "तू॰": 569,
    "तृ": 570,
    "तॆ": 571,
    "तॆॆ": 572,
    "ते": 573,
    "तें": 574,
    "तै": 575,
    "तॊ": 576,
    "तो": 577,
    "तों": 578,
    "त्": 579,
    "त्क": 580,
    "त्का": 581,
    "त्कू": 582,
    "त्त": 583,
    "त्ता": 584,
    "त्ति": 585,
    "त्ती": 586,
    "त्तु": 587,
    "त्तू": 588,
    "त्तॆ": 589,
    "त्ते": 590,
    "त्तेा्": 591,
    "त्तै": 592,
    "त्तॊ": 593,
    "त्त्": 594,
    "त्त्य": 595,
    "त्त्व": 596,
    "त्त्‌": 597,
    "त्थ": 598,
    "त्थि": 599,
    "त्न": 600,
    "त्प": 601,
    "त्बे": 602,
    "त्मा": 603,
    "त्य": 604,
    "त्या": 605,
    "त्यां": 606,
    "त्यु": 607,
    "त्ये": 608,
    "त्र": 609,
    "त्रं": 610,
    "त्रं‌": 611,
    "त्रा": 612,
    "त्रि": 613,
    "त्री": 614,
    "त्रे": 615,
    "त्रों": 616,
    "त्र्य": 617,
    "त्र्यं": 618,
    "त्व": 619,
    "त्वा": 620,
    "त्वि": 621,
    "त्स": 622,
    "त्सा": 623,
    "त्स्ना": 624,
    "त्य़": 625,
    "त्य़ु": 626,
    "त्य़े": 627,
    "त्॰": 628,
    "त्‌": 629,
    "त्‍": 630,
    "त॰": 631,
    "त‍े": 632,
    "थ": 633,
    "था": 634,
    "थां": 635,
    "थि": 636,
    "थी": 637,
    "थु": 638,
    "थू": 639,
    "थृ": 640,
    "थे": 641,
    "थ्य": 642,
    "द": 643,
    "दा": 644,
    "दां": 645,
    "दि": 646,
    "दिं": 647,
    "दि॰": 648,
    "दी": 649,
    "दु": 650,
    "दुि": 651,
    "दू": 652,
    "दूं": 653,
    "दृ": 654,
    "दे": 655,
    "दें": 656,
    "दै": 657,
    "दो": 658,
    "दौ": 659,
    "द्": 660,
    "द्घा": 661,
    "द्द": 662,
    "द्दा": 663,
    "द्दि": 664,
    "द्दु": 665,
    "द्ध": 666,
    "द्धा": 667,
    "द्धि": 668,
    "द्धी": 669,
    "द्ब": 670,
    "द्बा": 671,
    "द्बि": 672,
    "द्बी": 673,
    "द्बो": 674,
    "द्म": 675,
    "द्मा": 676,
    "द्य": 677,
    "द्या": 678,
    "द्यो": 679,
    "द्र": 680,
    "द्रा": 681,
    "द्रि": 682,
    "द्री": 683,
    "द्रु": 684,
    "द्रे": 685,
    "द्वा": 686,
    "द्वी": 687,
    "द्शि": 688,
    "द्य़": 689,
    "द्य़ा": 690,
    "द्॰": 691,
    "द्‌": 692,
    "ध": 693,
    "धा": 694,
    "धि": 695,
    "धिि": 696,
    "धी": 697,
    "धीं": 698,
    "धु": 699,
    "धू": 700,
    "धे": 701,
    "धो": 702,
    "ध्दा": 703,
    "ध्दी": 704,
    "ध्ब": 705,
    "ध्य": 706,
    "ध्या": 707,
    "ध्ये": 708,
    "ध्र": 709,
    "ध्व": 710,
    "ध॰": 711,
    "न": 712,
    "नं": 713,
    "नः": 714,
    "ना": 715,
    "नाँ": 716,
    "नां": 717,
    "नाि": 718,
    "ना्": 719,
    "नि": 720,
    "निं": 721,
    "नि‍": 722,
    "नी": 723,
    "नीा्": 724,
    "नु": 725,
    "नुं": 726,
    "नू": 727,
    "नू॰": 728,
    "नृ": 729,
    "नॅ": 730,
    "नॆ": 731,
    "ने": 732,
    "नेे": 733,
    "नै": 734,
    "नॊ": 735,
    "नो": 736,
    "नौ": 737,
    "न्": 738,
    "न्कु": 739,
    "न्ट": 740,
    "न्टा": 741,
    "न्ट्र": 742,
    "न्ट्रा": 743,
    "न्ड": 744,
    "न्डि": 745,
    "न्डी": 746,
    "न्डे": 747,
    "न्त": 748,
    "न्ता": 749,
    "न्ति": 750,
    "न्ती": 751,
    "न्तु": 752,
    "न्तू": 753,
    "न्ते": 754,
    "न्तो": 755,
    "न्त्": 756,
    "न्त्य": 757,
    "न्त्र": 758,
    "न्त्रि": 759,
    "न्त्री": 760,
    "न्त्॰ा": 761,
    "न्त्॰ि": 762,
    "न्त्॰ी": 763,
    "न्थ": 764,
    "न्था": 765,
    "न्द": 766,
    "न्दा": 767,
    "न्दि": 768,
    "न्दी": 769,
    "न्दु": 770,
    "न्दे": 771,
    "न्दो": 772,
    "न्द्यो": 773,
    "न्द्र": 774,
    "न्द्रं": 775,
    "न्द्रा": 776,
    "न्द्री": 777,
    "न्द्र्र": 778,
    "न्द्॰": 779,
    "न्द्॰ी": 780,
    "न्द्‌": 781,
    "न्ध": 782,
    "न्धं": 783,
    "न्धि": 784,
    "न्धी": 785,
    "न्ध्यं": 786,
    "न्न": 787,
    "न्ना": 788,
    "न्नि": 789,
    "न्नु": 790,
    "न्नुं": 791,
    "न्नू": 792,
    "न्नै": 793,
    "न्ब": 794,
    "न्म": 795,
    "न्मा": 796,
    "न्मे": 797,
    "न्मो": 798,
    "न्म्या": 799,
    "न्य": 800,
    "न्यः": 801,
    "न्या": 802,
    "न्यु": 803,
    "न्यू": 804,
    "न्ये": 805,
    "न्ऱ": 806,
    "न्ऱॆ": 807,
    "न्ऱ्": 808,
    "न्ल": 809,
    "न्व": 810,
    "न्स": 811,
    "न्सि": 812,
    "न्सी": 813,
    "न्सू": 814,
    "न्स्": 815,
    "न्स्टि": 816,
    "न्हा": 817,
    "न्हां": 818,
    "न्य़": 819,
    "न्य़ा": 820,
    "न्‌": 821,
    "न॰": 822,
    "न॰ः": 823,
    "नॱ": 824,
    "ऩ": 825,
    "ऩा": 826,
    "ऩा्": 827,
    "ऩि": 828,
    "ऩी": 829,
    "ऩु": 830,
    "ऩू": 831,
    "ऩे": 832,
    "ऩै": 833,
    "ऩ्": 834,
    "ऩ्टा्": 835,
    "ऩ्ट्": 836,
    "ऩ्ट्र": 837,
    "ऩ्ऩ": 838,
    "ऩ्ऩा": 839,
    "ऩ्ऩूा्": 840,
    "ऩ्ऩै": 841,
    "ऩ्ऩो": 842,
    "ऩ्पु": 843,
    "ऩ्ऱ": 844,
    "ऩ्ऱि": 845,
    "ऩ्वॆ": 846,
    "प": 847,
    "पं": 848,
    "पा": 849,
    "पाँ": 850,
    "पां": 851,
    "पा्": 852,
    "पि": 853,
    "पिं": 854,
    "पिाि": 855,
    "पिु": 856,
    "पी": 857,
    "पु": 858,
    "पू": 859,
    "पूँ": 860,
    "पॅ": 861,
    "पॆ": 862,
    "पॆं": 863,
    "पे": 864,
    "पेा": 865,
    "पै": 866,
    "पैा": 867,
    "पॉ": 868,
    "पॊ": 869,
    "पॊं": 870,
    "पो": 871,
    "पोा्चु": 872,
    "पौ": 873,
    "प्": 874,
    "प्टॆ": 875,
    "प्ण": 876,
    "प्त": 877,
    "प्तं": 878,
    "प्प": 879,
    "प्पं": 880,
    "प्पा": 881,
    "प्पि": 882,
    "प्पी": 883,
    "प्पु": 884,
    "प्पॆ": 885,
    "प्पे": 886,
    "प्पो": 887,
    "प्प्": 888,
    "प्प्मू": 889,
    "प्या": 890,
    "प्र": 891,
    "प्रा": 892,
    "प्रां": 893,
    "प्राः": 894,
    "प्रि": 895,
    "प्री": 896,
    "प्रीि": 897,
    "प्रॅ": 898,
    "प्रे": 899,
    "प्रॊ": 900,
    "प्रो": 901,
    "प्रौ": 902,
    "प्ला": 903,
    "प्ले": 904,
    "प्लै": 905,
    "प्लॉ": 906,
    "प्स्": 907,
    "प्॰": 908,
    "प्॰ि": 909,
    "प्‍": 910,
    "प॰": 911,
    "प‌": 912,
    "फ": 913,
    "फ़": 914,
    "फा": 915,
    "फां": 916,
    "फि": 917,
    "फी": 918,
    "फु": 919,
    "फॆ": 920,
    "फे": 921,
    "फै": 922,
    "फो": 923,
    "फ्": 924,
    "फ्या": 925,
    "फ्र": 926,
    "फ्॰े": 927,
    "ब": 928,
    "बँ": 929,
    "बं": 930,
    "बा": 931,
    "बां": 932,
    "बा‍": 933,
    "बि": 934,
    "बि॰": 935,
    "बी": 936,
    "बु": 937,
    "बू": 938,
    "बृ": 939,
    "बॆ": 940,
    "बे": 941,
    "बें": 942,
    "बै": 943,
    "बैं": 944,
    "बॉ": 945,
    "बो": 946,
    "बौ": 947,
    "ब्": 948,
    "ब्थ": 949,
    "ब्द": 950,
    "ब्दी": 951,
    "ब्दु": 952,
    "ब्ध": 953,
    "ब्य": 954,
    "ब्या": 955,
    "ब्यु": 956,
    "ब्र": 957,
    "ब्रा": 958,
    "ब्रि": 959,
    "ब्रु": 960,
    "ब्रे": 961,
    "ब्ल": 962,
    "ब्लि": 963,
    "ब्लु": 964,
    "ब्लो": 965,
    "ब्ल्यू": 966,
    "ब्स": 967,
    "ब्सि": 968,
    "ब्य़": 969,
    "ब्य़ा": 970,
    "ब्॰ु": 971,
    "ब्‌": 972,
    "ब॰": 973,
    "बॱ": 974,
    "भ": 975,
    "भं": 976,
    "भा": 977,
    "भां": 978,
    "भि": 979,
    "भिं": 980,
    "भी": 981,
    "भु": 982,
    "भू": 983,
    "भृा": 984,
    "भे": 985,
    "भें": 986,
    "भै": 987,
    "भो": 988,
    "भ्या": 989,
    "भ्र": 990,
    "भ॰": 991,
    "म": 992,
    "मं": 993,
    "मः": 994,
    "मा": 995,
    "मां": 996,
    "मााि": 997,
    "मा‍": 998,
    "मि": 999,
    "मी": 1000,
    "मु": 1001,
    "मुं": 1002,
    "मुॱ": 1003,
    "मू": 1004,
    "मूा्त्ति": 1005,
    "मृ": 1006,
    "मॆ": 1007,
    "मे": 1008,
    "में": 1009,
    "मै": 1010,
    "मैं": 1011,
    "मैा": 1012,
    "मॊ": 1013,
    "मो": 1014,
    "मों": 1015,
    "मौ": 1016,
    "म्": 1017,
    "म्A": 1018,
    "म्ः": 1019,
    "म्का": 1020,
    "म्के": 1021,
    "म्प": 1022,
    "म्पा": 1023,
    "म्पि": 1024,
    "म्पु": 1025,
    "म्पू": 1026,
    "म्पे": 1027,
    "म्पो": 1028,
    "म्प्": 1029,
    "म्प्य": 1030,
    "म्प्यु": 1031,
    "म्प्र": 1032,
    "म्प्वा": 1033,
    "म्प्॰": 1034,
    "म्ब": 1035,
    "म्बा": 1036,
    "म्बि": 1037,
    "म्बे": 1038,
    "म्ब्न": 1039,
    "म्भ": 1040,
    "म्भा": 1041,
    "म्भु": 1042,
    "म्म": 1043,
    "म्मा": 1044,
    "म्मि": 1045,
    "म्मु": 1046,
    "म्मे": 1047,
    "म्या": 1048,
    "म्यां": 1049,
    "म्यु": 1050,
    "म्यू": 1051,
    "म्र": 1052,
    "म्रि": 1053,
    "म्ह": 1054,
    "म्ही": 1055,
    "म्य़": 1056,
    "म्य़ो": 1057,
    "म्॰ा": 1058,
    "म॰": 1059,
    "मॱ": 1060,
    "य": 1061,
    "यं": 1062,
    "य़": 1063,
    "य़ा": 1064,
    "य़े": 1065,
    "या": 1066,
    "यां": 1067,
    "याा्": 1068,
    "याा्पे": 1069,
    "या‍": 1070,
    "यि": 1071,
    "यिाि": 1072,
    "यी": 1073,
    "यु": 1074,
    "युं": 1075,
    "यू": 1076,
    "यॆ": 1077,
    "ये": 1078,
    "यें": 1079,
    "यै": 1080,
    "यॊ": 1081,
    "यो": 1082,
    "यों": 1083,
    "य्": 1084,
    "य्क्कां": 1085,
    "य्क्कु": 1086,
    "य्क्क्": 1087,
    "य्त": 1088,
    "य्न्त": 1089,
    "य्भ": 1090,
    "य्म": 1091,
    "य्मा": 1092,
    "य्य": 1093,
    "य्यु": 1094,
    "य्यो": 1095,
    "य्वु": 1096,
    "य्स्री": 1097,
    "य्‌": 1098,
    "र": 1099,
    "रं": 1100,
    "ऱ": 1101,
    "रा": 1102,
    "रां": 1103,
    "राा्": 1104,
    "रा्": 1105,
    "रि": 1106,
    "रि॰": 1107,
    "री": 1108,
    "रीं": 1109,
    "रु": 1110,
    "रुं": 1111,
    "रु‍": 1112,
    "रू": 1113,
    "रॆ": 1114,
    "रॆं": 1115,
    "रे": 1116,
    "रें": 1117,
    "रै": 1118,
    "रॉँ": 1119,
    "रो": 1120,
    "र्": 1121,
    "र्क": 1122,
    "र्कि": 1123,
    "र्किं": 1124,
    "र्कॆ": 1125,
    "र्के": 1126,
    "र्कॊं": 1127,
    "र्ग": 1128,
    "र्गा": 1129,
    "र्गि": 1130,
    "र्च": 1131,
    "र्चा": 1132,
    "र्चि": 1133,
    "र्चू": 1134,
    "र्च्चि": 1135,
    "र्ज": 1136,
    "र्जा": 1137,
    "र्जि": 1138,
    "र्जी": 1139,
    "र्ट": 1140,
    "र्टि": 1141,
    "र्टी": 1142,
    "र्ट्": 1143,
    "र्ड": 1144,
    "र्डी": 1145,
    "र्डॆ": 1146,
    "र्ण": 1147,
    "र्णा": 1148,
    "र्णि": 1149,
    "र्णी": 1150,
    "र्णो": 1151,
    "र्त": 1152,
    "र्ति": 1153,
    "र्ती": 1154,
    "र्ते": 1155,
    "र्त्त": 1156,
    "र्त्ता": 1157,
    "र्थ": 1158,
    "र्थं": 1159,
    "र्थि": 1160,
    "र्द": 1161,
    "र्दि": 1162,
    "र्दे": 1163,
    "र्द्": 1164,
    "र्ध": 1165,
    "र्न": 1166,
    "र्नी": 1167,
    "र्प": 1168,
    "र्पा": 1169,
    "र्पे": 1170,
    "र्पै": 1171,
    "र्पो": 1172,
    "र्फे": 1173,
    "र्ब": 1174,
    "र्बा": 1175,
    "र्बि": 1176,
    "र्बो": 1177,
    "र्ब्ब": 1178,
    "र्भ": 1179,
    "र्भी": 1180,
    "र्म": 1181,
    "र्मा": 1182,
    "र्मि": 1183,
    "र्मी": 1184,
    "र्मु": 1185,
    "र्मे": 1186,
    "र्य": 1187,
    "र्या": 1188,
    "र्य्य": 1189,
    "र्य्या": 1190,
    "र्य्य़": 1191,
    "र्य्य़ा": 1192,
    "र्र": 1193,
    "र्रा": 1194,
    "र्रि": 1195,
    "र्ल": 1196,
    "र्लु": 1197,
    "र्लो": 1198,
    "र्व": 1199,
    "र्वा": 1200,
    "र्वि": 1201,
    "र्वे": 1202,
    "र्श": 1203,
    "र्शि": 1204,
    "र्ष": 1205,
    "र्षा": 1206,
    "र्षि": 1207,
    "र्षे": 1208,
    "र्स": 1209,
    "र्सि": 1210,
    "र्सिं": 1211,
    "र्सी": 1212,
    "र्सु": 1213,
    "र्स्": 1214,
    "र॰": 1215,
    "रॱ": 1216,
    "र‌": 1217,
    "र‍": 1218,
    "ऱ": 1219,
    "ऱा": 1220,
    "ऱि": 1221,
    "ऱिं": 1222,
    "ऱु": 1223,
    "ऱुं": 1224,
    "ऱू": 1225,
    "ऱॆ": 1226,
    "ऱे": 1227,
    "ऱै": 1228,
    "ऱॊ": 1229,
    "ऱो": 1230,
    "ऱ्": 1231,
    "ऱ्क": 1232,
    "ऱ्का": 1233,
    "ऱ्कु": 1234,
    "ऱ्के": 1235,
    "ऱ्प": 1236,
    "ऱ्पू": 1237,
    "ऱ्ऱ": 1238,
    "ऱ्ऱं": 1239,
    "ऱ्ऱा": 1240,
    "ऱ्ऱि": 1241,
    "ऱ्ऱी": 1242,
    "ऱ्ऱु": 1243,
    "ऱ्ऱे": 1244,
    "ऱ्ऱ्": 1245,
    "ऱ्ऱ्यू": 1246,
    "ल": 1247,
    "लं": 1248,
    "ला": 1249,
    "लां": 1250,
    "लि": 1251,
    "लिं": 1252,
    "लिा": 1253,
    "ली": 1254,
    "लु": 1255,
    "लुं": 1256,
    "लू": 1257,
    "लूा्": 1258,
    "लॆ": 1259,
    "लॆं": 1260,
    "ले": 1261,
    "लै": 1262,
    "लॉ": 1263,
    "लो": 1264,
    "लोँ": 1265,
    "लौ": 1266,
    "ल्": 1267,
    "ल्क": 1268,
    "ल्कै": 1269,
    "ल्गू": 1270,
    "ल्ट": 1271,
    "ल्टि": 1272,
    "ल्टी": 1273,
    "ल्टु": 1274,
    "ल्ट्": 1275,
    "ल्ट्रा": 1276,
    "ल्ड": 1277,
    "ल्डीं": 1278,
    "ल्ड्र": 1279,
    "ल्थ": 1280,
    "ल्नी": 1281,
    "ल्प": 1282,
    "ल्पी": 1283,
    "ल्पॊ": 1284,
    "ल्फे": 1285,
    "ल्य": 1286,
    "ल्या": 1287,
    "ल्यां": 1288,
    "ल्यु": 1289,
    "ल्ल": 1290,
    "ल्लं": 1291,
    "ल्ला": 1292,
    "ल्लि": 1293,
    "ल्ली": 1294,
    "ल्लु": 1295,
    "ल्लू": 1296,
    "ल्लूाि": 1297,
    "ल्लूा्": 1298,
    "ल्लॆ": 1299,
    "ल्ले": 1300,
    "ल्लै": 1301,
    "ल्ल्": 1302,
    "ल्ल्‌": 1303,
    "ल्वि": 1304,
    "ल्वे": 1305,
    "ल्स्": 1306,
    "ल्हा": 1307,
    "ल्हे": 1308,
    "ल्ह्या": 1309,
    "ल्‍": 1310,
    "ल॰": 1311,
    "लॱ": 1312,
    "ळ": 1313,
    "ळं": 1314,
    "ळा": 1315,
    "ळां": 1316,
    "ळा्": 1317,
    "ळि": 1318,
    "ळिं": 1319,
    "ळी": 1320,
    "ळु": 1321,
    "ळॆ": 1322,
    "ळे": 1323,
    "ळै": 1324,
    "ळो": 1325,
    "ळ्": 1326,
    "ळ्अ": 1327,
    "ळ्ट": 1328,
    "ळ्प": 1329,
    "ळ्मि": 1330,
    "ळ्मी": 1331,
    "ळ्या": 1332,
    "ळ्यां": 1333,
    "ळ्ळ": 1334,
    "ळ्ळि": 1335,
    "ळ्ळी": 1336,
    "ळ‍": 1337,
    "ऴ": 1338,
    "ऴा": 1339,
    "ऴि": 1340,
    "ऴि‌": 1341,
    "ऴु": 1342,
    "ऴॆ": 1343,
    "ऴै": 1344,
    "ऴ्": 1345,
    "ऴ्क": 1346,
    "ऴ्च्": 1347,
    "ऴ्त्त": 1348,
    "ऴ्न": 1349,
    "ऴ्ना": 1350,
    "ऴ्वु": 1351,
    "ऴ्स्": 1352,
    "ऴ्‌": 1353,
    "व": 1354,
    "वं": 1355,
    "वः": 1356,
    "व़": 1357,
    "वा": 1358,
    "वां": 1359,
    "वा्": 1360,
    "वा्स्": 1361,
    "वि": 1362,
    "विं": 1363,
    "वि॰": 1364,
    "विॱ": 1365,
    "वी": 1366,
    "वीं": 1367,
    "वु": 1368,
    "वुं": 1369,
    "वू": 1370,
    "वृ": 1371,
    "वॅ": 1372,
    "वॆ": 1373,
    "वॆं": 1374,
    "वे": 1375,
    "वेा्ल्टु": 1376,
    "वै": 1377,
    "वॉ": 1378,
    "वॊ": 1379,
    "वो": 1380,
    "व्": 1381,
    "व्य": 1382,
    "व्या": 1383,
    "व्व": 1384,
    "व्वं": 1385,
    "व्वि": 1386,
    "व्वी": 1387,
    "व्वू": 1388,
    "व्वे": 1389,
    "व्हि": 1390,
    "व्ही": 1391,
    "व्‌": 1392,
    "व॰": 1393,
    "श": 1394,
    "शं": 1395,
    "शा": 1396,
    "शां": 1397,
    "शाः": 1398,
    "शि": 1399,
    "शी": 1400,
    "शीू": 1401,
    "शु": 1402,
    "शू": 1403,
    "शृ": 1404,
    "शॅ": 1405,
    "शे": 1406,
    "शै": 1407,
    "शो": 1408,
    "श्": 1409,
    "श्च": 1410,
    "श्चि": 1411,
    "श्ते": 1412,
    "श्ब": 1413,
    "श्मा": 1414,
    "श्य": 1415,
    "श्र": 1416,
    "श्रा": 1417,
    "श्री": 1418,
    "श्रु": 1419,
    "श्रे": 1420,
    "श्व": 1421,
    "श्वा": 1422,
    "श्श": 1423,
    "श्शि": 1424,
    "श्शे": 1425,
    "श्ष": 1426,
    "श्य़": 1427,
    "श्॰ी": 1428,
    "श्ॱ": 1429,
    "श्‍": 1430,
    "शॗ": 1431,
    "ष": 1432,
    "षं": 1433,
    "षा": 1434,
    "षि": 1435,
    "षी": 1436,
    "षु": 1437,
    "षू": 1438,
    "षे": 1439,
    "ष्": 1440,
    "ष्का": 1441,
    "ष्कृ": 1442,
    "ष्ट": 1443,
    "ष्टा": 1444,
    "ष्टि": 1445,
    "ष्टी": 1446,
    "ष्टु": 1447,
    "ष्ट्र": 1448,
    "ष्ट्रा": 1449,
    "ष्ट्री": 1450,
    "ष्ट्॰": 1451,
    "ष्ट्॰ी": 1452,
    "ष्ठ": 1453,
    "ष्ठा": 1454,
    "ष्ण": 1455,
    "ष्णा": 1456,
    "ष्णू": 1457,
    "ष्ना": 1458,
    "ष्पा": 1459,
    "ष्य": 1460,
    "ष्यं": 1461,
    "ष्‌": 1462,
    "ष्‍": 1463,
    "स": 1464,
    "सं": 1465,
    "सः": 1466,
    "स़": 1467,
    "स़ा": 1468,
    "स़ि": 1469,
    "सा": 1470,
    "सां": 1471,
    "सि": 1472,
    "सिं": 1473,
    "सि॰": 1474,
    "सी": 1475,
    "सु": 1476,
    "सुँ": 1477,
    "सुं": 1478,
    "सू": 1479,
    "सृ": 1480,
    "सृं": 1481,
    "सॆ": 1482,
    "से": 1483,
    "सें": 1484,
    "से‍": 1485,
    "सै": 1486,
    "सैं": 1487,
    "सो": 1488,
    "सोँ": 1489,
    "सौ": 1490,
    "स्": 1491,
    "स्क": 1492,
    "स्का": 1493,
    "स्कु": 1494,
    "स्कृ": 1495,
    "स्गि": 1496,
    "स्जि": 1497,
    "स्जी": 1498,
    "स्ट": 1499,
    "स्टा": 1500,
    "स्टु": 1501,
    "स्टॆ": 1502,
    "स्टे": 1503,
    "स्टो": 1504,
    "स्ट्": 1505,
    "स्ट्री": 1506,
    "स्ट्रे": 1507,
    "स्त": 1508,
    "स्तं": 1509,
    "स्ता": 1510,
    "स्ति": 1511,
    "स्तु": 1512,
    "स्तू": 1513,
    "स्तृ": 1514,
    "स्ते": 1515,
    "स्त्र": 1516,
    "स्त्रा": 1517,
    "स्थ": 1518,
    "स्था": 1519,
    "स्थि": 1520,
    "स्थी": 1521,
    "स्थे": 1522,
    "स्थ्य": 1523,
    "स्दु": 1524,
    "स्ध": 1525,
    "स्नि": 1526,
    "स्ने": 1527,
    "स्प": 1528,
    "स्पा": 1529,
    "स्पि": 1530,
    "स्पृ": 1531,
    "स्पॆ": 1532,
    "स्पे": 1533,
    "स्प्पि": 1534,
    "स्फो": 1535,
    "स्ब": 1536,
    "स्बा": 1537,
    "स्भा": 1538,
    "स्म": 1539,
    "स्मा": 1540,
    "स्मृ": 1541,
    "स्य": 1542,
    "स्र": 1543,
    "स्ऱी": 1544,
    "स्री": 1545,
    "स्ऱ्ऱा": 1546,
    "स्ऱ्ऱि": 1547,
    "स्ऱ्ऱु": 1548,
    "स्ऱ्ऱे": 1549,
    "स्ऱ्ऱै": 1550,
    "स्ऱ्ऱ्": 1551,
    "स्लि": 1552,
    "स्व": 1553,
    "स्वं": 1554,
    "स्वा": 1555,
    "स्वे": 1556,
    "स्सा": 1557,
    "स्सु": 1558,
    "स्स्मा": 1559,
    "स्स्‌": 1560,
    "स्॰": 1561,
    "स्॰ा": 1562,
    "स्ॱ": 1563,
    "स्‌": 1564,
    "स्‍": 1565,
    "स॰": 1566,
    "सॱ": 1567,
    "ह": 1568,
    "हं": 1569,
    "हः": 1570,
    "हा": 1571,
    "हां": 1572,
    "हा‍": 1573,
    "हि": 1574,
    "हिं": 1575,
    "हिः": 1576,
    "हि॰": 1577,
    "ही": 1578,
    "हीं": 1579,
    "हु": 1580,
    "हु॰": 1581,
    "हू": 1582,
    "हृ": 1583,
    "हॆ": 1584,
    "हे": 1585,
    "हें": 1586,
    "है": 1587,
    "है‍": 1588,
    "हॉ": 1589,
    "हॊ": 1590,
    "हो": 1591,
    "ह्दि": 1592,
    "ह्म": 1593,
    "ह्य": 1594,
    "ह्या": 1595,
    "ह्रू": 1596,
    "ह॰": 1597,
    "हॱ": 1598,
    "ा": 1599,
    "े": 1600,
    "ॎ": 1601,
    "ॐ": 1602,
    "ज़ो": 1603,
    "ज़॰": 1604,
    "ड़": 1605,
    "ड़ा": 1606,
    "ड़ी": 1607,
    "ड़े": 1608,
    "ड़ै": 1609,
    "ड़ोु": 1610,
    "ड़्ह": 1611,
    "ड़्हे": 1612,
    "ढ़ि": 1613,
    "ढ़ी": 1614,
    "ढ़ो": 1615,
    "फ़": 1616,
    "य़": 1617,
    "य़ं": 1618,
    "य़ः": 1619,
    "य़़": 1620,
    "य़ा": 1621,
    "य़ां": 1622,
    "य़ि": 1623,
    "य़ी": 1624,
    "य़ु": 1625,
    "य़े": 1626,
    "य़ो": 1627,
    "य़्या": 1628,
    "य़ॗ": 1629,
    "ॠ": 1630,
    "।": 1631,
    "।‍": 1632,
    "॥": 1633,
    "०": 1634,
    "१": 1635,
    "१्को": 1636,
    "१‌": 1637,
    "२": 1638,
    "२़": 1639,
    "२ा": 1640,
    "३": 1641,
    "४": 1642,
    "५": 1643,
    "५ु": 1644,
    "५ो": 1645,
    "६": 1646,
    "७": 1647,
    "८": 1648,
    "९": 1649,
    "॰": 1650,
    "॰ा": 1651,
    "॰ि": 1652,
    "॰िः": 1653,
    "॰ी": 1654,
    "॰ु": 1655,
    "॰ू": 1656,
    "॰े": 1657,
    "॰ो": 1658,
    "॰्थ": 1659,
    "॰्प": 1660,
    "॰्ब": 1661,
    "॰्मा": 1662,
    "॰्य": 1663,
    "॰्य्य": 1664,
    "॰्य्या": 1665,
    "॰्ष": 1666,
    "ॱ": 1667,
    "ॱा": 1668,
    "ॱि": 1669,
    "ॱे": 1670,
    "ॱो": 1671,
    "ॳ": 1672,
    "ॳे": 1673,
    "ॷ": 1674,
    "ॺ": 1675,
    "ॺ‌": 1676,
    "ॺ‍": 1677,
    "ॻ": 1678,
    "ॻ्ऱॆ": 1679,
    "ॻ्ऱ्": 1680,
    "ॻ‌": 1681,
    "ॻ‌‌": 1682,
    "ॻ‍": 1683,
    "ॼ": 1684,
    "ॼ‌": 1685,
    "ॼ‍‍": 1686,
    "ॽ": 1687,
    "ॽ‌": 1688,
    "ॽ‍": 1689,
    "ॾ": 1690,
    "ॾ‌": 1691,
    "ॾ‌‌": 1692,
    "​": 1693
  },
  "metadata": {
    "tag": "zs_loso_rungA_kannada",
    "num_graphemes": 1692,
    "space": "shared-abugida-pivot"
  }
}