{
  "grapheme2idx": {
    "<blank>": 0,
    "<unk>": 1,
    " ‌": 2,
    "!": 3,
    "&": 4,
    "'": 5,
    "(": 6,
    ")": 7,
    ",": 8,
    "-": 9,
    ".": 10,
    "/": 11,
    "0": 12,
    "1": 13,
    "2": 14,
    "3": 15,
    "3ः": 16,
    "4": 17,
    "5": 18,
    "6": 19,
    "7": 20,
    "8": 21,
    "9": 22,
    ":": 23,
    "?": 24,
    "A": 25,
    "D": 26,
    "E": 27,
    "G": 28,
    "H": 29,
    "L": 30,
    "N": 31,
    "P": 32,
    "U": 33,
    "V": 34,
    "W": 35,
    "[": 36,
    "|": 37,
    "°": 38,
    "×": 39,
    "अ": 40,
    "अं": 41,
    "अि": 42,
    "अे": 43,
    "अ्या": 44,
    "अ॰": 45,
    "अॱ": 46,
    "आ": 47,
    "आँ": 48,
    "आं": 49,
    "इ": 50,
    "इँ": 51,
    "इं": 52,
    "इ्": 53,
    "इ॰": 54,
    "इॱ": 55,
    "ई": 56,
    "ईँ": 57,
    "ईं": 58,
    "उ": 59,
    "उं": 60,
    "उाि": 61,
    "उॱ": 62,
    "ऊ": 63,
    "ऊँ": 64,
    "ऊं": 65,
    "ऊा्": 66,
    "ऋ": 67,
    "ऍ": 68,
    "ऎ": 69,
    "ऎं": 70,
    "ऎ‍": 71,
    "ए": 72,
    "एँ": 73,
    "एा": 74,
    "ऐ": 75,
    "ऐं": 76,
    "ऑ": 77,
    "ऒ": 78,
    "ऒं": 79,
    "ऒ‌": 80,
    "ओ": 81,
    "ओँ": 82,
    "ओं": 83,
    "ओ्बा": 84,
    "औ": 85,
    "औं": 86,
    "क": 87,
    "कं": 88,
    "कं‌": 89,
    "कः": 90,
    "का": 91,
    "काँ": 92,
    "कां": 93,
    "काुं": 94,
    "काे": 95,
    "का्": 96,
    "का‍": 97,
    "का‍‌": 98,
    "कि": 99,
    "किं": 100,
    "किाि": 101,
    "की": 102,
    "कीे": 103,
    "कु": 104,
    "कुं": 105,
    "कु॰": 106,
    "कू": 107,
    "कृ": 108,
    "कॆ": 109,
    "कॆं": 110,
    "के": 111,
    "कें": 112,
    "केा": 113,
    "केॆ्टा": 114,
    "के‌": 115,
    "कै": 116,
    "कॉ": 117,
    "कॊ": 118,
    "कॊं": 119,
    "कॊॕ": 120,
    "को": 121,
    "कोँ": 122,
    "कों": 123,
    "कौ": 124,
    "क्": 125,
    "क्ए": 126,
    "क्क": 127,
    "क्कं": 128,
    "क्का": 129,
    "क्का्": 130,
    "क्कि": 131,
    "क्की": 132,
    "क्कु": 133,
    "क्कू": 134,
    "क्के": 135,
    "क्कॊ": 136,
    "क्को": 137,
    "क्क्": 138,
    "क्क्‌": 139,
    "क्कॗ": 140,
    "क्च": 141,
    "क्ट": 142,
    "क्टू": 143,
    "क्टो": 144,
    "क्ट्रि": 145,
    "क्ट्रो": 146,
    "क्त": 147,
    "क्ता": 148,
    "क्तां": 149,
    "क्ति": 150,
    "क्ती": 151,
    "क्तीं": 152,
    "क्तु": 153,
    "क्तृ": 154,
    "क्नो": 155,
    "क्प": 156,
    "क्पे": 157,
    "क्मि": 158,
    "क्या": 159,
    "क्र": 160,
    "क्रा": 161,
    "क्रि": 162,
    "क्री": 163,
    "क्रू": 164,
    "क्रे": 165,
    "क्रो": 166,
    "क्ल": 167,
    "क्लि": 168,
    "क्ले": 169,
    "क्वॆ": 170,
    "क्श": 171,
    "क्ष": 172,
    "क्षा": 173,
    "क्षि": 174,
    "क्षिं": 175,
    "क्षी": 176,
    "क्षॆ": 177,
    "क्षे": 178,
    "क्षो": 179,
    "क्ष्मि": 180,
    "क्ष्मी": 181,
    "क्ष्य": 182,
    "क्स": 183,
    "क्सी": 184,
    "क्स्": 185,
    "क्स्टा": 186,
    "क्स्फ": 187,
    "क्॰": 188,
    "क्॰ा": 189,
    "क्॰े": 190,
    "क्‌": 191,
    "क्‍": 192,
    "क॰": 193,
    "कॱ": 194,
    "क‌": 195,
    "क‍": 196,
    "ख": 197,
    "खं": 198,
    "खा": 199,
    "खाँ": 200,
    "खां": 201,
    "खि": 202,
    "खी": 203,
    "खु": 204,
    "खू": 205,
    "खृ": 206,
    "खॆ": 207,
    "खे": 208,
    "खें": 209,
    "खेा": 210,
    "खै": 211,
    "खो": 212,
    "ख्त": 213,
    "ख्य": 214,
    "ख्या": 215,
    "ख्यॆ": 216,
    "ख्रीः": 217,
    "ख॰": 218,
    "ग": 219,
    "गं": 220,
    "गा": 221,
    "गाँ": 222,
    "गां": 223,
    "गि": 224,
    "गि॰": 225,
    "गी": 226,
    "गु": 227,
    "गुं": 228,
    "गुः": 229,
    "गू": 230,
    "गृ": 231,
    "गॆ": 232,
    "गे": 233,
    "गें": 234,
    "गे्ड": 235,
    "गॊ": 236,
    "गो": 237,
    "गों": 238,
    "गौ": 239,
    "ग्": 240,
    "ग्ग": 241,
    "ग्गॆ": 242,
    "ग्ण": 243,
    "ग्णा": 244,
    "ग्न": 245,
    "ग्ना": 246,
    "ग्नि": 247,
    "ग्भ": 248,
    "ग्य": 249,
    "ग्या": 250,
    "ग्र": 251,
    "ग्रं": 252,
    "ग्रा": 253,
    "ग्रां": 254,
    "ग्री": 255,
    "ग्रू": 256,
    "ग्रॆ": 257,
    "ग्रे": 258,
    "ग्ला": 259,
    "ग्लां": 260,
    "ग्ली": 261,
    "ग्लो": 262,
    "ग्वा": 263,
    "ग्ष": 264,
    "ग्य़ा": 265,
    "ग्॰": 266,
    "ग्॰ा": 267,
    "ग्॰ी": 268,
    "ग्‌": 269,
    "ग॰": 270,
    "गॱ": 271,
    "घ": 272,
    "घं": 273,
    "घा": 274,
    "घी": 275,
    "घु": 276,
    "घे": 277,
    "घो": 278,
    "घौ": 279,
    "घ्य": 280,
    "घ्या": 281,
    "ङ": 282,
    "ङा": 283,
    "ङि": 284,
    "ङे": 285,
    "ङ्": 286,
    "ङ्क": 287,
    "ङ्का": 288,
    "ङ्कि": 289,
    "ङ्कु": 290,
    "ङ्के": 291,
    "ङ्कै": 292,
    "ङ्क्": 293,
    "ङ्ग": 294,
    "ङ्गि": 295,
    "ङ्गी": 296,
    "ङ्गो": 297,
    "ङ्ङ": 298,
    "ङ्ङा": 299,
    "ङ्ङि": 300,
    "ङ्ङो": 301,
    "ङ्ङ्‌": 302,
    "ङ्‌": 303,
    "च": 304,
    "चं": 305,
    "चा": 306,
    "चाँ": 307,
    "चा्": 308,
    "चा्जि": 309,
    "चि": 310,
    "चिं": 311,
    "चि़": 312,
    "ची": 313,
    "चीा्": 314,
    "चु": 315,
    "चुे": 316,
    "चू": 317,
    "चॆ": 318,
    "चे": 319,
    "चेा्क्कै": 320,
    "चै": 321,
    "चॉ": 322,
    "चॊ": 323,
    "चो": 324,
    "चों": 325,
    "चौ": 326,
    "च्": 327,
    "च्च": 328,
    "च्चं": 329,
    "च्चा": 330,
    "च्चा्": 331,
    "च्चि": 332,
    "च्चिं": 333,
    "च्ची": 334,
    "च्चूा्": 335,
    "च्चे": 336,
    "च्चेाि": 337,
    "च्च्": 338,
    "च्छ": 339,
    "च्छा": 340,
    "च्छि": 341,
    "च्छु": 342,
    "च्छे": 343,
    "च्छ्": 344,
    "च्य": 345,
    "च्या": 346,
    "च्य़ु": 347,
    "च॰": 348,
    "चॱ": 349,
    "छ": 350,
    "छा": 351,
    "छि": 352,
    "छु": 353,
    "छे": 354,
    "ज": 355,
    "जं": 356,
    "ज़": 357,
    "ज़ी": 358,
    "ज़ु": 359,
    "जा": 360,
    "जा्": 361,
    "जि": 362,
    "जिं": 363,
    "जिः": 364,
    "जी": 365,
    "जीं": 366,
    "जु": 367,
    "जू": 368,
    "जॆ": 369,
    "जे": 370,
    "जै": 371,
    "जो": 372,
    "ज्": 373,
    "ज्ज": 374,
    "ज्जं": 375,
    "ज्ज्व": 376,
    "ज्ञ": 377,
    "ज्ञा": 378,
    "ज्ब": 379,
    "ज्बा": 380,
    "ज्य": 381,
    "ज्यु": 382,
    "ज्यै": 383,
    "ज्यो": 384,
    "ज्ल": 385,
    "ज्व": 386,
    "ज्य़": 387,
    "ज्‌": 388,
    "ज॰": 389,
    "झ": 390,
    "झा": 391,
    "झाँ": 392,
    "झु": 393,
    "झे": 394,
    "झॉ": 395,
    "ञ": 396,
    "ञा": 397,
    "ञ्च": 398,
    "ञ्चा": 399,
    "ञ्चि": 400,
    "ञ्चे": 401,
    "ञ्ज": 402,
    "ञ्जा": 403,
    "ञ्जी": 404,
    "ञ्ञ": 405,
    "ञ्ञा": 406,
    "ञ्ञि": 407,
    "ञ्ञॆ": 408,
    "ञ्ञो": 409,
    "ट": 410,
    "टं": 411,
    "टा": 412,
    "टां": 413,
    "टि": 414,
    "टिं": 415,
    "टिॱ": 416,
    "टी": 417,
    "टु": 418,
    "टू": 419,
    "टॅ": 420,
    "टॆ": 421,
    "टॆं": 422,
    "टे": 423,
    "टै": 424,
    "टैं": 425,
    "टॉ": 426,
    "टो": 427,
    "टों": 428,
    "टोाि": 429,
    "टौ": 430,
    "ट्": 431,
    "ट्क": 432,
    "ट्के": 433,
    "ट्च": 434,
    "ट्चाा्च्च": 435,
    "ट्चि": 436,
    "ट्ट": 437,
    "ट्टं": 438,
    "ट्ट़": 439,
    "ट्टा": 440,
    "ट्टि": 441,
    "ट्टी": 442,
    "ट्टु": 443,
    "ट्टुं": 444,
    "ट्टूा्पु": 445,
    "ट्टॆ": 446,
    "ट्टै": 447,
    "ट्ट्": 448,
    "ट्ण": 449,
    "ट्त": 450,
    "ट्न": 451,
    "ट्नं": 452,
    "ट्पा": 453,
    "ट्य": 454,
    "ट्यू": 455,
    "ट्र": 456,
    "ट्रा": 457,
    "ट्रि": 458,
    "ट्री": 459,
    "ट्रे": 460,
    "ट्रो": 461,
    "ट्र्या": 462,
    "ट्ल": 463,
    "ट्लि": 464,
    "ट्लु": 465,
    "ट्श्री": 466,
    "ट्स": 467,
    "ट्स्": 468,
    "ट्॰": 469,
    "ट्‌": 470,
    "टॗ": 471,
    "ट‌": 472,
    "ठ": 473,
    "ठा": 474,
    "ठि": 475,
    "ठी": 476,
    "ठु": 477,
    "ठू": 478,
    "ठे": 479,
    "ठें": 480,
    "ठो": 481,
    "ठ्ठ": 482,
    "ठ॰": 483,
    "ड": 484,
    "डं": 485,
    "ड़": 486,
    "ड़ा": 487,
    "ड़ि": 488,
    "ड़ी": 489,
    "ड़े": 490,
    "डा": 491,
    "डां": 492,
    "डाः": 493,
    "डि": 494,
    "डी": 495,
    "डीं": 496,
    "डु": 497,
    "डुं": 498,
    "डू": 499,
    "डॆ": 500,
    "डे": 501,
    "डै": 502,
    "डॉ": 503,
    "डॊ": 504,
    "डो": 505,
    "डों": 506,
    "डौ": 507,
    "ड्": 508,
    "ड्क": 509,
    "ड्ड": 510,
    "ड्डा": 511,
    "ड्डि": 512,
    "ड्डु": 513,
    "ड्पे": 514,
    "ड्या": 515,
    "ड्यां": 516,
    "ड्रि": 517,
    "ड्रो": 518,
    "ड्ल": 519,
    "ड्वु": 520,
    "ड्स": 521,
    "ड्‌": 522,
    "ढ": 523,
    "ढ़ि": 524,
    "ढ़ी": 525,
    "ढि": 526,
    "ढे": 527,
    "ढ॰": 528,
    "ण": 529,
    "णं": 530,
    "ण़": 531,
    "णा": 532,
    "णाः": 533,
    "णि": 534,
    "णी": 535,
    "णु": 536,
    "णू": 537,
    "णॆ": 538,
    "णे": 539,
    "णै": 540,
    "णो": 541,
    "णौ": 542,
    "ण्": 543,
    "ण्का": 544,
    "ण्कॊ": 545,
    "ण्ट": 546,
    "ण्टं": 547,
    "ण्टा": 548,
    "ण्टि": 549,
    "ण्टु": 550,
    "ण्टै": 551,
    "ण्ट्": 552,
    "ण्ट्लू": 553,
    "ण्ट्स्": 554,
    "ण्ट्‌": 555,
    "ण्ठ": 556,
    "ण्ठु": 557,
    "ण्ड": 558,
    "ण्डा": 559,
    "ण्डि": 560,
    "ण्डी": 561,
    "ण्ढ": 562,
    "ण्ण": 563,
    "ण्णा": 564,
    "ण्णि": 565,
    "ण्णी": 566,
    "ण्णू": 567,
    "ण्णूा्": 568,
    "ण्णू‍": 569,
    "ण्त": 570,
    "ण्ति": 571,
    "ण्प": 572,
    "ण्मै": 573,
    "ण्य": 574,
    "ण्यं": 575,
    "ण्या": 576,
    "ण्र": 577,
    "ण्‌": 578,
    "त": 579,
    "तं": 580,
    "तः": 581,
    "त़ा": 582,
    "ता": 583,
    "ताँ": 584,
    "तां": 585,
    "ति": 586,
    "तिं": 587,
    "तिः": 588,
    "तिाि": 589,
    "ती": 590,
    "तीं": 591,
    "तीा्क": 592,
    "तीा्त्त": 593,
    "तु": 594,
    "तुं": 595,
    "तू": 596,
    "तूा्": 597,
    "तू॰": 598,
    "तृ": 599,
    "तॆ": 600,
    "ते": 601,
    "तें": 602,
    "तै": 603,
    "तॊ": 604,
    "तो": 605,
    "तों": 606,
    "त्": 607,
    "त्क": 608,
    "त्का": 609,
    "त्कू": 610,
    "त्कृ": 611,
    "त्त": 612,
    "त्ता": 613,
    "त्ति": 614,
    "त्ती": 615,
    "त्तु": 616,
    "त्तू": 617,
    "त्ते": 618,
    "त्तै": 619,
    "त्तॊ": 620,
    "त्तो": 621,
    "त्तोि": 622,
    "त्त्": 623,
    "त्त्प": 624,
    "त्त्व": 625,
    "त्त्‌": 626,
    "त्थ": 627,
    "त्थि": 628,
    "त्न": 629,
    "त्नि": 630,
    "त्पा": 631,
    "त्ब": 632,
    "त्बे": 633,
    "त्म": 634,
    "त्मा": 635,
    "त्य": 636,
    "त्या": 637,
    "त्यां": 638,
    "त्यु": 639,
    "त्यू": 640,
    "त्ये": 641,
    "त्र": 642,
    "त्रं": 643,
    "त्रं‌": 644,
    "त्रा": 645,
    "त्रि": 646,
    "त्री": 647,
    "त्रॆ": 648,
    "त्रे": 649,
    "त्र्य": 650,
    "त्र्यं": 651,
    "त्व": 652,
    "त्वं": 653,
    "त्वा": 654,
    "त्वि": 655,
    "त्स": 656,
    "त्सा": 657,
    "त्य़": 658,
    "त्य़ु": 659,
    "त्य़े": 660,
    "त्॰": 661,
    "त्॰ा": 662,
    "त्‌": 663,
    "त॰": 664,
    "तॱ": 665,
    "थ": 666,
    "था": 667,
    "थां": 668,
    "थि": 669,
    "थी": 670,
    "थु": 671,
    "थे": 672,
    "थ्था": 673,
    "थ्य": 674,
    "थ्वी": 675,
    "थ॰": 676,
    "थ‍े": 677,
    "द": 678,
    "दं": 679,
    "दा": 680,
    "दि": 681,
    "दि॰": 682,
    "दी": 683,
    "दी्": 684,
    "दु": 685,
    "दू": 686,
    "दूं": 687,
    "दृ": 688,
    "दॆ": 689,
    "दे": 690,
    "दै": 691,
    "दॊ": 692,
    "दो": 693,
    "दौ": 694,
    "द्": 695,
    "द्घा": 696,
    "द्द": 697,
    "द्दा": 698,
    "द्दि": 699,
    "द्दी": 700,
    "द्दु": 701,
    "द्ध": 702,
    "द्धा": 703,
    "द्धि": 704,
    "द्धी": 705,
    "द्धे": 706,
    "द्ध्यं": 707,
    "द्फु": 708,
    "द्ब": 709,
    "द्बा": 710,
    "द्बि": 711,
    "द्बी": 712,
    "द्बो": 713,
    "द्म": 714,
    "द्मा": 715,
    "द्य": 716,
    "द्या": 717,
    "द्यां": 718,
    "द्यु": 719,
    "द्यो": 720,
    "द्र": 721,
    "द्रं": 722,
    "द्रा": 723,
    "द्रि": 724,
    "द्रु": 725,
    "द्रे": 726,
    "द्रो": 727,
    "द्ळु": 728,
    "द्व": 729,
    "द्वा": 730,
    "द्वी": 731,
    "द्य़": 732,
    "द्य़ा": 733,
    "द्‌": 734,
    "ध": 735,
    "धा": 736,
    "धि": 737,
    "धी": 738,
    "धु": 739,
    "धू": 740,
    "धृ": 741,
    "धे": 742,
    "धो": 743,
    "ध्दी": 744,
    "ध्य": 745,
    "ध्या": 746,
    "ध्ये": 747,
    "ध्र": 748,
    "ध्व": 749,
    "ध्य़": 750,
    "न": 751,
    "नं": 752,
    "नः": 753,
    "ना": 754,
    "नां": 755,
    "नाि": 756,
    "नि": 757,
    "निं": 758,
    "निः": 759,
    "निॕ": 760,
    "नी": 761,
    "नीं": 762,
    "नु": 763,
    "नुं": 764,
    "नू": 765,
    "नू॰": 766,
    "नॅ": 767,
    "नॆ": 768,
    "ने": 769,
    "नै": 770,
    "नॊ": 771,
    "नो": 772,
    "नौ": 773,
    "न्": 774,
    "न्ज": 775,
    "न्ट": 776,
    "न्टा": 777,
    "न्टे": 778,
    "न्ट्रा": 779,
    "न्ड": 780,
    "न्डा": 781,
    "न्त": 782,
    "न्ता": 783,
    "न्ति": 784,
    "न्ती": 785,
    "न्तु": 786,
    "न्ते": 787,
    "न्तो": 788,
    "न्त्र": 789,
    "न्त्रि": 790,
    "न्त्री": 791,
    "न्त्॰ा": 792,
    "न्त्॰ी": 793,
    "न्था": 794,
    "न्द": 795,
    "न्दा": 796,
    "न्दि": 797,
    "न्दी": 798,
    "न्दु": 799,
    "न्दे": 800,
    "न्दो": 801,
    "न्द्द": 802,
    "न्द्यो": 803,
    "न्द्र": 804,
    "न्द्रा": 805,
    "न्द्री": 806,
    "न्द्॰": 807,
    "न्द्॰ी": 808,
    "न्द्‌": 809,
    "न्ध": 810,
    "न्धि": 811,
    "न्धी": 812,
    "न्ध्यं": 813,
    "न्न": 814,
    "न्नं": 815,
    "न्ना": 816,
    "न्नि": 817,
    "न्नि‍": 818,
    "न्नु": 819,
    "न्नुं": 820,
    "न्नू": 821,
    "न्न्": 822,
    "न्प": 823,
    "न्ब": 824,
    "न्म": 825,
    "न्म्र": 826,
    "न्य": 827,
    "न्या": 828,
    "न्यु": 829,
    "न्यू": 830,
    "न्ये": 831,
    "न्ऱॆ": 832,
    "न्ऱ्": 833,
    "न्व": 834,
    "न्वे": 835,
    "न्ष": 836,
    "न्स": 837,
    "न्सा": 838,
    "न्सि": 839,
    "न्सी": 840,
    "न्सू": 841,
    "न्से": 842,
    "न्स्": 843,
    "न्स्टि": 844,
    "न्स्टी": 845,
    "न्ह": 846,
    "न्हा": 847,
    "न्हां": 848,
    "न्य़ा": 849,
    "न्‌": 850,
    "न्‍": 851,
    "न॰": 852,
    "नॱ": 853,
    "ऩ": 854,
    "ऩा": 855,
    "ऩा्": 856,
    "ऩि": 857,
    "ऩी": 858,
    "ऩु": 859,
    "ऩूा्": 860,
    "ऩे": 861,
    "ऩै": 862,
    "ऩ्": 863,
    "ऩ्क": 864,
    "ऩ्ट्": 865,
    "ऩ्ट्र": 866,
    "ऩ्ऩ": 867,
    "ऩ्ऩा": 868,
    "ऩ्ऩि": 869,
    "ऩ्ऩे": 870,
    "ऩ्ऩै": 871,
    "ऩ्प": 872,
    "ऩ्पु": 873,
    "ऩ्ऱ": 874,
    "ऩ्ऱि": 875,
    "ऩ्वॆ": 876,
    "प": 877,
    "पं": 878,
    "पा": 879,
    "पाँ": 880,
    "पां": 881,
    "पा्टि": 882,
    "पि": 883,
    "पिं": 884,
    "पिा": 885,
    "पिाि": 886,
    "पिु": 887,
    "पि॰": 888,
    "पी": 889,
    "पु": 890,
    "पू": 891,
    "पूँ": 892,
    "पूाि": 893,
    "पृ": 894,
    "पॆ": 895,
    "पॆं": 896,
    "पे": 897,
    "पें": 898,
    "पै": 899,
    "पैा": 900,
    "पॉ": 901,
    "पॊ": 902,
    "पॊं": 903,
    "पो": 904,
    "पोः": 905,
    "पोा्चु": 906,
    "पौ": 907,
    "प्": 908,
    "प्का": 909,
    "प्ट": 910,
    "प्टॆ": 911,
    "प्टें": 912,
    "प्त": 913,
    "प्ता": 914,
    "प्ति": 915,
    "प्तों": 916,
    "प्न": 917,
    "प्प": 918,
    "प्पं": 919,
    "प्पा": 920,
    "प्पि": 921,
    "प्पिं": 922,
    "प्पी": 923,
    "प्पु": 924,
    "प्पू": 925,
    "प्पॆ": 926,
    "प्पे": 927,
    "प्पै": 928,
    "प्पॊ": 929,
    "प्पो": 930,
    "प्पोा्": 931,
    "प्प्": 932,
    "प्प्‌": 933,
    "प्या": 934,
    "प्र": 935,
    "प्रा": 936,
    "प्राः": 937,
    "प्रि": 938,
    "प्री": 939,
    "प्रीि": 940,
    "प्रॅ": 941,
    "प्रॆ": 942,
    "प्रे": 943,
    "प्रै": 944,
    "प्रो": 945,
    "प्रौ": 946,
    "प्ल": 947,
    "प्ला": 948,
    "प्ले": 949,
    "प्लै": 950,
    "प्व": 951,
    "प्ष": 952,
    "प्स": 953,
    "प्॰": 954,
    "प्॰ि": 955,
    "प्॰े": 956,
    "प्‌": 957,
    "प॰": 958,
    "पॱ": 959,
    "प‌": 960,
    "फ": 961,
    "फ़": 962,
    "फा": 963,
    "फि": 964,
    "फी": 965,
    "फु": 966,
    "फे": 967,
    "फै": 968,
    "फो": 969,
    "फों": 970,
    "फ्": 971,
    "फ्ट्": 972,
    "फ्या": 973,
    "फ्र": 974,
    "फ्री": 975,
    "फ्रॅ": 976,
    "फ्रो": 977,
    "फ्ला": 978,
    "ब": 979,
    "बँ": 980,
    "बं": 981,
    "बा": 982,
    "बां": 983,
    "बि": 984,
    "बि॑": 985,
    "बि॰": 986,
    "बी": 987,
    "बु": 988,
    "बू": 989,
    "बृ": 990,
    "बृं": 991,
    "बॆ": 992,
    "बॆं": 993,
    "बे": 994,
    "बें": 995,
    "बेॖ": 996,
    "बै": 997,
    "बैं": 998,
    "बॉ": 999,
    "बॊ": 1000,
    "बो": 1001,
    "बौ": 1002,
    "ब्": 1003,
    "ब्थ": 1004,
    "ब्द": 1005,
    "ब्दि": 1006,
    "ब्दी": 1007,
    "ब्दे": 1008,
    "ब्ध": 1009,
    "ब्ब": 1010,
    "ब्बा": 1011,
    "ब्य": 1012,
    "ब्या": 1013,
    "ब्यां": 1014,
    "ब्यु": 1015,
    "ब्यू": 1016,
    "ब्र": 1017,
    "ब्रा": 1018,
    "ब्रि": 1019,
    "ब्रु": 1020,
    "ब्रे": 1021,
    "ब्ल": 1022,
    "ब्ली": 1023,
    "ब्लु": 1024,
    "ब्सि": 1025,
    "ब्य़": 1026,
    "ब्य़ा": 1027,
    "ब्॰ु": 1028,
    "ब्‌": 1029,
    "ब॰": 1030,
    "बॱ": 1031,
    "भ": 1032,
    "भं": 1033,
    "भा": 1034,
    "भां": 1035,
    "भा‍": 1036,
    "भि": 1037,
    "भी": 1038,
    "भु": 1039,
    "भू": 1040,
    "भृ": 1041,
    "भे": 1042,
    "भें": 1043,
    "भै": 1044,
    "भो": 1045,
    "भ्या": 1046,
    "भ्र": 1047,
    "म": 1048,
    "मं": 1049,
    "मः": 1050,
    "मा": 1051,
    "माँ": 1052,
    "मां": 1053,
    "मााि": 1054,
    "माा्च्": 1055,
    "माी": 1056,
    "मि": 1057,
    "मी": 1058,
    "मु": 1059,
    "मुं": 1060,
    "मुॱ": 1061,
    "मू": 1062,
    "मृ": 1063,
    "मॆ": 1064,
    "मॆं": 1065,
    "मे": 1066,
    "में": 1067,
    "मै": 1068,
    "मैं": 1069,
    "मॊ": 1070,
    "मो": 1071,
    "मौ": 1072,
    "म्": 1073,
    "म्A": 1074,
    "म्ः": 1075,
    "म्का": 1076,
    "म्को": 1077,
    "म्ग्र": 1078,
    "म्ना": 1079,
    "म्प": 1080,
    "म्पा": 1081,
    "म्पा्": 1082,
    "म्पि": 1083,
    "म्पु": 1084,
    "म्पू": 1085,
    "म्पूा्": 1086,
    "म्पृ": 1087,
    "म्पे": 1088,
    "म्पो": 1089,
    "म्प्": 1090,
    "म्प्या": 1091,
    "म्प्यु": 1092,
    "म्प्यू": 1093,
    "म्प्॰": 1094,
    "म्ब": 1095,
    "म्बा": 1096,
    "म्बि": 1097,
    "म्बे": 1098,
    "म्भ": 1099,
    "म्भा": 1100,
    "म्भु": 1101,
    "म्म": 1102,
    "म्मं": 1103,
    "म्मा": 1104,
    "म्मि": 1105,
    "म्मु": 1106,
    "म्मू": 1107,
    "म्मे": 1108,
    "म्मै": 1109,
    "म्मॊ": 1110,
    "म्य": 1111,
    "म्या": 1112,
    "म्यू": 1113,
    "म्र": 1114,
    "म्रि": 1115,
    "म्श": 1116,
    "म्स": 1117,
    "म्ह": 1118,
    "म्ही": 1119,
    "म्‌": 1120,
    "म॰": 1121,
    "य": 1122,
    "यं": 1123,
    "य़ा": 1124,
    "य़े": 1125,
    "या": 1126,
    "याँ": 1127,
    "यां": 1128,
    "याा्": 1129,
    "याा्पे": 1130,
    "या्": 1131,
    "या‍": 1132,
    "यि": 1133,
    "यिाि": 1134,
    "यी": 1135,
    "यु": 1136,
    "युं": 1137,
    "यू": 1138,
    "यॆ": 1139,
    "ये": 1140,
    "यें": 1141,
    "यै": 1142,
    "यो": 1143,
    "यों": 1144,
    "य्": 1145,
    "य्क्कां": 1146,
    "य्क्क्": 1147,
    "य्भा": 1148,
    "य्म": 1149,
    "य्मै": 1150,
    "य्य": 1151,
    "य्या्": 1152,
    "य्यो": 1153,
    "य्वु": 1154,
    "य्वे": 1155,
    "य्स्री": 1156,
    "य्य़ा": 1157,
    "य्‌": 1158,
    "र": 1159,
    "रं": 1160,
    "ऱ": 1161,
    "रा": 1162,
    "रां": 1163,
    "रा्": 1164,
    "रि": 1165,
    "रिं": 1166,
    "रिा": 1167,
    "रि॰": 1168,
    "री": 1169,
    "रीं": 1170,
    "रु": 1171,
    "रुं": 1172,
    "रू": 1173,
    "रॆ": 1174,
    "रे": 1175,
    "रें": 1176,
    "रै": 1177,
    "रो": 1178,
    "र्": 1179,
    "र्क": 1180,
    "र्का": 1181,
    "र्कि": 1182,
    "र्किं": 1183,
    "र्कॆ": 1184,
    "र्के": 1185,
    "र्कॊं": 1186,
    "र्ग": 1187,
    "र्गा": 1188,
    "र्गि": 1189,
    "र्गी": 1190,
    "र्च": 1191,
    "र्चा": 1192,
    "र्चु": 1193,
    "र्चू": 1194,
    "र्च्चि": 1195,
    "र्ज": 1196,
    "र्जा": 1197,
    "र्जी": 1198,
    "र्ट": 1199,
    "र्टि": 1200,
    "र्टी": 1201,
    "र्ट्": 1202,
    "र्ड": 1203,
    "र्डा": 1204,
    "र्डु": 1205,
    "र्डॆ": 1206,
    "र्ड्": 1207,
    "र्ड्‌": 1208,
    "र्ण": 1209,
    "र्णा": 1210,
    "र्णी": 1211,
    "र्ण्णी": 1212,
    "र्ण्न": 1213,
    "र्त": 1214,
    "र्ति": 1215,
    "र्ती": 1216,
    "र्तू": 1217,
    "र्त्त": 1218,
    "र्थ": 1219,
    "र्थं": 1220,
    "र्थि": 1221,
    "र्थी": 1222,
    "र्दि": 1223,
    "र्दी": 1224,
    "र्दु": 1225,
    "र्दू": 1226,
    "र्दे": 1227,
    "र्दॊ": 1228,
    "र्द्द": 1229,
    "र्ध": 1230,
    "र्न": 1231,
    "र्ना": 1232,
    "र्नी": 1233,
    "र्नू": 1234,
    "र्न्": 1235,
    "र्प": 1236,
    "र्पा": 1237,
    "र्पे": 1238,
    "र्पो": 1239,
    "र्ब": 1240,
    "र्बो": 1241,
    "र्ब्ब": 1242,
    "र्भ": 1243,
    "र्भा": 1244,
    "र्भी": 1245,
    "र्म": 1246,
    "र्मा": 1247,
    "र्मि": 1248,
    "र्मु": 1249,
    "र्मे": 1250,
    "र्म्": 1251,
    "र्य": 1252,
    "र्या": 1253,
    "र्य्या": 1254,
    "र्य्य़": 1255,
    "र्य्य़ा": 1256,
    "र्रि": 1257,
    "र्ल": 1258,
    "र्ला": 1259,
    "र्लु": 1260,
    "र्व": 1261,
    "र्वा": 1262,
    "र्वि": 1263,
    "र्वो": 1264,
    "र्श": 1265,
    "र्शा": 1266,
    "र्शि": 1267,
    "र्ष": 1268,
    "र्षा": 1269,
    "र्षि": 1270,
    "र्स": 1271,
    "र्सी": 1272,
    "र्स्": 1273,
    "र्‌": 1274,
    "र्‍": 1275,
    "र॰": 1276,
    "रॱ": 1277,
    "र‌": 1278,
    "र‍": 1279,
    "ऱ": 1280,
    "ऱं": 1281,
    "ऱा": 1282,
    "ऱि": 1283,
    "ऱिं": 1284,
    "ऱु": 1285,
    "ऱू": 1286,
    "ऱॆ": 1287,
    "ऱै": 1288,
    "ऱॊ": 1289,
    "ऱो": 1290,
    "ऱ्": 1291,
    "ऱ्क": 1292,
    "ऱ्का": 1293,
    "ऱ्कु": 1294,
    "ऱ्कै": 1295,
    "ऱ्चि": 1296,
    "ऱ्प": 1297,
    "ऱ्पू": 1298,
    "ऱ्ऱ": 1299,
    "ऱ्ऱा": 1300,
    "ऱ्ऱि": 1301,
    "ऱ्ऱु": 1302,
    "ऱ्ऱ्": 1303,
    "ल": 1304,
    "लं": 1305,
    "ला": 1306,
    "लां": 1307,
    "लि": 1308,
    "लिं": 1309,
    "ली": 1310,
    "लु": 1311,
    "लुं": 1312,
    "लू": 1313,
    "लूा्": 1314,
    "लॅ": 1315,
    "लॆ": 1316,
    "लॆं": 1317,
    "ले": 1318,
    "लें": 1319,
    "लै": 1320,
    "लॉ": 1321,
    "लॊ": 1322,
    "लो": 1323,
    "लोँ": 1324,
    "लौ": 1325,
    "ल्": 1326,
    "ल्ऎ": 1327,
    "ल्क": 1328,
    "ल्कै": 1329,
    "ल्क्कु": 1330,
    "ल्ग": 1331,
    "ल्ट": 1332,
    "ल्टि": 1333,
    "ल्टे": 1334,
    "ल्ट्": 1335,
    "ल्ड": 1336,
    "ल्डिं": 1337,
    "ल्डी": 1338,
    "ल्डीं": 1339,
    "ल्ड्": 1340,
    "ल्ड्री": 1341,
    "ल्थ": 1342,
    "ल्द": 1343,
    "ल्दा": 1344,
    "ल्न": 1345,
    "ल्प": 1346,
    "ल्पी": 1347,
    "ल्पु": 1348,
    "ल्पो": 1349,
    "ल्फे": 1350,
    "ल्भ": 1351,
    "ल्म": 1352,
    "ल्य": 1353,
    "ल्या": 1354,
    "ल्यु": 1355,
    "ल्यू": 1356,
    "ल्ल": 1357,
    "ल्लं": 1358,
    "ल्ला": 1359,
    "ल्लाि": 1360,
    "ल्ला‍": 1361,
    "ल्लि": 1362,
    "ल्ली": 1363,
    "ल्लु": 1364,
    "ल्लूाि": 1365,
    "ल्लूा्": 1366,
    "ल्लॆ": 1367,
    "ल्ले": 1368,
    "ल्लै": 1369,
    "ल्ल्‌": 1370,
    "ल्वि": 1371,
    "ल्वॆ": 1372,
    "ल्वे": 1373,
    "ल्स": 1374,
    "ल्स्": 1375,
    "ल्ह": 1376,
    "ल्हा": 1377,
    "ल्हे": 1378,
    "ल्‌": 1379,
    "ल॰": 1380,
    "लॱ": 1381,
    "ळ": 1382,
    "ळं": 1383,
    "ळा": 1384,
    "ळां": 1385,
    "ळा्": 1386,
    "ळि": 1387,
    "ळी": 1388,
    "ळु": 1389,
    "ळुं": 1390,
    "ळू": 1391,
    "ळॆ": 1392,
    "ळे": 1393,
    "ळै": 1394,
    "ळो": 1395,
    "ळ्": 1396,
    "ळ्क": 1397,
    "ळ्ट": 1398,
    "ळ्प": 1399,
    "ळ्मि": 1400,
    "ळ्मी": 1401,
    "ळ्या": 1402,
    "ळ्ळ": 1403,
    "ळ्ळा": 1404,
    "ळ्ळि": 1405,
    "ळ्ळु": 1406,
    "ळ्ळे": 1407,
    "ळ‍": 1408,
    "ऴ": 1409,
    "ऴा": 1410,
    "ऴि": 1411,
    "ऴि‌": 1412,
    "ऴु": 1413,
    "ऴेां": 1414,
    "ऴै": 1415,
    "ऴ्": 1416,
    "ऴ्क": 1417,
    "ऴ्च्": 1418,
    "ऴ्न": 1419,
    "ऴ्ना": 1420,
    "ऴ्‌": 1421,
    "व": 1422,
    "वं": 1423,
    "वः": 1424,
    "वा": 1425,
    "वां": 1426,
    "वाि": 1427,
    "वा्": 1428,
    "वा्स्": 1429,
    "वि": 1430,
    "विॱ": 1431,
    "वी": 1432,
    "वीा्": 1433,
    "वु": 1434,
    "वुं": 1435,
    "वू": 1436,
    "वृ": 1437,
    "वॅ": 1438,
    "वॆ": 1439,
    "वॆं": 1440,
    "वे": 1441,
    "वें": 1442,
    "वेा्ल्टु": 1443,
    "वै": 1444,
    "वॉ": 1445,
    "वॊ": 1446,
    "वो": 1447,
    "व्": 1448,
    "व्त": 1449,
    "व्दा": 1450,
    "व्भ": 1451,
    "व्य": 1452,
    "व्या": 1453,
    "व्र": 1454,
    "व्व": 1455,
    "व्वि": 1456,
    "व्वे": 1457,
    "व्ही": 1458,
    "व्‌": 1459,
    "व॰": 1460,
    "व‌": 1461,
    "श": 1462,
    "शं": 1463,
    "शा": 1464,
    "शां": 1465,
    "शाः": 1466,
    "शा‍": 1467,
    "शि": 1468,
    "शिं": 1469,
    "शी": 1470,
    "शु": 1471,
    "शू": 1472,
    "शृ": 1473,
    "शॆ": 1474,
    "शे": 1475,
    "शें": 1476,
    "शै": 1477,
    "शो": 1478,
    "शौ": 1479,
    "श्": 1480,
    "श्च": 1481,
    "श्चि": 1482,
    "श्ब": 1483,
    "श्बा": 1484,
    "श्य": 1485,
    "श्या": 1486,
    "श्यो": 1487,
    "श्र": 1488,
    "श्रा": 1489,
    "श्रि": 1490,
    "श्री": 1491,
    "श्रे": 1492,
    "श्व": 1493,
    "श्वा": 1494,
    "श्शि": 1495,
    "श्शे": 1496,
    "श्॰ी": 1497,
    "श्ॱ": 1498,
    "शॗ": 1499,
    "ष": 1500,
    "षं": 1501,
    "षा": 1502,
    "षि": 1503,
    "षी": 1504,
    "षु": 1505,
    "षू": 1506,
    "षे": 1507,
    "षो": 1508,
    "ष्": 1509,
    "ष्क": 1510,
    "ष्कृ": 1511,
    "ष्ट": 1512,
    "ष्टा": 1513,
    "ष्टि": 1514,
    "ष्टी": 1515,
    "ष्टे": 1516,
    "ष्ट्": 1517,
    "ष्ट्र": 1518,
    "ष्ट्रं": 1519,
    "ष्ट्री": 1520,
    "ष्ट्॰": 1521,
    "ष्ठ": 1522,
    "ष्ठा": 1523,
    "ष्ण": 1524,
    "ष्णा": 1525,
    "ष्णु": 1526,
    "ष्ना": 1527,
    "ष्य": 1528,
    "ष्य़": 1529,
    "ष्‌": 1530,
    "ष्‍": 1531,
    "षॢ": 1532,
    "स": 1533,
    "सं": 1534,
    "सं‌": 1535,
    "सः": 1536,
    "स़": 1537,
    "स़ा": 1538,
    "स़ि": 1539,
    "सा": 1540,
    "सां": 1541,
    "सा‍": 1542,
    "सि": 1543,
    "सिं": 1544,
    "सि॰": 1545,
    "सी": 1546,
    "सीं": 1547,
    "सी‍": 1548,
    "सु": 1549,
    "सुं": 1550,
    "सुॱ": 1551,
    "सू": 1552,
    "सूी": 1553,
    "सृ": 1554,
    "सृं": 1555,
    "सॅ": 1556,
    "सॆ": 1557,
    "सॆं": 1558,
    "से": 1559,
    "सें": 1560,
    "सेे": 1561,
    "से‍": 1562,
    "सै": 1563,
    "सैं": 1564,
    "सॊ": 1565,
    "सो": 1566,
    "सोँ": 1567,
    "सौ": 1568,
    "स्": 1569,
    "स्क": 1570,
    "स्का": 1571,
    "स्कु": 1572,
    "स्कृ": 1573,
    "स्क्का": 1574,
    "स्क्री": 1575,
    "स्जि": 1576,
    "स्जी": 1577,
    "स्ट": 1578,
    "स्टँ": 1579,
    "स्टा": 1580,
    "स्टि": 1581,
    "स्टी": 1582,
    "स्टु": 1583,
    "स्टू": 1584,
    "स्टे": 1585,
    "स्टो": 1586,
    "स्ट्": 1587,
    "स्ट्री": 1588,
    "स्त": 1589,
    "स्तं": 1590,
    "स्ता": 1591,
    "स्तां": 1592,
    "स्ति": 1593,
    "स्तु": 1594,
    "स्तू": 1595,
    "स्तृ": 1596,
    "स्तॆ": 1597,
    "स्ते": 1598,
    "स्त्र": 1599,
    "स्त्रा": 1600,
    "स्त्रि": 1601,
    "स्त्री": 1602,
    "स्थ": 1603,
    "स्था": 1604,
    "स्थि": 1605,
    "स्थॆ": 1606,
    "स्थे": 1607,
    "स्थ्य": 1608,
    "स्ध": 1609,
    "स्धा": 1610,
    "स्ना": 1611,
    "स्ने": 1612,
    "स्प": 1613,
    "स्पि": 1614,
    "स्पॆ": 1615,
    "स्पे": 1616,
    "स्ब": 1617,
    "स्बा": 1618,
    "स्भा": 1619,
    "स्म": 1620,
    "स्मा": 1621,
    "स्मृ": 1622,
    "स्य": 1623,
    "स्यः": 1624,
    "स्र": 1625,
    "स्रा": 1626,
    "स्री": 1627,
    "स्ऱ्ऱ": 1628,
    "स्ऱ्ऱु": 1629,
    "स्ऱ्ऱे": 1630,
    "स्लि": 1631,
    "स्व": 1632,
    "स्वं": 1633,
    "स्वा": 1634,
    "स्वि": 1635,
    "स्वी": 1636,
    "स्वे": 1637,
    "स्सु": 1638,
    "स्सो": 1639,
    "स्स्": 1640,
    "स्ह": 1641,
    "स्य़": 1642,
    "स्॰": 1643,
    "स्॰ा": 1644,
    "स्‌": 1645,
    "स्‍": 1646,
    "स॰": 1647,
    "ह": 1648,
    "हः": 1649,
    "हा": 1650,
    "हाँ": 1651,
    "हां": 1652,
    "हा॓": 1653,
    "हि": 1654,
    "हिँ": 1655,
    "हिं": 1656,
    "हि॰": 1657,
    "हिॱ": 1658,
    "ही": 1659,
    "हीं": 1660,
    "हु": 1661,
    "हू": 1662,
    "हूँ": 1663,
    "हूा": 1664,
    "हृ": 1665,
    "हॆ": 1666,
    "हे": 1667,
    "है": 1668,
    "हैे": 1669,
    "है‍": 1670,
    "हॉ": 1671,
    "हॊ": 1672,
    "हो": 1673,
    "हौ": 1674,
    "ह्दि": 1675,
    "ह्ने": 1676,
    "ह्म": 1677,
    "ह्मि": 1678,
    "ह्य": 1679,
    "ह्ये": 1680,
    "ह॰": 1681,
    "हॱ": 1682,
    "ह‌": 1683,
    "ऽ": 1684,
    "ा": 1685,
    "ां": 1686,
    "े": 1687,
    "ॎ": 1688,
    "ॐ": 1689,
    "ज़": 1690,
    "ज़ा": 1691,
    "ड़": 1692,
    "ड़ा": 1693,
    "ड़ि": 1694,
    "ड़ी": 1695,
    "ड़े": 1696,
    "ड़्ह": 1697,
    "ड़्हे": 1698,
    "ढ़ि": 1699,
    "ढ़ी": 1700,
    "ढ़ो": 1701,
    "फ़": 1702,
    "फ़्दु": 1703,
    "य़": 1704,
    "य़ा": 1705,
    "य़ां": 1706,
    "य़ि": 1707,
    "य़ी": 1708,
    "य़ु": 1709,
    "य़े": 1710,
    "य़ो": 1711,
    "य़ॗ": 1712,
    "ॠ": 1713,
    "।": 1714,
    "॥": 1715,
    "०": 1716,
    "१": 1717,
    "१ः": 1718,
    "१्को": 1719,
    "२": 1720,
    "२ा": 1721,
    "३": 1722,
    "४": 1723,
    "५": 1724,
    "५ु": 1725,
    "५ुॱ": 1726,
    "५ो": 1727,
    "६": 1728,
    "६ः": 1729,
    "७": 1730,
    "८": 1731,
    "८े": 1732,
    "९": 1733,
    "॰": 1734,
    "॰ा": 1735,
    "॰ि": 1736,
    "॰िः": 1737,
    "॰ी": 1738,
    "॰ु": 1739,
    "॰ू": 1740,
    "॰े": 1741,
    "॰ो": 1742,
    "॰्थ": 1743,
    "॰्प": 1744,
    "॰्ब": 1745,
    "॰्ब्ब": 1746,
    "॰्म्म": 1747,
    "॰्य": 1748,
    "॰्य्य": 1749,
    "ॱ": 1750,
    "ॱा": 1751,
    "ॱि": 1752,
    "ॱे": 1753,
    "ॱो": 1754,
    "ॲ": 1755,
    "ॳ": 1756,
    "ॷ": 1757,
    "ॺ": 1758,
    "ॺ‌": 1759,
    "ॻ": 1760,
    "ॻ्ऱ": 1761,
    "ॻ्ऱॆ": 1762,
    "ॻ्ऱ्": 1763,
    "ॻ्ऱ्स्": 1764,
    "ॻ‌": 1765,
    "ॻ‍": 1766,
    "ॼ": 1767,
    "ॼ‌": 1768,
    "ॼ‍‍": 1769,
    "ॽ": 1770,
    "ॽ‌": 1771,
    "ॾ": 1772,
    "ॾ‌": 1773,
    "​": 1774,
    "↑": 1775
  },
  "metadata": {
    "tag": "zs_loso_rungA_khmer",
    "num_graphemes": 1774,
    "space": "shared-abugida-pivot"
  }
}