{
  "grapheme2idx": {
    "<blank>": 0,
    "<unk>": 1,
    " ‌": 2,
    "!": 3,
    "\"": 4,
    "&": 5,
    "'": 6,
    "(": 7,
    ")": 8,
    ",": 9,
    "-": 10,
    "-ा": 11,
    ".": 12,
    "/": 13,
    "0": 14,
    "1": 15,
    "2": 16,
    "3": 17,
    "4": 18,
    "5": 19,
    "6": 20,
    "7": 21,
    "8": 22,
    "9": 23,
    ":": 24,
    "?": 25,
    "A": 26,
    "D": 27,
    "G": 28,
    "H": 29,
    "I": 30,
    "O": 31,
    "P": 32,
    "V": 33,
    "[": 34,
    "c": 35,
    "|": 36,
    "°": 37,
    "ا": 38,
    "ت": 39,
    "ج": 40,
    "ر": 41,
    "گ": 42,
    "ی": 43,
    "ँ": 44,
    "अ": 45,
    "अं": 46,
    "अि": 47,
    "अे": 48,
    "अ्या": 49,
    "अ॰": 50,
    "अॱ": 51,
    "आ": 52,
    "आं": 53,
    "आा्": 54,
    "आे": 55,
    "आ्य": 56,
    "इ": 57,
    "इं": 58,
    "इ्ट": 59,
    "इ॰": 60,
    "इॱ": 61,
    "ई": 62,
    "ईँ": 63,
    "ईं": 64,
    "उ": 65,
    "उं": 66,
    "उाि": 67,
    "उॱ": 68,
    "ऊ": 69,
    "ऊँ": 70,
    "ऊं": 71,
    "ऋ": 72,
    "ऍ": 73,
    "ऎ": 74,
    "ऎं": 75,
    "ऎ‍": 76,
    "ए": 77,
    "एँ": 78,
    "एा": 79,
    "ऐ": 80,
    "ऐं": 81,
    "ऐे": 82,
    "ऑ": 83,
    "ऒ": 84,
    "ऒं": 85,
    "ऒाि": 86,
    "ऒा्क्स्": 87,
    "ऒ‌": 88,
    "ओ": 89,
    "ओँ": 90,
    "ओं": 91,
    "ओ्बा": 92,
    "औ": 93,
    "औं": 94,
    "क": 95,
    "कं": 96,
    "कं‌": 97,
    "कः": 98,
    "का": 99,
    "काँ": 100,
    "कां": 101,
    "काुं": 102,
    "काे": 103,
    "का्": 104,
    "का‍": 105,
    "का‍‌": 106,
    "कि": 107,
    "किं": 108,
    "किाि": 109,
    "की": 110,
    "कीे": 111,
    "कु": 112,
    "कुं": 113,
    "कु॰": 114,
    "कू": 115,
    "कृ": 116,
    "कॅ": 117,
    "कॅा": 118,
    "कॆ": 119,
    "कॆं": 120,
    "के": 121,
    "कें": 122,
    "केा": 123,
    "केॆ्टा": 124,
    "केे": 125,
    "कै": 126,
    "कॉ": 127,
    "कॊ": 128,
    "कॊं": 129,
    "कॊॕ": 130,
    "को": 131,
    "कोँ": 132,
    "कों": 133,
    "कौ": 134,
    "क्": 135,
    "क्क": 136,
    "क्कं": 137,
    "क्का": 138,
    "क्कि": 139,
    "क्कु": 140,
    "क्कू": 141,
    "क्कॆ": 142,
    "क्के": 143,
    "क्कै": 144,
    "क्कॊ": 145,
    "क्को": 146,
    "क्क्": 147,
    "क्क्‌": 148,
    "क्कॗ": 149,
    "क्ट": 150,
    "क्टो": 151,
    "क्ट्रि": 152,
    "क्ट्रो": 153,
    "क्त": 154,
    "क्ता": 155,
    "क्तां": 156,
    "क्ति": 157,
    "क्तीं": 158,
    "क्तु": 159,
    "क्ते": 160,
    "क्नो": 161,
    "क्प": 162,
    "क्पे": 163,
    "क्मि": 164,
    "क्य": 165,
    "क्या": 166,
    "क्यू": 167,
    "क्र": 168,
    "क्रं": 169,
    "क्रा": 170,
    "क्रि": 171,
    "क्री": 172,
    "क्रे": 173,
    "क्रै": 174,
    "क्रो": 175,
    "क्ल": 176,
    "क्ला": 177,
    "क्लि": 178,
    "क्ळे": 179,
    "क्व": 180,
    "क्वा": 181,
    "क्वॆ": 182,
    "क्श": 183,
    "क्ष": 184,
    "क्षा": 185,
    "क्षां": 186,
    "क्षि": 187,
    "क्षिं": 188,
    "क्षी": 189,
    "क्षुः": 190,
    "क्षॆ": 191,
    "क्षे": 192,
    "क्षो": 193,
    "क्ष्म": 194,
    "क्ष्मि": 195,
    "क्ष्मिॕ": 196,
    "क्ष्मी": 197,
    "क्ष्य": 198,
    "क्स": 199,
    "क्सि": 200,
    "क्स्": 201,
    "क्य़ा": 202,
    "क्॰": 203,
    "क्॰ा": 204,
    "क्॰े": 205,
    "क्‌": 206,
    "क्‍": 207,
    "क॰": 208,
    "कॱ": 209,
    "क‌": 210,
    "क‍ी": 211,
    "ख": 212,
    "खं": 213,
    "ख़": 214,
    "खा": 215,
    "खाँ": 216,
    "खां": 217,
    "खि": 218,
    "खिा": 219,
    "खी": 220,
    "खु": 221,
    "खू": 222,
    "खे": 223,
    "खेा": 224,
    "खै": 225,
    "खो": 226,
    "ख्त": 227,
    "ख्य": 228,
    "ख्यु": 229,
    "ख्यॆ": 230,
    "ख्रीः": 231,
    "ख॰": 232,
    "ग": 233,
    "गं": 234,
    "ग़ि": 235,
    "गा": 236,
    "गां": 237,
    "गि": 238,
    "गि॰": 239,
    "गी": 240,
    "गु": 241,
    "गुं": 242,
    "गुः": 243,
    "गू": 244,
    "गृ": 245,
    "गॆ": 246,
    "गॆं": 247,
    "गे": 248,
    "गे्ड": 249,
    "गै": 250,
    "गॊ": 251,
    "गो": 252,
    "गों": 253,
    "गौ": 254,
    "ग्": 255,
    "ग्ई": 256,
    "ग्ग": 257,
    "ग्गि": 258,
    "ग्गॆ": 259,
    "ग्ण": 260,
    "ग्नि": 261,
    "ग्भ": 262,
    "ग्य": 263,
    "ग्या": 264,
    "ग्ये": 265,
    "ग्र": 266,
    "ग्रं": 267,
    "ग्रा": 268,
    "ग्रां": 269,
    "ग्री": 270,
    "ग्रू": 271,
    "ग्रे": 272,
    "ग्ला": 273,
    "ग्वा": 274,
    "ग्ष": 275,
    "ग्स": 276,
    "ग्य़ा": 277,
    "ग्॰ु": 278,
    "ग॰": 279,
    "गॱ": 280,
    "घ": 281,
    "घं": 282,
    "घा": 283,
    "घां": 284,
    "घु": 285,
    "घे": 286,
    "घो": 287,
    "घौ": 288,
    "घ्य": 289,
    "घ्या": 290,
    "घ्र": 291,
    "ङ": 292,
    "ङा": 293,
    "ङि": 294,
    "ङे": 295,
    "ङ्": 296,
    "ङ्क": 297,
    "ङ्का": 298,
    "ङ्कि": 299,
    "ङ्कु": 300,
    "ङ्के": 301,
    "ङ्कै": 302,
    "ङ्को": 303,
    "ङ्क्": 304,
    "ङ्ग": 305,
    "ङ्गा": 306,
    "ङ्गी": 307,
    "ङ्गु": 308,
    "ङ्गे": 309,
    "ङ्गो": 310,
    "ङ्घ": 311,
    "ङ्ङ": 312,
    "ङ्ङा": 313,
    "ङ्ङि": 314,
    "ङ्ङे": 315,
    "ङ्ङों": 316,
    "ङ्ङ्‌": 317,
    "ङ्ट": 318,
    "ङ्त": 319,
    "ङ्ष": 320,
    "ङ्‌": 321,
    "च": 322,
    "चं": 323,
    "चा": 324,
    "चां": 325,
    "चा्": 326,
    "चा्जि": 327,
    "चा्व": 328,
    "चि": 329,
    "चिं": 330,
    "चिॕ": 331,
    "ची": 332,
    "चु": 333,
    "चुे": 334,
    "चू": 335,
    "चॆ": 336,
    "चे": 337,
    "चें": 338,
    "चेा्ऩ्": 339,
    "चै": 340,
    "चॊ": 341,
    "चो": 342,
    "चों": 343,
    "चौ": 344,
    "च्": 345,
    "च्च": 346,
    "च्चं": 347,
    "च्चा": 348,
    "च्चि": 349,
    "च्ची": 350,
    "च्चु": 351,
    "च्चे": 352,
    "च्चेाि": 353,
    "च्च्": 354,
    "च्च्‌": 355,
    "च्छ": 356,
    "च्छा": 357,
    "च्छु": 358,
    "च्छे": 359,
    "च्छ्": 360,
    "च्य": 361,
    "च्या": 362,
    "च॑": 363,
    "च॰": 364,
    "चॱ": 365,
    "छ": 366,
    "छा": 367,
    "छि": 368,
    "छु": 369,
    "छुॱ": 370,
    "छे": 371,
    "छें": 372,
    "छो": 373,
    "छोँ": 374,
    "छ॰": 375,
    "ज": 376,
    "जं": 377,
    "ज़": 378,
    "ज़ी": 379,
    "ज़ु": 380,
    "जा": 381,
    "जा॰": 382,
    "जि": 383,
    "जिं": 384,
    "जि॰": 385,
    "जिॱ": 386,
    "जी": 387,
    "जु": 388,
    "जुॱ": 389,
    "जू": 390,
    "जॆ": 391,
    "जे": 392,
    "जै": 393,
    "जो": 394,
    "ज्": 395,
    "ज्ञ": 396,
    "ज्ञा": 397,
    "ज्ञी": 398,
    "ज्ब": 399,
    "ज्य": 400,
    "ज्यु": 401,
    "ज्यू": 402,
    "ज्येा": 403,
    "ज्यो": 404,
    "ज्यों": 405,
    "ज्ल": 406,
    "ज्व": 407,
    "ज्सि": 408,
    "ज्य़": 409,
    "ज॰": 410,
    "झ": 411,
    "झा": 412,
    "झाँ": 413,
    "झां": 414,
    "झि": 415,
    "झी": 416,
    "झु": 417,
    "झे": 418,
    "झ॰": 419,
    "ञ": 420,
    "ञा": 421,
    "ञ्च": 422,
    "ञ्चा": 423,
    "ञ्चा्": 424,
    "ञ्चि": 425,
    "ञ्ज": 426,
    "ञ्जा": 427,
    "ञ्जि": 428,
    "ञ्जी": 429,
    "ञ्ञ": 430,
    "ञ्ञि": 431,
    "ञ्ञो": 432,
    "ट": 433,
    "टं": 434,
    "टा": 435,
    "टाा": 436,
    "टि": 437,
    "टिं": 438,
    "टिॱ": 439,
    "टी": 440,
    "टु": 441,
    "टुं": 442,
    "टू": 443,
    "टॆ": 444,
    "टे": 445,
    "टे्नि": 446,
    "टै": 447,
    "टैं": 448,
    "टो": 449,
    "टौ": 450,
    "ट्": 451,
    "ट्चाा्च्च": 452,
    "ट्चि": 453,
    "ट्ट": 454,
    "ट्टं": 455,
    "ट्टा": 456,
    "ट्टि": 457,
    "ट्टी": 458,
    "ट्टु": 459,
    "ट्टूा्पु": 460,
    "ट्टै": 461,
    "ट्टो": 462,
    "ट्ट्": 463,
    "ट्ण": 464,
    "ट्न": 465,
    "ट्नं": 466,
    "ट्प": 467,
    "ट्मि": 468,
    "ट्य": 469,
    "ट्यू": 470,
    "ट्र": 471,
    "ट्रा": 472,
    "ट्रि": 473,
    "ट्री": 474,
    "ट्रॆ": 475,
    "ट्रे": 476,
    "ट्रै": 477,
    "ट्रो": 478,
    "ट्र्या": 479,
    "ट्ल": 480,
    "ट्लु": 481,
    "ट्व": 482,
    "ट्श्री": 483,
    "ट्स्": 484,
    "ट्॰": 485,
    "टॗ": 486,
    "ठ": 487,
    "ठा": 488,
    "ठां": 489,
    "ठि": 490,
    "ठि॰": 491,
    "ठी": 492,
    "ठु": 493,
    "ठे": 494,
    "ठें": 495,
    "ठो": 496,
    "ठ्ठ": 497,
    "ठ॰": 498,
    "ड": 499,
    "डः": 500,
    "ड़": 501,
    "ड़ा": 502,
    "ड़ि": 503,
    "ड़ी": 504,
    "ड़े": 505,
    "ड़ौ": 506,
    "डा": 507,
    "डां": 508,
    "डाः": 509,
    "डि": 510,
    "डिं": 511,
    "डी": 512,
    "डु": 513,
    "डू": 514,
    "डॆ": 515,
    "डॆं": 516,
    "डे": 517,
    "डै": 518,
    "डो": 519,
    "ड्": 520,
    "ड्क": 521,
    "ड्ड": 522,
    "ड्डा": 523,
    "ड्डि": 524,
    "ड्डु": 525,
    "ड्या": 526,
    "ड्यां": 527,
    "ड्र": 528,
    "ड्रा": 529,
    "ड्रि": 530,
    "ड्री": 531,
    "ड्‌": 532,
    "ड्‍": 533,
    "ढ": 534,
    "ढ़": 535,
    "ढ़ि": 536,
    "ढ़ी": 537,
    "ढा": 538,
    "ढि": 539,
    "ढु": 540,
    "ढे": 541,
    "ढे़": 542,
    "ढ॰": 543,
    "ण": 544,
    "णं": 545,
    "ण़": 546,
    "णा": 547,
    "णाः": 548,
    "णि": 549,
    "णी": 550,
    "णीं": 551,
    "णु": 552,
    "णु्": 553,
    "णू": 554,
    "णॆ": 555,
    "णे": 556,
    "णें": 557,
    "णै": 558,
    "णो": 559,
    "णौ": 560,
    "ण्": 561,
    "ण्क": 562,
    "ण्का": 563,
    "ण्ट": 564,
    "ण्टं": 565,
    "ण्टा": 566,
    "ण्टि": 567,
    "ण्टी": 568,
    "ण्टु": 569,
    "ण्टे": 570,
    "ण्टै": 571,
    "ण्ट्": 572,
    "ण्ट्स्": 573,
    "ण्ट्‌": 574,
    "ण्ठु": 575,
    "ण्ड": 576,
    "ण्डा": 577,
    "ण्डि": 578,
    "ण्ण": 579,
    "ण्णा": 580,
    "ण्णि": 581,
    "ण्णु": 582,
    "ण्णू": 583,
    "ण्ता": 584,
    "ण्ति": 585,
    "ण्पु": 586,
    "ण्मै": 587,
    "ण्य": 588,
    "ण्या": 589,
    "ण‍": 590,
    "त": 591,
    "तं": 592,
    "तः": 593,
    "त़": 594,
    "त़ा": 595,
    "त़ि": 596,
    "ता": 597,
    "ताँ": 598,
    "तां": 599,
    "ता्का": 600,
    "ति": 601,
    "तिं": 602,
    "तिः": 603,
    "तिाि": 604,
    "ति॰": 605,
    "ती": 606,
    "तीा्": 607,
    "तीा्त्त": 608,
    "तु": 609,
    "तुं": 610,
    "तू": 611,
    "तूा्": 612,
    "तू॰": 613,
    "तृ": 614,
    "तॆ": 615,
    "तॆॆ": 616,
    "ते": 617,
    "तें": 618,
    "तै": 619,
    "तॊ": 620,
    "तो": 621,
    "तों": 622,
    "त्": 623,
    "त्क": 624,
    "त्का": 625,
    "त्कू": 626,
    "त्कृ": 627,
    "त्त": 628,
    "त्ता": 629,
    "त्ति": 630,
    "त्ती": 631,
    "त्तु": 632,
    "त्तू": 633,
    "त्तॆ": 634,
    "त्ते": 635,
    "त्तेा्": 636,
    "त्तै": 637,
    "त्तॊ": 638,
    "त्त्": 639,
    "त्त्य": 640,
    "त्त्व": 641,
    "त्त्‌": 642,
    "त्थ": 643,
    "त्थि": 644,
    "त्न": 645,
    "त्प": 646,
    "त्बे": 647,
    "त्म": 648,
    "त्मा": 649,
    "त्य": 650,
    "त्या": 651,
    "त्यां": 652,
    "त्यु": 653,
    "त्ये": 654,
    "त्र": 655,
    "त्रं": 656,
    "त्रं‌": 657,
    "त्रा": 658,
    "त्रि": 659,
    "त्री": 660,
    "त्रॆ": 661,
    "त्रे": 662,
    "त्रों": 663,
    "त्र्य": 664,
    "त्र्यं": 665,
    "त्व": 666,
    "त्वा": 667,
    "त्वि": 668,
    "त्स": 669,
    "त्सा": 670,
    "त्स्ना": 671,
    "त्ह": 672,
    "त्य़": 673,
    "त्य़ु": 674,
    "त्य़े": 675,
    "त्॰": 676,
    "त्‌": 677,
    "त्‍": 678,
    "त॰": 679,
    "तॱ": 680,
    "त‍े": 681,
    "थ": 682,
    "था": 683,
    "थां": 684,
    "थि": 685,
    "थी": 686,
    "थु": 687,
    "थू": 688,
    "थृ": 689,
    "थे": 690,
    "थै": 691,
    "थ्य": 692,
    "थ॰": 693,
    "द": 694,
    "दा": 695,
    "दां": 696,
    "दि": 697,
    "दिं": 698,
    "दि॰": 699,
    "दी": 700,
    "दी्": 701,
    "दु": 702,
    "दुं": 703,
    "दुि": 704,
    "दू": 705,
    "दूं": 706,
    "दृ": 707,
    "दॆ": 708,
    "दे": 709,
    "दें": 710,
    "दै": 711,
    "दॊ": 712,
    "दो": 713,
    "दौ": 714,
    "द्": 715,
    "द्घा": 716,
    "द्ट": 717,
    "द्द": 718,
    "द्दा": 719,
    "द्दि": 720,
    "द्दु": 721,
    "द्दू": 722,
    "द्ध": 723,
    "द्धा": 724,
    "द्धि": 725,
    "द्धी": 726,
    "द्फु": 727,
    "द्ब": 728,
    "द्बा": 729,
    "द्बि": 730,
    "द्बी": 731,
    "द्बो": 732,
    "द्म": 733,
    "द्मा": 734,
    "द्य": 735,
    "द्या": 736,
    "द्यु": 737,
    "द्यो": 738,
    "द्र": 739,
    "द्रा": 740,
    "द्रि": 741,
    "द्री": 742,
    "द्रु": 743,
    "द्रे": 744,
    "द्ळु": 745,
    "द्वा": 746,
    "द्वी": 747,
    "द्शि": 748,
    "द्य़": 749,
    "द्य़ा": 750,
    "द्॰": 751,
    "द्‌": 752,
    "ध": 753,
    "धा": 754,
    "धि": 755,
    "धिि": 756,
    "धी": 757,
    "धीं": 758,
    "धु": 759,
    "धू": 760,
    "धे": 761,
    "धो": 762,
    "धौ": 763,
    "ध्दा": 764,
    "ध्दी": 765,
    "ध्ब": 766,
    "ध्य": 767,
    "ध्या": 768,
    "ध्ये": 769,
    "ध्र": 770,
    "ध्व": 771,
    "ध॰": 772,
    "न": 773,
    "नं": 774,
    "नः": 775,
    "ना": 776,
    "नाँ": 777,
    "नां": 778,
    "नाि": 779,
    "ना्": 780,
    "नि": 781,
    "निं": 782,
    "निॕ": 783,
    "नि‍": 784,
    "नी": 785,
    "नीं": 786,
    "नीा्": 787,
    "नु": 788,
    "नुं": 789,
    "नू": 790,
    "नू॰": 791,
    "नृ": 792,
    "नॅ": 793,
    "नॆ": 794,
    "ने": 795,
    "नेे": 796,
    "नै": 797,
    "नॊ": 798,
    "नो": 799,
    "नौ": 800,
    "न्": 801,
    "न्कु": 802,
    "न्ट": 803,
    "न्टा": 804,
    "न्ट्र": 805,
    "न्ट्रा": 806,
    "न्ड": 807,
    "न्डि": 808,
    "न्डी": 809,
    "न्डे": 810,
    "न्त": 811,
    "न्ता": 812,
    "न्ति": 813,
    "न्ती": 814,
    "न्तु": 815,
    "न्तू": 816,
    "न्ते": 817,
    "न्तो": 818,
    "न्त्": 819,
    "न्त्य": 820,
    "न्त्र": 821,
    "न्त्रि": 822,
    "न्त्री": 823,
    "न्त्॰ा": 824,
    "न्त्॰ि": 825,
    "न्त्॰ी": 826,
    "न्थ": 827,
    "न्था": 828,
    "न्द": 829,
    "न्दा": 830,
    "न्दि": 831,
    "न्दी": 832,
    "न्दु": 833,
    "न्दे": 834,
    "न्दो": 835,
    "न्द्यो": 836,
    "न्द्र": 837,
    "न्द्रं": 838,
    "न्द्रा": 839,
    "न्द्री": 840,
    "न्द्र्र": 841,
    "न्द्॰": 842,
    "न्द्॰ी": 843,
    "न्द्‌": 844,
    "न्ध": 845,
    "न्धं": 846,
    "न्धि": 847,
    "न्धी": 848,
    "न्ध्यं": 849,
    "न्न": 850,
    "न्ना": 851,
    "न्नि": 852,
    "न्नु": 853,
    "न्नुं": 854,
    "न्नू": 855,
    "न्नै": 856,
    "न्ब": 857,
    "न्म": 858,
    "न्मा": 859,
    "न्मे": 860,
    "न्मो": 861,
    "न्म्या": 862,
    "न्य": 863,
    "न्यः": 864,
    "न्या": 865,
    "न्यु": 866,
    "न्यू": 867,
    "न्ये": 868,
    "न्ऱ": 869,
    "न्ऱॆ": 870,
    "न्ऱ्": 871,
    "न्ल": 872,
    "न्लु": 873,
    "न्व": 874,
    "न्स": 875,
    "न्सि": 876,
    "न्सी": 877,
    "न्सू": 878,
    "न्स्": 879,
    "न्स्टि": 880,
    "न्हा": 881,
    "न्हां": 882,
    "न्य़": 883,
    "न्य़ा": 884,
    "न्‌": 885,
    "न॰": 886,
    "न॰ः": 887,
    "नॱ": 888,
    "ऩ": 889,
    "ऩा": 890,
    "ऩा्": 891,
    "ऩि": 892,
    "ऩी": 893,
    "ऩु": 894,
    "ऩू": 895,
    "ऩे": 896,
    "ऩै": 897,
    "ऩ्": 898,
    "ऩ्टा्": 899,
    "ऩ्ट्": 900,
    "ऩ्ट्र": 901,
    "ऩ्ऩ": 902,
    "ऩ्ऩा": 903,
    "ऩ्ऩूा्": 904,
    "ऩ्ऩै": 905,
    "ऩ्ऩो": 906,
    "ऩ्पु": 907,
    "ऩ्ऱ": 908,
    "ऩ्ऱि": 909,
    "ऩ्वॆ": 910,
    "प": 911,
    "पं": 912,
    "पा": 913,
    "पाँ": 914,
    "पां": 915,
    "पा्": 916,
    "पि": 917,
    "पिं": 918,
    "पिाि": 919,
    "पिु": 920,
    "पि॰": 921,
    "पी": 922,
    "पु": 923,
    "पु॰": 924,
    "पू": 925,
    "पूँ": 926,
    "पॅ": 927,
    "पॆ": 928,
    "पॆं": 929,
    "पे": 930,
    "पें": 931,
    "पेा": 932,
    "पै": 933,
    "पैं": 934,
    "पैा": 935,
    "पॉ": 936,
    "पॊ": 937,
    "पॊं": 938,
    "पो": 939,
    "पोा्चु": 940,
    "पौ": 941,
    "प्": 942,
    "प्टॆ": 943,
    "प्ण": 944,
    "प्त": 945,
    "प्तं": 946,
    "प्तॆ": 947,
    "प्प": 948,
    "प्पं": 949,
    "प्पा": 950,
    "प्पि": 951,
    "प्पी": 952,
    "प्पु": 953,
    "प्पॆ": 954,
    "प्पे": 955,
    "प्पो": 956,
    "प्प्": 957,
    "प्प्मू": 958,
    "प्मा": 959,
    "प्या": 960,
    "प्र": 961,
    "प्रा": 962,
    "प्रां": 963,
    "प्राः": 964,
    "प्रि": 965,
    "प्री": 966,
    "प्रीि": 967,
    "प्रॅ": 968,
    "प्रॆ": 969,
    "प्रे": 970,
    "प्रै": 971,
    "प्रॊ": 972,
    "प्रो": 973,
    "प्रौ": 974,
    "प्ला": 975,
    "प्ले": 976,
    "प्लै": 977,
    "प्लॉ": 978,
    "प्ष": 979,
    "प्स्": 980,
    "प्॰": 981,
    "प्॰ि": 982,
    "प्‍": 983,
    "प॰": 984,
    "पॱ": 985,
    "प‌": 986,
    "फ": 987,
    "फ़": 988,
    "फा": 989,
    "फां": 990,
    "फि": 991,
    "फी": 992,
    "फु": 993,
    "फॆ": 994,
    "फे": 995,
    "फै": 996,
    "फो": 997,
    "फ्": 998,
    "फ्या": 999,
    "फ्र": 1000,
    "फ्॰े": 1001,
    "ब": 1002,
    "बँ": 1003,
    "बं": 1004,
    "बा": 1005,
    "बां": 1006,
    "बा‍": 1007,
    "बि": 1008,
    "बि॑": 1009,
    "बि॰": 1010,
    "बी": 1011,
    "बु": 1012,
    "बुॱ": 1013,
    "बू": 1014,
    "बू॰": 1015,
    "बृ": 1016,
    "बॆ": 1017,
    "बे": 1018,
    "बें": 1019,
    "बै": 1020,
    "बैं": 1021,
    "बॉ": 1022,
    "बॊ": 1023,
    "बो": 1024,
    "बौ": 1025,
    "ब्": 1026,
    "ब्थ": 1027,
    "ब्द": 1028,
    "ब्दी": 1029,
    "ब्दु": 1030,
    "ब्ध": 1031,
    "ब्ब": 1032,
    "ब्बा": 1033,
    "ब्य": 1034,
    "ब्या": 1035,
    "ब्यां": 1036,
    "ब्यु": 1037,
    "ब्र": 1038,
    "ब्रा": 1039,
    "ब्रि": 1040,
    "ब्रु": 1041,
    "ब्रे": 1042,
    "ब्ल": 1043,
    "ब्लि": 1044,
    "ब्ली": 1045,
    "ब्लु": 1046,
    "ब्लो": 1047,
    "ब्ल्यू": 1048,
    "ब्स": 1049,
    "ब्सि": 1050,
    "ब्य़": 1051,
    "ब्य़ा": 1052,
    "ब्॰ु": 1053,
    "ब्‌": 1054,
    "ब॰": 1055,
    "बॱ": 1056,
    "भ": 1057,
    "भं": 1058,
    "भा": 1059,
    "भां": 1060,
    "भि": 1061,
    "भिं": 1062,
    "भी": 1063,
    "भु": 1064,
    "भुॱ": 1065,
    "भू": 1066,
    "भृा": 1067,
    "भे": 1068,
    "भें": 1069,
    "भै": 1070,
    "भो": 1071,
    "भ्या": 1072,
    "भ्र": 1073,
    "भ॰": 1074,
    "म": 1075,
    "मं": 1076,
    "मः": 1077,
    "मा": 1078,
    "मां": 1079,
    "मााि": 1080,
    "मा‍": 1081,
    "मि": 1082,
    "मि्त": 1083,
    "मी": 1084,
    "मु": 1085,
    "मुं": 1086,
    "मुॱ": 1087,
    "मू": 1088,
    "मूा्त्ति": 1089,
    "मृ": 1090,
    "मॆ": 1091,
    "मे": 1092,
    "में": 1093,
    "मै": 1094,
    "मैं": 1095,
    "मैा": 1096,
    "मॊ": 1097,
    "मो": 1098,
    "मों": 1099,
    "मौ": 1100,
    "म्": 1101,
    "म्A": 1102,
    "म्ः": 1103,
    "म्का": 1104,
    "म्के": 1105,
    "म्ट": 1106,
    "म्प": 1107,
    "म्पा": 1108,
    "म्पि": 1109,
    "म्पु": 1110,
    "म्पू": 1111,
    "म्पे": 1112,
    "म्पो": 1113,
    "म्प्": 1114,
    "म्प्य": 1115,
    "म्प्यु": 1116,
    "म्प्र": 1117,
    "म्प्वा": 1118,
    "म्प्॰": 1119,
    "म्ब": 1120,
    "म्बा": 1121,
    "म्बि": 1122,
    "म्बे": 1123,
    "म्ब्न": 1124,
    "म्भ": 1125,
    "म्भा": 1126,
    "म्भु": 1127,
    "म्म": 1128,
    "म्मा": 1129,
    "म्मि": 1130,
    "म्मु": 1131,
    "म्मे": 1132,
    "म्य": 1133,
    "म्या": 1134,
    "म्यां": 1135,
    "म्यु": 1136,
    "म्यू": 1137,
    "म्र": 1138,
    "म्रि": 1139,
    "म्श": 1140,
    "म्ह": 1141,
    "म्ही": 1142,
    "म्य़": 1143,
    "म्य़ो": 1144,
    "म्॰ा": 1145,
    "म॰": 1146,
    "मॱ": 1147,
    "य": 1148,
    "यं": 1149,
    "य़": 1150,
    "य़ा": 1151,
    "य़े": 1152,
    "या": 1153,
    "यां": 1154,
    "याा्": 1155,
    "याा्पे": 1156,
    "या‍": 1157,
    "यि": 1158,
    "यिाि": 1159,
    "यी": 1160,
    "यु": 1161,
    "युं": 1162,
    "यू": 1163,
    "यूः": 1164,
    "यॆ": 1165,
    "ये": 1166,
    "यें": 1167,
    "यै": 1168,
    "यॊ": 1169,
    "यो": 1170,
    "यों": 1171,
    "य्": 1172,
    "य्क्कां": 1173,
    "य्क्कु": 1174,
    "य्क्क्": 1175,
    "य्त": 1176,
    "य्न्त": 1177,
    "य्भ": 1178,
    "य्म": 1179,
    "य्मा": 1180,
    "य्य": 1181,
    "य्यु": 1182,
    "य्यो": 1183,
    "य्वु": 1184,
    "य्स्री": 1185,
    "य्‌": 1186,
    "र": 1187,
    "रं": 1188,
    "ऱ": 1189,
    "रा": 1190,
    "रां": 1191,
    "राा्": 1192,
    "रा्": 1193,
    "रि": 1194,
    "रिं": 1195,
    "रिा": 1196,
    "रि॰": 1197,
    "री": 1198,
    "रीं": 1199,
    "रीु": 1200,
    "रु": 1201,
    "रुं": 1202,
    "रुॱ": 1203,
    "रु‍": 1204,
    "रू": 1205,
    "रॆ": 1206,
    "रॆं": 1207,
    "रे": 1208,
    "रें": 1209,
    "रै": 1210,
    "रॉँ": 1211,
    "रो": 1212,
    "र्": 1213,
    "र्क": 1214,
    "र्का": 1215,
    "र्कि": 1216,
    "र्किं": 1217,
    "र्कॆ": 1218,
    "र्के": 1219,
    "र्कॊं": 1220,
    "र्ग": 1221,
    "र्गा": 1222,
    "र्गि": 1223,
    "र्च": 1224,
    "र्चा": 1225,
    "र्चि": 1226,
    "र्चू": 1227,
    "र्च्चि": 1228,
    "र्ज": 1229,
    "र्ज़": 1230,
    "र्जा": 1231,
    "र्जि": 1232,
    "र्जी": 1233,
    "र्जु": 1234,
    "र्ट": 1235,
    "र्टि": 1236,
    "र्टी": 1237,
    "र्ट्": 1238,
    "र्ड": 1239,
    "र्डी": 1240,
    "र्डॆ": 1241,
    "र्ण": 1242,
    "र्णा": 1243,
    "र्णि": 1244,
    "र्णी": 1245,
    "र्णो": 1246,
    "र्त": 1247,
    "र्ति": 1248,
    "र्ती": 1249,
    "र्तु": 1250,
    "र्ते": 1251,
    "र्त्त": 1252,
    "र्त्ता": 1253,
    "र्थ": 1254,
    "र्थं": 1255,
    "र्थि": 1256,
    "र्द": 1257,
    "र्दि": 1258,
    "र्दे": 1259,
    "र्दॊ": 1260,
    "र्द्": 1261,
    "र्ध": 1262,
    "र्न": 1263,
    "र्ना": 1264,
    "र्नी": 1265,
    "र्प": 1266,
    "र्पा": 1267,
    "र्पे": 1268,
    "र्पै": 1269,
    "र्पॊ": 1270,
    "र्पो": 1271,
    "र्फे": 1272,
    "र्ब": 1273,
    "र्बा": 1274,
    "र्बि": 1275,
    "र्बो": 1276,
    "र्ब्ब": 1277,
    "र्भ": 1278,
    "र्भी": 1279,
    "र्म": 1280,
    "र्मा": 1281,
    "र्मि": 1282,
    "र्मी": 1283,
    "र्मु": 1284,
    "र्मे": 1285,
    "र्य": 1286,
    "र्या": 1287,
    "र्य्य": 1288,
    "र्य्या": 1289,
    "र्य्य़": 1290,
    "र्य्य़ा": 1291,
    "र्र": 1292,
    "र्रा": 1293,
    "र्रि": 1294,
    "र्ल": 1295,
    "र्लु": 1296,
    "र्लो": 1297,
    "र्व": 1298,
    "र्वा": 1299,
    "र्वि": 1300,
    "र्वे": 1301,
    "र्श": 1302,
    "र्शि": 1303,
    "र्ष": 1304,
    "र्षा": 1305,
    "र्षि": 1306,
    "र्षे": 1307,
    "र्स": 1308,
    "र्सि": 1309,
    "र्सिं": 1310,
    "र्सी": 1311,
    "र्सु": 1312,
    "र्स्": 1313,
    "र॰": 1314,
    "रॱ": 1315,
    "र‌": 1316,
    "र‍": 1317,
    "ऱ": 1318,
    "ऱा": 1319,
    "ऱि": 1320,
    "ऱिं": 1321,
    "ऱु": 1322,
    "ऱुं": 1323,
    "ऱू": 1324,
    "ऱॆ": 1325,
    "ऱे": 1326,
    "ऱै": 1327,
    "ऱॊ": 1328,
    "ऱो": 1329,
    "ऱ्": 1330,
    "ऱ्क": 1331,
    "ऱ्का": 1332,
    "ऱ्कु": 1333,
    "ऱ्के": 1334,
    "ऱ्प": 1335,
    "ऱ्पू": 1336,
    "ऱ्ऱ": 1337,
    "ऱ्ऱं": 1338,
    "ऱ्ऱा": 1339,
    "ऱ्ऱि": 1340,
    "ऱ्ऱी": 1341,
    "ऱ्ऱु": 1342,
    "ऱ्ऱे": 1343,
    "ऱ्ऱ्": 1344,
    "ऱ्ऱ्यू": 1345,
    "ल": 1346,
    "लं": 1347,
    "ला": 1348,
    "लां": 1349,
    "लि": 1350,
    "लिं": 1351,
    "लिा": 1352,
    "ली": 1353,
    "लु": 1354,
    "लुं": 1355,
    "लू": 1356,
    "लूा्": 1357,
    "लॆ": 1358,
    "लॆं": 1359,
    "ले": 1360,
    "लें": 1361,
    "लै": 1362,
    "लॉ": 1363,
    "लो": 1364,
    "लोँ": 1365,
    "लों": 1366,
    "लौ": 1367,
    "ल्": 1368,
    "ल्क": 1369,
    "ल्कै": 1370,
    "ल्गू": 1371,
    "ल्ट": 1372,
    "ल्टि": 1373,
    "ल्टी": 1374,
    "ल्टु": 1375,
    "ल्ट्": 1376,
    "ल्ट्रा": 1377,
    "ल्ड": 1378,
    "ल्डीं": 1379,
    "ल्ड्र": 1380,
    "ल्त्": 1381,
    "ल्थ": 1382,
    "ल्दा": 1383,
    "ल्नी": 1384,
    "ल्प": 1385,
    "ल्पी": 1386,
    "ल्पॊ": 1387,
    "ल्फे": 1388,
    "ल्य": 1389,
    "ल्या": 1390,
    "ल्यां": 1391,
    "ल्यु": 1392,
    "ल्यू": 1393,
    "ल्ल": 1394,
    "ल्लं": 1395,
    "ल्ला": 1396,
    "ल्लि": 1397,
    "ल्ली": 1398,
    "ल्लु": 1399,
    "ल्लू": 1400,
    "ल्लूाि": 1401,
    "ल्लूा्": 1402,
    "ल्लॆ": 1403,
    "ल्ले": 1404,
    "ल्लै": 1405,
    "ल्ल्": 1406,
    "ल्ल्‌": 1407,
    "ल्वि": 1408,
    "ल्वे": 1409,
    "ल्स्": 1410,
    "ल्हा": 1411,
    "ल्हे": 1412,
    "ल्ह्या": 1413,
    "ल्‌": 1414,
    "ल्‍": 1415,
    "ल॰": 1416,
    "लॱ": 1417,
    "ळ": 1418,
    "ळं": 1419,
    "ळा": 1420,
    "ळां": 1421,
    "ळा्": 1422,
    "ळि": 1423,
    "ळिं": 1424,
    "ळी": 1425,
    "ळु": 1426,
    "ळू": 1427,
    "ळॆ": 1428,
    "ळे": 1429,
    "ळै": 1430,
    "ळो": 1431,
    "ळ्": 1432,
    "ळ्अ": 1433,
    "ळ्ट": 1434,
    "ळ्प": 1435,
    "ळ्मि": 1436,
    "ळ्मी": 1437,
    "ळ्या": 1438,
    "ळ्यां": 1439,
    "ळ्ळ": 1440,
    "ळ्ळा": 1441,
    "ळ्ळि": 1442,
    "ळ्ळी": 1443,
    "ळ्ळु": 1444,
    "ळ्ळे": 1445,
    "ळॱ": 1446,
    "ळ‍": 1447,
    "ऴ": 1448,
    "ऴा": 1449,
    "ऴि": 1450,
    "ऴि‌": 1451,
    "ऴु": 1452,
    "ऴॆ": 1453,
    "ऴै": 1454,
    "ऴ्": 1455,
    "ऴ्क": 1456,
    "ऴ्च्": 1457,
    "ऴ्त्त": 1458,
    "ऴ्न": 1459,
    "ऴ्ना": 1460,
    "ऴ्वु": 1461,
    "ऴ्स्": 1462,
    "ऴ्‌": 1463,
    "व": 1464,
    "वं": 1465,
    "वः": 1466,
    "व़": 1467,
    "वा": 1468,
    "वां": 1469,
    "वा्": 1470,
    "वा्स्": 1471,
    "वि": 1472,
    "विं": 1473,
    "वि॰": 1474,
    "विॱ": 1475,
    "वी": 1476,
    "वीं": 1477,
    "वु": 1478,
    "वुं": 1479,
    "वू": 1480,
    "वृ": 1481,
    "वॅ": 1482,
    "वॆ": 1483,
    "वॆं": 1484,
    "वे": 1485,
    "वें": 1486,
    "वेा्ल्टु": 1487,
    "वै": 1488,
    "वॉ": 1489,
    "वॊ": 1490,
    "वो": 1491,
    "व्": 1492,
    "व्य": 1493,
    "व्या": 1494,
    "व्व": 1495,
    "व्वं": 1496,
    "व्वि": 1497,
    "व्वी": 1498,
    "व्वू": 1499,
    "व्वे": 1500,
    "व्ह": 1501,
    "व्हि": 1502,
    "व्ही": 1503,
    "व्‌": 1504,
    "व॰": 1505,
    "वॱ": 1506,
    "श": 1507,
    "शं": 1508,
    "शा": 1509,
    "शां": 1510,
    "शाः": 1511,
    "शि": 1512,
    "शी": 1513,
    "शीू": 1514,
    "शु": 1515,
    "शू": 1516,
    "शृ": 1517,
    "शॅ": 1518,
    "शे": 1519,
    "शै": 1520,
    "शो": 1521,
    "शौ": 1522,
    "श्": 1523,
    "श्च": 1524,
    "श्चि": 1525,
    "श्ते": 1526,
    "श्ब": 1527,
    "श्मा": 1528,
    "श्य": 1529,
    "श्र": 1530,
    "श्रा": 1531,
    "श्री": 1532,
    "श्रु": 1533,
    "श्रे": 1534,
    "श्ले": 1535,
    "श्व": 1536,
    "श्वा": 1537,
    "श्श": 1538,
    "श्शि": 1539,
    "श्शे": 1540,
    "श्ष": 1541,
    "श्य़": 1542,
    "श्॰ी": 1543,
    "श्ॱ": 1544,
    "श्‍": 1545,
    "शॗ": 1546,
    "ष": 1547,
    "षं": 1548,
    "षा": 1549,
    "षि": 1550,
    "षी": 1551,
    "षु": 1552,
    "षू": 1553,
    "षे": 1554,
    "ष्": 1555,
    "ष्का": 1556,
    "ष्कृ": 1557,
    "ष्ट": 1558,
    "ष्टा": 1559,
    "ष्टि": 1560,
    "ष्टी": 1561,
    "ष्टु": 1562,
    "ष्ट्र": 1563,
    "ष्ट्रा": 1564,
    "ष्ट्री": 1565,
    "ष्ट्॰": 1566,
    "ष्ट्॰ी": 1567,
    "ष्ठ": 1568,
    "ष्ठा": 1569,
    "ष्ण": 1570,
    "ष्णा": 1571,
    "ष्णू": 1572,
    "ष्ना": 1573,
    "ष्पा": 1574,
    "ष्म": 1575,
    "ष्मॆ": 1576,
    "ष्य": 1577,
    "ष्यं": 1578,
    "ष्‌": 1579,
    "ष्‍": 1580,
    "षॢ": 1581,
    "स": 1582,
    "सं": 1583,
    "सः": 1584,
    "स़": 1585,
    "स़ा": 1586,
    "स़ां": 1587,
    "स़ि": 1588,
    "सा": 1589,
    "सां": 1590,
    "सि": 1591,
    "सिं": 1592,
    "सि॰": 1593,
    "सिॱ": 1594,
    "सी": 1595,
    "सीं": 1596,
    "सी्अ॰": 1597,
    "सु": 1598,
    "सुँ": 1599,
    "सुं": 1600,
    "सुॱ": 1601,
    "सू": 1602,
    "सूी": 1603,
    "सृ": 1604,
    "सृं": 1605,
    "सॆ": 1606,
    "सॆं": 1607,
    "से": 1608,
    "सें": 1609,
    "सेे": 1610,
    "से‍": 1611,
    "सै": 1612,
    "सैं": 1613,
    "सॊ": 1614,
    "सो": 1615,
    "सोँ": 1616,
    "सौ": 1617,
    "स्": 1618,
    "स्क": 1619,
    "स्का": 1620,
    "स्कु": 1621,
    "स्कृ": 1622,
    "स्गि": 1623,
    "स्जि": 1624,
    "स्जी": 1625,
    "स्ट": 1626,
    "स्टा": 1627,
    "स्टि": 1628,
    "स्टु": 1629,
    "स्टॆ": 1630,
    "स्टे": 1631,
    "स्टो": 1632,
    "स्ट्": 1633,
    "स्ट्री": 1634,
    "स्ट्रे": 1635,
    "स्ठ": 1636,
    "स्ड": 1637,
    "स्त": 1638,
    "स्तं": 1639,
    "स्ता": 1640,
    "स्ति": 1641,
    "स्तु": 1642,
    "स्तू": 1643,
    "स्तृ": 1644,
    "स्ते": 1645,
    "स्त्र": 1646,
    "स्त्रा": 1647,
    "स्थ": 1648,
    "स्था": 1649,
    "स्थि": 1650,
    "स्थी": 1651,
    "स्थॆ": 1652,
    "स्थे": 1653,
    "स्थ्य": 1654,
    "स्दु": 1655,
    "स्ध": 1656,
    "स्धा": 1657,
    "स्नि": 1658,
    "स्ने": 1659,
    "स्प": 1660,
    "स्पा": 1661,
    "स्पि": 1662,
    "स्पृ": 1663,
    "स्पॆ": 1664,
    "स्पे": 1665,
    "स्प्पि": 1666,
    "स्फो": 1667,
    "स्ब": 1668,
    "स्बा": 1669,
    "स्भा": 1670,
    "स्म": 1671,
    "स्मा": 1672,
    "स्मृ": 1673,
    "स्मे": 1674,
    "स्य": 1675,
    "स्र": 1676,
    "स्ऱी": 1677,
    "स्रा": 1678,
    "स्री": 1679,
    "स्रो": 1680,
    "स्ऱ्ऱा": 1681,
    "स्ऱ्ऱि": 1682,
    "स्ऱ्ऱु": 1683,
    "स्ऱ्ऱे": 1684,
    "स्ऱ्ऱै": 1685,
    "स्ऱ्ऱ्": 1686,
    "स्लि": 1687,
    "स्व": 1688,
    "स्वं": 1689,
    "स्वा": 1690,
    "स्वी": 1691,
    "स्वे": 1692,
    "स्सा": 1693,
    "स्सु": 1694,
    "स्स्": 1695,
    "स्स्मा": 1696,
    "स्स्‌": 1697,
    "स्ह": 1698,
    "स्॰": 1699,
    "स्॰ा": 1700,
    "स्ॱ": 1701,
    "स्‌": 1702,
    "स्‍": 1703,
    "स॰": 1704,
    "सॱ": 1705,
    "ह": 1706,
    "हं": 1707,
    "हः": 1708,
    "हा": 1709,
    "हां": 1710,
    "हा‍": 1711,
    "हि": 1712,
    "हिं": 1713,
    "हिः": 1714,
    "हि॰": 1715,
    "हिॱ": 1716,
    "ही": 1717,
    "हीं": 1718,
    "हु": 1719,
    "हु॰": 1720,
    "हू": 1721,
    "हूा": 1722,
    "हृ": 1723,
    "हॆ": 1724,
    "हे": 1725,
    "हें": 1726,
    "है": 1727,
    "हैं": 1728,
    "है‍": 1729,
    "हॉ": 1730,
    "हॊ": 1731,
    "हो": 1732,
    "ह्दि": 1733,
    "ह्न": 1734,
    "ह्म": 1735,
    "ह्य": 1736,
    "ह्या": 1737,
    "ह्रू": 1738,
    "ह॰": 1739,
    "हॱ": 1740,
    "ा": 1741,
    "े": 1742,
    "ॎ": 1743,
    "ॐ": 1744,
    "ख़ु": 1745,
    "ज़": 1746,
    "ज़ा": 1747,
    "ज़ि": 1748,
    "ज़ो": 1749,
    "ज़॰": 1750,
    "ड़": 1751,
    "ड़ा": 1752,
    "ड़ि": 1753,
    "ड़ी": 1754,
    "ड़े": 1755,
    "ड़ै": 1756,
    "ड़ो": 1757,
    "ड़ोु": 1758,
    "ड़्ह": 1759,
    "ड़्ही": 1760,
    "ड़्हे": 1761,
    "ढ़ि": 1762,
    "ढ़ी": 1763,
    "ढ़ो": 1764,
    "फ़": 1765,
    "फ़्ट": 1766,
    "फ़्दु": 1767,
    "य़": 1768,
    "य़ं": 1769,
    "य़ः": 1770,
    "य़़": 1771,
    "य़ा": 1772,
    "य़ां": 1773,
    "य़ि": 1774,
    "य़ी": 1775,
    "य़ु": 1776,
    "य़े": 1777,
    "य़ो": 1778,
    "य़्या": 1779,
    "य़ॗ": 1780,
    "ॠ": 1781,
    "।": 1782,
    "।‍": 1783,
    "॥": 1784,
    "०": 1785,
    "१": 1786,
    "१्को": 1787,
    "१‌": 1788,
    "२": 1789,
    "२़": 1790,
    "२ा": 1791,
    "३": 1792,
    "४": 1793,
    "५": 1794,
    "५ु": 1795,
    "५ुॱ": 1796,
    "५ो": 1797,
    "६": 1798,
    "७": 1799,
    "८": 1800,
    "९": 1801,
    "॰": 1802,
    "॰ा": 1803,
    "॰ि": 1804,
    "॰िः": 1805,
    "॰ी": 1806,
    "॰ु": 1807,
    "॰ू": 1808,
    "॰े": 1809,
    "॰ो": 1810,
    "॰्थ": 1811,
    "॰्प": 1812,
    "॰्ब": 1813,
    "॰्मा": 1814,
    "॰्य": 1815,
    "॰्य्य": 1816,
    "॰्य्या": 1817,
    "॰्ष": 1818,
    "ॱ": 1819,
    "ॱा": 1820,
    "ॱि": 1821,
    "ॱे": 1822,
    "ॱो": 1823,
    "ॲा": 1824,
    "ॳ": 1825,
    "ॳे": 1826,
    "ॷ": 1827,
    "ॺ": 1828,
    "ॺ‌": 1829,
    "ॺ‍": 1830,
    "ॻ": 1831,
    "ॻ्ऱॆ": 1832,
    "ॻ्ऱ्": 1833,
    "ॻ‌": 1834,
    "ॻ‌‌": 1835,
    "ॻ‍": 1836,
    "ॼ": 1837,
    "ॼ‌": 1838,
    "ॼ‍‍": 1839,
    "ॽ": 1840,
    "ॽ‌": 1841,
    "ॽ‍": 1842,
    "ॾ": 1843,
    "ॾ‌": 1844,
    "ॾ‌‌": 1845,
    "​": 1846
  },
  "metadata": {
    "tag": "zs_loso_rungB_gurmukhi",
    "num_graphemes": 1845,
    "space": "shared-abugida-pivot"
  }
}