{
  "grapheme2idx": {
    "<blank>": 0,
    "<unk>": 1,
    " ‌": 2,
    "!": 3,
    "&": 4,
    "'": 5,
    "(": 6,
    ")": 7,
    ",": 8,
    "-": 9,
    "-ാ": 10,
    ".": 11,
    "0": 12,
    "1": 13,
    "2": 14,
    "3": 15,
    "4": 16,
    "5": 17,
    "6": 18,
    "7": 19,
    "9": 20,
    ":": 21,
    "?": 22,
    "ஜ": 23,
    "അ": 24,
    "അം": 25,
    "ആ": 26,
    "ഇ": 27,
    "ഇം": 28,
    "ഈ": 29,
    "ഉ": 30,
    "ഊ": 31,
    "എ": 32,
    "എം": 33,
    "എ‍": 34,
    "ഏ": 35,
    "ഐ": 36,
    "ഒ": 37,
    "ഒ‌": 38,
    "ഓ": 39,
    "ഓം": 40,
    "ക": 41,
    "കം": 42,
    "കം‌": 43,
    "കാ": 44,
    "കാ‍": 45,
    "കി": 46,
    "കീ": 47,
    "കു": 48,
    "കൂ": 49,
    "കൃ": 50,
    "കെ": 51,
    "കേ": 52,
    "കോ": 53,
    "കേെ്ടാ": 54,
    "കൈ": 55,
    "കൊ": 56,
    "കോ": 57,
    "കോം": 58,
    "കോം‌": 59,
    "ക്": 60,
    "ക്ക": 61,
    "ക്കം": 62,
    "ക്കാ": 63,
    "ക്കാം": 64,
    "ക്കി": 65,
    "ക്കീ": 66,
    "ക്കു": 67,
    "ക്കും": 68,
    "ക്കൂ": 69,
    "ക്കെ": 70,
    "ക്കേ": 71,
    "ക്കൊ": 72,
    "ക്കോ": 73,
    "ക്ക്": 74,
    "ക്ക്‌": 75,
    "ക്കൗ": 76,
    "ക്ടോ": 77,
    "ക്ട്രി": 78,
    "ക്ത": 79,
    "ക്തി": 80,
    "ക്നോ": 81,
    "ക്യ": 82,
    "ക്യാ": 83,
    "ക്യൂ": 84,
    "ക്ര": 85,
    "ക്ലി": 86,
    "ക്വാ": 87,
    "ക്വേ": 88,
    "ക്ഷ": 89,
    "ക്ഷാ": 90,
    "ക്ഷി": 91,
    "ക്ഷേ": 92,
    "ക്ഷ്മി": 93,
    "ക്സി": 94,
    "ക്സ്": 95,
    "ക്‌": 96,
    "കൗ": 97,
    "ക‌": 98,
    "ഖ": 99,
    "ഖാ": 100,
    "ഖാം": 101,
    "ഖാ‍": 102,
    "ഖ്യ": 103,
    "ഗ": 104,
    "ഗം": 105,
    "ഗാ": 106,
    "ഗി": 107,
    "ഗീ": 108,
    "ഗു": 109,
    "ഗൃ": 110,
    "ഗെ": 111,
    "ഗോ": 112,
    "ഗ്": 113,
    "ഗ്ഗാ": 114,
    "ഗ്നി": 115,
    "ഗ്യ": 116,
    "ഗ്ര": 117,
    "ഗ്രാ": 118,
    "ഗ്രീ": 119,
    "ഗ്രൂ": 120,
    "ഗ്രോ": 121,
    "ഗ്ലാ": 122,
    "ഗ്ലീ": 123,
    "ഗ്ഷ": 124,
    "ഗ്‌": 125,
    "ഘ": 126,
    "ഘം": 127,
    "ഘാ": 128,
    "ഘോ": 129,
    "ങ": 130,
    "ങ്": 131,
    "ങ്ക": 132,
    "ങ്കി": 133,
    "ങ്കു": 134,
    "ങ്കേ": 135,
    "ങ്ക്": 136,
    "ങ്ക്സ്": 137,
    "ങ്ങ": 138,
    "ങ്ങാ": 139,
    "ങ്ങി": 140,
    "ങ്ങേ": 141,
    "ങ്ങോ": 142,
    "ങ്ങോം": 143,
    "ങ്ങ്‌": 144,
    "ച": 145,
    "ചം": 146,
    "ചാ": 147,
    "ചി": 148,
    "ചിം": 149,
    "ചു": 150,
    "ചൂ": 151,
    "ചെ": 152,
    "ചൊ": 153,
    "ച്ച": 154,
    "ച്ചം": 155,
    "ച്ചാ": 156,
    "ച്ചി": 157,
    "ച്ചു": 158,
    "ച്ചേ": 159,
    "ച്ച്": 160,
    "ച്ച്‌": 161,
    "ച്ഛ": 162,
    "ച്ഛേ": 163,
    "ച്ഛ്": 164,
    "ച്യു": 165,
    "ഛി": 166,
    "ജ": 167,
    "ജം": 168,
    "ജാ": 169,
    "ജി": 170,
    "ജിം": 171,
    "ജീ": 172,
    "ജു": 173,
    "ജൂ": 174,
    "ജെ": 175,
    "ജോ": 176,
    "ജ്": 177,
    "ജ്ജ": 178,
    "ജ്ജം": 179,
    "ജ്ജ്": 180,
    "ജ്ഞാ": 181,
    "ജ്വ": 182,
    "ഞാ": 183,
    "ഞ്ച": 184,
    "ഞ്ചാ": 185,
    "ഞ്ചി": 186,
    "ഞ്ചേ": 187,
    "ഞ്ജ": 188,
    "ഞ്ഞ": 189,
    "ഞ്ഞാ": 190,
    "ഞ്ഞി": 191,
    "ഞ്ഞെ": 192,
    "ഞ്ഞോ": 193,
    "ട": 194,
    "ടം": 195,
    "ടാ": 196,
    "ടാം": 197,
    "ടി": 198,
    "ടു": 199,
    "ടും": 200,
    "ടൂ": 201,
    "ടെ": 202,
    "ടേ": 203,
    "ടോം": 204,
    "ട്": 205,
    "ട്ട": 206,
    "ട്ടം": 207,
    "ട്ട഼": 208,
    "ട്ടാ": 209,
    "ട്ടി": 210,
    "ട്ടീ": 211,
    "ട്ടു": 212,
    "ട്ടും": 213,
    "ട്ടൂ": 214,
    "ട്ടെ": 215,
    "ട്ടേ": 216,
    "ട്ടോ": 217,
    "ട്ട്": 218,
    "ട്ര": 219,
    "ട്രാ": 220,
    "ട്രെ": 221,
    "ട്രേ": 222,
    "ട്ശ്രീ": 223,
    "ട്‍": 224,
    "ടൗ": 225,
    "ട‌": 226,
    "ഠ": 227,
    "ഠി": 228,
    "ഠേ": 229,
    "ഡ": 230,
    "ഡാ": 231,
    "ഡി": 232,
    "ഡിം": 233,
    "ഡീ": 234,
    "ഡു": 235,
    "ഡോ": 236,
    "ഡ്": 237,
    "ഡ്ക": 238,
    "ഡ്പേ": 239,
    "ഡ്രാ": 240,
    "ഡ്രി": 241,
    "ഡ്സ്": 242,
    "ഡ്‌": 243,
    "ണ": 244,
    "ണം": 245,
    "ണം‌": 246,
    "ണ഼": 247,
    "ണാ": 248,
    "ണി": 249,
    "ണു": 250,
    "ണു്": 251,
    "ണൂ": 252,
    "ണോ": 253,
    "ണ്": 254,
    "ണ്ട": 255,
    "ണ്ടം": 256,
    "ണ്ടാ": 257,
    "ണ്ടി": 258,
    "ണ്ടു": 259,
    "ണ്ടൂ": 260,
    "ണ്ടെ": 261,
    "ണ്ടേ": 262,
    "ണ്ട്": 263,
    "ണ്ട്സ്": 264,
    "ണ്ട്‌": 265,
    "ണ്ഡാ": 266,
    "ണ്ണ": 267,
    "ണ്ണാ": 268,
    "ണ്ണി": 269,
    "ണ്ണു": 270,
    "ണ്ണൂ": 271,
    "ണ്ണൂ‍": 272,
    "ണ്യ": 273,
    "ണ്‌": 274,
    "ണ‍": 275,
    "ത": 276,
    "തം": 277,
    "താ": 278,
    "താം": 279,
    "തി": 280,
    "തു": 281,
    "തൂ": 282,
    "തൃ": 283,
    "തെ": 284,
    "തെെ": 285,
    "തൈ": 286,
    "തൊ": 287,
    "തോ": 288,
    "ത്": 289,
    "ത്ത": 290,
    "ത്താ": 291,
    "ത്തി": 292,
    "ത്തീ": 293,
    "ത്തു": 294,
    "ത്തൂ": 295,
    "ത്തെ": 296,
    "ത്തേ": 297,
    "ത്തൊ": 298,
    "ത്തോ": 299,
    "ത്ത്": 300,
    "ത്ത്പ": 301,
    "ത്ത്‌": 302,
    "ത്ഥ": 303,
    "ത്ഥി": 304,
    "ത്ഭ": 305,
    "ത്മാ": 306,
    "ത്യ": 307,
    "ത്യാ": 308,
    "ത്ര": 309,
    "ത്രം": 310,
    "ത്രം‌": 311,
    "ത്രാ": 312,
    "ത്രി": 313,
    "ത്രീ": 314,
    "ത്വ": 315,
    "ത്സ": 316,
    "ത്സ്": 317,
    "ത്‌": 318,
    "ഥ": 319,
    "ഥാ": 320,
    "ഥോം": 321,
    "ദ": 322,
    "ദം": 323,
    "ദാ": 324,
    "ദി": 325,
    "ദീ": 326,
    "ദു": 327,
    "ദെ": 328,
    "ദേ": 329,
    "ദൈ": 330,
    "ദ്": 331,
    "ദ്ഗു": 332,
    "ദ്ഘാ": 333,
    "ദ്ധ": 334,
    "ദ്ധാ": 335,
    "ദ്ധി": 336,
    "ദ്ധീ": 337,
    "ദ്ധ്യ": 338,
    "ദ്ധ്യം": 339,
    "ദ്യ": 340,
    "ദ്യാ": 341,
    "ദ്ര": 342,
    "ദ്രം": 343,
    "ദ്രാ": 344,
    "ദ്വ": 345,
    "ദ്വാ": 346,
    "ദ്ശി": 347,
    "ദ്‌": 348,
    "ധ": 349,
    "ധാ": 350,
    "ധി": 351,
    "ധു": 352,
    "ധ്യ": 353,
    "ന": 354,
    "നം": 355,
    "നാ": 356,
    "നാം": 357,
    "നി": 358,
    "നീ": 359,
    "നു": 360,
    "നും": 361,
    "നൂ": 362,
    "നെ": 363,
    "നേ": 364,
    "നോ": 365,
    "ന്": 366,
    "ന്ത": 367,
    "ന്താ": 368,
    "ന്തു": 369,
    "ന്തോ": 370,
    "ന്ത്യ": 371,
    "ന്ത്ര": 372,
    "ന്ത്രി": 373,
    "ന്ഥ": 374,
    "ന്ദ": 375,
    "ന്ദി": 376,
    "ന്ദ്ര": 377,
    "ന്ദ്രം": 378,
    "ന്ദ്രീ": 379,
    "ന്ദ്‌": 380,
    "ന്ധ": 381,
    "ന്ധം": 382,
    "ന്ധാ": 383,
    "ന്ധി": 384,
    "ന്ധ്യം": 385,
    "ന്ന": 386,
    "ന്നം": 387,
    "ന്നാ": 388,
    "ന്നി": 389,
    "ന്നി‍": 390,
    "ന്നീ": 391,
    "ന്നു": 392,
    "ന്നും": 393,
    "ന്നൂ": 394,
    "ന്ന്": 395,
    "ന്യ": 396,
    "ന്റ": 397,
    "ന്റാ": 398,
    "ന്റെ": 399,
    "ന്റ്": 400,
    "ന്വ": 401,
    "ന്വേ": 402,
    "ന്‌": 403,
    "പ": 404,
    "പം": 405,
    "പാ": 406,
    "പി": 407,
    "പിാ": 408,
    "പീ": 409,
    "പു": 410,
    "പൂ": 411,
    "പെ": 412,
    "പേ": 413,
    "പൈ": 414,
    "പൊ": 415,
    "പോ": 416,
    "പ്": 417,
    "പ്തം": 418,
    "പ്പ": 419,
    "പ്പം": 420,
    "പ്പാ": 421,
    "പ്പി": 422,
    "പ്പിം": 423,
    "പ്പീ": 424,
    "പ്പു": 425,
    "പ്പൂ": 426,
    "പ്പെ": 427,
    "പ്പോ": 428,
    "പ്പ്": 429,
    "പ്പ്മൂ": 430,
    "പ്പ്‌": 431,
    "പ്ര": 432,
    "പ്രാ": 433,
    "പ്രി": 434,
    "പ്രോ": 435,
    "പ്ല": 436,
    "പ്ലൈ": 437,
    "പ്‌": 438,
    "ഫ": 439,
    "ഫാ": 440,
    "ഫാം": 441,
    "ഫി": 442,
    "ഫീ": 443,
    "ഫെ": 444,
    "ഫേ": 445,
    "ഫൈ": 446,
    "ഫോ": 447,
    "ഫ്": 448,
    "ഫ്ര": 449,
    "ഫ്രോ": 450,
    "ഫ്ര‌": 451,
    "ബ": 452,
    "ബാ": 453,
    "ബാ‍": 454,
    "ബി": 455,
    "ബീ": 456,
    "ബു": 457,
    "ബേ": 458,
    "ബൈ": 459,
    "ബോ": 460,
    "ബ്": 461,
    "ബ്ദ": 462,
    "ബ്യൂ": 463,
    "ബ്ര": 464,
    "ബ്രി": 465,
    "ബ്രു": 466,
    "ബ്രൂ": 467,
    "ബ്ലോ": 468,
    "ബ്‌": 469,
    "ബ്‍": 470,
    "ഭ": 471,
    "ഭം": 472,
    "ഭാ": 473,
    "ഭൂ": 474,
    "ഭൃാ": 475,
    "ഭ്യ": 476,
    "ഭ്യാ": 477,
    "മ": 478,
    "മം": 479,
    "മഃ": 480,
    "മാ": 481,
    "മാ‍": 482,
    "മി": 483,
    "മീ": 484,
    "മു": 485,
    "മൂ": 486,
    "മൃ": 487,
    "മെ": 488,
    "മേ": 489,
    "മൈ": 490,
    "മൊ": 491,
    "മോ": 492,
    "മ്പ": 493,
    "മ്പാ": 494,
    "മ്പി": 495,
    "മ്പു": 496,
    "മ്പൂ": 497,
    "മ്പോ": 498,
    "മ്പ്": 499,
    "മ്പ്യ": 500,
    "മ്പ്യാ": 501,
    "മ്പ്യൂ": 502,
    "മ്പ്വാ": 503,
    "മ്മ": 504,
    "മ്മാ": 505,
    "മ്മി": 506,
    "മ്മൂ": 507,
    "മ്മേ": 508,
    "മ്യാ": 509,
    "മ്യൂ": 510,
    "യ": 511,
    "യം": 512,
    "യാ": 513,
    "യാം": 514,
    "യാ‍": 515,
    "യി": 516,
    "യു": 517,
    "യും": 518,
    "യൂ": 519,
    "യെ": 520,
    "യേ": 521,
    "യൊ": 522,
    "യോ": 523,
    "യ്": 524,
    "യ്ക്കാ": 525,
    "യ്ക്കാം": 526,
    "യ്ക്കു": 527,
    "യ്ക്ക്": 528,
    "യ്ത": 529,
    "യ്മ": 530,
    "യ്യ": 531,
    "യ്യു": 532,
    "യ്യും": 533,
    "യ്യോ": 534,
    "യ്‌": 535,
    "ര": 536,
    "രം": 537,
    "ര഼": 538,
    "രാ": 539,
    "രി": 540,
    "രീ": 541,
    "രു": 542,
    "രും": 543,
    "രു‍": 544,
    "രൂ": 545,
    "രെ": 546,
    "രേ": 547,
    "രോ": 548,
    "ര്": 549,
    "ര്യ": 550,
    "ര്യാ": 551,
    "ര‌": 552,
    "ര‍": 553,
    "റ": 554,
    "റം": 555,
    "റാ": 556,
    "റി": 557,
    "റിം": 558,
    "റീ": 559,
    "റു": 560,
    "റും": 561,
    "റൂ": 562,
    "റെ": 563,
    "റേ": 564,
    "റൈ": 565,
    "റൊ": 566,
    "റോ": 567,
    "റ്": 568,
    "റ്റ": 569,
    "റ്റം": 570,
    "റ്റാ": 571,
    "റ്റി": 572,
    "റ്റീ": 573,
    "റ്റു": 574,
    "റ്റേ": 575,
    "റ്റോ": 576,
    "റ്റ്": 577,
    "റ്റ്യൂ": 578,
    "റ്റ്റ്‌": 579,
    "ല": 580,
    "ലം": 581,
    "ലാ": 582,
    "ലി": 583,
    "ലിം": 584,
    "ലീ": 585,
    "ലു": 586,
    "ലും": 587,
    "ലൂ": 588,
    "ലെ": 589,
    "ലേ": 590,
    "ലൈ": 591,
    "ലോ": 592,
    "ല്ക്കു": 593,
    "ല്യ": 594,
    "ല്യാ": 595,
    "ല്ല": 596,
    "ല്ലം": 597,
    "ല്ലാ": 598,
    "ല്ലാ‍": 599,
    "ല്ലി": 600,
    "ല്ലു": 601,
    "ല്ലൂ": 602,
    "ല്ലെ": 603,
    "ല്ലേ": 604,
    "ല്ല്": 605,
    "ല്ല്‌": 606,
    "ള": 607,
    "ളം": 608,
    "ളാ": 609,
    "ളി": 610,
    "ളിം": 611,
    "ളു": 612,
    "ളും": 613,
    "ളൂ": 614,
    "ളെ": 615,
    "ളേ": 616,
    "ള്ള": 617,
    "ള്ളം": 618,
    "ള്ളി": 619,
    "ള്ളീ": 620,
    "ള‍": 621,
    "ഴ": 622,
    "ഴം": 623,
    "ഴാ": 624,
    "ഴി": 625,
    "ഴി‌": 626,
    "ഴു": 627,
    "ഴെ": 628,
    "ഴോം": 629,
    "ഴോം": 630,
    "ഴ്ത്ത": 631,
    "ഴ്സ്": 632,
    "ഴ്‌": 633,
    "വ": 634,
    "വം": 635,
    "വഃ": 636,
    "വാ": 637,
    "വി": 638,
    "വീ": 639,
    "വീഃ": 640,
    "വു": 641,
    "വും": 642,
    "വൂ": 643,
    "വെ": 644,
    "വേ": 645,
    "വൈ": 646,
    "വൊ": 647,
    "വോ": 648,
    "വ്": 649,
    "വ്ഭ": 650,
    "വ്യ": 651,
    "വ്യാ": 652,
    "വ്ര": 653,
    "വ്വ": 654,
    "വ്വം": 655,
    "വ്വി": 656,
    "വ്വീ": 657,
    "വ്വൂ": 658,
    "വ്വേ": 659,
    "വ്‌": 660,
    "വ‌": 661,
    "ശ": 662,
    "ശം": 663,
    "ശാ": 664,
    "ശാ‍": 665,
    "ശി": 666,
    "ശീ": 667,
    "ശു": 668,
    "ശൂ": 669,
    "ശേ": 670,
    "ശൈ": 671,
    "ശോ": 672,
    "ശ്യ": 673,
    "ശ്ര": 674,
    "ശ്രാ": 675,
    "ശ്രി": 676,
    "ശ്രീ": 677,
    "ശ്വ": 678,
    "ശ്ശ": 679,
    "ശ്ശി": 680,
    "ശ്ശേ": 681,
    "ശ്ഷ": 682,
    "ശൗ": 683,
    "ഷ": 684,
    "ഷം": 685,
    "ഷാ": 686,
    "ഷി": 687,
    "ഷൂ": 688,
    "ഷോ": 689,
    "ഷ്": 690,
    "ഷ്യ": 691,
    "ഷ്യം": 692,
    "ഷ്‌": 693,
    "സ": 694,
    "സം": 695,
    "സം‌": 696,
    "സഃ": 697,
    "സാ": 698,
    "സാം": 699,
    "സാ‍": 700,
    "സി": 701,
    "സിം": 702,
    "സീ": 703,
    "സു": 704,
    "സൂ": 705,
    "സെ": 706,
    "സേ": 707,
    "സോ": 708,
    "സ്": 709,
    "സ്കാ": 710,
    "സ്കൂ": 711,
    "സ്ക്കാ": 712,
    "സ്ടെ": 713,
    "സ്ട്ര": 714,
    "സ്ത": 715,
    "സ്താ": 716,
    "സ്തു": 717,
    "സ്ഥ": 718,
    "സ്ഥാ": 719,
    "സ്ദു": 720,
    "സ്ന": 721,
    "സ്നി": 722,
    "സ്നേ": 723,
    "സ്പ": 724,
    "സ്പ്പി": 725,
    "സ്ഭാ": 726,
    "സ്മാ": 727,
    "സ്യ": 728,
    "സ്യാ": 729,
    "സ്റ്റ": 730,
    "സ്റ്റാ": 731,
    "സ്റ്റി": 732,
    "സ്റ്റു": 733,
    "സ്റ്റേ": 734,
    "സ്റ്റൈ": 735,
    "സ്റ്റോ": 736,
    "സ്റ്റ്": 737,
    "സ്ലാ": 738,
    "സ്ലൊ": 739,
    "സ്വ": 740,
    "സ്വം": 741,
    "സ്വാ": 742,
    "സ്സി": 743,
    "സ്സോ": 744,
    "സ്സ്": 745,
    "സ്സ്മാ": 746,
    "സ്സ്‌": 747,
    "സ്‌": 748,
    "സ്‍": 749,
    "സൗ": 750,
    "ഹ": 751,
    "ഹാ": 752,
    "ഹി": 753,
    "ഹു": 754,
    "ഹെ": 755,
    "ഹൈ": 756,
    "ഹൊ": 757,
    "ഹോ": 758,
    "ഹ്": 759,
    "ഹ്ദി": 760,
    "ഹ്മ": 761,
    "ഹ്യ": 762,
    "ാ": 763,
    "൦": 764,
    "൧": 765,
    "൪": 766,
    "൭": 767,
    "൯": 768,
    "ൺ": 769,
    "ൺ‌": 770,
    "ൺ‍": 771,
    "ൻ": 772,
    "ൻെ": 773,
    "ൻെ്റ": 774,
    "ൻ്റ": 775,
    "ൻ്റെ": 776,
    "ൻ്റ്": 777,
    "ൻ്റ്സ്": 778,
    "ൻ‌": 779,
    "ൻ‌‌": 780,
    "ൻ‍": 781,
    "ർ": 782,
    "ർ‌": 783,
    "ർ‍": 784,
    "ർ‍‍": 785,
    "ൽ": 786,
    "ൽ‌": 787,
    "ൽ‍": 788,
    "ൾ": 789,
    "ൾ‌": 790,
    "ൾ‌‌": 791
  },
  "metadata": {
    "lang": "malayalam",
    "source_splits": "florence2_splits_bstd_malayalam_b1800.json",
    "num_graphemes": 790,
    "segmenter": "indic-generic (Mn/Mc + virama-join)"
  }
}