{
  "grapheme2idx": {
    "<blank>": 0,
    "<unk>": 1,
    " ‌": 2,
    "!": 3,
    "\"": 4,
    "&": 5,
    "'": 6,
    "(": 7,
    ")": 8,
    ",": 9,
    "-": 10,
    "-ा": 11,
    ".": 12,
    "/": 13,
    "0": 14,
    "1": 15,
    "2": 16,
    "3": 17,
    "4": 18,
    "5": 19,
    "6": 20,
    "7": 21,
    "8": 22,
    "9": 23,
    ":": 24,
    "?": 25,
    "A": 26,
    "D": 27,
    "G": 28,
    "H": 29,
    "I": 30,
    "O": 31,
    "P": 32,
    "V": 33,
    "[": 34,
    "c": 35,
    "|": 36,
    "°": 37,
    "ا": 38,
    "ت": 39,
    "ج": 40,
    "ر": 41,
    "گ": 42,
    "ی": 43,
    "ँ": 44,
    "अ": 45,
    "अं": 46,
    "अि": 47,
    "अ्या": 48,
    "आ": 49,
    "आं": 50,
    "आा्": 51,
    "आ्य": 52,
    "इ": 53,
    "इं": 54,
    "इ्ट": 55,
    "ई": 56,
    "ईँ": 57,
    "ईं": 58,
    "उ": 59,
    "उाि": 60,
    "ऊ": 61,
    "ऊँ": 62,
    "ऊं": 63,
    "ऋ": 64,
    "ऍ": 65,
    "ऎ": 66,
    "ऎं": 67,
    "ऎ‍": 68,
    "ए": 69,
    "एँ": 70,
    "एा": 71,
    "ऐ": 72,
    "ऑ": 73,
    "ऒ": 74,
    "ऒं": 75,
    "ऒाि": 76,
    "ऒा्क्स्": 77,
    "ऒ‌": 78,
    "ओ": 79,
    "ओँ": 80,
    "ओं": 81,
    "ओ्बा": 82,
    "औ": 83,
    "औं": 84,
    "क": 85,
    "कं": 86,
    "कं‌": 87,
    "कः": 88,
    "का": 89,
    "काँ": 90,
    "कां": 91,
    "काुं": 92,
    "काे": 93,
    "का्": 94,
    "का‍": 95,
    "का‍‌": 96,
    "कि": 97,
    "किं": 98,
    "किाि": 99,
    "की": 100,
    "कीे": 101,
    "कु": 102,
    "कुं": 103,
    "कू": 104,
    "कृ": 105,
    "कॅ": 106,
    "कॅा": 107,
    "कॆ": 108,
    "कॆं": 109,
    "के": 110,
    "कें": 111,
    "केा": 112,
    "केॆ्टा": 113,
    "केे": 114,
    "कै": 115,
    "कॉ": 116,
    "कॊ": 117,
    "कॊं": 118,
    "कॊॕ": 119,
    "को": 120,
    "कोँ": 121,
    "कों": 122,
    "क्": 123,
    "क्क": 124,
    "क्कं": 125,
    "क्का": 126,
    "क्कि": 127,
    "क्कु": 128,
    "क्कू": 129,
    "क्कॆ": 130,
    "क्के": 131,
    "क्कै": 132,
    "क्कॊ": 133,
    "क्को": 134,
    "क्क्": 135,
    "क्क्‌": 136,
    "क्कॗ": 137,
    "क्ट": 138,
    "क्टो": 139,
    "क्ट्रि": 140,
    "क्ट्रो": 141,
    "क्त": 142,
    "क्ता": 143,
    "क्तां": 144,
    "क्ति": 145,
    "क्तीं": 146,
    "क्तु": 147,
    "क्ते": 148,
    "क्नो": 149,
    "क्प": 150,
    "क्पे": 151,
    "क्मि": 152,
    "क्य": 153,
    "क्या": 154,
    "क्यू": 155,
    "क्र": 156,
    "क्रं": 157,
    "क्रा": 158,
    "क्रि": 159,
    "क्री": 160,
    "क्रे": 161,
    "क्रै": 162,
    "क्रो": 163,
    "क्ल": 164,
    "क्ला": 165,
    "क्लि": 166,
    "क्ळे": 167,
    "क्व": 168,
    "क्वा": 169,
    "क्वॆ": 170,
    "क्श": 171,
    "क्ष": 172,
    "क्षा": 173,
    "क्षां": 174,
    "क्षि": 175,
    "क्षिं": 176,
    "क्षी": 177,
    "क्षुः": 178,
    "क्षॆ": 179,
    "क्षे": 180,
    "क्षो": 181,
    "क्ष्म": 182,
    "क्ष्मि": 183,
    "क्ष्मिॕ": 184,
    "क्ष्मी": 185,
    "क्ष्य": 186,
    "क्स": 187,
    "क्सि": 188,
    "क्स्": 189,
    "क्य़ा": 190,
    "क्॰": 191,
    "क्॰ा": 192,
    "क्॰े": 193,
    "क्‌": 194,
    "क्‍": 195,
    "क‌": 196,
    "क‍ी": 197,
    "ख": 198,
    "खं": 199,
    "खा": 200,
    "खाँ": 201,
    "खां": 202,
    "खि": 203,
    "खी": 204,
    "खु": 205,
    "खे": 206,
    "खै": 207,
    "खो": 208,
    "ख्त": 209,
    "ख्य": 210,
    "ख्यु": 211,
    "ख्यॆ": 212,
    "ख्रीः": 213,
    "ग": 214,
    "गं": 215,
    "गा": 216,
    "गां": 217,
    "गि": 218,
    "गी": 219,
    "गु": 220,
    "गुं": 221,
    "गू": 222,
    "गृ": 223,
    "गॆ": 224,
    "गॆं": 225,
    "गे": 226,
    "गे्ड": 227,
    "गै": 228,
    "गॊ": 229,
    "गो": 230,
    "गों": 231,
    "गौ": 232,
    "ग्": 233,
    "ग्ग": 234,
    "ग्गि": 235,
    "ग्गॆ": 236,
    "ग्ण": 237,
    "ग्नि": 238,
    "ग्भ": 239,
    "ग्य": 240,
    "ग्या": 241,
    "ग्ये": 242,
    "ग्र": 243,
    "ग्रं": 244,
    "ग्रा": 245,
    "ग्रां": 246,
    "ग्री": 247,
    "ग्रू": 248,
    "ग्रे": 249,
    "ग्ला": 250,
    "ग्वा": 251,
    "ग्ष": 252,
    "ग्स": 253,
    "ग्य़ा": 254,
    "ग्॰ु": 255,
    "घ": 256,
    "घं": 257,
    "घा": 258,
    "घु": 259,
    "घे": 260,
    "घो": 261,
    "घौ": 262,
    "घ्य": 263,
    "घ्या": 264,
    "घ्र": 265,
    "ङ": 266,
    "ङा": 267,
    "ङि": 268,
    "ङे": 269,
    "ङ्": 270,
    "ङ्क": 271,
    "ङ्का": 272,
    "ङ्कि": 273,
    "ङ्कु": 274,
    "ङ्के": 275,
    "ङ्कै": 276,
    "ङ्को": 277,
    "ङ्क्": 278,
    "ङ्ग": 279,
    "ङ्गा": 280,
    "ङ्गी": 281,
    "ङ्गु": 282,
    "ङ्गे": 283,
    "ङ्गो": 284,
    "ङ्घ": 285,
    "ङ्ङ": 286,
    "ङ्ङा": 287,
    "ङ्ङि": 288,
    "ङ्ङे": 289,
    "ङ्ङों": 290,
    "ङ्ङ्‌": 291,
    "ङ्ट": 292,
    "ङ्त": 293,
    "ङ्ष": 294,
    "ङ्‌": 295,
    "च": 296,
    "चं": 297,
    "चा": 298,
    "चां": 299,
    "चा्": 300,
    "चा्जि": 301,
    "चा्व": 302,
    "चि": 303,
    "चिं": 304,
    "चिॕ": 305,
    "ची": 306,
    "चु": 307,
    "चू": 308,
    "चॆ": 309,
    "चे": 310,
    "चेा्ऩ्": 311,
    "चै": 312,
    "चॊ": 313,
    "चो": 314,
    "चौ": 315,
    "च्": 316,
    "च्च": 317,
    "च्चं": 318,
    "च्चा": 319,
    "च्चि": 320,
    "च्ची": 321,
    "च्चु": 322,
    "च्चे": 323,
    "च्चेाि": 324,
    "च्च्": 325,
    "च्च्‌": 326,
    "च्छ": 327,
    "च्छा": 328,
    "च्छु": 329,
    "च्छे": 330,
    "च्छ्": 331,
    "च्य": 332,
    "च्या": 333,
    "छ": 334,
    "छा": 335,
    "छि": 336,
    "छु": 337,
    "छे": 338,
    "छें": 339,
    "छो": 340,
    "छोँ": 341,
    "ज": 342,
    "जं": 343,
    "ज़": 344,
    "ज़ु": 345,
    "जा": 346,
    "जि": 347,
    "जिं": 348,
    "जी": 349,
    "जु": 350,
    "जू": 351,
    "जॆ": 352,
    "जे": 353,
    "जै": 354,
    "जो": 355,
    "ज्": 356,
    "ज्ञ": 357,
    "ज्ञा": 358,
    "ज्ञी": 359,
    "ज्ब": 360,
    "ज्य": 361,
    "ज्यु": 362,
    "ज्यू": 363,
    "ज्येा": 364,
    "ज्यो": 365,
    "ज्यों": 366,
    "ज्ल": 367,
    "ज्व": 368,
    "ज्सि": 369,
    "ज्य़": 370,
    "झ": 371,
    "झा": 372,
    "झाँ": 373,
    "झां": 374,
    "झि": 375,
    "झी": 376,
    "झे": 377,
    "ञ": 378,
    "ञा": 379,
    "ञ्च": 380,
    "ञ्चा": 381,
    "ञ्चा्": 382,
    "ञ्चि": 383,
    "ञ्ज": 384,
    "ञ्जा": 385,
    "ञ्जि": 386,
    "ञ्जी": 387,
    "ञ्ञ": 388,
    "ञ्ञि": 389,
    "ञ्ञो": 390,
    "ट": 391,
    "टं": 392,
    "टा": 393,
    "टाा": 394,
    "टि": 395,
    "टिं": 396,
    "टी": 397,
    "टु": 398,
    "टुं": 399,
    "टू": 400,
    "टॆ": 401,
    "टे": 402,
    "टै": 403,
    "टो": 404,
    "ट्": 405,
    "ट्चाा्च्च": 406,
    "ट्चि": 407,
    "ट्ट": 408,
    "ट्टं": 409,
    "ट्टा": 410,
    "ट्टि": 411,
    "ट्टी": 412,
    "ट्टु": 413,
    "ट्टूा्पु": 414,
    "ट्टै": 415,
    "ट्टो": 416,
    "ट्ट्": 417,
    "ट्ण": 418,
    "ट्न": 419,
    "ट्नं": 420,
    "ट्प": 421,
    "ट्मि": 422,
    "ट्य": 423,
    "ट्यू": 424,
    "ट्र": 425,
    "ट्रा": 426,
    "ट्रि": 427,
    "ट्री": 428,
    "ट्रॆ": 429,
    "ट्रे": 430,
    "ट्रै": 431,
    "ट्रो": 432,
    "ट्र्या": 433,
    "ट्ल": 434,
    "ट्लु": 435,
    "ट्व": 436,
    "ट्श्री": 437,
    "ट्स्": 438,
    "ट्॰": 439,
    "टॗ": 440,
    "ठ": 441,
    "ठा": 442,
    "ठि": 443,
    "ठी": 444,
    "ठु": 445,
    "ठे": 446,
    "ठें": 447,
    "ठो": 448,
    "ठ्ठ": 449,
    "ड": 450,
    "डः": 451,
    "ड़": 452,
    "ड़ा": 453,
    "ड़ि": 454,
    "ड़े": 455,
    "ड़ौ": 456,
    "डा": 457,
    "डाः": 458,
    "डि": 459,
    "डिं": 460,
    "डी": 461,
    "डु": 462,
    "डू": 463,
    "डॆ": 464,
    "डॆं": 465,
    "डे": 466,
    "डै": 467,
    "डो": 468,
    "ड्": 469,
    "ड्क": 470,
    "ड्ड": 471,
    "ड्डा": 472,
    "ड्डि": 473,
    "ड्डु": 474,
    "ड्या": 475,
    "ड्यां": 476,
    "ड्र": 477,
    "ड्रा": 478,
    "ड्रि": 479,
    "ड्री": 480,
    "ड्‌": 481,
    "ड्‍": 482,
    "ढ": 483,
    "ढ़": 484,
    "ढ़ि": 485,
    "ढ़ी": 486,
    "ढि": 487,
    "ढु": 488,
    "ढे": 489,
    "ढे़": 490,
    "ण": 491,
    "णं": 492,
    "ण़": 493,
    "णा": 494,
    "णाः": 495,
    "णि": 496,
    "णी": 497,
    "णीं": 498,
    "णु": 499,
    "णु्": 500,
    "णू": 501,
    "णॆ": 502,
    "णे": 503,
    "णै": 504,
    "णो": 505,
    "ण्": 506,
    "ण्क": 507,
    "ण्का": 508,
    "ण्ट": 509,
    "ण्टं": 510,
    "ण्टा": 511,
    "ण्टि": 512,
    "ण्टी": 513,
    "ण्टु": 514,
    "ण्टे": 515,
    "ण्टै": 516,
    "ण्ट्": 517,
    "ण्ट्स्": 518,
    "ण्ट्‌": 519,
    "ण्ठु": 520,
    "ण्ड": 521,
    "ण्डा": 522,
    "ण्डि": 523,
    "ण्ण": 524,
    "ण्णा": 525,
    "ण्णि": 526,
    "ण्णु": 527,
    "ण्णू": 528,
    "ण्ता": 529,
    "ण्ति": 530,
    "ण्पु": 531,
    "ण्मै": 532,
    "ण्य": 533,
    "ण्या": 534,
    "ण‍": 535,
    "त": 536,
    "तं": 537,
    "तः": 538,
    "त़": 539,
    "त़ा": 540,
    "त़ि": 541,
    "ता": 542,
    "ताँ": 543,
    "तां": 544,
    "ता्का": 545,
    "ति": 546,
    "तिं": 547,
    "तिः": 548,
    "तिाि": 549,
    "ती": 550,
    "तीा्": 551,
    "तीा्त्त": 552,
    "तु": 553,
    "तुं": 554,
    "तू": 555,
    "तूा्": 556,
    "तृ": 557,
    "तॆ": 558,
    "तॆॆ": 559,
    "ते": 560,
    "तै": 561,
    "तॊ": 562,
    "तो": 563,
    "त्": 564,
    "त्क": 565,
    "त्का": 566,
    "त्कू": 567,
    "त्कृ": 568,
    "त्त": 569,
    "त्ता": 570,
    "त्ति": 571,
    "त्ती": 572,
    "त्तु": 573,
    "त्तू": 574,
    "त्तॆ": 575,
    "त्ते": 576,
    "त्तेा्": 577,
    "त्तै": 578,
    "त्तॊ": 579,
    "त्त्": 580,
    "त्त्य": 581,
    "त्त्व": 582,
    "त्त्‌": 583,
    "त्थ": 584,
    "त्थि": 585,
    "त्न": 586,
    "त्प": 587,
    "त्बे": 588,
    "त्म": 589,
    "त्मा": 590,
    "त्य": 591,
    "त्या": 592,
    "त्यां": 593,
    "त्यु": 594,
    "त्ये": 595,
    "त्र": 596,
    "त्रं": 597,
    "त्रं‌": 598,
    "त्रा": 599,
    "त्रि": 600,
    "त्री": 601,
    "त्रॆ": 602,
    "त्रे": 603,
    "त्रों": 604,
    "त्र्य": 605,
    "त्र्यं": 606,
    "त्व": 607,
    "त्वा": 608,
    "त्वि": 609,
    "त्स": 610,
    "त्सा": 611,
    "त्स्ना": 612,
    "त्ह": 613,
    "त्य़": 614,
    "त्य़ु": 615,
    "त्य़े": 616,
    "त्॰": 617,
    "त्‌": 618,
    "त्‍": 619,
    "त‍े": 620,
    "थ": 621,
    "था": 622,
    "थि": 623,
    "थी": 624,
    "थु": 625,
    "थू": 626,
    "थृ": 627,
    "थे": 628,
    "थ्य": 629,
    "द": 630,
    "दा": 631,
    "दां": 632,
    "दि": 633,
    "दिं": 634,
    "दी": 635,
    "दु": 636,
    "दुं": 637,
    "दुि": 638,
    "दू": 639,
    "दूं": 640,
    "दृ": 641,
    "दॆ": 642,
    "दे": 643,
    "दें": 644,
    "दै": 645,
    "दॊ": 646,
    "दो": 647,
    "दौ": 648,
    "द्": 649,
    "द्घा": 650,
    "द्ट": 651,
    "द्द": 652,
    "द्दा": 653,
    "द्दि": 654,
    "द्दु": 655,
    "द्दू": 656,
    "द्ध": 657,
    "द्धा": 658,
    "द्धि": 659,
    "द्धी": 660,
    "द्फु": 661,
    "द्ब": 662,
    "द्बा": 663,
    "द्बि": 664,
    "द्बी": 665,
    "द्बो": 666,
    "द्म": 667,
    "द्मा": 668,
    "द्य": 669,
    "द्या": 670,
    "द्यु": 671,
    "द्यो": 672,
    "द्र": 673,
    "द्रा": 674,
    "द्रि": 675,
    "द्री": 676,
    "द्रु": 677,
    "द्रे": 678,
    "द्ळु": 679,
    "द्वा": 680,
    "द्वी": 681,
    "द्शि": 682,
    "द्य़": 683,
    "द्य़ा": 684,
    "द्॰": 685,
    "द्‌": 686,
    "ध": 687,
    "धा": 688,
    "धि": 689,
    "धिि": 690,
    "धी": 691,
    "धीं": 692,
    "धु": 693,
    "धू": 694,
    "धे": 695,
    "धो": 696,
    "ध्दा": 697,
    "ध्दी": 698,
    "ध्ब": 699,
    "ध्य": 700,
    "ध्या": 701,
    "ध्ये": 702,
    "ध्र": 703,
    "ध्व": 704,
    "न": 705,
    "नं": 706,
    "नः": 707,
    "ना": 708,
    "नाँ": 709,
    "नां": 710,
    "नाि": 711,
    "ना्": 712,
    "नि": 713,
    "निं": 714,
    "निॕ": 715,
    "नि‍": 716,
    "नी": 717,
    "नीा्": 718,
    "नु": 719,
    "नुं": 720,
    "नू": 721,
    "नृ": 722,
    "नॅ": 723,
    "नॆ": 724,
    "ने": 725,
    "नेे": 726,
    "नै": 727,
    "नॊ": 728,
    "नो": 729,
    "नौ": 730,
    "न्": 731,
    "न्कु": 732,
    "न्ट": 733,
    "न्टा": 734,
    "न्ट्र": 735,
    "न्ट्रा": 736,
    "न्ड": 737,
    "न्डि": 738,
    "न्डी": 739,
    "न्डे": 740,
    "न्त": 741,
    "न्ता": 742,
    "न्ति": 743,
    "न्ती": 744,
    "न्तु": 745,
    "न्तू": 746,
    "न्ते": 747,
    "न्तो": 748,
    "न्त्": 749,
    "न्त्य": 750,
    "न्त्र": 751,
    "न्त्रि": 752,
    "न्त्री": 753,
    "न्त्॰ा": 754,
    "न्त्॰ि": 755,
    "न्त्॰ी": 756,
    "न्थ": 757,
    "न्था": 758,
    "न्द": 759,
    "न्दा": 760,
    "न्दि": 761,
    "न्दी": 762,
    "न्दु": 763,
    "न्दे": 764,
    "न्दो": 765,
    "न्द्यो": 766,
    "न्द्र": 767,
    "न्द्रं": 768,
    "न्द्रा": 769,
    "न्द्री": 770,
    "न्द्र्र": 771,
    "न्द्॰": 772,
    "न्द्॰ी": 773,
    "न्द्‌": 774,
    "न्ध": 775,
    "न्धं": 776,
    "न्धि": 777,
    "न्धी": 778,
    "न्ध्यं": 779,
    "न्न": 780,
    "न्ना": 781,
    "न्नि": 782,
    "न्नु": 783,
    "न्नुं": 784,
    "न्नू": 785,
    "न्नै": 786,
    "न्ब": 787,
    "न्म": 788,
    "न्मा": 789,
    "न्मे": 790,
    "न्मो": 791,
    "न्म्या": 792,
    "न्य": 793,
    "न्यः": 794,
    "न्या": 795,
    "न्यु": 796,
    "न्यू": 797,
    "न्ये": 798,
    "न्ऱ": 799,
    "न्ऱॆ": 800,
    "न्ऱ्": 801,
    "न्ल": 802,
    "न्लु": 803,
    "न्व": 804,
    "न्स": 805,
    "न्सि": 806,
    "न्सी": 807,
    "न्सू": 808,
    "न्स्": 809,
    "न्स्टि": 810,
    "न्हा": 811,
    "न्हां": 812,
    "न्य़": 813,
    "न्य़ा": 814,
    "न्‌": 815,
    "ऩ": 816,
    "ऩा": 817,
    "ऩा्": 818,
    "ऩि": 819,
    "ऩी": 820,
    "ऩु": 821,
    "ऩू": 822,
    "ऩे": 823,
    "ऩै": 824,
    "ऩ्": 825,
    "ऩ्टा्": 826,
    "ऩ्ट्": 827,
    "ऩ्ट्र": 828,
    "ऩ्ऩ": 829,
    "ऩ्ऩा": 830,
    "ऩ्ऩूा्": 831,
    "ऩ्ऩै": 832,
    "ऩ्ऩो": 833,
    "ऩ्पु": 834,
    "ऩ्ऱ": 835,
    "ऩ्ऱि": 836,
    "ऩ्वॆ": 837,
    "प": 838,
    "पं": 839,
    "पा": 840,
    "पाँ": 841,
    "पां": 842,
    "पा्": 843,
    "पि": 844,
    "पिं": 845,
    "पिाि": 846,
    "पी": 847,
    "पु": 848,
    "पू": 849,
    "पूँ": 850,
    "पॅ": 851,
    "पॆ": 852,
    "पॆं": 853,
    "पे": 854,
    "पेा": 855,
    "पै": 856,
    "पैा": 857,
    "पॉ": 858,
    "पॊ": 859,
    "पॊं": 860,
    "पो": 861,
    "पोा्चु": 862,
    "पौ": 863,
    "प्": 864,
    "प्टॆ": 865,
    "प्ण": 866,
    "प्त": 867,
    "प्तं": 868,
    "प्तॆ": 869,
    "प्प": 870,
    "प्पं": 871,
    "प्पा": 872,
    "प्पि": 873,
    "प्पी": 874,
    "प्पु": 875,
    "प्पॆ": 876,
    "प्पे": 877,
    "प्पो": 878,
    "प्प्": 879,
    "प्प्मू": 880,
    "प्या": 881,
    "प्र": 882,
    "प्रा": 883,
    "प्रां": 884,
    "प्राः": 885,
    "प्रि": 886,
    "प्री": 887,
    "प्रॅ": 888,
    "प्रॆ": 889,
    "प्रे": 890,
    "प्रै": 891,
    "प्रॊ": 892,
    "प्रो": 893,
    "प्रौ": 894,
    "प्ला": 895,
    "प्ले": 896,
    "प्लै": 897,
    "प्लॉ": 898,
    "प्ष": 899,
    "प्स्": 900,
    "प्॰": 901,
    "प्॰ि": 902,
    "प्‍": 903,
    "प‌": 904,
    "फ": 905,
    "फ़": 906,
    "फा": 907,
    "फां": 908,
    "फि": 909,
    "फी": 910,
    "फु": 911,
    "फॆ": 912,
    "फे": 913,
    "फो": 914,
    "फ्": 915,
    "फ्या": 916,
    "फ्र": 917,
    "फ्॰े": 918,
    "ब": 919,
    "बँ": 920,
    "बं": 921,
    "बा": 922,
    "बां": 923,
    "बा‍": 924,
    "बि": 925,
    "बी": 926,
    "बु": 927,
    "बू": 928,
    "बृ": 929,
    "बॆ": 930,
    "बे": 931,
    "बें": 932,
    "बै": 933,
    "बैं": 934,
    "बॉ": 935,
    "बॊ": 936,
    "बो": 937,
    "बौ": 938,
    "ब्": 939,
    "ब्थ": 940,
    "ब्द": 941,
    "ब्दी": 942,
    "ब्दु": 943,
    "ब्ध": 944,
    "ब्ब": 945,
    "ब्बा": 946,
    "ब्य": 947,
    "ब्या": 948,
    "ब्यां": 949,
    "ब्यु": 950,
    "ब्र": 951,
    "ब्रा": 952,
    "ब्रि": 953,
    "ब्रु": 954,
    "ब्रे": 955,
    "ब्ल": 956,
    "ब्लि": 957,
    "ब्लु": 958,
    "ब्लो": 959,
    "ब्ल्यू": 960,
    "ब्स": 961,
    "ब्सि": 962,
    "ब्य़": 963,
    "ब्य़ा": 964,
    "ब्॰ु": 965,
    "ब्‌": 966,
    "भ": 967,
    "भं": 968,
    "भा": 969,
    "भां": 970,
    "भि": 971,
    "भिं": 972,
    "भी": 973,
    "भु": 974,
    "भू": 975,
    "भृा": 976,
    "भे": 977,
    "भें": 978,
    "भै": 979,
    "भो": 980,
    "भ्या": 981,
    "भ्र": 982,
    "म": 983,
    "मं": 984,
    "मः": 985,
    "मा": 986,
    "मां": 987,
    "मााि": 988,
    "मा‍": 989,
    "मि": 990,
    "मी": 991,
    "मु": 992,
    "मुं": 993,
    "मू": 994,
    "मूा्त्ति": 995,
    "मृ": 996,
    "मॆ": 997,
    "मे": 998,
    "में": 999,
    "मै": 1000,
    "मॊ": 1001,
    "मो": 1002,
    "मों": 1003,
    "मौ": 1004,
    "म्": 1005,
    "म्A": 1006,
    "म्ः": 1007,
    "म्का": 1008,
    "म्के": 1009,
    "म्ट": 1010,
    "म्प": 1011,
    "म्पा": 1012,
    "म्पि": 1013,
    "म्पु": 1014,
    "म्पू": 1015,
    "म्पे": 1016,
    "म्पो": 1017,
    "म्प्": 1018,
    "म्प्य": 1019,
    "म्प्यु": 1020,
    "म्प्र": 1021,
    "म्प्वा": 1022,
    "म्प्॰": 1023,
    "म्ब": 1024,
    "म्बा": 1025,
    "म्बि": 1026,
    "म्बे": 1027,
    "म्ब्न": 1028,
    "म्भ": 1029,
    "म्भा": 1030,
    "म्भु": 1031,
    "म्म": 1032,
    "म्मा": 1033,
    "म्मि": 1034,
    "म्मु": 1035,
    "म्मे": 1036,
    "म्य": 1037,
    "म्या": 1038,
    "म्यां": 1039,
    "म्यु": 1040,
    "म्यू": 1041,
    "म्र": 1042,
    "म्श": 1043,
    "म्ह": 1044,
    "म्ही": 1045,
    "म्य़": 1046,
    "म्य़ो": 1047,
    "म्॰ा": 1048,
    "य": 1049,
    "यं": 1050,
    "य़": 1051,
    "य़ा": 1052,
    "य़े": 1053,
    "या": 1054,
    "यां": 1055,
    "याा्": 1056,
    "याा्पे": 1057,
    "या‍": 1058,
    "यि": 1059,
    "यिाि": 1060,
    "यी": 1061,
    "यु": 1062,
    "युं": 1063,
    "यू": 1064,
    "यॆ": 1065,
    "ये": 1066,
    "यें": 1067,
    "यै": 1068,
    "यॊ": 1069,
    "यो": 1070,
    "यों": 1071,
    "य्": 1072,
    "य्क्कां": 1073,
    "य्क्कु": 1074,
    "य्क्क्": 1075,
    "य्त": 1076,
    "य्न्त": 1077,
    "य्भ": 1078,
    "य्म": 1079,
    "य्मा": 1080,
    "य्य": 1081,
    "य्यु": 1082,
    "य्यो": 1083,
    "य्वु": 1084,
    "य्स्री": 1085,
    "य्‌": 1086,
    "र": 1087,
    "रं": 1088,
    "ऱ": 1089,
    "रा": 1090,
    "राा्": 1091,
    "रा्": 1092,
    "रि": 1093,
    "रिं": 1094,
    "री": 1095,
    "रीं": 1096,
    "रु": 1097,
    "रुं": 1098,
    "रु‍": 1099,
    "रू": 1100,
    "रॆ": 1101,
    "रॆं": 1102,
    "रे": 1103,
    "रें": 1104,
    "रै": 1105,
    "रॉँ": 1106,
    "रो": 1107,
    "र्": 1108,
    "र्क": 1109,
    "र्का": 1110,
    "र्कि": 1111,
    "र्किं": 1112,
    "र्कॆ": 1113,
    "र्के": 1114,
    "र्कॊं": 1115,
    "र्ग": 1116,
    "र्गा": 1117,
    "र्गि": 1118,
    "र्च": 1119,
    "र्चा": 1120,
    "र्चि": 1121,
    "र्चू": 1122,
    "र्च्चि": 1123,
    "र्ज": 1124,
    "र्ज़": 1125,
    "र्जा": 1126,
    "र्जि": 1127,
    "र्जी": 1128,
    "र्जु": 1129,
    "र्ट": 1130,
    "र्टि": 1131,
    "र्टी": 1132,
    "र्ट्": 1133,
    "र्ड": 1134,
    "र्डी": 1135,
    "र्डॆ": 1136,
    "र्ण": 1137,
    "र्णा": 1138,
    "र्णि": 1139,
    "र्णी": 1140,
    "र्णो": 1141,
    "र्त": 1142,
    "र्ति": 1143,
    "र्ती": 1144,
    "र्तु": 1145,
    "र्ते": 1146,
    "र्त्त": 1147,
    "र्त्ता": 1148,
    "र्थ": 1149,
    "र्थं": 1150,
    "र्थि": 1151,
    "र्द": 1152,
    "र्दि": 1153,
    "र्दे": 1154,
    "र्दॊ": 1155,
    "र्द्": 1156,
    "र्ध": 1157,
    "र्न": 1158,
    "र्ना": 1159,
    "र्नी": 1160,
    "र्प": 1161,
    "र्पा": 1162,
    "र्पे": 1163,
    "र्पै": 1164,
    "र्पॊ": 1165,
    "र्पो": 1166,
    "र्फे": 1167,
    "र्ब": 1168,
    "र्बा": 1169,
    "र्बि": 1170,
    "र्बो": 1171,
    "र्ब्ब": 1172,
    "र्भ": 1173,
    "र्भी": 1174,
    "र्म": 1175,
    "र्मा": 1176,
    "र्मि": 1177,
    "र्मी": 1178,
    "र्मु": 1179,
    "र्मे": 1180,
    "र्य": 1181,
    "र्या": 1182,
    "र्य्य": 1183,
    "र्य्या": 1184,
    "र्य्य़": 1185,
    "र्य्य़ा": 1186,
    "र्र": 1187,
    "र्रा": 1188,
    "र्रि": 1189,
    "र्ल": 1190,
    "र्लु": 1191,
    "र्लो": 1192,
    "र्व": 1193,
    "र्वा": 1194,
    "र्वि": 1195,
    "र्वे": 1196,
    "र्श": 1197,
    "र्शि": 1198,
    "र्ष": 1199,
    "र्षा": 1200,
    "र्षि": 1201,
    "र्षे": 1202,
    "र्स": 1203,
    "र्सि": 1204,
    "र्सिं": 1205,
    "र्सी": 1206,
    "र्सु": 1207,
    "र्स्": 1208,
    "र‌": 1209,
    "र‍": 1210,
    "ऱ": 1211,
    "ऱा": 1212,
    "ऱि": 1213,
    "ऱिं": 1214,
    "ऱु": 1215,
    "ऱुं": 1216,
    "ऱू": 1217,
    "ऱॆ": 1218,
    "ऱे": 1219,
    "ऱै": 1220,
    "ऱॊ": 1221,
    "ऱो": 1222,
    "ऱ्": 1223,
    "ऱ्क": 1224,
    "ऱ्का": 1225,
    "ऱ्कु": 1226,
    "ऱ्के": 1227,
    "ऱ्प": 1228,
    "ऱ्पू": 1229,
    "ऱ्ऱ": 1230,
    "ऱ्ऱं": 1231,
    "ऱ्ऱा": 1232,
    "ऱ्ऱि": 1233,
    "ऱ्ऱी": 1234,
    "ऱ्ऱु": 1235,
    "ऱ्ऱे": 1236,
    "ऱ्ऱ्": 1237,
    "ऱ्ऱ्यू": 1238,
    "ल": 1239,
    "लं": 1240,
    "ला": 1241,
    "लां": 1242,
    "लि": 1243,
    "लिं": 1244,
    "ली": 1245,
    "लु": 1246,
    "लुं": 1247,
    "लू": 1248,
    "लूा्": 1249,
    "लॆ": 1250,
    "लॆं": 1251,
    "ले": 1252,
    "लै": 1253,
    "लॉ": 1254,
    "लो": 1255,
    "लोँ": 1256,
    "लौ": 1257,
    "ल्": 1258,
    "ल्क": 1259,
    "ल्कै": 1260,
    "ल्गू": 1261,
    "ल्ट": 1262,
    "ल्टि": 1263,
    "ल्टी": 1264,
    "ल्टु": 1265,
    "ल्ट्": 1266,
    "ल्ट्रा": 1267,
    "ल्ड": 1268,
    "ल्डीं": 1269,
    "ल्ड्र": 1270,
    "ल्त्": 1271,
    "ल्थ": 1272,
    "ल्दा": 1273,
    "ल्नी": 1274,
    "ल्प": 1275,
    "ल्पी": 1276,
    "ल्पॊ": 1277,
    "ल्फे": 1278,
    "ल्य": 1279,
    "ल्या": 1280,
    "ल्यां": 1281,
    "ल्यु": 1282,
    "ल्यू": 1283,
    "ल्ल": 1284,
    "ल्लं": 1285,
    "ल्ला": 1286,
    "ल्लि": 1287,
    "ल्ली": 1288,
    "ल्लु": 1289,
    "ल्लू": 1290,
    "ल्लूाि": 1291,
    "ल्लूा्": 1292,
    "ल्लॆ": 1293,
    "ल्ले": 1294,
    "ल्लै": 1295,
    "ल्ल्": 1296,
    "ल्ल्‌": 1297,
    "ल्वि": 1298,
    "ल्वे": 1299,
    "ल्स्": 1300,
    "ल्हा": 1301,
    "ल्हे": 1302,
    "ल्ह्या": 1303,
    "ल्‌": 1304,
    "ल्‍": 1305,
    "ळ": 1306,
    "ळं": 1307,
    "ळा": 1308,
    "ळां": 1309,
    "ळा्": 1310,
    "ळि": 1311,
    "ळिं": 1312,
    "ळी": 1313,
    "ळु": 1314,
    "ळू": 1315,
    "ळॆ": 1316,
    "ळे": 1317,
    "ळै": 1318,
    "ळो": 1319,
    "ळ्": 1320,
    "ळ्अ": 1321,
    "ळ्ट": 1322,
    "ळ्प": 1323,
    "ळ्मि": 1324,
    "ळ्मी": 1325,
    "ळ्या": 1326,
    "ळ्यां": 1327,
    "ळ्ळ": 1328,
    "ळ्ळा": 1329,
    "ळ्ळि": 1330,
    "ळ्ळी": 1331,
    "ळ्ळु": 1332,
    "ळ्ळे": 1333,
    "ळ‍": 1334,
    "ऴ": 1335,
    "ऴा": 1336,
    "ऴि": 1337,
    "ऴि‌": 1338,
    "ऴु": 1339,
    "ऴॆ": 1340,
    "ऴै": 1341,
    "ऴ्": 1342,
    "ऴ्क": 1343,
    "ऴ्च्": 1344,
    "ऴ्त्त": 1345,
    "ऴ्न": 1346,
    "ऴ्ना": 1347,
    "ऴ्वु": 1348,
    "ऴ्स्": 1349,
    "ऴ्‌": 1350,
    "व": 1351,
    "वं": 1352,
    "वः": 1353,
    "व़": 1354,
    "वा": 1355,
    "वां": 1356,
    "वा्": 1357,
    "वा्स्": 1358,
    "वि": 1359,
    "विं": 1360,
    "वी": 1361,
    "वु": 1362,
    "वुं": 1363,
    "वू": 1364,
    "वृ": 1365,
    "वॅ": 1366,
    "वॆ": 1367,
    "वॆं": 1368,
    "वे": 1369,
    "वेा्ल्टु": 1370,
    "वै": 1371,
    "वॉ": 1372,
    "वॊ": 1373,
    "वो": 1374,
    "व्": 1375,
    "व्य": 1376,
    "व्या": 1377,
    "व्व": 1378,
    "व्वं": 1379,
    "व्वि": 1380,
    "व्वी": 1381,
    "व्वू": 1382,
    "व्वे": 1383,
    "व्ह": 1384,
    "व्हि": 1385,
    "व्ही": 1386,
    "व्‌": 1387,
    "श": 1388,
    "शं": 1389,
    "शा": 1390,
    "शां": 1391,
    "शाः": 1392,
    "शि": 1393,
    "शी": 1394,
    "शु": 1395,
    "शृ": 1396,
    "शॅ": 1397,
    "शे": 1398,
    "शै": 1399,
    "शो": 1400,
    "शौ": 1401,
    "श्": 1402,
    "श्च": 1403,
    "श्चि": 1404,
    "श्ते": 1405,
    "श्ब": 1406,
    "श्मा": 1407,
    "श्य": 1408,
    "श्र": 1409,
    "श्रा": 1410,
    "श्री": 1411,
    "श्रु": 1412,
    "श्रे": 1413,
    "श्ले": 1414,
    "श्व": 1415,
    "श्वा": 1416,
    "श्श": 1417,
    "श्शि": 1418,
    "श्शे": 1419,
    "श्ष": 1420,
    "श्य़": 1421,
    "श्॰ी": 1422,
    "श्ॱ": 1423,
    "श्‍": 1424,
    "शॗ": 1425,
    "ष": 1426,
    "षं": 1427,
    "षा": 1428,
    "षि": 1429,
    "षी": 1430,
    "षु": 1431,
    "षू": 1432,
    "षे": 1433,
    "ष्": 1434,
    "ष्का": 1435,
    "ष्कृ": 1436,
    "ष्ट": 1437,
    "ष्टा": 1438,
    "ष्टि": 1439,
    "ष्टी": 1440,
    "ष्टु": 1441,
    "ष्ट्र": 1442,
    "ष्ट्रा": 1443,
    "ष्ट्री": 1444,
    "ष्ट्॰": 1445,
    "ष्ट्॰ी": 1446,
    "ष्ठ": 1447,
    "ष्ठा": 1448,
    "ष्ण": 1449,
    "ष्णा": 1450,
    "ष्णू": 1451,
    "ष्ना": 1452,
    "ष्पा": 1453,
    "ष्म": 1454,
    "ष्मॆ": 1455,
    "ष्य": 1456,
    "ष्यं": 1457,
    "ष्‌": 1458,
    "ष्‍": 1459,
    "षॢ": 1460,
    "स": 1461,
    "सं": 1462,
    "सः": 1463,
    "सा": 1464,
    "सां": 1465,
    "सि": 1466,
    "सिं": 1467,
    "सी": 1468,
    "सु": 1469,
    "सुँ": 1470,
    "सुं": 1471,
    "सू": 1472,
    "सृ": 1473,
    "सृं": 1474,
    "सॆ": 1475,
    "सॆं": 1476,
    "से": 1477,
    "सें": 1478,
    "से‍": 1479,
    "सै": 1480,
    "सॊ": 1481,
    "सो": 1482,
    "सोँ": 1483,
    "सौ": 1484,
    "स्": 1485,
    "स्क": 1486,
    "स्का": 1487,
    "स्कु": 1488,
    "स्कृ": 1489,
    "स्गि": 1490,
    "स्जि": 1491,
    "स्जी": 1492,
    "स्ट": 1493,
    "स्टा": 1494,
    "स्टि": 1495,
    "स्टु": 1496,
    "स्टॆ": 1497,
    "स्टे": 1498,
    "स्टो": 1499,
    "स्ट्": 1500,
    "स्ट्री": 1501,
    "स्ट्रे": 1502,
    "स्ठ": 1503,
    "स्ड": 1504,
    "स्त": 1505,
    "स्तं": 1506,
    "स्ता": 1507,
    "स्ति": 1508,
    "स्तु": 1509,
    "स्तू": 1510,
    "स्तृ": 1511,
    "स्ते": 1512,
    "स्त्र": 1513,
    "स्त्रा": 1514,
    "स्थ": 1515,
    "स्था": 1516,
    "स्थि": 1517,
    "स्थी": 1518,
    "स्थॆ": 1519,
    "स्थे": 1520,
    "स्थ्य": 1521,
    "स्दु": 1522,
    "स्ध": 1523,
    "स्धा": 1524,
    "स्नि": 1525,
    "स्ने": 1526,
    "स्प": 1527,
    "स्पा": 1528,
    "स्पि": 1529,
    "स्पृ": 1530,
    "स्पॆ": 1531,
    "स्पे": 1532,
    "स्प्पि": 1533,
    "स्फो": 1534,
    "स्ब": 1535,
    "स्बा": 1536,
    "स्भा": 1537,
    "स्म": 1538,
    "स्मा": 1539,
    "स्मृ": 1540,
    "स्य": 1541,
    "स्र": 1542,
    "स्रा": 1543,
    "स्री": 1544,
    "स्ऱ्ऱा": 1545,
    "स्ऱ्ऱि": 1546,
    "स्ऱ्ऱु": 1547,
    "स्ऱ्ऱे": 1548,
    "स्ऱ्ऱै": 1549,
    "स्ऱ्ऱ्": 1550,
    "स्लि": 1551,
    "स्व": 1552,
    "स्वं": 1553,
    "स्वा": 1554,
    "स्वी": 1555,
    "स्वे": 1556,
    "स्सा": 1557,
    "स्सु": 1558,
    "स्स्": 1559,
    "स्स्मा": 1560,
    "स्स्‌": 1561,
    "स्ह": 1562,
    "स्॰": 1563,
    "स्॰ा": 1564,
    "स्ॱ": 1565,
    "स्‌": 1566,
    "स्‍": 1567,
    "ह": 1568,
    "हं": 1569,
    "हः": 1570,
    "हा": 1571,
    "हां": 1572,
    "हा‍": 1573,
    "हि": 1574,
    "हिं": 1575,
    "हिः": 1576,
    "ही": 1577,
    "हु": 1578,
    "हू": 1579,
    "हृ": 1580,
    "हॆ": 1581,
    "हे": 1582,
    "हें": 1583,
    "है": 1584,
    "है‍": 1585,
    "हॉ": 1586,
    "हॊ": 1587,
    "हो": 1588,
    "ह्दि": 1589,
    "ह्न": 1590,
    "ह्म": 1591,
    "ह्य": 1592,
    "ह्या": 1593,
    "ह्रू": 1594,
    "ा": 1595,
    "े": 1596,
    "ॎ": 1597,
    "ॐ": 1598,
    "ड़": 1599,
    "ड़ा": 1600,
    "ड़ी": 1601,
    "ड़े": 1602,
    "ढ़ि": 1603,
    "ढ़ी": 1604,
    "ढ़ो": 1605,
    "फ़्ट": 1606,
    "फ़्दु": 1607,
    "य़": 1608,
    "य़ं": 1609,
    "य़ः": 1610,
    "य़़": 1611,
    "य़ा": 1612,
    "य़ां": 1613,
    "य़ि": 1614,
    "य़ी": 1615,
    "य़ु": 1616,
    "य़े": 1617,
    "य़ो": 1618,
    "य़्या": 1619,
    "य़ॗ": 1620,
    "ॠ": 1621,
    "।": 1622,
    "।‍": 1623,
    "॥": 1624,
    "०": 1625,
    "१": 1626,
    "१्को": 1627,
    "१‌": 1628,
    "२": 1629,
    "२़": 1630,
    "२ा": 1631,
    "३": 1632,
    "४": 1633,
    "५": 1634,
    "५ु": 1635,
    "५ो": 1636,
    "६": 1637,
    "७": 1638,
    "८": 1639,
    "९": 1640,
    "॰": 1641,
    "॰ा": 1642,
    "॰ि": 1643,
    "॰िः": 1644,
    "॰ी": 1645,
    "॰ु": 1646,
    "॰ू": 1647,
    "॰े": 1648,
    "॰ो": 1649,
    "॰्थ": 1650,
    "॰्प": 1651,
    "॰्ब": 1652,
    "॰्मा": 1653,
    "॰्य": 1654,
    "॰्य्य": 1655,
    "॰्य्या": 1656,
    "॰्ष": 1657,
    "ॱ": 1658,
    "ॱा": 1659,
    "ॱि": 1660,
    "ॱे": 1661,
    "ॱो": 1662,
    "ॷ": 1663,
    "ॺ": 1664,
    "ॺ‌": 1665,
    "ॺ‍": 1666,
    "ॻ": 1667,
    "ॻ्ऱॆ": 1668,
    "ॻ्ऱ्": 1669,
    "ॻ‌": 1670,
    "ॻ‌‌": 1671,
    "ॻ‍": 1672,
    "ॼ": 1673,
    "ॼ‌": 1674,
    "ॼ‍‍": 1675,
    "ॽ": 1676,
    "ॽ‌": 1677,
    "ॽ‍": 1678,
    "ॾ": 1679,
    "ॾ‌": 1680,
    "ॾ‌‌": 1681,
    "​": 1682
  },
  "metadata": {
    "tag": "zs_loso_rungA_gurmukhi",
    "num_graphemes": 1681,
    "space": "shared-abugida-pivot"
  }
}