{
  "grapheme2idx": {
    "<blank>": 0,
    "<unk>": 1,
    "!": 2,
    "\"": 3,
    "&": 4,
    "'": 5,
    "(": 6,
    ")": 7,
    ",": 8,
    "-": 9,
    ".": 10,
    "/": 11,
    "0": 12,
    "1": 13,
    "2": 14,
    "3": 15,
    "4": 16,
    "5": 17,
    "6": 18,
    "7": 19,
    "8": 20,
    "9": 21,
    ":": 22,
    "?": 23,
    "A": 24,
    "D": 25,
    "E": 26,
    "G": 27,
    "H": 28,
    "I": 29,
    "O": 30,
    "P": 31,
    "V": 32,
    "[": 33,
    "c": 34,
    "|": 35,
    "°": 36,
    "ا": 37,
    "ت": 38,
    "ج": 39,
    "ر": 40,
    "ك": 41,
    "ل": 42,
    "و": 43,
    "گ": 44,
    "ی": 45,
    "ँ": 46,
    "अ": 47,
    "अं": 48,
    "अि": 49,
    "अ्या": 50,
    "अ॰": 51,
    "आ": 52,
    "आं": 53,
    "आा्": 54,
    "आे": 55,
    "आॕ": 56,
    "इ": 57,
    "इँ": 58,
    "इं": 59,
    "इ॰": 60,
    "इॱ": 61,
    "ई": 62,
    "ईँ": 63,
    "ईं": 64,
    "उ": 65,
    "उाि": 66,
    "उॱ": 67,
    "ऊ": 68,
    "ऊँ": 69,
    "ऊं": 70,
    "ऊा्": 71,
    "ऋ": 72,
    "ऍ": 73,
    "ऎ": 74,
    "ऎं": 75,
    "ऎ‍": 76,
    "ए": 77,
    "एँ": 78,
    "एा": 79,
    "ऐ": 80,
    "ऐं": 81,
    "ऑ": 82,
    "ऒ": 83,
    "ऒं": 84,
    "ऒा्क्स्": 85,
    "ऒ‌": 86,
    "ओ": 87,
    "ओँ": 88,
    "ओं": 89,
    "ओ्बा": 90,
    "औ": 91,
    "औं": 92,
    "क": 93,
    "कं": 94,
    "कः": 95,
    "का": 96,
    "काँ": 97,
    "कां": 98,
    "काुं": 99,
    "काे": 100,
    "का्": 101,
    "का‍": 102,
    "का‍‌": 103,
    "कि": 104,
    "किं": 105,
    "की": 106,
    "कीे": 107,
    "कु": 108,
    "कुं": 109,
    "कु॰": 110,
    "कू": 111,
    "कृ": 112,
    "कॅ": 113,
    "कॅा": 114,
    "कॆ": 115,
    "कॆं": 116,
    "के": 117,
    "कें": 118,
    "केा": 119,
    "केा्": 120,
    "केे": 121,
    "कै": 122,
    "कॉ": 123,
    "कॊ": 124,
    "कॊं": 125,
    "को": 126,
    "कोँ": 127,
    "कों": 128,
    "कों‌": 129,
    "क्": 130,
    "क्ए": 131,
    "क्क": 132,
    "क्कं": 133,
    "क्का": 134,
    "क्कि": 135,
    "क्की": 136,
    "क्कु": 137,
    "क्कू": 138,
    "क्कॆ": 139,
    "क्के": 140,
    "क्कै": 141,
    "क्कॊ": 142,
    "क्को": 143,
    "क्क्": 144,
    "क्कॗ": 145,
    "क्ट": 146,
    "क्टो": 147,
    "क्ट्रि": 148,
    "क्त": 149,
    "क्ता": 150,
    "क्तां": 151,
    "क्ति": 152,
    "क्तीं": 153,
    "क्तु": 154,
    "क्ऩा": 155,
    "क्पे": 156,
    "क्मि": 157,
    "क्य": 158,
    "क्या": 159,
    "क्यू": 160,
    "क्र": 161,
    "क्रं": 162,
    "क्रा": 163,
    "क्रि": 164,
    "क्री": 165,
    "क्रे": 166,
    "क्रै": 167,
    "क्रो": 168,
    "क्ला": 169,
    "क्ली": 170,
    "क्ळ": 171,
    "क्व": 172,
    "क्वा": 173,
    "क्वॆ": 174,
    "क्श": 175,
    "क्ष": 176,
    "क्षा": 177,
    "क्षां": 178,
    "क्षि": 179,
    "क्षिं": 180,
    "क्षी": 181,
    "क्षुः": 182,
    "क्षे": 183,
    "क्षो": 184,
    "क्ष्म": 185,
    "क्ष्मि": 186,
    "क्ष्मी": 187,
    "क्ष्य": 188,
    "क्स": 189,
    "क्सि": 190,
    "क्स्": 191,
    "क्स्फ": 192,
    "क्य़ा": 193,
    "क्॰": 194,
    "क्॰ा": 195,
    "क्॰े": 196,
    "क्‌": 197,
    "क्‍": 198,
    "क॰": 199,
    "कॱ": 200,
    "क‌": 201,
    "क‍ी": 202,
    "ख": 203,
    "खं": 204,
    "ख़": 205,
    "खा": 206,
    "खाँ": 207,
    "खां": 208,
    "खि": 209,
    "खी": 210,
    "खु": 211,
    "खू": 212,
    "खॆ": 213,
    "खे": 214,
    "खै": 215,
    "खो": 216,
    "ख्त": 217,
    "ख्य": 218,
    "ख्यु": 219,
    "ख्रीः": 220,
    "ग": 221,
    "गं": 222,
    "गा": 223,
    "गाँ": 224,
    "गां": 225,
    "गि": 226,
    "गि॰": 227,
    "गी": 228,
    "गु": 229,
    "गुं": 230,
    "गू": 231,
    "गृ": 232,
    "गॆ": 233,
    "गॆं": 234,
    "गे": 235,
    "गै": 236,
    "गॊ": 237,
    "गॊं": 238,
    "गो": 239,
    "गों": 240,
    "गौ": 241,
    "ग्": 242,
    "ग्ग": 243,
    "ग्गि": 244,
    "ग्गॆ": 245,
    "ग्ण": 246,
    "ग्न": 247,
    "ग्नि": 248,
    "ग्ब": 249,
    "ग्य": 250,
    "ग्या": 251,
    "ग्ये": 252,
    "ग्र": 253,
    "ग्रं": 254,
    "ग्रा": 255,
    "ग्रां": 256,
    "ग्री": 257,
    "ग्रू": 258,
    "ग्रॆ": 259,
    "ग्रे": 260,
    "ग्ला": 261,
    "ग्ली": 262,
    "ग्वा": 263,
    "ग्स": 264,
    "ग्य़ा": 265,
    "ग्॰ु": 266,
    "ग्‌": 267,
    "ग॰": 268,
    "गॱ": 269,
    "घ": 270,
    "घं": 271,
    "घा": 272,
    "घां": 273,
    "घु": 274,
    "घे": 275,
    "घो": 276,
    "घौ": 277,
    "घ्य": 278,
    "घ्या": 279,
    "ङ": 280,
    "ङा": 281,
    "ङि": 282,
    "ङे": 283,
    "ङ्क": 284,
    "ङ्का": 285,
    "ङ्कि": 286,
    "ङ्कु": 287,
    "ङ्के": 288,
    "ङ्कै": 289,
    "ङ्क्": 290,
    "ङ्क्षा": 291,
    "ङ्ग": 292,
    "ङ्गि": 293,
    "ङ्गी": 294,
    "ङ्गु": 295,
    "ङ्गे": 296,
    "ङ्गो": 297,
    "ङ्घ": 298,
    "ङ्ङ": 299,
    "ङ्ङा": 300,
    "ङ्ङि": 301,
    "ङ्ङों": 302,
    "ङ्ङ्‌": 303,
    "ङ्‌": 304,
    "च": 305,
    "चं": 306,
    "च़": 307,
    "चा": 308,
    "चां": 309,
    "चा्": 310,
    "चि": 311,
    "चिं": 312,
    "ची": 313,
    "चीा्": 314,
    "चु": 315,
    "चुे": 316,
    "चू": 317,
    "चॆ": 318,
    "चे": 319,
    "चें": 320,
    "चेा्क्कै": 321,
    "चै": 322,
    "चॊ": 323,
    "चो": 324,
    "चौ": 325,
    "च्": 326,
    "च्क": 327,
    "च्च": 328,
    "च्चं": 329,
    "च्चा": 330,
    "च्चा्": 331,
    "च्चि": 332,
    "च्चिं": 333,
    "च्ची": 334,
    "च्चॆ": 335,
    "च्चे": 336,
    "च्चेाि": 337,
    "च्च्": 338,
    "च्च्‌": 339,
    "च्छ": 340,
    "च्छा": 341,
    "च्छु": 342,
    "च्छ्": 343,
    "च्ट": 344,
    "च्य": 345,
    "च्या": 346,
    "च्यु": 347,
    "च्र": 348,
    "च॑": 349,
    "चॖे": 350,
    "च॰": 351,
    "चॱ": 352,
    "छ": 353,
    "छा": 354,
    "छि": 355,
    "छु": 356,
    "छुॱ": 357,
    "छे": 358,
    "छें": 359,
    "छो": 360,
    "छोँ": 361,
    "छ॰": 362,
    "ज": 363,
    "जं": 364,
    "ज़": 365,
    "ज़ी": 366,
    "ज़ु": 367,
    "जा": 368,
    "जा्": 369,
    "जि": 370,
    "जिं": 371,
    "जि॰": 372,
    "जिॱ": 373,
    "जी": 374,
    "जु": 375,
    "जुॱ": 376,
    "जू": 377,
    "जॆ": 378,
    "जे": 379,
    "जें": 380,
    "जै": 381,
    "जॊ": 382,
    "जो": 383,
    "ज्": 384,
    "ज्ज": 385,
    "ज्जं": 386,
    "ज्ञ": 387,
    "ज्ञा": 388,
    "ज्ञी": 389,
    "ज्न": 390,
    "ज्ब": 391,
    "ज्य": 392,
    "ज्यु": 393,
    "ज्यू": 394,
    "ज्येा": 395,
    "ज्यो": 396,
    "ज्यों": 397,
    "ज्व": 398,
    "ज्सि": 399,
    "ज्य़": 400,
    "ज्य़ो": 401,
    "ज॰": 402,
    "झ": 403,
    "झा": 404,
    "झाँ": 405,
    "झां": 406,
    "झि": 407,
    "झी": 408,
    "झे": 409,
    "झ॰": 410,
    "ञ": 411,
    "ञा": 412,
    "ञा्": 413,
    "ञ्च": 414,
    "ञ्चा": 415,
    "ञ्चि": 416,
    "ञ्चे": 417,
    "ञ्ज": 418,
    "ञ्जा": 419,
    "ञ्जि": 420,
    "ञ्जी": 421,
    "ञ्ञ": 422,
    "ञ्ञा": 423,
    "ञ्ञि": 424,
    "ञ्ञॆ": 425,
    "ट": 426,
    "टा": 427,
    "टाा": 428,
    "टााि": 429,
    "टि": 430,
    "टिं": 431,
    "टी": 432,
    "टु": 433,
    "टू": 434,
    "टॆ": 435,
    "टॆं": 436,
    "टे": 437,
    "टै": 438,
    "टैं": 439,
    "टो": 440,
    "टोाि": 441,
    "टौ": 442,
    "ट्": 443,
    "ट्क": 444,
    "ट्के": 445,
    "ट्ङ": 446,
    "ट्च": 447,
    "ट्चि": 448,
    "ट्ट": 449,
    "ट्टं": 450,
    "ट्ट़": 451,
    "ट्टा": 452,
    "ट्टा्": 453,
    "ट्टि": 454,
    "ट्टी": 455,
    "ट्टु": 456,
    "ट्टूा्पु": 457,
    "ट्टॆ": 458,
    "ट्टै": 459,
    "ट्टो": 460,
    "ट्ट्": 461,
    "ट्ण": 462,
    "ट्त": 463,
    "ट्न": 464,
    "ट्नं": 465,
    "ट्प": 466,
    "ट्पा": 467,
    "ट्य": 468,
    "ट्यू": 469,
    "ट्र": 470,
    "ट्रा": 471,
    "ट्रि": 472,
    "ट्रे": 473,
    "ट्रै": 474,
    "ट्रो": 475,
    "ट्र्या": 476,
    "ट्ल": 477,
    "ट्लु": 478,
    "ट्व": 479,
    "ट्स्": 480,
    "ट्॰": 481,
    "ट्‌": 482,
    "ट्‍": 483,
    "ट‌": 484,
    "ठ": 485,
    "ठा": 486,
    "ठि": 487,
    "ठि॰": 488,
    "ठी": 489,
    "ठे": 490,
    "ठें": 491,
    "ठो": 492,
    "ठ्ठ": 493,
    "ड": 494,
    "डं": 495,
    "डः": 496,
    "ड़": 497,
    "ड़ा": 498,
    "ड़ि": 499,
    "ड़ी": 500,
    "ड़े": 501,
    "ड़ौ": 502,
    "डा": 503,
    "डाः": 504,
    "डि": 505,
    "डी": 506,
    "डु": 507,
    "डू": 508,
    "डॆ": 509,
    "डॆं": 510,
    "डे": 511,
    "डै": 512,
    "डो": 513,
    "ड्": 514,
    "ड्क": 515,
    "ड्जी": 516,
    "ड्ड": 517,
    "ड्डा": 518,
    "ड्डि": 519,
    "ड्डु": 520,
    "ड्पे": 521,
    "ड्यं": 522,
    "ड्या": 523,
    "ड्यां": 524,
    "ड्यू": 525,
    "ड्र": 526,
    "ड्रि": 527,
    "ड्री": 528,
    "ड्रै": 529,
    "ड्रो": 530,
    "ड्ल": 531,
    "ड्वु": 532,
    "ड्स्": 533,
    "ड्‌": 534,
    "ड्‍": 535,
    "ढ": 536,
    "ढ़": 537,
    "ढ़ि": 538,
    "ढ़ी": 539,
    "ढि": 540,
    "ढु": 541,
    "ढे": 542,
    "ढे़": 543,
    "ण": 544,
    "णं": 545,
    "णा": 546,
    "णाः": 547,
    "णि": 548,
    "णी": 549,
    "णीं": 550,
    "णु": 551,
    "णू": 552,
    "णॆ": 553,
    "णे": 554,
    "णै": 555,
    "णो": 556,
    "ण्": 557,
    "ण्क": 558,
    "ण्का": 559,
    "ण्कॊ": 560,
    "ण्ट": 561,
    "ण्टं": 562,
    "ण्टा": 563,
    "ण्टि": 564,
    "ण्टु": 565,
    "ण्टॆ": 566,
    "ण्टे": 567,
    "ण्ट्": 568,
    "ण्ट्लू": 569,
    "ण्ट्‌": 570,
    "ण्ड": 571,
    "ण्डा": 572,
    "ण्डि": 573,
    "ण्ढ": 574,
    "ण्ण": 575,
    "ण्णा": 576,
    "ण्णी": 577,
    "ण्णु": 578,
    "ण्णू": 579,
    "ण्ता": 580,
    "ण्मै": 581,
    "ण्य": 582,
    "ण्या": 583,
    "ण्रा": 584,
    "ण्री": 585,
    "ण्‌": 586,
    "ण‍": 587,
    "त": 588,
    "तं": 589,
    "तः": 590,
    "त़": 591,
    "त़ि": 592,
    "ता": 593,
    "ताँ": 594,
    "तां": 595,
    "ता्": 596,
    "ति": 597,
    "तिं": 598,
    "तिः": 599,
    "तिाि": 600,
    "ती": 601,
    "तीा्": 602,
    "तीा्क": 603,
    "तु": 604,
    "तुं": 605,
    "तू": 606,
    "तू॰": 607,
    "तृ": 608,
    "तॆ": 609,
    "तॆॆ": 610,
    "तॆ्र्र": 611,
    "ते": 612,
    "तें": 613,
    "तै": 614,
    "तॊ": 615,
    "तो": 616,
    "तों": 617,
    "त्": 618,
    "त्उ": 619,
    "त्क": 620,
    "त्का": 621,
    "त्कू": 622,
    "त्त": 623,
    "त्ता": 624,
    "त्ति": 625,
    "त्ती": 626,
    "त्तु": 627,
    "त्तू": 628,
    "त्तॆ": 629,
    "त्तेा्": 630,
    "त्तै": 631,
    "त्तॊ": 632,
    "त्तो": 633,
    "त्त्": 634,
    "त्त्य": 635,
    "त्त्व": 636,
    "त्त्‌": 637,
    "त्थ": 638,
    "त्थि": 639,
    "त्न": 640,
    "त्नं": 641,
    "त्नि": 642,
    "त्ब": 643,
    "त्बे": 644,
    "त्भ": 645,
    "त्म": 646,
    "त्मा": 647,
    "त्य": 648,
    "त्या": 649,
    "त्यां": 650,
    "त्यु": 651,
    "त्ये": 652,
    "त्य्": 653,
    "त्र": 654,
    "त्रं": 655,
    "त्रं‌": 656,
    "त्रा": 657,
    "त्रि": 658,
    "त्री": 659,
    "त्रु": 660,
    "त्रॆ": 661,
    "त्रे": 662,
    "त्रों": 663,
    "त्र्य": 664,
    "त्र्यं": 665,
    "त्व": 666,
    "त्वं": 667,
    "त्वा": 668,
    "त्वि": 669,
    "त्स": 670,
    "त्सा": 671,
    "त्स्": 672,
    "त्स्ना": 673,
    "त्य़": 674,
    "त्य़ु": 675,
    "त्य़े": 676,
    "त्॰": 677,
    "त्‌": 678,
    "त्‍": 679,
    "त॰": 680,
    "त‍े": 681,
    "थ": 682,
    "था": 683,
    "थां": 684,
    "थि": 685,
    "थी": 686,
    "थु": 687,
    "थू": 688,
    "थृ": 689,
    "थे": 690,
    "थ्य": 691,
    "थ्य़": 692,
    "द": 693,
    "दा": 694,
    "दां": 695,
    "दि": 696,
    "दिं": 697,
    "दि॰": 698,
    "दी": 699,
    "दु": 700,
    "दू": 701,
    "दूं": 702,
    "दृ": 703,
    "दॆ": 704,
    "दे": 705,
    "दें": 706,
    "दै": 707,
    "दॊ": 708,
    "दो": 709,
    "दौ": 710,
    "द्": 711,
    "द्घा": 712,
    "द्ट": 713,
    "द्टु": 714,
    "द्द": 715,
    "द्दा": 716,
    "द्दां": 717,
    "द्दि": 718,
    "द्दु": 719,
    "द्दू": 720,
    "द्ध": 721,
    "द्धा": 722,
    "द्धि": 723,
    "द्धी": 724,
    "द्ध्फि": 725,
    "द्ध्यं": 726,
    "द्ब": 727,
    "द्बा": 728,
    "द्बि": 729,
    "द्बी": 730,
    "द्बो": 731,
    "द्म": 732,
    "द्मा": 733,
    "द्य": 734,
    "द्या": 735,
    "द्यो": 736,
    "द्र": 737,
    "द्रा": 738,
    "द्रि": 739,
    "द्री": 740,
    "द्रु": 741,
    "द्रे": 742,
    "द्रौ": 743,
    "द्व": 744,
    "द्वा": 745,
    "द्वी": 746,
    "द्य़": 747,
    "द्य़ा": 748,
    "द्॰": 749,
    "द्‌": 750,
    "ध": 751,
    "धं": 752,
    "धा": 753,
    "धि": 754,
    "धिि": 755,
    "धी": 756,
    "धीं": 757,
    "धु": 758,
    "धू": 759,
    "धृ": 760,
    "धे": 761,
    "धो": 762,
    "ध्दा": 763,
    "ध्दी": 764,
    "ध्ब": 765,
    "ध्य": 766,
    "ध्या": 767,
    "ध्ये": 768,
    "ध्र": 769,
    "ध्व": 770,
    "ध॰": 771,
    "न": 772,
    "नं": 773,
    "नः": 774,
    "ना": 775,
    "नां": 776,
    "ना्": 777,
    "नि": 778,
    "निं": 779,
    "निः": 780,
    "निॕ": 781,
    "नि‍": 782,
    "नी": 783,
    "नीा्": 784,
    "नु": 785,
    "नुं": 786,
    "नू": 787,
    "नू॰": 788,
    "नृ": 789,
    "नॅ": 790,
    "नॆ": 791,
    "ने": 792,
    "नेे": 793,
    "नै": 794,
    "नॊ": 795,
    "नो": 796,
    "नौ": 797,
    "न्": 798,
    "न्कु": 799,
    "न्ट": 800,
    "न्टा": 801,
    "न्ट्र": 802,
    "न्ट्रा": 803,
    "न्ड": 804,
    "न्डि": 805,
    "न्डी": 806,
    "न्डे": 807,
    "न्त": 808,
    "न्ता": 809,
    "न्ति": 810,
    "न्ती": 811,
    "न्तु": 812,
    "न्ते": 813,
    "न्तै": 814,
    "न्तो": 815,
    "न्त्": 816,
    "न्त्र": 817,
    "न्त्रि": 818,
    "न्त्री": 819,
    "न्त्॰ा": 820,
    "न्त्॰ि": 821,
    "न्त्॰ी": 822,
    "न्थ": 823,
    "न्था": 824,
    "न्द": 825,
    "न्दा": 826,
    "न्दि": 827,
    "न्दी": 828,
    "न्दु": 829,
    "न्दे": 830,
    "न्दो": 831,
    "न्द्यो": 832,
    "न्द्र": 833,
    "न्द्रं": 834,
    "न्द्रा": 835,
    "न्द्री": 836,
    "न्द्र्र": 837,
    "न्द्॰": 838,
    "न्द्॰ी": 839,
    "न्ध": 840,
    "न्धि": 841,
    "न्धी": 842,
    "न्न": 843,
    "न्नं": 844,
    "न्ना": 845,
    "न्नि": 846,
    "न्नि‍": 847,
    "न्नु": 848,
    "न्नुं": 849,
    "न्नू": 850,
    "न्नै": 851,
    "न्न्": 852,
    "न्प": 853,
    "न्ब": 854,
    "न्म": 855,
    "न्मा": 856,
    "न्मे": 857,
    "न्मो": 858,
    "न्म्या": 859,
    "न्य": 860,
    "न्यः": 861,
    "न्या": 862,
    "न्यु": 863,
    "न्यू": 864,
    "न्ये": 865,
    "न्ऱॆ": 866,
    "न्ऱ्": 867,
    "न्ल": 868,
    "न्वी": 869,
    "न्वे": 870,
    "न्ष": 871,
    "न्स": 872,
    "न्सा": 873,
    "न्सि": 874,
    "न्सी": 875,
    "न्सू": 876,
    "न्स्": 877,
    "न्स्टि": 878,
    "न्हा": 879,
    "न्हां": 880,
    "न्य़": 881,
    "न्य़ा": 882,
    "न्‌": 883,
    "न॰": 884,
    "न॰ः": 885,
    "नॱ": 886,
    "ऩ": 887,
    "ऩा": 888,
    "ऩाा्": 889,
    "ऩा्क": 890,
    "ऩि": 891,
    "ऩी": 892,
    "ऩु": 893,
    "ऩू": 894,
    "ऩूा्": 895,
    "ऩै": 896,
    "ऩ्": 897,
    "ऩ्टा्": 898,
    "ऩ्ट्": 899,
    "ऩ्ट्र": 900,
    "ऩ्ऩ": 901,
    "ऩ्ऩा": 902,
    "ऩ्ऩि": 903,
    "ऩ्ऩै": 904,
    "ऩ्ऩो": 905,
    "ऩ्प": 906,
    "ऩ्पु": 907,
    "ऩ्मै": 908,
    "ऩ्ऱ": 909,
    "ऩ्ऱि": 910,
    "ऩ्ऱु": 911,
    "ऩ्ऱॆ": 912,
    "ऩ्वॆ": 913,
    "ऩ्स्": 914,
    "प": 915,
    "पं": 916,
    "पा": 917,
    "पाँ": 918,
    "पां": 919,
    "पि": 920,
    "पिं": 921,
    "पिु": 922,
    "पी": 923,
    "पु": 924,
    "पू": 925,
    "पूँ": 926,
    "पृ": 927,
    "पॅ": 928,
    "पॆ": 929,
    "पॆं": 930,
    "पे": 931,
    "पेा": 932,
    "पै": 933,
    "पैा": 934,
    "पॉ": 935,
    "पॊ": 936,
    "पॊं": 937,
    "पो": 938,
    "पोा्चु": 939,
    "पौ": 940,
    "प्": 941,
    "प्का": 942,
    "प्ट": 943,
    "प्टि": 944,
    "प्टॆ": 945,
    "प्ण": 946,
    "प्त": 947,
    "प्ति": 948,
    "प्न": 949,
    "प्प": 950,
    "प्पं": 951,
    "प्पा": 952,
    "प्पि": 953,
    "प्पिं": 954,
    "प्पी": 955,
    "प्पु": 956,
    "प्पूा्": 957,
    "प्पॆ": 958,
    "प्पॊ": 959,
    "प्पो": 960,
    "प्प्": 961,
    "प्प्‌": 962,
    "प्या": 963,
    "प्र": 964,
    "प्रा": 965,
    "प्रां": 966,
    "प्राः": 967,
    "प्रि": 968,
    "प्री": 969,
    "प्रीि": 970,
    "प्रॅ": 971,
    "प्रॆ": 972,
    "प्रे": 973,
    "प्रै": 974,
    "प्रॊ": 975,
    "प्रो": 976,
    "प्रौ": 977,
    "प्ल": 978,
    "प्ला": 979,
    "प्ले": 980,
    "प्लै": 981,
    "प्लॉ": 982,
    "प्ष": 983,
    "प्स्": 984,
    "प्॰": 985,
    "प्॰ि": 986,
    "प्‍": 987,
    "प॰": 988,
    "प‌": 989,
    "फ": 990,
    "फ़": 991,
    "फा": 992,
    "फां": 993,
    "फि": 994,
    "फी": 995,
    "फु": 996,
    "फॆ": 997,
    "फे": 998,
    "फै": 999,
    "फो": 1000,
    "फौ": 1001,
    "फ्": 1002,
    "फ्को": 1003,
    "फ्ट्": 1004,
    "फ्या": 1005,
    "फ्र": 1006,
    "फ्री": 1007,
    "फ्रू": 1008,
    "फ्रो": 1009,
    "फ्ला": 1010,
    "फ्॰े": 1011,
    "ब": 1012,
    "बँ": 1013,
    "बं": 1014,
    "बा": 1015,
    "बां": 1016,
    "बि": 1017,
    "बि॰": 1018,
    "बी": 1019,
    "बु": 1020,
    "बू": 1021,
    "बृ": 1022,
    "बृं": 1023,
    "बॆ": 1024,
    "बॆं": 1025,
    "बे": 1026,
    "बें": 1027,
    "बै": 1028,
    "बैं": 1029,
    "बॉ": 1030,
    "बॊ": 1031,
    "बो": 1032,
    "बौ": 1033,
    "ब्": 1034,
    "ब्थ": 1035,
    "ब्द": 1036,
    "ब्दि": 1037,
    "ब्दी": 1038,
    "ब्दु": 1039,
    "ब्ध": 1040,
    "ब्ब": 1041,
    "ब्बं": 1042,
    "ब्बा": 1043,
    "ब्य": 1044,
    "ब्या": 1045,
    "ब्यां": 1046,
    "ब्यु": 1047,
    "ब्यू": 1048,
    "ब्र": 1049,
    "ब्रा": 1050,
    "ब्रि": 1051,
    "ब्रु": 1052,
    "ब्रू": 1053,
    "ब्रे": 1054,
    "ब्ल": 1055,
    "ब्लु": 1056,
    "ब्लो": 1057,
    "ब्ल्यू": 1058,
    "ब्स": 1059,
    "ब्सि": 1060,
    "ब्य़ा": 1061,
    "ब्॰ु": 1062,
    "ब॰": 1063,
    "बॱ": 1064,
    "भ": 1065,
    "भं": 1066,
    "भा": 1067,
    "भां": 1068,
    "भि": 1069,
    "भिं": 1070,
    "भी": 1071,
    "भु": 1072,
    "भू": 1073,
    "भृा": 1074,
    "भे": 1075,
    "भें": 1076,
    "भै": 1077,
    "भो": 1078,
    "भ्य": 1079,
    "भ्या": 1080,
    "भ्र": 1081,
    "भ॰": 1082,
    "म": 1083,
    "मं": 1084,
    "मः": 1085,
    "मा": 1086,
    "मां": 1087,
    "मि": 1088,
    "मी": 1089,
    "मु": 1090,
    "मुं": 1091,
    "मुॱ": 1092,
    "मू": 1093,
    "मूा्त्ति": 1094,
    "मृ": 1095,
    "मॆ": 1096,
    "मॆं": 1097,
    "मे": 1098,
    "में": 1099,
    "मै": 1100,
    "मैं": 1101,
    "मैा": 1102,
    "मॊ": 1103,
    "मो": 1104,
    "मों": 1105,
    "मौ": 1106,
    "म्": 1107,
    "म्ः": 1108,
    "म्का": 1109,
    "म्न": 1110,
    "म्ना": 1111,
    "म्प": 1112,
    "म्पा": 1113,
    "म्पा्": 1114,
    "म्पि": 1115,
    "म्पु": 1116,
    "म्पू": 1117,
    "म्पूा्": 1118,
    "म्पे": 1119,
    "म्प्": 1120,
    "म्प्या": 1121,
    "म्प्यु": 1122,
    "म्प्यू": 1123,
    "म्प्ले": 1124,
    "म्प्वा": 1125,
    "म्प्॰": 1126,
    "म्ब": 1127,
    "म्बा": 1128,
    "म्बि": 1129,
    "म्बे": 1130,
    "म्ब्न": 1131,
    "म्भ": 1132,
    "म्भा": 1133,
    "म्भु": 1134,
    "म्म": 1135,
    "म्मं": 1136,
    "म्मा": 1137,
    "म्मि": 1138,
    "म्मु": 1139,
    "म्मू": 1140,
    "म्मे": 1141,
    "म्मै": 1142,
    "म्य": 1143,
    "म्या": 1144,
    "म्यां": 1145,
    "म्यु": 1146,
    "म्यू": 1147,
    "म्र": 1148,
    "म्रा": 1149,
    "म्रि": 1150,
    "म्श": 1151,
    "म्स": 1152,
    "म्ह": 1153,
    "म्ही": 1154,
    "म्॰ा": 1155,
    "म्‌": 1156,
    "म॰": 1157,
    "मॱ": 1158,
    "य": 1159,
    "यं": 1160,
    "य़": 1161,
    "य़ा": 1162,
    "य़े": 1163,
    "या": 1164,
    "यां": 1165,
    "याा्": 1166,
    "या‍": 1167,
    "यि": 1168,
    "यी": 1169,
    "यु": 1170,
    "युं": 1171,
    "यू": 1172,
    "ये": 1173,
    "यें": 1174,
    "यै": 1175,
    "यॊ": 1176,
    "यो": 1177,
    "यों": 1178,
    "य्": 1179,
    "य्क": 1180,
    "य्क्का": 1181,
    "य्क्कां": 1182,
    "य्क्क्": 1183,
    "य्ञ्चि": 1184,
    "य्त": 1185,
    "य्न्त": 1186,
    "य्म": 1187,
    "य्मा": 1188,
    "य्मै": 1189,
    "य्य": 1190,
    "य्या्": 1191,
    "य्व": 1192,
    "य्वि": 1193,
    "य्वु": 1194,
    "य्स्री": 1195,
    "य्य़ा": 1196,
    "य्‌": 1197,
    "यॖ": 1198,
    "र": 1199,
    "रं": 1200,
    "रा": 1201,
    "रां": 1202,
    "राा्": 1203,
    "रा्": 1204,
    "रि": 1205,
    "रिं": 1206,
    "रि॰": 1207,
    "री": 1208,
    "रीं": 1209,
    "रु": 1210,
    "रुं": 1211,
    "रू": 1212,
    "रूा्": 1213,
    "रॆ": 1214,
    "रॆं": 1215,
    "रे": 1216,
    "रें": 1217,
    "रै": 1218,
    "रॉँ": 1219,
    "रॊ": 1220,
    "रो": 1221,
    "र्": 1222,
    "र्ऎ": 1223,
    "र्क": 1224,
    "र्का": 1225,
    "र्कि": 1226,
    "र्किं": 1227,
    "र्कॆ": 1228,
    "र्के": 1229,
    "र्कॊं": 1230,
    "र्ग": 1231,
    "र्गं": 1232,
    "र्गा": 1233,
    "र्गि": 1234,
    "र्गी": 1235,
    "र्च": 1236,
    "र्चा": 1237,
    "र्चि": 1238,
    "र्चु": 1239,
    "र्चू": 1240,
    "र्च्च": 1241,
    "र्च्चि": 1242,
    "र्ज": 1243,
    "र्जा": 1244,
    "र्जी": 1245,
    "र्जु": 1246,
    "र्ट": 1247,
    "र्टि": 1248,
    "र्टी": 1249,
    "र्ट्": 1250,
    "र्ट्स्": 1251,
    "र्ड": 1252,
    "र्डी": 1253,
    "र्डु": 1254,
    "र्डॆ": 1255,
    "र्ड्": 1256,
    "र्ण": 1257,
    "र्णा": 1258,
    "र्णि": 1259,
    "र्णी": 1260,
    "र्णो": 1261,
    "र्ण्णा": 1262,
    "र्ण्णी": 1263,
    "र्ण्न": 1264,
    "र्त": 1265,
    "र्ति": 1266,
    "र्ती": 1267,
    "र्तु": 1268,
    "र्तू": 1269,
    "र्ते": 1270,
    "र्थ": 1271,
    "र्थं": 1272,
    "र्थि": 1273,
    "र्द": 1274,
    "र्दि": 1275,
    "र्दी": 1276,
    "र्दु": 1277,
    "र्दू": 1278,
    "र्दे": 1279,
    "र्द्": 1280,
    "र्ध": 1281,
    "र्धं": 1282,
    "र्न": 1283,
    "र्ना": 1284,
    "र्नी": 1285,
    "र्नू": 1286,
    "र्ने": 1287,
    "र्प": 1288,
    "र्पा": 1289,
    "र्पि": 1290,
    "र्पे": 1291,
    "र्पै": 1292,
    "र्पॊ": 1293,
    "र्पो": 1294,
    "र्फे": 1295,
    "र्ब": 1296,
    "र्बि": 1297,
    "र्बो": 1298,
    "र्ब्ब": 1299,
    "र्भ": 1300,
    "र्भं": 1301,
    "र्भा": 1302,
    "र्भी": 1303,
    "र्म": 1304,
    "र्मा": 1305,
    "र्मि": 1306,
    "र्मी": 1307,
    "र्मु": 1308,
    "र्मे": 1309,
    "र्म्": 1310,
    "र्य": 1311,
    "र्या": 1312,
    "र्य्या": 1313,
    "र्य्य़": 1314,
    "र्य्य़ा": 1315,
    "र्र": 1316,
    "र्रा": 1317,
    "र्रि": 1318,
    "र्ल": 1319,
    "र्ला": 1320,
    "र्लु": 1321,
    "र्लो": 1322,
    "र्व": 1323,
    "र्वा": 1324,
    "र्वि": 1325,
    "र्वे": 1326,
    "र्श": 1327,
    "र्शि": 1328,
    "र्ष": 1329,
    "र्षा": 1330,
    "र्षि": 1331,
    "र्षे": 1332,
    "र्स": 1333,
    "र्सि": 1334,
    "र्सिं": 1335,
    "र्सी": 1336,
    "र्सु": 1337,
    "र्स्": 1338,
    "र्‌": 1339,
    "र॰": 1340,
    "रॱ": 1341,
    "र‌": 1342,
    "र‍": 1343,
    "ऱ": 1344,
    "ऱं": 1345,
    "ऱा": 1346,
    "ऱि": 1347,
    "ऱिं": 1348,
    "ऱु": 1349,
    "ऱॆ": 1350,
    "ऱे": 1351,
    "ऱै": 1352,
    "ऱॊ": 1353,
    "ऱो": 1354,
    "ऱ्": 1355,
    "ऱ्का": 1356,
    "ऱ्कु": 1357,
    "ऱ्कै": 1358,
    "ऱ्चि": 1359,
    "ऱ्प": 1360,
    "ऱ्ऱ": 1361,
    "ऱ्ऱा": 1362,
    "ऱ्ऱि": 1363,
    "ऱ्ऱु": 1364,
    "ऱ्ऱे": 1365,
    "ऱ्ऱ्": 1366,
    "ऱ्ऱ्यू": 1367,
    "ऱ्ऱ्ऱ्‌": 1368,
    "ल": 1369,
    "लं": 1370,
    "ला": 1371,
    "लां": 1372,
    "ला्क": 1373,
    "लि": 1374,
    "लिं": 1375,
    "लिा": 1376,
    "ली": 1377,
    "लु": 1378,
    "लुं": 1379,
    "लू": 1380,
    "लूा्": 1381,
    "लॆ": 1382,
    "लॆं": 1383,
    "ले": 1384,
    "लै": 1385,
    "लॉ": 1386,
    "लॊ": 1387,
    "लो": 1388,
    "लोँ": 1389,
    "लौ": 1390,
    "ल्": 1391,
    "ल्ऎ": 1392,
    "ल्क": 1393,
    "ल्कि": 1394,
    "ल्की": 1395,
    "ल्कु": 1396,
    "ल्क्कु": 1397,
    "ल्क्स्": 1398,
    "ल्ग": 1399,
    "ल्गू": 1400,
    "ल्गॊ": 1401,
    "ल्ट": 1402,
    "ल्टि": 1403,
    "ल्टी": 1404,
    "ल्ट्": 1405,
    "ल्ट्रा": 1406,
    "ल्ड": 1407,
    "ल्डीं": 1408,
    "ल्ड्": 1409,
    "ल्ड्र": 1410,
    "ल्थ": 1411,
    "ल्द": 1412,
    "ल्दा": 1413,
    "ल्द्": 1414,
    "ल्न": 1415,
    "ल्नी": 1416,
    "ल्प": 1417,
    "ल्पी": 1418,
    "ल्पु": 1419,
    "ल्पॊ": 1420,
    "ल्पो": 1421,
    "ल्फे": 1422,
    "ल्म": 1423,
    "ल्या": 1424,
    "ल्यां": 1425,
    "ल्यु": 1426,
    "ल्ल": 1427,
    "ल्लं": 1428,
    "ल्ला": 1429,
    "ल्ला‍": 1430,
    "ल्लि": 1431,
    "ल्ली": 1432,
    "ल्लु": 1433,
    "ल्लू": 1434,
    "ल्लूाि": 1435,
    "ल्लूा्": 1436,
    "ल्लॆ": 1437,
    "ल्ले": 1438,
    "ल्लै": 1439,
    "ल्ल्": 1440,
    "ल्वि": 1441,
    "ल्वॆ": 1442,
    "ल्वे": 1443,
    "ल्स": 1444,
    "ल्स्": 1445,
    "ल्हा": 1446,
    "ल्हे": 1447,
    "ल्ह्या": 1448,
    "ल्‌": 1449,
    "ल्‍": 1450,
    "ल॰": 1451,
    "लॱ": 1452,
    "ळ": 1453,
    "ळं": 1454,
    "ळा": 1455,
    "ळां": 1456,
    "ळा्": 1457,
    "ळि": 1458,
    "ळी": 1459,
    "ळु": 1460,
    "ळू": 1461,
    "ळॆ": 1462,
    "ळे": 1463,
    "ळै": 1464,
    "ळो": 1465,
    "ळ्": 1466,
    "ळ्अ": 1467,
    "ळ्क": 1468,
    "ळ्मि": 1469,
    "ळ्मी": 1470,
    "ळ्या": 1471,
    "ळ्यां": 1472,
    "ळ्ळ": 1473,
    "ळ्ळा": 1474,
    "ळ्ळि": 1475,
    "ळ्ळु": 1476,
    "ळ‍": 1477,
    "ऴ": 1478,
    "ऴं": 1479,
    "ऴा": 1480,
    "ऴि": 1481,
    "ऴु": 1482,
    "ऴॆ": 1483,
    "ऴ्": 1484,
    "ऴ्चॆ": 1485,
    "ऴ्न": 1486,
    "ऴ्ना": 1487,
    "ऴ्वु": 1488,
    "ऴ्‌": 1489,
    "व": 1490,
    "वं": 1491,
    "वः": 1492,
    "व़": 1493,
    "वा": 1494,
    "वां": 1495,
    "वाा्टु": 1496,
    "वाि": 1497,
    "वा्": 1498,
    "वा्क": 1499,
    "वि": 1500,
    "विं": 1501,
    "वि॰": 1502,
    "विॱ": 1503,
    "वी": 1504,
    "वीं": 1505,
    "वीः": 1506,
    "वु": 1507,
    "वुं": 1508,
    "वू": 1509,
    "वृ": 1510,
    "वॅ": 1511,
    "वॆ": 1512,
    "वॆं": 1513,
    "वे": 1514,
    "वें": 1515,
    "वेा्ल्टु": 1516,
    "वै": 1517,
    "वॉ": 1518,
    "वॊ": 1519,
    "वो": 1520,
    "व्": 1521,
    "व्य": 1522,
    "व्या": 1523,
    "व्र": 1524,
    "व्व": 1525,
    "व्वा": 1526,
    "व्वि": 1527,
    "व्वू": 1528,
    "व्वॆं": 1529,
    "व्वे": 1530,
    "व्ह": 1531,
    "व्हि": 1532,
    "व्ही": 1533,
    "व्‌": 1534,
    "व॰": 1535,
    "व‌": 1536,
    "श": 1537,
    "शं": 1538,
    "शा": 1539,
    "शां": 1540,
    "शाः": 1541,
    "शि": 1542,
    "शी": 1543,
    "शीू": 1544,
    "शु": 1545,
    "शू": 1546,
    "शृ": 1547,
    "शॅ": 1548,
    "शॆ": 1549,
    "शे": 1550,
    "शै": 1551,
    "शो": 1552,
    "श्": 1553,
    "श्च": 1554,
    "श्चि": 1555,
    "श्ते": 1556,
    "श्ब": 1557,
    "श्मा": 1558,
    "श्य": 1559,
    "श्र": 1560,
    "श्रा": 1561,
    "श्रि": 1562,
    "श्री": 1563,
    "श्रु": 1564,
    "श्रे": 1565,
    "श्व": 1566,
    "श्वा": 1567,
    "श्शि": 1568,
    "श्शे": 1569,
    "श्स": 1570,
    "श्॰ी": 1571,
    "श्ॱ": 1572,
    "श्‍": 1573,
    "ष": 1574,
    "षं": 1575,
    "षा": 1576,
    "षि": 1577,
    "षी": 1578,
    "षु": 1579,
    "षू": 1580,
    "षे": 1581,
    "षो": 1582,
    "ष्": 1583,
    "ष्कृ": 1584,
    "ष्ट": 1585,
    "ष्टा": 1586,
    "ष्टि": 1587,
    "ष्टी": 1588,
    "ष्टु": 1589,
    "ष्टे": 1590,
    "ष्टो": 1591,
    "ष्ट्र": 1592,
    "ष्ट्रं": 1593,
    "ष्ट्रा": 1594,
    "ष्ट्री": 1595,
    "ष्ट्॰": 1596,
    "ष्ट्॰ी": 1597,
    "ष्ठ": 1598,
    "ष्ठा": 1599,
    "ष्ण": 1600,
    "ष्णा": 1601,
    "ष्णू": 1602,
    "ष्ना": 1603,
    "ष्पा": 1604,
    "ष्म": 1605,
    "ष्मॆ": 1606,
    "ष्य": 1607,
    "ष्यं": 1608,
    "ष्य़": 1609,
    "ष्‌": 1610,
    "ष्‍": 1611,
    "षॢ": 1612,
    "स": 1613,
    "सं": 1614,
    "सः": 1615,
    "स़": 1616,
    "स़ा": 1617,
    "स़ि": 1618,
    "सा": 1619,
    "सां": 1620,
    "सि": 1621,
    "सिं": 1622,
    "सि॰": 1623,
    "सी": 1624,
    "सु": 1625,
    "सुँ": 1626,
    "सुं": 1627,
    "सू": 1628,
    "सृ": 1629,
    "सृं": 1630,
    "सॆ": 1631,
    "सॆं": 1632,
    "से": 1633,
    "सें": 1634,
    "से‍": 1635,
    "सै": 1636,
    "सैं": 1637,
    "सो": 1638,
    "सोँ": 1639,
    "सौ": 1640,
    "स्": 1641,
    "स्क": 1642,
    "स्का": 1643,
    "स्कु": 1644,
    "स्कू": 1645,
    "स्कृ": 1646,
    "स्गि": 1647,
    "स्जि": 1648,
    "स्जी": 1649,
    "स्ट": 1650,
    "स्टा": 1651,
    "स्टी": 1652,
    "स्टु": 1653,
    "स्टॆ": 1654,
    "स्टे": 1655,
    "स्टो": 1656,
    "स्टोा्स्": 1657,
    "स्ट्": 1658,
    "स्ट्र": 1659,
    "स्ट्री": 1660,
    "स्ट्रे": 1661,
    "स्त": 1662,
    "स्तं": 1663,
    "स्ता": 1664,
    "स्ति": 1665,
    "स्तु": 1666,
    "स्तू": 1667,
    "स्तृ": 1668,
    "स्तॆ": 1669,
    "स्ते": 1670,
    "स्त्र": 1671,
    "स्त्रा": 1672,
    "स्थ": 1673,
    "स्था": 1674,
    "स्थि": 1675,
    "स्थी": 1676,
    "स्थू": 1677,
    "स्थॆ": 1678,
    "स्थे": 1679,
    "स्थ्य": 1680,
    "स्ध": 1681,
    "स्धा": 1682,
    "स्धॆ": 1683,
    "स्ना": 1684,
    "स्ने": 1685,
    "स्प": 1686,
    "स्पा": 1687,
    "स्पि": 1688,
    "स्पृ": 1689,
    "स्पॆ": 1690,
    "स्पे": 1691,
    "स्फि": 1692,
    "स्फो": 1693,
    "स्ब": 1694,
    "स्बा": 1695,
    "स्भा": 1696,
    "स्म": 1697,
    "स्मा": 1698,
    "स्मृ": 1699,
    "स्य": 1700,
    "स्यः": 1701,
    "स्या": 1702,
    "स्र": 1703,
    "स्ऱी": 1704,
    "स्री": 1705,
    "स्ऱ्ऱ": 1706,
    "स्ऱ्ऱा": 1707,
    "स्ऱ्ऱि": 1708,
    "स्ऱ्ऱे": 1709,
    "स्ऱ्ऱै": 1710,
    "स्ऱ्ऱो": 1711,
    "स्ला": 1712,
    "स्लि": 1713,
    "स्व": 1714,
    "स्वं": 1715,
    "स्वा": 1716,
    "स्वी": 1717,
    "स्वे": 1718,
    "स्सा": 1719,
    "स्सु": 1720,
    "स्से": 1721,
    "स्स्मा": 1722,
    "स्य़": 1723,
    "स्॰": 1724,
    "स्॰ा": 1725,
    "स्ॱ": 1726,
    "स्‌": 1727,
    "स्‍": 1728,
    "सॗ": 1729,
    "स॰": 1730,
    "सॱ": 1731,
    "ह": 1732,
    "हं": 1733,
    "हः": 1734,
    "हा": 1735,
    "हां": 1736,
    "हा‍": 1737,
    "हि": 1738,
    "हिँ": 1739,
    "हिं": 1740,
    "हिः": 1741,
    "हि॰": 1742,
    "ही": 1743,
    "हीं": 1744,
    "हु": 1745,
    "हु॰": 1746,
    "हू": 1747,
    "हृ": 1748,
    "हॆ": 1749,
    "हे": 1750,
    "हें": 1751,
    "है": 1752,
    "है‍": 1753,
    "हॉ": 1754,
    "हॊ": 1755,
    "हो": 1756,
    "हौ": 1757,
    "ह्दि": 1758,
    "ह्न": 1759,
    "ह्म": 1760,
    "ह्मि": 1761,
    "ह्य": 1762,
    "ह्या": 1763,
    "ह्रू": 1764,
    "ह॰": 1765,
    "हॱ": 1766,
    "ऽ": 1767,
    "ा": 1768,
    "े": 1769,
    "ॎ": 1770,
    "ॐ": 1771,
    "ज़ो": 1772,
    "ज़॰": 1773,
    "ड़": 1774,
    "ड़ा": 1775,
    "ड़ी": 1776,
    "ड़े": 1777,
    "ड़ै": 1778,
    "ड़ोु": 1779,
    "ड़्ह": 1780,
    "ड़्हे": 1781,
    "ढ़ि": 1782,
    "ढ़ी": 1783,
    "ढ़ो": 1784,
    "फ़": 1785,
    "फ़्ट": 1786,
    "फ़्दु": 1787,
    "य़": 1788,
    "य़ं": 1789,
    "य़ः": 1790,
    "य़़": 1791,
    "य़ा": 1792,
    "य़ां": 1793,
    "य़ि": 1794,
    "य़ु": 1795,
    "य़े": 1796,
    "य़ो": 1797,
    "य़्या": 1798,
    "य़ॗ": 1799,
    "ॠ": 1800,
    "।": 1801,
    "।‍": 1802,
    "॥": 1803,
    "०": 1804,
    "१": 1805,
    "१्को": 1806,
    "१‌": 1807,
    "२": 1808,
    "२़": 1809,
    "२ा": 1810,
    "३": 1811,
    "४": 1812,
    "५": 1813,
    "५ु": 1814,
    "५ो": 1815,
    "६": 1816,
    "७": 1817,
    "८": 1818,
    "९": 1819,
    "॰": 1820,
    "॰ा": 1821,
    "॰ि": 1822,
    "॰िः": 1823,
    "॰ी": 1824,
    "॰ु": 1825,
    "॰ू": 1826,
    "॰े": 1827,
    "॰ो": 1828,
    "॰्थ": 1829,
    "॰्प": 1830,
    "॰्ब": 1831,
    "॰्मा": 1832,
    "॰्य": 1833,
    "॰्य्य": 1834,
    "॰्य्या": 1835,
    "॰्ष": 1836,
    "ॱ": 1837,
    "ॱा": 1838,
    "ॱि": 1839,
    "ॱे": 1840,
    "ॱो": 1841,
    "ॳ": 1842,
    "ॳे": 1843,
    "ॷ": 1844,
    "ॹ": 1845,
    "ॺ": 1846,
    "ॺ‍": 1847,
    "ॻ": 1848,
    "ॻॆ": 1849,
    "ॻ्ऱॆ": 1850,
    "ॻ‌": 1851,
    "ॼ": 1852,
    "ॼ‌": 1853,
    "ॼ‍‍": 1854,
    "ॽ": 1855,
    "ॽ‍": 1856,
    "ॾ": 1857,
    "ॾ‌‌": 1858,
    "​": 1859,
    "’": 1860
  },
  "metadata": {
    "tag": "zs_loso_rungB_telugu",
    "num_graphemes": 1859,
    "space": "shared-abugida-pivot"
  }
}