{
  "grapheme2idx": {
    "<blank>": 0,
    "<unk>": 1,
    "!": 2,
    "\"": 3,
    "&": 4,
    "'": 5,
    "(": 6,
    ")": 7,
    ",": 8,
    "-": 9,
    ".": 10,
    "/": 11,
    "0": 12,
    "1": 13,
    "2": 14,
    "3": 15,
    "4": 16,
    "5": 17,
    "6": 18,
    "7": 19,
    "8": 20,
    "9": 21,
    ":": 22,
    "?": 23,
    "A": 24,
    "D": 25,
    "E": 26,
    "G": 27,
    "H": 28,
    "I": 29,
    "O": 30,
    "P": 31,
    "V": 32,
    "[": 33,
    "c": 34,
    "|": 35,
    "°": 36,
    "ا": 37,
    "ت": 38,
    "ج": 39,
    "ر": 40,
    "ك": 41,
    "ل": 42,
    "و": 43,
    "گ": 44,
    "ی": 45,
    "ँ": 46,
    "अ": 47,
    "अं": 48,
    "अि": 49,
    "अ्या": 50,
    "अ॰": 51,
    "आ": 52,
    "आं": 53,
    "आा्": 54,
    "आे": 55,
    "आॕ": 56,
    "इ": 57,
    "इँ": 58,
    "इं": 59,
    "इ॰": 60,
    "इॱ": 61,
    "ई": 62,
    "ईँ": 63,
    "ईं": 64,
    "उ": 65,
    "उाि": 66,
    "उॱ": 67,
    "ऊ": 68,
    "ऊँ": 69,
    "ऊं": 70,
    "ऊा्": 71,
    "ऋ": 72,
    "ऍ": 73,
    "ऎ": 74,
    "ऎं": 75,
    "ऎ‍": 76,
    "ए": 77,
    "एँ": 78,
    "एा": 79,
    "ऐ": 80,
    "ऐं": 81,
    "ऑ": 82,
    "ऒ": 83,
    "ऒं": 84,
    "ऒा्क्स्": 85,
    "ऒ‌": 86,
    "ओ": 87,
    "ओँ": 88,
    "ओं": 89,
    "ओ्बा": 90,
    "औ": 91,
    "औं": 92,
    "क": 93,
    "कं": 94,
    "कः": 95,
    "का": 96,
    "काँ": 97,
    "कां": 98,
    "काुं": 99,
    "काे": 100,
    "का्": 101,
    "का‍": 102,
    "का‍‌": 103,
    "कि": 104,
    "किं": 105,
    "की": 106,
    "कीे": 107,
    "कु": 108,
    "कुं": 109,
    "कु॰": 110,
    "कू": 111,
    "कृ": 112,
    "कॅ": 113,
    "कॅा": 114,
    "कॆ": 115,
    "कॆं": 116,
    "के": 117,
    "कें": 118,
    "केा": 119,
    "केा्": 120,
    "केे": 121,
    "कै": 122,
    "कॉ": 123,
    "कॊ": 124,
    "कॊं": 125,
    "को": 126,
    "कोँ": 127,
    "कों": 128,
    "कों‌": 129,
    "क्": 130,
    "क्ए": 131,
    "क्क": 132,
    "क्कं": 133,
    "क्का": 134,
    "क्कि": 135,
    "क्की": 136,
    "क्कु": 137,
    "क्कू": 138,
    "क्कॆ": 139,
    "क्के": 140,
    "क्कै": 141,
    "क्कॊ": 142,
    "क्को": 143,
    "क्क्": 144,
    "क्कॗ": 145,
    "क्ट": 146,
    "क्टो": 147,
    "क्ट्रि": 148,
    "क्त": 149,
    "क्ता": 150,
    "क्तां": 151,
    "क्ति": 152,
    "क्तीं": 153,
    "क्तु": 154,
    "क्ऩा": 155,
    "क्पे": 156,
    "क्मि": 157,
    "क्य": 158,
    "क्या": 159,
    "क्यू": 160,
    "क्र": 161,
    "क्रं": 162,
    "क्रा": 163,
    "क्रि": 164,
    "क्री": 165,
    "क्रे": 166,
    "क्रै": 167,
    "क्रो": 168,
    "क्ला": 169,
    "क्ळ": 170,
    "क्वा": 171,
    "क्वॆ": 172,
    "क्श": 173,
    "क्ष": 174,
    "क्षा": 175,
    "क्षां": 176,
    "क्षि": 177,
    "क्षिं": 178,
    "क्षी": 179,
    "क्षुः": 180,
    "क्षे": 181,
    "क्षो": 182,
    "क्ष्म": 183,
    "क्ष्मि": 184,
    "क्ष्मी": 185,
    "क्ष्य": 186,
    "क्स": 187,
    "क्सि": 188,
    "क्स्": 189,
    "क्य़ा": 190,
    "क्॰": 191,
    "क्॰ा": 192,
    "क्॰े": 193,
    "क्‌": 194,
    "क्‍": 195,
    "क॰": 196,
    "कॱ": 197,
    "क‌": 198,
    "क‍ी": 199,
    "ख": 200,
    "खं": 201,
    "ख़": 202,
    "खा": 203,
    "खाँ": 204,
    "खां": 205,
    "खि": 206,
    "खी": 207,
    "खु": 208,
    "खू": 209,
    "खॆ": 210,
    "खे": 211,
    "खै": 212,
    "खो": 213,
    "ख्त": 214,
    "ख्य": 215,
    "ख्यु": 216,
    "ख्रीः": 217,
    "ग": 218,
    "गं": 219,
    "गा": 220,
    "गाँ": 221,
    "गां": 222,
    "गि": 223,
    "गि॰": 224,
    "गी": 225,
    "गु": 226,
    "गुं": 227,
    "गू": 228,
    "गृ": 229,
    "गॆ": 230,
    "गे": 231,
    "गै": 232,
    "गॊ": 233,
    "गॊं": 234,
    "गो": 235,
    "गों": 236,
    "गौ": 237,
    "ग्": 238,
    "ग्ग": 239,
    "ग्गि": 240,
    "ग्गॆ": 241,
    "ग्ण": 242,
    "ग्न": 243,
    "ग्नि": 244,
    "ग्ब": 245,
    "ग्य": 246,
    "ग्या": 247,
    "ग्ये": 248,
    "ग्र": 249,
    "ग्रं": 250,
    "ग्रा": 251,
    "ग्रां": 252,
    "ग्री": 253,
    "ग्रू": 254,
    "ग्रॆ": 255,
    "ग्रे": 256,
    "ग्ला": 257,
    "ग्ली": 258,
    "ग्वा": 259,
    "ग्स": 260,
    "ग्य़ा": 261,
    "ग्॰ु": 262,
    "ग्‌": 263,
    "ग॰": 264,
    "गॱ": 265,
    "घ": 266,
    "घा": 267,
    "घां": 268,
    "घु": 269,
    "घे": 270,
    "घो": 271,
    "घौ": 272,
    "घ्य": 273,
    "घ्या": 274,
    "ङ": 275,
    "ङा": 276,
    "ङि": 277,
    "ङे": 278,
    "ङ्क": 279,
    "ङ्का": 280,
    "ङ्कि": 281,
    "ङ्कु": 282,
    "ङ्के": 283,
    "ङ्कै": 284,
    "ङ्क्": 285,
    "ङ्क्षा": 286,
    "ङ्ग": 287,
    "ङ्गि": 288,
    "ङ्गी": 289,
    "ङ्गु": 290,
    "ङ्गे": 291,
    "ङ्गो": 292,
    "ङ्घ": 293,
    "ङ्ङ": 294,
    "ङ्ङा": 295,
    "ङ्ङि": 296,
    "ङ्ङों": 297,
    "ङ्ङ्‌": 298,
    "ङ्‌": 299,
    "च": 300,
    "चं": 301,
    "च़": 302,
    "चा": 303,
    "चां": 304,
    "चा्": 305,
    "चि": 306,
    "चिं": 307,
    "ची": 308,
    "चीा्": 309,
    "चु": 310,
    "चुे": 311,
    "चू": 312,
    "चॆ": 313,
    "चे": 314,
    "चें": 315,
    "चेा्क्कै": 316,
    "चै": 317,
    "चॊ": 318,
    "चो": 319,
    "चौ": 320,
    "च्": 321,
    "च्क": 322,
    "च्च": 323,
    "च्चं": 324,
    "च्चा": 325,
    "च्चा्": 326,
    "च्चि": 327,
    "च्चिं": 328,
    "च्ची": 329,
    "च्चे": 330,
    "च्चेाि": 331,
    "च्च्": 332,
    "च्च्‌": 333,
    "च्छ": 334,
    "च्छा": 335,
    "च्छु": 336,
    "च्छ्": 337,
    "च्ट": 338,
    "च्य": 339,
    "च्या": 340,
    "च्यु": 341,
    "च्र": 342,
    "च॑": 343,
    "चॖे": 344,
    "च॰": 345,
    "चॱ": 346,
    "छ": 347,
    "छा": 348,
    "छि": 349,
    "छु": 350,
    "छुॱ": 351,
    "छे": 352,
    "छें": 353,
    "छो": 354,
    "छोँ": 355,
    "छ॰": 356,
    "ज": 357,
    "जं": 358,
    "ज़": 359,
    "ज़ी": 360,
    "ज़ु": 361,
    "जा": 362,
    "जा्": 363,
    "जि": 364,
    "जिं": 365,
    "जि॰": 366,
    "जिॱ": 367,
    "जी": 368,
    "जु": 369,
    "जुॱ": 370,
    "जू": 371,
    "जॆ": 372,
    "जे": 373,
    "जें": 374,
    "जै": 375,
    "जॊ": 376,
    "जो": 377,
    "ज्": 378,
    "ज्ज": 379,
    "ज्जं": 380,
    "ज्ञ": 381,
    "ज्ञा": 382,
    "ज्ञी": 383,
    "ज्न": 384,
    "ज्ब": 385,
    "ज्य": 386,
    "ज्यु": 387,
    "ज्येा": 388,
    "ज्यो": 389,
    "ज्यों": 390,
    "ज्व": 391,
    "ज्सि": 392,
    "ज्य़": 393,
    "ज्य़ो": 394,
    "ज॰": 395,
    "झ": 396,
    "झा": 397,
    "झाँ": 398,
    "झां": 399,
    "झि": 400,
    "झी": 401,
    "झे": 402,
    "झ॰": 403,
    "ञ": 404,
    "ञा": 405,
    "ञा्": 406,
    "ञ्च": 407,
    "ञ्चा": 408,
    "ञ्चि": 409,
    "ञ्चे": 410,
    "ञ्ज": 411,
    "ञ्जा": 412,
    "ञ्जि": 413,
    "ञ्जी": 414,
    "ञ्ञ": 415,
    "ञ्ञा": 416,
    "ञ्ञि": 417,
    "ञ्ञॆ": 418,
    "ट": 419,
    "टा": 420,
    "टाा": 421,
    "टााि": 422,
    "टि": 423,
    "टिं": 424,
    "टी": 425,
    "टु": 426,
    "टू": 427,
    "टॆ": 428,
    "टॆं": 429,
    "टे": 430,
    "टै": 431,
    "टैं": 432,
    "टो": 433,
    "टोाि": 434,
    "टौ": 435,
    "ट्": 436,
    "ट्क": 437,
    "ट्के": 438,
    "ट्च": 439,
    "ट्चि": 440,
    "ट्ट": 441,
    "ट्टं": 442,
    "ट्ट़": 443,
    "ट्टा": 444,
    "ट्टा्": 445,
    "ट्टि": 446,
    "ट्टी": 447,
    "ट्टु": 448,
    "ट्टूा्पु": 449,
    "ट्टॆ": 450,
    "ट्टै": 451,
    "ट्टो": 452,
    "ट्ट्": 453,
    "ट्ण": 454,
    "ट्त": 455,
    "ट्न": 456,
    "ट्नं": 457,
    "ट्प": 458,
    "ट्पा": 459,
    "ट्य": 460,
    "ट्यू": 461,
    "ट्र": 462,
    "ट्रा": 463,
    "ट्रि": 464,
    "ट्रे": 465,
    "ट्रै": 466,
    "ट्रो": 467,
    "ट्र्या": 468,
    "ट्ल": 469,
    "ट्लु": 470,
    "ट्स्": 471,
    "ट्॰": 472,
    "ट्‌": 473,
    "ट्‍": 474,
    "ट‌": 475,
    "ठ": 476,
    "ठा": 477,
    "ठि": 478,
    "ठि॰": 479,
    "ठी": 480,
    "ठे": 481,
    "ठें": 482,
    "ठो": 483,
    "ठ्ठ": 484,
    "ड": 485,
    "डः": 486,
    "ड़": 487,
    "ड़ा": 488,
    "ड़ि": 489,
    "ड़ी": 490,
    "ड़े": 491,
    "ड़ौ": 492,
    "डा": 493,
    "डाः": 494,
    "डि": 495,
    "डी": 496,
    "डु": 497,
    "डू": 498,
    "डॆ": 499,
    "डॆं": 500,
    "डे": 501,
    "डै": 502,
    "डो": 503,
    "ड्": 504,
    "ड्क": 505,
    "ड्जी": 506,
    "ड्ड": 507,
    "ड्डा": 508,
    "ड्डि": 509,
    "ड्डु": 510,
    "ड्पे": 511,
    "ड्यं": 512,
    "ड्या": 513,
    "ड्यां": 514,
    "ड्यू": 515,
    "ड्र": 516,
    "ड्रि": 517,
    "ड्री": 518,
    "ड्रो": 519,
    "ड्वु": 520,
    "ड्स्": 521,
    "ड्‌": 522,
    "ड्‍": 523,
    "ढ": 524,
    "ढ़": 525,
    "ढ़ि": 526,
    "ढ़ी": 527,
    "ढि": 528,
    "ढु": 529,
    "ढे": 530,
    "ढे़": 531,
    "ण": 532,
    "णं": 533,
    "णा": 534,
    "णाः": 535,
    "णि": 536,
    "णी": 537,
    "णीं": 538,
    "णु": 539,
    "णू": 540,
    "णॆ": 541,
    "णे": 542,
    "णै": 543,
    "णो": 544,
    "ण्": 545,
    "ण्क": 546,
    "ण्का": 547,
    "ण्कॊ": 548,
    "ण्ट": 549,
    "ण्टं": 550,
    "ण्टा": 551,
    "ण्टि": 552,
    "ण्टु": 553,
    "ण्टॆ": 554,
    "ण्टे": 555,
    "ण्ट्": 556,
    "ण्ट्लू": 557,
    "ण्ट्‌": 558,
    "ण्ड": 559,
    "ण्डा": 560,
    "ण्डि": 561,
    "ण्ढ": 562,
    "ण्ण": 563,
    "ण्णा": 564,
    "ण्णी": 565,
    "ण्णु": 566,
    "ण्णू": 567,
    "ण्ता": 568,
    "ण्मै": 569,
    "ण्य": 570,
    "ण्या": 571,
    "ण्रा": 572,
    "ण्री": 573,
    "ण्‌": 574,
    "ण‍": 575,
    "त": 576,
    "तं": 577,
    "तः": 578,
    "त़": 579,
    "त़ि": 580,
    "ता": 581,
    "ताँ": 582,
    "तां": 583,
    "ता्": 584,
    "ति": 585,
    "तिं": 586,
    "तिः": 587,
    "तिाि": 588,
    "ती": 589,
    "तीा्": 590,
    "तीा्क": 591,
    "तु": 592,
    "तुं": 593,
    "तू": 594,
    "तू॰": 595,
    "तृ": 596,
    "तॆ": 597,
    "तॆॆ": 598,
    "तॆ्र्र": 599,
    "ते": 600,
    "तें": 601,
    "तै": 602,
    "तॊ": 603,
    "तो": 604,
    "तों": 605,
    "त्": 606,
    "त्उ": 607,
    "त्क": 608,
    "त्का": 609,
    "त्त": 610,
    "त्ता": 611,
    "त्ति": 612,
    "त्ती": 613,
    "त्तु": 614,
    "त्तू": 615,
    "त्तॆ": 616,
    "त्तेा्": 617,
    "त्तै": 618,
    "त्तॊ": 619,
    "त्तो": 620,
    "त्त्": 621,
    "त्त्य": 622,
    "त्त्व": 623,
    "त्त्‌": 624,
    "त्थ": 625,
    "त्थि": 626,
    "त्न": 627,
    "त्नं": 628,
    "त्नि": 629,
    "त्ब": 630,
    "त्बे": 631,
    "त्भ": 632,
    "त्म": 633,
    "त्मा": 634,
    "त्य": 635,
    "त्या": 636,
    "त्यां": 637,
    "त्यु": 638,
    "त्ये": 639,
    "त्य्": 640,
    "त्र": 641,
    "त्रं": 642,
    "त्रं‌": 643,
    "त्रा": 644,
    "त्रि": 645,
    "त्री": 646,
    "त्रु": 647,
    "त्रॆ": 648,
    "त्रे": 649,
    "त्रों": 650,
    "त्र्य": 651,
    "त्र्यं": 652,
    "त्व": 653,
    "त्वं": 654,
    "त्वा": 655,
    "त्वि": 656,
    "त्स": 657,
    "त्सा": 658,
    "त्स्": 659,
    "त्स्ना": 660,
    "त्य़": 661,
    "त्य़ु": 662,
    "त्य़े": 663,
    "त्॰": 664,
    "त्‌": 665,
    "त्‍": 666,
    "त॰": 667,
    "त‍े": 668,
    "थ": 669,
    "था": 670,
    "थां": 671,
    "थि": 672,
    "थी": 673,
    "थु": 674,
    "थू": 675,
    "थृ": 676,
    "थे": 677,
    "थ्य": 678,
    "थ्य़": 679,
    "द": 680,
    "दा": 681,
    "दां": 682,
    "दि": 683,
    "दि॰": 684,
    "दी": 685,
    "दु": 686,
    "दू": 687,
    "दूं": 688,
    "दृ": 689,
    "दॆ": 690,
    "दे": 691,
    "दें": 692,
    "दै": 693,
    "दॊ": 694,
    "दो": 695,
    "दौ": 696,
    "द्": 697,
    "द्घा": 698,
    "द्ट": 699,
    "द्टु": 700,
    "द्द": 701,
    "द्दा": 702,
    "द्दां": 703,
    "द्दि": 704,
    "द्दु": 705,
    "द्दू": 706,
    "द्ध": 707,
    "द्धा": 708,
    "द्धि": 709,
    "द्धी": 710,
    "द्ध्फि": 711,
    "द्ध्यं": 712,
    "द्ब": 713,
    "द्बा": 714,
    "द्बि": 715,
    "द्बी": 716,
    "द्बो": 717,
    "द्म": 718,
    "द्मा": 719,
    "द्य": 720,
    "द्या": 721,
    "द्यो": 722,
    "द्र": 723,
    "द्रा": 724,
    "द्रि": 725,
    "द्री": 726,
    "द्रु": 727,
    "द्रे": 728,
    "द्रौ": 729,
    "द्व": 730,
    "द्वा": 731,
    "द्वी": 732,
    "द्य़": 733,
    "द्य़ा": 734,
    "द्॰": 735,
    "द्‌": 736,
    "ध": 737,
    "धं": 738,
    "धा": 739,
    "धि": 740,
    "धिि": 741,
    "धी": 742,
    "धीं": 743,
    "धु": 744,
    "धू": 745,
    "धृ": 746,
    "धे": 747,
    "धो": 748,
    "ध्दा": 749,
    "ध्दी": 750,
    "ध्ब": 751,
    "ध्य": 752,
    "ध्या": 753,
    "ध्ये": 754,
    "ध्र": 755,
    "ध्व": 756,
    "ध॰": 757,
    "न": 758,
    "नं": 759,
    "नः": 760,
    "ना": 761,
    "नां": 762,
    "ना्": 763,
    "नि": 764,
    "निं": 765,
    "निः": 766,
    "निॕ": 767,
    "नि‍": 768,
    "नी": 769,
    "नीा्": 770,
    "नु": 771,
    "नुं": 772,
    "नू": 773,
    "नू॰": 774,
    "नॅ": 775,
    "नॆ": 776,
    "ने": 777,
    "नेे": 778,
    "नै": 779,
    "नॊ": 780,
    "नो": 781,
    "नौ": 782,
    "न्": 783,
    "न्कु": 784,
    "न्ट": 785,
    "न्टा": 786,
    "न्ट्र": 787,
    "न्ट्रा": 788,
    "न्ड": 789,
    "न्डि": 790,
    "न्डी": 791,
    "न्डे": 792,
    "न्त": 793,
    "न्ता": 794,
    "न्ति": 795,
    "न्ती": 796,
    "न्तु": 797,
    "न्ते": 798,
    "न्तै": 799,
    "न्तो": 800,
    "न्त्": 801,
    "न्त्र": 802,
    "न्त्रि": 803,
    "न्त्री": 804,
    "न्त्॰ा": 805,
    "न्त्॰ि": 806,
    "न्त्॰ी": 807,
    "न्थ": 808,
    "न्था": 809,
    "न्द": 810,
    "न्दा": 811,
    "न्दि": 812,
    "न्दी": 813,
    "न्दु": 814,
    "न्दे": 815,
    "न्दो": 816,
    "न्द्यो": 817,
    "न्द्र": 818,
    "न्द्रं": 819,
    "न्द्रा": 820,
    "न्द्री": 821,
    "न्द्र्र": 822,
    "न्द्॰": 823,
    "न्द्॰ी": 824,
    "न्ध": 825,
    "न्धि": 826,
    "न्धी": 827,
    "न्न": 828,
    "न्नं": 829,
    "न्ना": 830,
    "न्नि": 831,
    "न्नि‍": 832,
    "न्नु": 833,
    "न्नुं": 834,
    "न्नू": 835,
    "न्नै": 836,
    "न्न्": 837,
    "न्प": 838,
    "न्ब": 839,
    "न्म": 840,
    "न्मा": 841,
    "न्मे": 842,
    "न्मो": 843,
    "न्म्या": 844,
    "न्य": 845,
    "न्यः": 846,
    "न्या": 847,
    "न्यु": 848,
    "न्यू": 849,
    "न्ये": 850,
    "न्ऱॆ": 851,
    "न्ऱ्": 852,
    "न्ल": 853,
    "न्वी": 854,
    "न्वे": 855,
    "न्ष": 856,
    "न्स": 857,
    "न्सा": 858,
    "न्सि": 859,
    "न्सी": 860,
    "न्सू": 861,
    "न्स्": 862,
    "न्स्टि": 863,
    "न्हा": 864,
    "न्हां": 865,
    "न्य़": 866,
    "न्य़ा": 867,
    "न्‌": 868,
    "न॰": 869,
    "न॰ः": 870,
    "नॱ": 871,
    "ऩ": 872,
    "ऩा": 873,
    "ऩाा्": 874,
    "ऩा्क": 875,
    "ऩि": 876,
    "ऩी": 877,
    "ऩु": 878,
    "ऩू": 879,
    "ऩूा्": 880,
    "ऩै": 881,
    "ऩ्": 882,
    "ऩ्टा्": 883,
    "ऩ्ट्": 884,
    "ऩ्ट्र": 885,
    "ऩ्ऩ": 886,
    "ऩ्ऩा": 887,
    "ऩ्ऩि": 888,
    "ऩ्ऩै": 889,
    "ऩ्ऩो": 890,
    "ऩ्प": 891,
    "ऩ्पु": 892,
    "ऩ्मै": 893,
    "ऩ्ऱ": 894,
    "ऩ्ऱि": 895,
    "ऩ्ऱु": 896,
    "ऩ्ऱॆ": 897,
    "ऩ्वॆ": 898,
    "ऩ्स्": 899,
    "प": 900,
    "पं": 901,
    "पा": 902,
    "पाँ": 903,
    "पां": 904,
    "पि": 905,
    "पिं": 906,
    "पिु": 907,
    "पी": 908,
    "पु": 909,
    "पू": 910,
    "पूँ": 911,
    "पृ": 912,
    "पॅ": 913,
    "पॆ": 914,
    "पॆं": 915,
    "पे": 916,
    "पेा": 917,
    "पै": 918,
    "पैा": 919,
    "पॉ": 920,
    "पॊ": 921,
    "पॊं": 922,
    "पो": 923,
    "पोा्चु": 924,
    "पौ": 925,
    "प्": 926,
    "प्का": 927,
    "प्ट": 928,
    "प्टि": 929,
    "प्टॆ": 930,
    "प्ण": 931,
    "प्त": 932,
    "प्ति": 933,
    "प्न": 934,
    "प्प": 935,
    "प्पं": 936,
    "प्पा": 937,
    "प्पि": 938,
    "प्पिं": 939,
    "प्पी": 940,
    "प्पु": 941,
    "प्पूा्": 942,
    "प्पॆ": 943,
    "प्पॊ": 944,
    "प्पो": 945,
    "प्प्": 946,
    "प्प्‌": 947,
    "प्या": 948,
    "प्र": 949,
    "प्रा": 950,
    "प्राः": 951,
    "प्रि": 952,
    "प्री": 953,
    "प्रीि": 954,
    "प्रॅ": 955,
    "प्रॆ": 956,
    "प्रे": 957,
    "प्रै": 958,
    "प्रो": 959,
    "प्रौ": 960,
    "प्ल": 961,
    "प्ला": 962,
    "प्ले": 963,
    "प्लै": 964,
    "प्लॉ": 965,
    "प्ष": 966,
    "प्स्": 967,
    "प्॰": 968,
    "प्॰ि": 969,
    "प्‍": 970,
    "प॰": 971,
    "प‌": 972,
    "फ": 973,
    "फ़": 974,
    "फा": 975,
    "फां": 976,
    "फि": 977,
    "फी": 978,
    "फु": 979,
    "फॆ": 980,
    "फे": 981,
    "फै": 982,
    "फो": 983,
    "फौ": 984,
    "फ्": 985,
    "फ्को": 986,
    "फ्ट्": 987,
    "फ्या": 988,
    "फ्र": 989,
    "फ्री": 990,
    "फ्रू": 991,
    "फ्रो": 992,
    "फ्ला": 993,
    "फ्॰े": 994,
    "ब": 995,
    "बँ": 996,
    "बं": 997,
    "बा": 998,
    "बां": 999,
    "बि": 1000,
    "बि॰": 1001,
    "बी": 1002,
    "बु": 1003,
    "बू": 1004,
    "बृ": 1005,
    "बृं": 1006,
    "बॆ": 1007,
    "बॆं": 1008,
    "बे": 1009,
    "बें": 1010,
    "बै": 1011,
    "बैं": 1012,
    "बॉ": 1013,
    "बॊ": 1014,
    "बो": 1015,
    "बौ": 1016,
    "ब्": 1017,
    "ब्थ": 1018,
    "ब्द": 1019,
    "ब्दी": 1020,
    "ब्दु": 1021,
    "ब्ध": 1022,
    "ब्ब": 1023,
    "ब्बं": 1024,
    "ब्बा": 1025,
    "ब्य": 1026,
    "ब्या": 1027,
    "ब्यां": 1028,
    "ब्यु": 1029,
    "ब्यू": 1030,
    "ब्र": 1031,
    "ब्रा": 1032,
    "ब्रि": 1033,
    "ब्रु": 1034,
    "ब्रू": 1035,
    "ब्रे": 1036,
    "ब्ल": 1037,
    "ब्लु": 1038,
    "ब्लो": 1039,
    "ब्ल्यू": 1040,
    "ब्स": 1041,
    "ब्सि": 1042,
    "ब्य़ा": 1043,
    "ब्॰ु": 1044,
    "ब॰": 1045,
    "बॱ": 1046,
    "भ": 1047,
    "भं": 1048,
    "भा": 1049,
    "भां": 1050,
    "भि": 1051,
    "भिं": 1052,
    "भी": 1053,
    "भु": 1054,
    "भू": 1055,
    "भृा": 1056,
    "भे": 1057,
    "भें": 1058,
    "भै": 1059,
    "भो": 1060,
    "भ्य": 1061,
    "भ्या": 1062,
    "भ्र": 1063,
    "भ॰": 1064,
    "म": 1065,
    "मं": 1066,
    "मः": 1067,
    "मा": 1068,
    "मां": 1069,
    "मि": 1070,
    "मी": 1071,
    "मु": 1072,
    "मुं": 1073,
    "मुॱ": 1074,
    "मू": 1075,
    "मूा्त्ति": 1076,
    "मृ": 1077,
    "मॆ": 1078,
    "मे": 1079,
    "में": 1080,
    "मै": 1081,
    "मैं": 1082,
    "मैा": 1083,
    "मॊ": 1084,
    "मो": 1085,
    "मों": 1086,
    "मौ": 1087,
    "म्": 1088,
    "म्ः": 1089,
    "म्का": 1090,
    "म्न": 1091,
    "म्ना": 1092,
    "म्प": 1093,
    "म्पा": 1094,
    "म्पा्": 1095,
    "म्पि": 1096,
    "म्पु": 1097,
    "म्पू": 1098,
    "म्पूा्": 1099,
    "म्पे": 1100,
    "म्प्": 1101,
    "म्प्या": 1102,
    "म्प्यु": 1103,
    "म्प्यू": 1104,
    "म्प्ले": 1105,
    "म्प्वा": 1106,
    "म्प्॰": 1107,
    "म्ब": 1108,
    "म्बा": 1109,
    "म्बि": 1110,
    "म्बे": 1111,
    "म्ब्न": 1112,
    "म्भ": 1113,
    "म्भा": 1114,
    "म्भु": 1115,
    "म्म": 1116,
    "म्मं": 1117,
    "म्मा": 1118,
    "म्मि": 1119,
    "म्मु": 1120,
    "म्मू": 1121,
    "म्मे": 1122,
    "म्मै": 1123,
    "म्य": 1124,
    "म्या": 1125,
    "म्यां": 1126,
    "म्यु": 1127,
    "म्यू": 1128,
    "म्र": 1129,
    "म्रा": 1130,
    "म्रि": 1131,
    "म्श": 1132,
    "म्स": 1133,
    "म्ह": 1134,
    "म्ही": 1135,
    "म्॰ा": 1136,
    "म्‌": 1137,
    "म॰": 1138,
    "मॱ": 1139,
    "य": 1140,
    "यं": 1141,
    "य़": 1142,
    "य़ा": 1143,
    "य़े": 1144,
    "या": 1145,
    "यां": 1146,
    "याा्": 1147,
    "या‍": 1148,
    "यि": 1149,
    "यी": 1150,
    "यु": 1151,
    "युं": 1152,
    "यू": 1153,
    "ये": 1154,
    "यें": 1155,
    "यै": 1156,
    "यॊ": 1157,
    "यो": 1158,
    "यों": 1159,
    "य्": 1160,
    "य्क": 1161,
    "य्क्का": 1162,
    "य्क्कां": 1163,
    "य्क्क्": 1164,
    "य्ञ्चि": 1165,
    "य्त": 1166,
    "य्न्त": 1167,
    "य्म": 1168,
    "य्मा": 1169,
    "य्मै": 1170,
    "य्य": 1171,
    "य्या्": 1172,
    "य्व": 1173,
    "य्वि": 1174,
    "य्वु": 1175,
    "य्स्री": 1176,
    "य्य़ा": 1177,
    "य्‌": 1178,
    "यॖ": 1179,
    "र": 1180,
    "रं": 1181,
    "रा": 1182,
    "रां": 1183,
    "राा्": 1184,
    "रा्": 1185,
    "रि": 1186,
    "रिं": 1187,
    "रि॰": 1188,
    "री": 1189,
    "रीं": 1190,
    "रु": 1191,
    "रुं": 1192,
    "रू": 1193,
    "रूा्": 1194,
    "रॆ": 1195,
    "रॆं": 1196,
    "रे": 1197,
    "रें": 1198,
    "रै": 1199,
    "रॉँ": 1200,
    "रॊ": 1201,
    "रो": 1202,
    "र्": 1203,
    "र्ऎ": 1204,
    "र्क": 1205,
    "र्का": 1206,
    "र्कि": 1207,
    "र्किं": 1208,
    "र्कॆ": 1209,
    "र्के": 1210,
    "र्कॊं": 1211,
    "र्ग": 1212,
    "र्गं": 1213,
    "र्गा": 1214,
    "र्गि": 1215,
    "र्च": 1216,
    "र्चा": 1217,
    "र्चि": 1218,
    "र्चु": 1219,
    "र्चू": 1220,
    "र्च्च": 1221,
    "र्च्चि": 1222,
    "र्ज": 1223,
    "र्जा": 1224,
    "र्जी": 1225,
    "र्जु": 1226,
    "र्ट": 1227,
    "र्टि": 1228,
    "र्ट्": 1229,
    "र्ट्स्": 1230,
    "र्ड": 1231,
    "र्डी": 1232,
    "र्डु": 1233,
    "र्डॆ": 1234,
    "र्ण": 1235,
    "र्णा": 1236,
    "र्णि": 1237,
    "र्णी": 1238,
    "र्णो": 1239,
    "र्ण्णा": 1240,
    "र्ण्णी": 1241,
    "र्ण्न": 1242,
    "र्त": 1243,
    "र्ति": 1244,
    "र्ती": 1245,
    "र्तु": 1246,
    "र्तू": 1247,
    "र्ते": 1248,
    "र्थ": 1249,
    "र्थं": 1250,
    "र्थि": 1251,
    "र्द": 1252,
    "र्दि": 1253,
    "र्दु": 1254,
    "र्दू": 1255,
    "र्दे": 1256,
    "र्द्": 1257,
    "र्ध": 1258,
    "र्न": 1259,
    "र्ना": 1260,
    "र्नी": 1261,
    "र्नू": 1262,
    "र्ने": 1263,
    "र्प": 1264,
    "र्पा": 1265,
    "र्पे": 1266,
    "र्पॊ": 1267,
    "र्पो": 1268,
    "र्फे": 1269,
    "र्ब": 1270,
    "र्बि": 1271,
    "र्बो": 1272,
    "र्ब्ब": 1273,
    "र्भ": 1274,
    "र्भं": 1275,
    "र्भा": 1276,
    "र्भी": 1277,
    "र्म": 1278,
    "र्मा": 1279,
    "र्मि": 1280,
    "र्मी": 1281,
    "र्मु": 1282,
    "र्मे": 1283,
    "र्म्": 1284,
    "र्य": 1285,
    "र्या": 1286,
    "र्य्या": 1287,
    "र्य्य़": 1288,
    "र्य्य़ा": 1289,
    "र्र": 1290,
    "र्रा": 1291,
    "र्रि": 1292,
    "र्ल": 1293,
    "र्ला": 1294,
    "र्लु": 1295,
    "र्लो": 1296,
    "र्व": 1297,
    "र्वा": 1298,
    "र्वि": 1299,
    "र्वे": 1300,
    "र्श": 1301,
    "र्शि": 1302,
    "र्ष": 1303,
    "र्षा": 1304,
    "र्षि": 1305,
    "र्षे": 1306,
    "र्स": 1307,
    "र्सि": 1308,
    "र्सिं": 1309,
    "र्सी": 1310,
    "र्स्": 1311,
    "र्‌": 1312,
    "र॰": 1313,
    "रॱ": 1314,
    "र‌": 1315,
    "र‍": 1316,
    "ऱ": 1317,
    "ऱं": 1318,
    "ऱा": 1319,
    "ऱि": 1320,
    "ऱिं": 1321,
    "ऱु": 1322,
    "ऱॆ": 1323,
    "ऱे": 1324,
    "ऱै": 1325,
    "ऱॊ": 1326,
    "ऱो": 1327,
    "ऱ्": 1328,
    "ऱ्का": 1329,
    "ऱ्कु": 1330,
    "ऱ्कै": 1331,
    "ऱ्चि": 1332,
    "ऱ्प": 1333,
    "ऱ्ऱ": 1334,
    "ऱ्ऱा": 1335,
    "ऱ्ऱि": 1336,
    "ऱ्ऱु": 1337,
    "ऱ्ऱे": 1338,
    "ऱ्ऱ्": 1339,
    "ऱ्ऱ्यू": 1340,
    "ऱ्ऱ्ऱ्‌": 1341,
    "ल": 1342,
    "लं": 1343,
    "ला": 1344,
    "लां": 1345,
    "ला्क": 1346,
    "लि": 1347,
    "लिं": 1348,
    "लिा": 1349,
    "ली": 1350,
    "लु": 1351,
    "लुं": 1352,
    "लू": 1353,
    "लूा्": 1354,
    "लॆ": 1355,
    "लॆं": 1356,
    "ले": 1357,
    "लै": 1358,
    "लॉ": 1359,
    "लॊ": 1360,
    "लो": 1361,
    "लोँ": 1362,
    "लौ": 1363,
    "ल्": 1364,
    "ल्ऎ": 1365,
    "ल्क": 1366,
    "ल्कि": 1367,
    "ल्की": 1368,
    "ल्कु": 1369,
    "ल्क्कु": 1370,
    "ल्क्स्": 1371,
    "ल्ग": 1372,
    "ल्गू": 1373,
    "ल्ट": 1374,
    "ल्टि": 1375,
    "ल्टी": 1376,
    "ल्ट्": 1377,
    "ल्ट्रा": 1378,
    "ल्ड": 1379,
    "ल्डीं": 1380,
    "ल्ड्र": 1381,
    "ल्थ": 1382,
    "ल्द": 1383,
    "ल्दा": 1384,
    "ल्न": 1385,
    "ल्नी": 1386,
    "ल्प": 1387,
    "ल्पी": 1388,
    "ल्पु": 1389,
    "ल्पॊ": 1390,
    "ल्पो": 1391,
    "ल्फे": 1392,
    "ल्या": 1393,
    "ल्यां": 1394,
    "ल्यु": 1395,
    "ल्ल": 1396,
    "ल्लं": 1397,
    "ल्ला": 1398,
    "ल्ला‍": 1399,
    "ल्लि": 1400,
    "ल्ली": 1401,
    "ल्लु": 1402,
    "ल्लू": 1403,
    "ल्लूाि": 1404,
    "ल्लूा्": 1405,
    "ल्लॆ": 1406,
    "ल्ले": 1407,
    "ल्लै": 1408,
    "ल्ल्": 1409,
    "ल्वि": 1410,
    "ल्वॆ": 1411,
    "ल्वे": 1412,
    "ल्स": 1413,
    "ल्स्": 1414,
    "ल्हा": 1415,
    "ल्हे": 1416,
    "ल्ह्या": 1417,
    "ल्‌": 1418,
    "ल्‍": 1419,
    "ल॰": 1420,
    "लॱ": 1421,
    "ळ": 1422,
    "ळं": 1423,
    "ळा": 1424,
    "ळां": 1425,
    "ळा्": 1426,
    "ळि": 1427,
    "ळी": 1428,
    "ळु": 1429,
    "ळू": 1430,
    "ळॆ": 1431,
    "ळे": 1432,
    "ळै": 1433,
    "ळो": 1434,
    "ळ्": 1435,
    "ळ्अ": 1436,
    "ळ्क": 1437,
    "ळ्मि": 1438,
    "ळ्मी": 1439,
    "ळ्या": 1440,
    "ळ्यां": 1441,
    "ळ्ळ": 1442,
    "ळ्ळा": 1443,
    "ळ्ळि": 1444,
    "ळ्ळु": 1445,
    "ळ‍": 1446,
    "ऴ": 1447,
    "ऴं": 1448,
    "ऴा": 1449,
    "ऴि": 1450,
    "ऴु": 1451,
    "ऴॆ": 1452,
    "ऴ्": 1453,
    "ऴ्चॆ": 1454,
    "ऴ्न": 1455,
    "ऴ्ना": 1456,
    "ऴ्वु": 1457,
    "ऴ्‌": 1458,
    "व": 1459,
    "वं": 1460,
    "वः": 1461,
    "व़": 1462,
    "वा": 1463,
    "वां": 1464,
    "वाा्टु": 1465,
    "वाि": 1466,
    "वा्": 1467,
    "वा्क": 1468,
    "वि": 1469,
    "विं": 1470,
    "वि॰": 1471,
    "विॱ": 1472,
    "वी": 1473,
    "वीं": 1474,
    "वीः": 1475,
    "वु": 1476,
    "वुं": 1477,
    "वू": 1478,
    "वृ": 1479,
    "वॅ": 1480,
    "वॆ": 1481,
    "वॆं": 1482,
    "वे": 1483,
    "वें": 1484,
    "वेा्ल्टु": 1485,
    "वै": 1486,
    "वॉ": 1487,
    "वॊ": 1488,
    "वो": 1489,
    "व्": 1490,
    "व्य": 1491,
    "व्या": 1492,
    "व्र": 1493,
    "व्व": 1494,
    "व्वा": 1495,
    "व्वि": 1496,
    "व्वू": 1497,
    "व्वॆं": 1498,
    "व्वे": 1499,
    "व्ह": 1500,
    "व्हि": 1501,
    "व्ही": 1502,
    "व्‌": 1503,
    "व॰": 1504,
    "व‌": 1505,
    "श": 1506,
    "शं": 1507,
    "शा": 1508,
    "शां": 1509,
    "शाः": 1510,
    "शि": 1511,
    "शी": 1512,
    "शीू": 1513,
    "शु": 1514,
    "शू": 1515,
    "शृ": 1516,
    "शॅ": 1517,
    "शॆ": 1518,
    "शे": 1519,
    "शै": 1520,
    "शो": 1521,
    "श्": 1522,
    "श्च": 1523,
    "श्चि": 1524,
    "श्ते": 1525,
    "श्ब": 1526,
    "श्मा": 1527,
    "श्य": 1528,
    "श्र": 1529,
    "श्रा": 1530,
    "श्रि": 1531,
    "श्री": 1532,
    "श्रु": 1533,
    "श्रे": 1534,
    "श्व": 1535,
    "श्वा": 1536,
    "श्शि": 1537,
    "श्शे": 1538,
    "श्स": 1539,
    "श्॰ी": 1540,
    "श्ॱ": 1541,
    "श्‍": 1542,
    "ष": 1543,
    "षं": 1544,
    "षा": 1545,
    "षि": 1546,
    "षी": 1547,
    "षु": 1548,
    "षू": 1549,
    "षे": 1550,
    "षो": 1551,
    "ष्": 1552,
    "ष्कृ": 1553,
    "ष्ट": 1554,
    "ष्टा": 1555,
    "ष्टि": 1556,
    "ष्टी": 1557,
    "ष्टु": 1558,
    "ष्टे": 1559,
    "ष्टो": 1560,
    "ष्ट्र": 1561,
    "ष्ट्रं": 1562,
    "ष्ट्रा": 1563,
    "ष्ट्री": 1564,
    "ष्ट्॰": 1565,
    "ष्ट्॰ी": 1566,
    "ष्ठ": 1567,
    "ष्ठा": 1568,
    "ष्ण": 1569,
    "ष्णा": 1570,
    "ष्णू": 1571,
    "ष्ना": 1572,
    "ष्पा": 1573,
    "ष्म": 1574,
    "ष्मॆ": 1575,
    "ष्य": 1576,
    "ष्यं": 1577,
    "ष्य़": 1578,
    "ष्‌": 1579,
    "ष्‍": 1580,
    "षॢ": 1581,
    "स": 1582,
    "सं": 1583,
    "सः": 1584,
    "स़": 1585,
    "स़ा": 1586,
    "स़ि": 1587,
    "सा": 1588,
    "सां": 1589,
    "सि": 1590,
    "सिं": 1591,
    "सि॰": 1592,
    "सी": 1593,
    "सु": 1594,
    "सुँ": 1595,
    "सुं": 1596,
    "सू": 1597,
    "सृ": 1598,
    "सृं": 1599,
    "सॆ": 1600,
    "सॆं": 1601,
    "से": 1602,
    "सें": 1603,
    "से‍": 1604,
    "सै": 1605,
    "सैं": 1606,
    "सो": 1607,
    "सोँ": 1608,
    "सौ": 1609,
    "स्": 1610,
    "स्क": 1611,
    "स्का": 1612,
    "स्कु": 1613,
    "स्कू": 1614,
    "स्कृ": 1615,
    "स्गि": 1616,
    "स्जि": 1617,
    "स्जी": 1618,
    "स्ट": 1619,
    "स्टा": 1620,
    "स्टी": 1621,
    "स्टु": 1622,
    "स्टॆ": 1623,
    "स्टे": 1624,
    "स्टो": 1625,
    "स्टोा्स्": 1626,
    "स्ट्": 1627,
    "स्ट्र": 1628,
    "स्ट्री": 1629,
    "स्ट्रे": 1630,
    "स्त": 1631,
    "स्तं": 1632,
    "स्ता": 1633,
    "स्ति": 1634,
    "स्तु": 1635,
    "स्तू": 1636,
    "स्तृ": 1637,
    "स्तॆ": 1638,
    "स्ते": 1639,
    "स्त्र": 1640,
    "स्त्रा": 1641,
    "स्थ": 1642,
    "स्था": 1643,
    "स्थि": 1644,
    "स्थी": 1645,
    "स्थू": 1646,
    "स्थॆ": 1647,
    "स्थे": 1648,
    "स्थ्य": 1649,
    "स्ध": 1650,
    "स्धा": 1651,
    "स्धॆ": 1652,
    "स्ना": 1653,
    "स्ने": 1654,
    "स्प": 1655,
    "स्पा": 1656,
    "स्पि": 1657,
    "स्पृ": 1658,
    "स्पॆ": 1659,
    "स्पे": 1660,
    "स्फि": 1661,
    "स्फो": 1662,
    "स्ब": 1663,
    "स्बा": 1664,
    "स्भा": 1665,
    "स्म": 1666,
    "स्मा": 1667,
    "स्मृ": 1668,
    "स्य": 1669,
    "स्यः": 1670,
    "स्या": 1671,
    "स्र": 1672,
    "स्ऱी": 1673,
    "स्री": 1674,
    "स्ऱ्ऱ": 1675,
    "स्ऱ्ऱा": 1676,
    "स्ऱ्ऱि": 1677,
    "स्ऱ्ऱे": 1678,
    "स्ऱ्ऱै": 1679,
    "स्ऱ्ऱो": 1680,
    "स्ला": 1681,
    "स्लि": 1682,
    "स्व": 1683,
    "स्वं": 1684,
    "स्वा": 1685,
    "स्वी": 1686,
    "स्वे": 1687,
    "स्सा": 1688,
    "स्सु": 1689,
    "स्से": 1690,
    "स्स्मा": 1691,
    "स्य़": 1692,
    "स्॰": 1693,
    "स्॰ा": 1694,
    "स्ॱ": 1695,
    "स्‌": 1696,
    "स्‍": 1697,
    "सॗ": 1698,
    "स॰": 1699,
    "सॱ": 1700,
    "ह": 1701,
    "हं": 1702,
    "हः": 1703,
    "हा": 1704,
    "हां": 1705,
    "हा‍": 1706,
    "हि": 1707,
    "हिँ": 1708,
    "हिं": 1709,
    "हिः": 1710,
    "हि॰": 1711,
    "ही": 1712,
    "हीं": 1713,
    "हु": 1714,
    "हु॰": 1715,
    "हू": 1716,
    "हृ": 1717,
    "हॆ": 1718,
    "हे": 1719,
    "हें": 1720,
    "है": 1721,
    "है‍": 1722,
    "हॉ": 1723,
    "हॊ": 1724,
    "हो": 1725,
    "हौ": 1726,
    "ह्दि": 1727,
    "ह्न": 1728,
    "ह्म": 1729,
    "ह्य": 1730,
    "ह्या": 1731,
    "ह्रू": 1732,
    "ह॰": 1733,
    "हॱ": 1734,
    "ऽ": 1735,
    "ा": 1736,
    "े": 1737,
    "ॎ": 1738,
    "ॐ": 1739,
    "ज़ो": 1740,
    "ज़॰": 1741,
    "ड़": 1742,
    "ड़ा": 1743,
    "ड़ी": 1744,
    "ड़े": 1745,
    "ड़ै": 1746,
    "ड़ोु": 1747,
    "ड़्ह": 1748,
    "ड़्हे": 1749,
    "ढ़ि": 1750,
    "ढ़ी": 1751,
    "ढ़ो": 1752,
    "फ़": 1753,
    "फ़्ट": 1754,
    "फ़्दु": 1755,
    "य़": 1756,
    "य़ं": 1757,
    "य़ः": 1758,
    "य़़": 1759,
    "य़ा": 1760,
    "य़ां": 1761,
    "य़ि": 1762,
    "य़ु": 1763,
    "य़े": 1764,
    "य़ो": 1765,
    "य़्या": 1766,
    "य़ॗ": 1767,
    "ॠ": 1768,
    "।": 1769,
    "।‍": 1770,
    "॥": 1771,
    "०": 1772,
    "१": 1773,
    "१्को": 1774,
    "१‌": 1775,
    "२": 1776,
    "२़": 1777,
    "२ा": 1778,
    "३": 1779,
    "४": 1780,
    "५": 1781,
    "५ु": 1782,
    "५ो": 1783,
    "६": 1784,
    "७": 1785,
    "८": 1786,
    "९": 1787,
    "॰": 1788,
    "॰ा": 1789,
    "॰ि": 1790,
    "॰िः": 1791,
    "॰ी": 1792,
    "॰ु": 1793,
    "॰ू": 1794,
    "॰े": 1795,
    "॰ो": 1796,
    "॰्थ": 1797,
    "॰्प": 1798,
    "॰्ब": 1799,
    "॰्मा": 1800,
    "॰्य": 1801,
    "॰्य्य": 1802,
    "॰्य्या": 1803,
    "॰्ष": 1804,
    "ॱ": 1805,
    "ॱा": 1806,
    "ॱि": 1807,
    "ॱे": 1808,
    "ॱो": 1809,
    "ॳ": 1810,
    "ॳे": 1811,
    "ॷ": 1812,
    "ॹ": 1813,
    "ॺ": 1814,
    "ॺ‍": 1815,
    "ॻ": 1816,
    "ॻॆ": 1817,
    "ॻ्ऱॆ": 1818,
    "ॻ‌": 1819,
    "ॼ": 1820,
    "ॼ‌": 1821,
    "ॼ‍‍": 1822,
    "ॽ": 1823,
    "ॽ‍": 1824,
    "ॾ": 1825,
    "ॾ‌‌": 1826,
    "​": 1827,
    "’": 1828
  },
  "metadata": {
    "tag": "zs_scale1620_telugu",
    "num_graphemes": 1827,
    "space": "shared-abugida-pivot"
  }
}