{
  "grapheme2idx": {
    "<blank>": 0,
    "<unk>": 1,
    " ‌": 2,
    "!": 3,
    "&": 4,
    "'": 5,
    "(": 6,
    ")": 7,
    ",": 8,
    "-": 9,
    "-ാ": 10,
    ".": 11,
    "0": 12,
    "1": 13,
    "2": 14,
    "3": 15,
    "4": 16,
    "5": 17,
    "6": 18,
    "7": 19,
    "9": 20,
    ":": 21,
    ";": 22,
    "?": 23,
    "A": 24,
    "F": 25,
    "L": 26,
    "Y": 27,
    "ஜ": 28,
    "അ": 29,
    "അം": 30,
    "ആ": 31,
    "ആ‌": 32,
    "ഇ": 33,
    "ഇം": 34,
    "ഈ": 35,
    "ഉ": 36,
    "ഊ": 37,
    "എ": 38,
    "എം": 39,
    "എ‍": 40,
    "ഏ": 41,
    "ഐ": 42,
    "ഐം": 43,
    "ഒ": 44,
    "ഒ‌": 45,
    "ഓ": 46,
    "ഓം": 47,
    "ക": 48,
    "കം": 49,
    "കം‌": 50,
    "കാ": 51,
    "കാ‍": 52,
    "കി": 53,
    "കീ": 54,
    "കു": 55,
    "കൂ": 56,
    "കൃ": 57,
    "കെ": 58,
    "കേ": 59,
    "കോ": 60,
    "കേെ്ടാ": 61,
    "കൈ": 62,
    "കൊ": 63,
    "കോ": 64,
    "കോം": 65,
    "കോം‌": 66,
    "ക്": 67,
    "ക്ക": 68,
    "ക്കം": 69,
    "ക്കാ": 70,
    "ക്കാം": 71,
    "ക്കി": 72,
    "ക്കീ": 73,
    "ക്കു": 74,
    "ക്കും": 75,
    "ക്കൂ": 76,
    "ക്കെ": 77,
    "ക്കേ": 78,
    "ക്കൊ": 79,
    "ക്കോ": 80,
    "ക്ക്": 81,
    "ക്ക്സ്": 82,
    "ക്ക്‌": 83,
    "ക്കൗ": 84,
    "ക്ടോ": 85,
    "ക്ട്": 86,
    "ക്ട്രി": 87,
    "ക്ട്രേ": 88,
    "ക്ത": 89,
    "ക്തി": 90,
    "ക്നോ": 91,
    "ക്യ": 92,
    "ക്യാ": 93,
    "ക്യൂ": 94,
    "ക്ര": 95,
    "ക്ല": 96,
    "ക്ലി": 97,
    "ക്വ": 98,
    "ക്വാ": 99,
    "ക്വേ": 100,
    "ക്ഷ": 101,
    "ക്ഷാ": 102,
    "ക്ഷി": 103,
    "ക്ഷേ": 104,
    "ക്ഷ്മി": 105,
    "ക്സി": 106,
    "ക്സ്": 107,
    "ക്‌": 108,
    "കൗ": 109,
    "ക‌": 110,
    "ഖ": 111,
    "ഖം": 112,
    "ഖാ": 113,
    "ഖാം": 114,
    "ഖാ‍": 115,
    "ഖ്യ": 116,
    "ഗ": 117,
    "ഗം": 118,
    "ഗാ": 119,
    "ഗി": 120,
    "ഗീ": 121,
    "ഗു": 122,
    "ഗൃ": 123,
    "ഗെ": 124,
    "ഗോ": 125,
    "ഗ്": 126,
    "ഗ്ഗാ": 127,
    "ഗ്നി": 128,
    "ഗ്യ": 129,
    "ഗ്ര": 130,
    "ഗ്രാ": 131,
    "ഗ്രി": 132,
    "ഗ്രീ": 133,
    "ഗ്രൂ": 134,
    "ഗ്രോ": 135,
    "ഗ്ലാ": 136,
    "ഗ്ലീ": 137,
    "ഗ്ഷ": 138,
    "ഗ്‌": 139,
    "ഘ": 140,
    "ഘം": 141,
    "ഘാ": 142,
    "ഘോ": 143,
    "ങ": 144,
    "ങ്": 145,
    "ങ്ക": 146,
    "ങ്കി": 147,
    "ങ്കു": 148,
    "ങ്കേ": 149,
    "ങ്ക്": 150,
    "ങ്ക്സ്": 151,
    "ങ്ങ": 152,
    "ങ്ങാ": 153,
    "ങ്ങി": 154,
    "ങ്ങേ": 155,
    "ങ്ങോ": 156,
    "ങ്ങോം": 157,
    "ങ്ങ്‌": 158,
    "ച": 159,
    "ചം": 160,
    "ചാ": 161,
    "ചി": 162,
    "ചിം": 163,
    "ചു": 164,
    "ചൂ": 165,
    "ചെ": 166,
    "ചൊ": 167,
    "ച്ച": 168,
    "ച്ചം": 169,
    "ച്ചാ": 170,
    "ച്ചി": 171,
    "ച്ചു": 172,
    "ച്ചേ": 173,
    "ച്ച്": 174,
    "ച്ച്‌": 175,
    "ച്ഛ": 176,
    "ച്ഛേ": 177,
    "ച്ഛ്": 178,
    "ച്യു": 179,
    "ഛി": 180,
    "ജ": 181,
    "ജം": 182,
    "ജാ": 183,
    "ജി": 184,
    "ജിം": 185,
    "ജീ": 186,
    "ജു": 187,
    "ജൂ": 188,
    "ജെ": 189,
    "ജോ": 190,
    "ജ്": 191,
    "ജ്ജ": 192,
    "ജ്ജം": 193,
    "ജ്ജ്": 194,
    "ജ്ഞം": 195,
    "ജ്ഞാ": 196,
    "ജ്യ": 197,
    "ജ്വ": 198,
    "ജ്‌": 199,
    "ഞാ": 200,
    "ഞ്ച": 201,
    "ഞ്ചാ": 202,
    "ഞ്ചി": 203,
    "ഞ്ചേ": 204,
    "ഞ്ജ": 205,
    "ഞ്ഞ": 206,
    "ഞ്ഞാ": 207,
    "ഞ്ഞി": 208,
    "ഞ്ഞു": 209,
    "ഞ്ഞെ": 210,
    "ഞ്ഞോ": 211,
    "ട": 212,
    "ടം": 213,
    "ടാ": 214,
    "ടാം": 215,
    "ടി": 216,
    "ടു": 217,
    "ടും": 218,
    "ടൂ": 219,
    "ടെ": 220,
    "ടേ": 221,
    "ടോം": 222,
    "ട്": 223,
    "ട്ട": 224,
    "ട്ടം": 225,
    "ട്ട഼": 226,
    "ട്ടാ": 227,
    "ട്ടി": 228,
    "ട്ടീ": 229,
    "ട്ടു": 230,
    "ട്ടും": 231,
    "ട്ടൂ": 232,
    "ട്ടെ": 233,
    "ട്ടേ": 234,
    "ട്ടോ": 235,
    "ട്ട്": 236,
    "ട്ട്‌": 237,
    "ട്ര": 238,
    "ട്രാ": 239,
    "ട്രെ": 240,
    "ട്രേ": 241,
    "ട്വ": 242,
    "ട്ശ്രീ": 243,
    "ട്‌": 244,
    "ട്‍": 245,
    "ടൗ": 246,
    "ട‌": 247,
    "ഠ": 248,
    "ഠി": 249,
    "ഠേ": 250,
    "ഡ": 251,
    "ഡാ": 252,
    "ഡി": 253,
    "ഡിം": 254,
    "ഡീ": 255,
    "ഡു": 256,
    "ഡോ": 257,
    "ഡ്": 258,
    "ഡ്ക": 259,
    "ഡ്പേ": 260,
    "ഡ്രാ": 261,
    "ഡ്രി": 262,
    "ഡ്സ്": 263,
    "ഡ്‌": 264,
    "ണ": 265,
    "ണം": 266,
    "ണം‌": 267,
    "ണ഼": 268,
    "ണാ": 269,
    "ണി": 270,
    "ണു": 271,
    "ണു്": 272,
    "ണൂ": 273,
    "ണേ": 274,
    "ണോ": 275,
    "ണ്": 276,
    "ണ്ട": 277,
    "ണ്ടം": 278,
    "ണ്ടാ": 279,
    "ണ്ടി": 280,
    "ണ്ടു": 281,
    "ണ്ടൂ": 282,
    "ണ്ടെ": 283,
    "ണ്ടേ": 284,
    "ണ്ടോ": 285,
    "ണ്ട്": 286,
    "ണ്ട്സ്": 287,
    "ണ്ട്‌": 288,
    "ണ്ഡാ": 289,
    "ണ്ണ": 290,
    "ണ്ണം": 291,
    "ണ്ണാ": 292,
    "ണ്ണി": 293,
    "ണ്ണു": 294,
    "ണ്ണൂ": 295,
    "ണ്ണൂ‍": 296,
    "ണ്ണ്": 297,
    "ണ്യ": 298,
    "ണ്യാ": 299,
    "ണ്‌": 300,
    "ണ‍": 301,
    "ത": 302,
    "തം": 303,
    "താ": 304,
    "താം": 305,
    "തി": 306,
    "തു": 307,
    "തൂ": 308,
    "തൃ": 309,
    "തെ": 310,
    "തെെ": 311,
    "തൈ": 312,
    "തൊ": 313,
    "തോ": 314,
    "ത്": 315,
    "ത്ത": 316,
    "ത്താ": 317,
    "ത്തി": 318,
    "ത്തീ": 319,
    "ത്തു": 320,
    "ത്തൂ": 321,
    "ത്തെ": 322,
    "ത്തേ": 323,
    "ത്തൊ": 324,
    "ത്തോ": 325,
    "ത്ത്": 326,
    "ത്ത്പ": 327,
    "ത്ത്‌": 328,
    "ത്ഥ": 329,
    "ത്ഥി": 330,
    "ത്ഭ": 331,
    "ത്മാ": 332,
    "ത്യ": 333,
    "ത്യാ": 334,
    "ത്ര": 335,
    "ത്രം": 336,
    "ത്രം‌": 337,
    "ത്രാ": 338,
    "ത്രി": 339,
    "ത്രീ": 340,
    "ത്വ": 341,
    "ത്സ": 342,
    "ത്സ്": 343,
    "ത്‌": 344,
    "ഥ": 345,
    "ഥാ": 346,
    "ഥോം": 347,
    "ദ": 348,
    "ദം": 349,
    "ദാ": 350,
    "ദി": 351,
    "ദീ": 352,
    "ദു": 353,
    "ദെ": 354,
    "ദേ": 355,
    "ദൈ": 356,
    "ദ്": 357,
    "ദ്ഗു": 358,
    "ദ്ഘാ": 359,
    "ദ്ധ": 360,
    "ദ്ധാ": 361,
    "ദ്ധി": 362,
    "ദ്ധീ": 363,
    "ദ്ധ്യ": 364,
    "ദ്ധ്യം": 365,
    "ദ്യ": 366,
    "ദ്യാ": 367,
    "ദ്ര": 368,
    "ദ്രം": 369,
    "ദ്രാ": 370,
    "ദ്വ": 371,
    "ദ്വാ": 372,
    "ദ്വി": 373,
    "ദ്ശി": 374,
    "ദ്‌": 375,
    "ധ": 376,
    "ധാ": 377,
    "ധി": 378,
    "ധു": 379,
    "ധ്യ": 380,
    "ന": 381,
    "നം": 382,
    "നാ": 383,
    "നാം": 384,
    "നാം‌": 385,
    "നി": 386,
    "നീ": 387,
    "നു": 388,
    "നും": 389,
    "നു്": 390,
    "നൂ": 391,
    "നെ": 392,
    "നേ": 393,
    "നോ": 394,
    "ന്": 395,
    "ന്ത": 396,
    "ന്താ": 397,
    "ന്തി": 398,
    "ന്തു": 399,
    "ന്തെ": 400,
    "ന്തോ": 401,
    "ന്ത്യ": 402,
    "ന്ത്ര": 403,
    "ന്ത്രി": 404,
    "ന്ഥ": 405,
    "ന്ദ": 406,
    "ന്ദി": 407,
    "ന്ദ്ര": 408,
    "ന്ദ്രം": 409,
    "ന്ദ്രീ": 410,
    "ന്ദ്‌": 411,
    "ന്ധ": 412,
    "ന്ധം": 413,
    "ന്ധാ": 414,
    "ന്ധി": 415,
    "ന്ധ്യം": 416,
    "ന്ന": 417,
    "ന്നം": 418,
    "ന്നാ": 419,
    "ന്നി": 420,
    "ന്നി‍": 421,
    "ന്നീ": 422,
    "ന്നു": 423,
    "ന്നും": 424,
    "ന്നൂ": 425,
    "ന്ന്": 426,
    "ന്മ": 427,
    "ന്യ": 428,
    "ന്റ": 429,
    "ന്റാ": 430,
    "ന്റെ": 431,
    "ന്റ്": 432,
    "ന്വ": 433,
    "ന്വേ": 434,
    "ന്‌": 435,
    "ന്‍": 436,
    "പ": 437,
    "പം": 438,
    "പാ": 439,
    "പി": 440,
    "പിാ": 441,
    "പീ": 442,
    "പു": 443,
    "പൂ": 444,
    "പെ": 445,
    "പേ": 446,
    "പൈ": 447,
    "പൊ": 448,
    "പോ": 449,
    "പ്": 450,
    "പ്തം": 451,
    "പ്പ": 452,
    "പ്പം": 453,
    "പ്പാ": 454,
    "പ്പി": 455,
    "പ്പിം": 456,
    "പ്പീ": 457,
    "പ്പു": 458,
    "പ്പൂ": 459,
    "പ്പെ": 460,
    "പ്പോ": 461,
    "പ്പ്": 462,
    "പ്പ്മൂ": 463,
    "പ്പ്‌": 464,
    "പ്ര": 465,
    "പ്രാ": 466,
    "പ്രി": 467,
    "പ്രോ": 468,
    "പ്ല": 469,
    "പ്ലാ": 470,
    "പ്ലൈ": 471,
    "പ്‌": 472,
    "ഫ": 473,
    "ഫാ": 474,
    "ഫാം": 475,
    "ഫി": 476,
    "ഫീ": 477,
    "ഫെ": 478,
    "ഫേ": 479,
    "ഫൈ": 480,
    "ഫോ": 481,
    "ഫ്": 482,
    "ഫ്ഃ": 483,
    "ഫ്ര": 484,
    "ഫ്രോ": 485,
    "ഫ്ര‌": 486,
    "ബ": 487,
    "ബാ": 488,
    "ബാ‍": 489,
    "ബി": 490,
    "ബീ": 491,
    "ബു": 492,
    "ബൂ": 493,
    "ബെ": 494,
    "ബേ": 495,
    "ബൈ": 496,
    "ബോ": 497,
    "ബ്": 498,
    "ബ്ദ": 499,
    "ബ്യൂ": 500,
    "ബ്ര": 501,
    "ബ്രി": 502,
    "ബ്രു": 503,
    "ബ്രൂ": 504,
    "ബ്ലോ": 505,
    "ബ്‌": 506,
    "ബ്‍": 507,
    "ഭ": 508,
    "ഭം": 509,
    "ഭാ": 510,
    "ഭി": 511,
    "ഭൂ": 512,
    "ഭൃാ": 513,
    "ഭ്യ": 514,
    "ഭ്യാ": 515,
    "മ": 516,
    "മം": 517,
    "മം‌": 518,
    "മഃ": 519,
    "മാ": 520,
    "മാ‍": 521,
    "മി": 522,
    "മീ": 523,
    "മു": 524,
    "മൂ": 525,
    "മൃ": 526,
    "മെ": 527,
    "മേ": 528,
    "മൈ": 529,
    "മൊ": 530,
    "മോ": 531,
    "മ്പ": 532,
    "മ്പാ": 533,
    "മ്പി": 534,
    "മ്പു": 535,
    "മ്പൂ": 536,
    "മ്പോ": 537,
    "മ്പ്": 538,
    "മ്പ്യ": 539,
    "മ്പ്യാ": 540,
    "മ്പ്യൂ": 541,
    "മ്പ്വാ": 542,
    "മ്മ": 543,
    "മ്മാ": 544,
    "മ്മി": 545,
    "മ്മീ": 546,
    "മ്മു": 547,
    "മ്മൂ": 548,
    "മ്മേ": 549,
    "മ്യാ": 550,
    "മ്യൂ": 551,
    "മ്സി": 552,
    "മൗ": 553,
    "യ": 554,
    "യം": 555,
    "യാ": 556,
    "യാം": 557,
    "യാ‍": 558,
    "യി": 559,
    "യു": 560,
    "യും": 561,
    "യൂ": 562,
    "യെ": 563,
    "യേ": 564,
    "യൊ": 565,
    "യോ": 566,
    "യ്": 567,
    "യ്ക്കാ": 568,
    "യ്ക്കാം": 569,
    "യ്ക്കു": 570,
    "യ്ക്ക്": 571,
    "യ്ത": 572,
    "യ്മ": 573,
    "യ്യ": 574,
    "യ്യി": 575,
    "യ്യു": 576,
    "യ്യും": 577,
    "യ്യേ": 578,
    "യ്യോ": 579,
    "യ്റി": 580,
    "യ്‌": 581,
    "ര": 582,
    "രം": 583,
    "ര഼": 584,
    "രാ": 585,
    "രി": 586,
    "രീ": 587,
    "രു": 588,
    "രും": 589,
    "രു‍": 590,
    "രൂ": 591,
    "രെ": 592,
    "രേ": 593,
    "രോ": 594,
    "ര്": 595,
    "ര്യ": 596,
    "ര്യാ": 597,
    "ര്രി": 598,
    "ര‌": 599,
    "ര‍": 600,
    "റ": 601,
    "റം": 602,
    "റാ": 603,
    "റി": 604,
    "റിം": 605,
    "റീ": 606,
    "റു": 607,
    "റും": 608,
    "റൂ": 609,
    "റെ": 610,
    "റേ": 611,
    "റൈ": 612,
    "റൊ": 613,
    "റോ": 614,
    "റ്": 615,
    "റ്ത്ത": 616,
    "റ്റ": 617,
    "റ്റം": 618,
    "റ്റാ": 619,
    "റ്റി": 620,
    "റ്റീ": 621,
    "റ്റു": 622,
    "റ്റൂ": 623,
    "റ്റേ": 624,
    "റ്റൈ": 625,
    "റ്റോ": 626,
    "റ്റ്": 627,
    "റ്റ്ഫോം": 628,
    "റ്റ്യൂ": 629,
    "റ്റ്റ്‌": 630,
    "ല": 631,
    "ലം": 632,
    "ലം‍": 633,
    "ലാ": 634,
    "ലാം": 635,
    "ലി": 636,
    "ലിം": 637,
    "ലീ": 638,
    "ലു": 639,
    "ലും": 640,
    "ലൂ": 641,
    "ലെ": 642,
    "ലേ": 643,
    "ലൈ": 644,
    "ലോ": 645,
    "ല്ക്കു": 646,
    "ല്പ": 647,
    "ല്യ": 648,
    "ല്യാ": 649,
    "ല്ല": 650,
    "ല്ലം": 651,
    "ല്ലാ": 652,
    "ല്ലാ‍": 653,
    "ല്ലി": 654,
    "ല്ലു": 655,
    "ല്ലൂ": 656,
    "ല്ലെ": 657,
    "ല്ലേ": 658,
    "ല്ല്": 659,
    "ല്ല്‌": 660,
    "ള": 661,
    "ളം": 662,
    "ളം‌": 663,
    "ളാ": 664,
    "ളാം": 665,
    "ളി": 666,
    "ളിം": 667,
    "ളു": 668,
    "ളും": 669,
    "ളൂ": 670,
    "ളെ": 671,
    "ളേ": 672,
    "ള്ള": 673,
    "ള്ളം": 674,
    "ള്ളി": 675,
    "ള്ളീ": 676,
    "ള്ളു": 677,
    "ള്ള്": 678,
    "ള‍": 679,
    "ഴ": 680,
    "ഴം": 681,
    "ഴാ": 682,
    "ഴി": 683,
    "ഴി‌": 684,
    "ഴു": 685,
    "ഴെ": 686,
    "ഴേ": 687,
    "ഴോം": 688,
    "ഴോം": 689,
    "ഴ്ത്ത": 690,
    "ഴ്സ്": 691,
    "ഴ്‌": 692,
    "വ": 693,
    "വം": 694,
    "വഃ": 695,
    "വാ": 696,
    "വി": 697,
    "വീ": 698,
    "വീഃ": 699,
    "വു": 700,
    "വും": 701,
    "വു്": 702,
    "വൂ": 703,
    "വെ": 704,
    "വേ": 705,
    "വൈ": 706,
    "വൊ": 707,
    "വോ": 708,
    "വ്": 709,
    "വ്ഭ": 710,
    "വ്യ": 711,
    "വ്യാ": 712,
    "വ്ര": 713,
    "വ്വ": 714,
    "വ്വം": 715,
    "വ്വി": 716,
    "വ്വീ": 717,
    "വ്വൂ": 718,
    "വ്വേ": 719,
    "വ്‌": 720,
    "വ‌": 721,
    "ശ": 722,
    "ശം": 723,
    "ശാ": 724,
    "ശാ‍": 725,
    "ശി": 726,
    "ശീ": 727,
    "ശു": 728,
    "ശൂ": 729,
    "ശേ": 730,
    "ശൈ": 731,
    "ശോ": 732,
    "ശ്യ": 733,
    "ശ്ര": 734,
    "ശ്രാ": 735,
    "ശ്രി": 736,
    "ശ്രീ": 737,
    "ശ്രീ്മ": 738,
    "ശ്വ": 739,
    "ശ്വാ": 740,
    "ശ്ശ": 741,
    "ശ്ശി": 742,
    "ശ്ശേ": 743,
    "ശ്ഷ": 744,
    "ശൗ": 745,
    "ഷ": 746,
    "ഷം": 747,
    "ഷാ": 748,
    "ഷി": 749,
    "ഷൂ": 750,
    "ഷോ": 751,
    "ഷ്": 752,
    "ഷ്ണ": 753,
    "ഷ്യ": 754,
    "ഷ്യം": 755,
    "ഷ്‌": 756,
    "സ": 757,
    "സം": 758,
    "സം‌": 759,
    "സഃ": 760,
    "സ഼": 761,
    "സാ": 762,
    "സാം": 763,
    "സാ‍": 764,
    "സി": 765,
    "സിം": 766,
    "സീ": 767,
    "സു": 768,
    "സൂ": 769,
    "സെ": 770,
    "സേ": 771,
    "സോ": 772,
    "സ്": 773,
    "സ്കാ": 774,
    "സ്കൂ": 775,
    "സ്കൂ‌": 776,
    "സ്ക്കാ": 777,
    "സ്ക്കൂ": 778,
    "സ്ക്‌": 779,
    "സ്ടെ": 780,
    "സ്ട്ര": 781,
    "സ്ട്രീ": 782,
    "സ്ത": 783,
    "സ്താ": 784,
    "സ്തു": 785,
    "സ്ഥ": 786,
    "സ്ഥാ": 787,
    "സ്ഥാ‍": 788,
    "സ്ദു": 789,
    "സ്ന": 790,
    "സ്നി": 791,
    "സ്നേ": 792,
    "സ്പ": 793,
    "സ്പെ": 794,
    "സ്പ്പി": 795,
    "സ്ഭാ": 796,
    "സ്മാ": 797,
    "സ്മൃ": 798,
    "സ്യ": 799,
    "സ്യാ": 800,
    "സ്റ്റ": 801,
    "സ്റ്റാ": 802,
    "സ്റ്റി": 803,
    "സ്റ്റു": 804,
    "സ്റ്റേ": 805,
    "സ്റ്റൈ": 806,
    "സ്റ്റോ": 807,
    "സ്റ്റ്": 808,
    "സ്ലാ": 809,
    "സ്ലൊ": 810,
    "സ്വ": 811,
    "സ്വം": 812,
    "സ്വാ": 813,
    "സ്വീ": 814,
    "സ്സ": 815,
    "സ്സി": 816,
    "സ്സോ": 817,
    "സ്സ്": 818,
    "സ്സ്മാ": 819,
    "സ്സ്‌": 820,
    "സ്‌": 821,
    "സ്‍": 822,
    "സൗ": 823,
    "ഹ": 824,
    "ഹാ": 825,
    "ഹി": 826,
    "ഹിം": 827,
    "ഹു": 828,
    "ഹെ": 829,
    "ഹൈ": 830,
    "ഹൊ": 831,
    "ഹോ": 832,
    "ഹ്": 833,
    "ഹ്ദി": 834,
    "ഹ്നം": 835,
    "ഹ്മ": 836,
    "ഹ്യ": 837,
    "ഹ്രീം": 838,
    "ഹൗ": 839,
    "ാ": 840,
    "ൡ": 841,
    "൦": 842,
    "൧": 843,
    "൪": 844,
    "൭": 845,
    "൯": 846,
    "ൺ": 847,
    "ൺ‌": 848,
    "ൺ‍": 849,
    "ൻ": 850,
    "ൻെ": 851,
    "ൻെ്റ": 852,
    "ൻ്റ": 853,
    "ൻ്റെ": 854,
    "ൻ്റ്": 855,
    "ൻ്റ്സ്": 856,
    "ൻ‌": 857,
    "ൻ‌‌": 858,
    "ൻ‍": 859,
    "ർ": 860,
    "ർഃ": 861,
    "ർ‌": 862,
    "ർ‍": 863,
    "ർ‍‍": 864,
    "ൽ": 865,
    "ൽ‌": 866,
    "ൽ‍": 867,
    "ൾ": 868,
    "ൾ‌": 869,
    "ൾ‌‌": 870
  },
  "metadata": {
    "lang": "malayalam",
    "source_splits": "florence2_splits_synth_malayalam_full.json",
    "num_graphemes": 869,
    "segmenter": "indic-generic (Mn/Mc + virama-join)"
  }
}