{
  "grapheme2idx": {
    "<blank>": 0,
    "<unk>": 1,
    "(": 2,
    ")": 3,
    ",": 4,
    "-": 5,
    ".": 6,
    "0": 7,
    "0್": 8,
    "1": 9,
    "2": 10,
    "3": 11,
    "4": 12,
    "5": 13,
    "6": 14,
    "7": 15,
    "8": 16,
    "9": 17,
    ":": 18,
    "?": 19,
    "H": 20,
    "I": 21,
    "P": 22,
    "ती": 23,
    "भा": 24,
    "य": 25,
    "र": 26,
    "।": 27,
    "ಅ": 28,
    "ಅಂ": 29,
    "ಆ": 30,
    "ಆಂ": 31,
    "ಆ್ಯ": 32,
    "ಆೕ": 33,
    "ಇ": 34,
    "ಇಂ": 35,
    "ಈ": 36,
    "ಉ": 37,
    "ಊ": 38,
    "ಋ": 39,
    "ಎ": 40,
    "ಎಂ": 41,
    "ಏ": 42,
    "ಐ": 43,
    "ಒ": 44,
    "ಓ": 45,
    "ಕ": 46,
    "ಕಂ": 47,
    "ಕಃ": 48,
    "ಕಾ": 49,
    "ಕಾಂ": 50,
    "ಕಿ": 51,
    "ಕೀ": 52,
    "ಕು": 53,
    "ಕೂ": 54,
    "ಕೃ": 55,
    "ಕೆ": 56,
    "ಕೆಂ": 57,
    "ಕೇ": 58,
    "ಕೈ": 59,
    "ಕೊ": 60,
    "ಕೋ": 61,
    "ಕೋ": 62,
    "ಕ್": 63,
    "ಕ್ಕ": 64,
    "ಕ್ಕಾ": 65,
    "ಕ್ಕಿ": 66,
    "ಕ್ಕು": 67,
    "ಕ್ಕೆ": 68,
    "ಕ್ಕೇ": 69,
    "ಕ್ಟಿ": 70,
    "ಕ್ತ": 71,
    "ಕ್ತಾ": 72,
    "ಕ್ತಿ": 73,
    "ಕ್ತೇ": 74,
    "ಕ್ನಿ": 75,
    "ಕ್ಯ": 76,
    "ಕ್ಯಾ": 77,
    "ಕ್ರ": 78,
    "ಕ್ರಾ": 79,
    "ಕ್ರಿ": 80,
    "ಕ್ರೀ": 81,
    "ಕ್ಲ": 82,
    "ಕ್ಲೇ": 83,
    "ಕ್ಷ": 84,
    "ಕ್ಷಿ": 85,
    "ಕ್ಷೆ": 86,
    "ಕ್ಷೇ": 87,
    "ಕ್ಷ್ಮಿ": 88,
    "ಕ್ಷ್ಮೀ": 89,
    "ಕ್ಷ್ಮೀ": 90,
    "ಕ್ಷ್ಯ": 91,
    "ಕ್ಷ್ಯಾ": 92,
    "ಕ್ಸ": 93,
    "ಕ್ಸಿ": 94,
    "ಕ್ಸ್": 95,
    "ಕ‌": 96,
    "ಖ": 97,
    "ಖಾ": 98,
    "ಖಿ": 99,
    "ಖೆ": 100,
    "ಖೋ": 101,
    "ಖ್ಖ": 102,
    "ಖ್ಯ": 103,
    "ಖ್ಯೆ": 104,
    "ಖ್ರಿ": 105,
    "ಗ": 106,
    "ಗಂ": 107,
    "ಗಾ": 108,
    "ಗಾಂ": 109,
    "ಗಿ": 110,
    "ಗು": 111,
    "ಗುಂ": 112,
    "ಗೂ": 113,
    "ಗೃ": 114,
    "ಗೆ": 115,
    "ಗೇ": 116,
    "ಗೇಂ": 117,
    "ಗೊ": 118,
    "ಗೋ": 119,
    "ಗೌ": 120,
    "ಗ್": 121,
    "ಗ್ಗ": 122,
    "ಗ್ಗೆ": 123,
    "ಗ್ಬ": 124,
    "ಗ್ಯ": 125,
    "ಗ್ರ": 126,
    "ಗ್ರಂ": 127,
    "ಗ್ರಾ": 128,
    "ಗ್ರೇ": 129,
    "ಗ್ಲ": 130,
    "ಗ್ಲಾ": 131,
    "ಘ": 132,
    "ಘಾ": 133,
    "ಚ": 134,
    "ಚಂ": 135,
    "ಚಾ": 136,
    "ಚಿ": 137,
    "ಚೀ": 138,
    "ಚು": 139,
    "ಚೂ": 140,
    "ಚೇ": 141,
    "ಚೈ": 142,
    "ಚೌ": 143,
    "ಚ್": 144,
    "ಚ್ಚ": 145,
    "ಚ್ಚು": 146,
    "ಚ್ಛ": 147,
    "ಚ್ಟ": 148,
    "ಚ್ಯ": 149,
    "ಛ": 150,
    "ಛಾ": 151,
    "ಛೇ": 152,
    "ಜ": 153,
    "ಜಂ": 154,
    "ಜ಼": 155,
    "ಜಾ": 156,
    "ಜಿ": 157,
    "ಜೀ": 158,
    "ಜು": 159,
    "ಜೂ": 160,
    "ಜೆ": 161,
    "ಜೇ": 162,
    "ಜೇಂ": 163,
    "ಜೈ": 164,
    "ಜೋ": 165,
    "ಜ್": 166,
    "ಜ್ಞಾ": 167,
    "ಜ್ಯ": 168,
    "ಜ್ಯು": 169,
    "ಜ್ಯೋ": 170,
    "ಜ್ಲ": 171,
    "ಜ್‌": 172,
    "ಟ": 173,
    "ಟಾ": 174,
    "ಟಿ": 175,
    "ಟೀ": 176,
    "ಟು": 177,
    "ಟೆ": 178,
    "ಟೆಂ": 179,
    "ಟೇ": 180,
    "ಟೈ": 181,
    "ಟೊ": 182,
    "ಟೋ": 183,
    "ಟೌ": 184,
    "ಟ್": 185,
    "ಟ್ಟ": 186,
    "ಟ್ಟಿ": 187,
    "ಟ್ಟು": 188,
    "ಟ್ಟೆ": 189,
    "ಟ್ತ": 190,
    "ಟ್ಯೂ": 191,
    "ಟ್ರ": 192,
    "ಟ್ರಾ": 193,
    "ಟ್ರಿ": 194,
    "ಟ್ರೀ": 195,
    "ಟ್ರೋ": 196,
    "ಟ್ಲ": 197,
    "ಟ್ಸ್": 198,
    "ಟ್‌": 199,
    "ಠ": 200,
    "ಠಾ": 201,
    "ಠು": 202,
    "ಠೋ": 203,
    "ಡ": 204,
    "ಡಾ": 205,
    "ಡಿ": 206,
    "ಡೀ": 207,
    "ಡು": 208,
    "ಡೆ": 209,
    "ಡೇ": 210,
    "ಡೊ": 211,
    "ಡೋ": 212,
    "ಡ್": 213,
    "ಡ್ಕ": 214,
    "ಡ್ಡ": 215,
    "ಡ್ತೇ": 216,
    "ಡ್ಪ": 217,
    "ಡ್ಯಂ": 218,
    "ಡ್ಯೂ": 219,
    "ಡ್ಸ್": 220,
    "ಡ್‌": 221,
    "ಢ": 222,
    "ಣ": 223,
    "ಣಾ": 224,
    "ಣಿ": 225,
    "ಣೆ": 226,
    "ಣೇ": 227,
    "ಣ್ಣ": 228,
    "ಣ್ಣೀ": 229,
    "ಣ್ಪ": 230,
    "ಣ್ಯ": 231,
    "ತ": 232,
    "ತಂ": 233,
    "ತಾ": 234,
    "ತಿ": 235,
    "ತಿಂ": 236,
    "ತೀ": 237,
    "ತು": 238,
    "ತೂ": 239,
    "ತೆ": 240,
    "ತೆ್ರ್ರ": 241,
    "ತೊ": 242,
    "ತೋ": 243,
    "ತ್": 244,
    "ತ್ಉ": 245,
    "ತ್ಕೃ": 246,
    "ತ್ತ": 247,
    "ತ್ತಂ": 248,
    "ತ್ತಾ": 249,
    "ತ್ತಿ": 250,
    "ತ್ತು": 251,
    "ತ್ತೂ": 252,
    "ತ್ಪ": 253,
    "ತ್ಮ": 254,
    "ತ್ಮಾ": 255,
    "ತ್ಯ": 256,
    "ತ್ಯಂ": 257,
    "ತ್ಯ್": 258,
    "ತ್ರ": 259,
    "ತ್ರಾ": 260,
    "ತ್ರಿ": 261,
    "ತ್ರೆ": 262,
    "ತ್ವ": 263,
    "ತ್ಸ": 264,
    "ತ್ಸಾ": 265,
    "ತ್ಹ": 266,
    "ಥ": 267,
    "ಥಾ": 268,
    "ಥು": 269,
    "ದ": 270,
    "ದಾ": 271,
    "ದಿ": 272,
    "ದೀ": 273,
    "ದು": 274,
    "ದುಂ": 275,
    "ದೂ": 276,
    "ದೆ": 277,
    "ದೇ": 278,
    "ದೈ": 279,
    "ದೊ": 280,
    "ದ್": 281,
    "ದ್ಟ": 282,
    "ದ್ಟು": 283,
    "ದ್ದಾ": 284,
    "ದ್ದೂ": 285,
    "ದ್ಧ": 286,
    "ದ್ಧಿ": 287,
    "ದ್ಫು": 288,
    "ದ್ಮ": 289,
    "ದ್ಯ": 290,
    "ದ್ಯಾ": 291,
    "ದ್ಯು": 292,
    "ದ್ಯೋ": 293,
    "ದ್ರ": 294,
    "ದ್ರಾ": 295,
    "ದ್ರಿ": 296,
    "ದ್ರೇ": 297,
    "ದ್ರೋ": 298,
    "ದ್ರೌ": 299,
    "ದ್ಳು": 300,
    "ದ್ವ": 301,
    "ದ್ವಾ": 302,
    "ಧ": 303,
    "ಧಾ": 304,
    "ಧಿ": 305,
    "ಧೀ": 306,
    "ಧು": 307,
    "ಧೂ": 308,
    "ಧ್ಯ": 309,
    "ಧ್ವ": 310,
    "ನ": 311,
    "ನಂ": 312,
    "ನಃ": 313,
    "ನಾ": 314,
    "ನಾಂ": 315,
    "ನಿ": 316,
    "ನೀ": 317,
    "ನೀ": 318,
    "ನು": 319,
    "ನೂ": 320,
    "ನೆ": 321,
    "ನೇ": 322,
    "ನೈ": 323,
    "ನೊ": 324,
    "ನೋ": 325,
    "ನೌ": 326,
    "ನ್": 327,
    "ನ್ಕ": 328,
    "ನ್ನ": 329,
    "ನ್ನಂ": 330,
    "ನ್ನಿ": 331,
    "ನ್ನು": 332,
    "ನ್ನೂ": 333,
    "ನ್ನೊಂ": 334,
    "ನ್ಮ": 335,
    "ನ್ಮಾ": 336,
    "ನ್ಮ್ರ": 337,
    "ನ್ಯ": 338,
    "ನ್ಯಾ": 339,
    "ನ್ಯೇ": 340,
    "ನ್ಲು": 341,
    "ನ್ವ": 342,
    "ನ್ವೀ": 343,
    "ನ್ಸ": 344,
    "ನ್ಸಾ": 345,
    "ನ್ಸ್": 346,
    "ನ್ಹ": 347,
    "ಪ": 348,
    "ಪಂ": 349,
    "ಪಾ": 350,
    "ಪಾಂ": 351,
    "ಪಿ": 352,
    "ಪೀ": 353,
    "ಪು": 354,
    "ಪೂ": 355,
    "ಪೆ": 356,
    "ಪೇ": 357,
    "ಪೈ": 358,
    "ಪೊ": 359,
    "ಪೋ": 360,
    "ಪ್": 361,
    "ಪ್ಕಾ": 362,
    "ಪ್ತೆ": 363,
    "ಪ್ಪ": 364,
    "ಪ್ಪು": 365,
    "ಪ್ಯಾ": 366,
    "ಪ್ರ": 367,
    "ಪ್ರಾ": 368,
    "ಪ್ರಿ": 369,
    "ಪ್ರೆ": 370,
    "ಪ್ರೈ": 371,
    "ಪ್ಲಾ": 372,
    "ಪ್ಲೈ": 373,
    "ಪ್ಷ": 374,
    "ಫ": 375,
    "ಫಾ": 376,
    "ಫಿ": 377,
    "ಫೀ": 378,
    "ಫು": 379,
    "ಫೆ": 380,
    "ಫೇ": 381,
    "ಫೋ": 382,
    "ಫ್": 383,
    "ಫ್ಟ್": 384,
    "ಫ್ಯಾ": 385,
    "ಫ್ರೀ": 386,
    "ಫ್ರೂ": 387,
    "ಫ್ಲ": 388,
    "ಫ್ಲಾ": 389,
    "ಬ": 390,
    "ಬಂ": 391,
    "ಬಾ": 392,
    "ಬಿ": 393,
    "ಬೀ": 394,
    "ಬು": 395,
    "ಬೃ": 396,
    "ಬೆ": 397,
    "ಬೆಂ": 398,
    "ಬೇ": 399,
    "ಬೈ": 400,
    "ಬೊ": 401,
    "ಬೋ": 402,
    "ಬೌ": 403,
    "ಬ್": 404,
    "ಬ್ಬ": 405,
    "ಬ್ಬಾ": 406,
    "ಬ್ಯಾ": 407,
    "ಬ್ಯಾಂ": 408,
    "ಬ್ರ": 409,
    "ಬ್ಲ": 410,
    "ಭ": 411,
    "ಭಾ": 412,
    "ಭಿ": 413,
    "ಭು": 414,
    "ಭೂ": 415,
    "ಭೃ": 416,
    "ಭೇ": 417,
    "ಭ್ಯ": 418,
    "ಭ್ರ": 419,
    "ಮ": 420,
    "ಮಂ": 421,
    "ಮಃ": 422,
    "ಮಾ": 423,
    "ಮಾಂ": 424,
    "ಮಿ": 425,
    "ಮೀ": 426,
    "ಮು": 427,
    "ಮುಂ": 428,
    "ಮೂ": 429,
    "ಮೃ": 430,
    "ಮೆ": 431,
    "ಮೆಂ": 432,
    "ಮೇ": 433,
    "ಮೈ": 434,
    "ಮೊ": 435,
    "ಮೋ": 436,
    "ಮೌ": 437,
    "ಮ್": 438,
    "ಮ್ಗ್ರ": 439,
    "ಮ್ಟ": 440,
    "ಮ್ನ": 441,
    "ಮ್ಮ": 442,
    "ಮ್ಮ್ನ": 443,
    "ಮ್ಯ": 444,
    "ಮ್ಯಾ": 445,
    "ಮ್ರ": 446,
    "ಮ್ಶ": 447,
    "ಮ್ಸ": 448,
    "ಮೖ": 449,
    "ಯ": 450,
    "ಯಂ": 451,
    "ಯಾ": 452,
    "ಯಿ": 453,
    "ಯು": 454,
    "ಯೂ": 455,
    "ಯೆ": 456,
    "ಯೇ": 457,
    "ಯೋ": 458,
    "ಯ್": 459,
    "ಯ್ತ": 460,
    "ಯ್ತಾ": 461,
    "ಯ್ಯ": 462,
    "ರ": 463,
    "ರಂ": 464,
    "ರಾ": 465,
    "ರಾಂ": 466,
    "ರಿ": 467,
    "ರಿಂ": 468,
    "ರೀ": 469,
    "ರು": 470,
    "ರೂ": 471,
    "ರೆ": 472,
    "ರೇ": 473,
    "ರೈ": 474,
    "ರೊ": 475,
    "ರೋ": 476,
    "ರ್": 477,
    "ರ್ಎ": 478,
    "ರ್ಕ": 479,
    "ರ್ಕಾ": 480,
    "ರ್ಕ್": 481,
    "ರ್ಗ": 482,
    "ರ್ಗಃ": 483,
    "ರ್ಗಾ": 484,
    "ರ್ಜ಼": 485,
    "ರ್ಜು": 486,
    "ರ್ಟ್ಸ್": 487,
    "ರ್ಡ್‌": 488,
    "ರ್ಣ": 489,
    "ರ್ಣಾ": 490,
    "ರ್ಣೇ": 491,
    "ರ್ತ": 492,
    "ರ್ತು": 493,
    "ರ್ದೊ": 494,
    "ರ್ನಾ": 495,
    "ರ್ನ್": 496,
    "ರ್ಪ": 497,
    "ರ್ಪೂ": 498,
    "ರ್ಪೊ": 499,
    "ರ್ಬೋ": 500,
    "ರ್ಮ": 501,
    "ರ್ಮಾ": 502,
    "ರ್ಮಿ": 503,
    "ರ್ಮ್": 504,
    "ರ್ಯ": 505,
    "ರ್ಯಾ": 506,
    "ರ್ಲಾ": 507,
    "ರ್ವ": 508,
    "ರ್ಶ": 509,
    "ರ್ಷ": 510,
    "ರ್ಸ್": 511,
    "ರ್‌": 512,
    "ರೕ": 513,
    "ಱ": 514,
    "ಲ": 515,
    "ಲಂ": 516,
    "ಲಾ": 517,
    "ಲಿ": 518,
    "ಲಿಂ": 519,
    "ಲೀ": 520,
    "ಲು": 521,
    "ಲೂ": 522,
    "ಲೆ": 523,
    "ಲೆಂ": 524,
    "ಲೇ": 525,
    "ಲೈ": 526,
    "ಲೋ": 527,
    "ಲ್": 528,
    "ಲ್ಕಿ": 529,
    "ಲ್ಕ್ಸ್": 530,
    "ಲ್ಟಿ": 531,
    "ಲ್ಟೇ": 532,
    "ಲ್ಡ್": 533,
    "ಲ್ತ್": 534,
    "ಲ್ದಾ": 535,
    "ಲ್ಯೂ": 536,
    "ಲ್ಲ": 537,
    "ಲ್ಲಾ": 538,
    "ಲ್ಲಿ": 539,
    "ಲ್ಲು": 540,
    "ಲ್ಲೂ": 541,
    "ಲ್ಲೆ": 542,
    "ಲ್ವ": 543,
    "ಲ್ವೆ": 544,
    "ಲ್ಸ": 545,
    "ಲ್ಸ್": 546,
    "ಲ್‌": 547,
    "ಳ": 548,
    "ಳಂ": 549,
    "ಳಃ": 550,
    "ಳಾ": 551,
    "ಳಿ": 552,
    "ಳೀ": 553,
    "ಳು": 554,
    "ಳೂ": 555,
    "ಳೆ": 556,
    "ಳೇ": 557,
    "ಳ್": 558,
    "ಳ್ಳ": 559,
    "ಳ್ಳಾ": 560,
    "ಳ್ಳಿ": 561,
    "ಳ್ಳು": 562,
    "ಳ್ಳೇ": 563,
    "ವ": 564,
    "ವಂ": 565,
    "ವಾ": 566,
    "ವಾಂ": 567,
    "ವಿ": 568,
    "ವೀ": 569,
    "ವು": 570,
    "ವೂ": 571,
    "ವೃ": 572,
    "ವೆ": 573,
    "ವೆಂ": 574,
    "ವೇ": 575,
    "ವೇಂ": 576,
    "ವೈ": 577,
    "ವೊ": 578,
    "ವೋ": 579,
    "ವ್": 580,
    "ವ್ತ": 581,
    "ವ್ಯ": 582,
    "ವ್ಯಾ": 583,
    "ವ್ರ": 584,
    "ವ್ವ": 585,
    "ವ್ಹ": 586,
    "ವ್‌": 587,
    "ಶ": 588,
    "ಶಾ": 589,
    "ಶಿ": 590,
    "ಶೀ": 591,
    "ಶು": 592,
    "ಶೆ": 593,
    "ಶೇ": 594,
    "ಶೋ": 595,
    "ಶೌ": 596,
    "ಶ್": 597,
    "ಶ್ಚ": 598,
    "ಶ್ಟ": 599,
    "ಶ್ಯ": 600,
    "ಶ್ರ": 601,
    "ಶ್ರಾ": 602,
    "ಶ್ರೀ": 603,
    "ಶ್ಲೇ": 604,
    "ಶ್ವ": 605,
    "ಶ್ಸ": 606,
    "ಷ": 607,
    "ಷಾ": 608,
    "ಷೇ": 609,
    "ಷ್ಕ": 610,
    "ಷ್ಕ್": 611,
    "ಷ್ಟ": 612,
    "ಷ್ಟಿ": 613,
    "ಷ್ಟು": 614,
    "ಷ್ಟ್ರೀ": 615,
    "ಷ್ಠ": 616,
    "ಷ್ಣ": 617,
    "ಷ್ಮ": 618,
    "ಷ್ಮೆ": 619,
    "ಷ್ಯ": 620,
    "ಷೢ": 621,
    "ಸ": 622,
    "ಸಂ": 623,
    "ಸಾ": 624,
    "ಸಿ": 625,
    "ಸಿಂ": 626,
    "ಸೀ": 627,
    "ಸು": 628,
    "ಸೂ": 629,
    "ಸೃ": 630,
    "ಸೆ": 631,
    "ಸೆಂ": 632,
    "ಸೇ": 633,
    "ಸೈ": 634,
    "ಸೊ": 635,
    "ಸೋ": 636,
    "ಸೌ": 637,
    "ಸ್": 638,
    "ಸ್ಕಾ": 639,
    "ಸ್ಕು": 640,
    "ಸ್ಕೂ": 641,
    "ಸ್ಕೃ": 642,
    "ಸ್ಟ": 643,
    "ಸ್ಟಾ": 644,
    "ಸ್ಟಿ": 645,
    "ಸ್ಟೀ": 646,
    "ಸ್ಟೆ": 647,
    "ಸ್ಟೇ": 648,
    "ಸ್ಟೋ": 649,
    "ಸ್ಟ್": 650,
    "ಸ್ಟ್ಯಾಂ": 651,
    "ಸ್ಠ": 652,
    "ಸ್ಡ": 653,
    "ಸ್ತ": 654,
    "ಸ್ತಿ": 655,
    "ಸ್ತು": 656,
    "ಸ್ತೆ": 657,
    "ಸ್ತ್ರ": 658,
    "ಸ್ಥ": 659,
    "ಸ್ಥಾ": 660,
    "ಸ್ಥೂ": 661,
    "ಸ್ಥೆ": 662,
    "ಸ್ಧ": 663,
    "ಸ್ಧಾ": 664,
    "ಸ್ಧೆ": 665,
    "ಸ್ನಾ": 666,
    "ಸ್ಪ": 667,
    "ಸ್ಪೆ": 668,
    "ಸ್ಪೇ": 669,
    "ಸ್ಮ": 670,
    "ಸ್ಮಾ": 671,
    "ಸ್ಯ": 672,
    "ಸ್ಯಃ": 673,
    "ಸ್ಯಾ": 674,
    "ಸ್ರಾ": 675,
    "ಸ್ಲಿ": 676,
    "ಸ್ವ": 677,
    "ಸ್ವಾ": 678,
    "ಸ್ವಿ": 679,
    "ಸ್ವೀ": 680,
    "ಸ್ಸ": 681,
    "ಸ್ಸಾ": 682,
    "ಸ್ಸ್": 683,
    "ಸ್ಹ": 684,
    "ಹ": 685,
    "ಹಂ": 686,
    "ಹಾ": 687,
    "ಹಿ": 688,
    "ಹಿಂ": 689,
    "ಹೀ": 690,
    "ಹು": 691,
    "ಹೂ": 692,
    "ಹೃ": 693,
    "ಹೆ": 694,
    "ಹೇ": 695,
    "ಹೈ": 696,
    "ಹೊ": 697,
    "ಹೋ": 698,
    "ಹ್ನ": 699,
    "ಹ್ಮೇ": 700,
    "ಹ್ಯಾ": 701,
    "ಹ್ಯಾಂ": 702,
    "ಽ": 703,
    "ಾ": 704,
    "ೞ": 705,
    "ೞ್ಟ": 706,
    "ೞ್ದು": 707,
    "೦": 708,
    "೧": 709,
    "೨": 710,
    "೩": 711,
    "೪": 712,
    "೫": 713,
    "೬": 714,
    "೭": 715,
    "೮": 716,
    "೯": 717
  },
  "metadata": {
    "lang": "kannada",
    "source_splits": "florence2_splits_synth_kannada_full.json",
    "num_graphemes": 716,
    "segmenter": "indic-generic (Mn/Mc + virama-join)"
  }
}