{
  "grapheme2idx": {
    "<blank>": 0,
    "<unk>": 1,
    "!": 2,
    "\"": 3,
    "&": 4,
    "'": 5,
    "(": 6,
    ")": 7,
    ",": 8,
    "-": 9,
    ".": 10,
    "/": 11,
    "0": 12,
    "1": 13,
    "2": 14,
    "3": 15,
    "4": 16,
    "5": 17,
    "6": 18,
    "7": 19,
    "8": 20,
    "9": 21,
    ":": 22,
    "?": 23,
    "A": 24,
    "D": 25,
    "G": 26,
    "H": 27,
    "I": 28,
    "O": 29,
    "P": 30,
    "V": 31,
    "[": 32,
    "c": 33,
    "|": 34,
    "°": 35,
    "ا": 36,
    "ت": 37,
    "ج": 38,
    "ر": 39,
    "گ": 40,
    "ی": 41,
    "ँ": 42,
    "अ": 43,
    "अं": 44,
    "अि": 45,
    "अ्या": 46,
    "अ॰": 47,
    "आ": 48,
    "आं": 49,
    "आा्": 50,
    "आे": 51,
    "आॕ": 52,
    "इ": 53,
    "इँ": 54,
    "इं": 55,
    "इ्ट": 56,
    "इ॰": 57,
    "इॱ": 58,
    "ई": 59,
    "ईँ": 60,
    "ईं": 61,
    "उ": 62,
    "उाि": 63,
    "उॱ": 64,
    "ऊ": 65,
    "ऊँ": 66,
    "ऊं": 67,
    "ऋ": 68,
    "ऍ": 69,
    "ऎ": 70,
    "ऎं": 71,
    "ऎ‍": 72,
    "ए": 73,
    "एँ": 74,
    "एा": 75,
    "ऐ": 76,
    "ऐं": 77,
    "ऑ": 78,
    "ऒ": 79,
    "ऒं": 80,
    "ऒाि": 81,
    "ऒा्क्स्": 82,
    "ऒ‌": 83,
    "ओ": 84,
    "ओँ": 85,
    "ओं": 86,
    "ओ्बा": 87,
    "औ": 88,
    "औं": 89,
    "क": 90,
    "कं": 91,
    "कः": 92,
    "का": 93,
    "काँ": 94,
    "कां": 95,
    "काुं": 96,
    "काे": 97,
    "का्": 98,
    "का‍": 99,
    "का‍‌": 100,
    "कि": 101,
    "किं": 102,
    "किाि": 103,
    "की": 104,
    "कीे": 105,
    "कु": 106,
    "कुं": 107,
    "कु॰": 108,
    "कू": 109,
    "कृ": 110,
    "कॅ": 111,
    "कॅा": 112,
    "कॆ": 113,
    "कॆं": 114,
    "के": 115,
    "कें": 116,
    "केा": 117,
    "केे": 118,
    "कै": 119,
    "कॉ": 120,
    "कॊ": 121,
    "कॊं": 122,
    "को": 123,
    "कोँ": 124,
    "कों": 125,
    "कों‌": 126,
    "कौ": 127,
    "क्": 128,
    "क्क": 129,
    "क्कं": 130,
    "क्का": 131,
    "क्कि": 132,
    "क्की": 133,
    "क्कु": 134,
    "क्कू": 135,
    "क्कॆ": 136,
    "क्के": 137,
    "क्कै": 138,
    "क्कॊ": 139,
    "क्को": 140,
    "क्क्": 141,
    "क्कॗ": 142,
    "क्ट": 143,
    "क्टो": 144,
    "क्ट्रि": 145,
    "क्ट्रो": 146,
    "क्त": 147,
    "क्ता": 148,
    "क्तां": 149,
    "क्ति": 150,
    "क्तीं": 151,
    "क्तु": 152,
    "क्नो": 153,
    "क्प": 154,
    "क्पे": 155,
    "क्मि": 156,
    "क्य": 157,
    "क्या": 158,
    "क्यू": 159,
    "क्र": 160,
    "क्रं": 161,
    "क्रा": 162,
    "क्रि": 163,
    "क्री": 164,
    "क्रे": 165,
    "क्रै": 166,
    "क्रो": 167,
    "क्ला": 168,
    "क्लि": 169,
    "क्ळ": 170,
    "क्ळे": 171,
    "क्व": 172,
    "क्वा": 173,
    "क्वॆ": 174,
    "क्श": 175,
    "क्ष": 176,
    "क्षा": 177,
    "क्षां": 178,
    "क्षि": 179,
    "क्षिं": 180,
    "क्षी": 181,
    "क्षुः": 182,
    "क्षे": 183,
    "क्षो": 184,
    "क्ष्म": 185,
    "क्ष्मि": 186,
    "क्ष्मी": 187,
    "क्ष्य": 188,
    "क्स": 189,
    "क्सि": 190,
    "क्स्": 191,
    "क्य़ा": 192,
    "क्॰": 193,
    "क्॰ा": 194,
    "क्॰े": 195,
    "क्‌": 196,
    "क्‍": 197,
    "क॰": 198,
    "कॱ": 199,
    "क‌": 200,
    "क‍ी": 201,
    "ख": 202,
    "खं": 203,
    "ख़": 204,
    "खा": 205,
    "खाँ": 206,
    "खां": 207,
    "खि": 208,
    "खी": 209,
    "खु": 210,
    "खू": 211,
    "खॆ": 212,
    "खे": 213,
    "खै": 214,
    "खो": 215,
    "ख्त": 216,
    "ख्य": 217,
    "ख्यु": 218,
    "ख्री": 219,
    "ख्रीः": 220,
    "ग": 221,
    "गं": 222,
    "गा": 223,
    "गाँ": 224,
    "गां": 225,
    "गि": 226,
    "गि॰": 227,
    "गी": 228,
    "गु": 229,
    "गुं": 230,
    "गू": 231,
    "गृ": 232,
    "गॆ": 233,
    "गॆं": 234,
    "गे": 235,
    "गे्ड": 236,
    "गै": 237,
    "गॊ": 238,
    "गो": 239,
    "गों": 240,
    "गौ": 241,
    "ग्": 242,
    "ग्ग": 243,
    "ग्गि": 244,
    "ग्गॆ": 245,
    "ग्ण": 246,
    "ग्धा": 247,
    "ग्न": 248,
    "ग्ना": 249,
    "ग्नि": 250,
    "ग्ब": 251,
    "ग्भ": 252,
    "ग्य": 253,
    "ग्या": 254,
    "ग्ये": 255,
    "ग्र": 256,
    "ग्रं": 257,
    "ग्रा": 258,
    "ग्रां": 259,
    "ग्रि": 260,
    "ग्री": 261,
    "ग्रू": 262,
    "ग्रे": 263,
    "ग्ला": 264,
    "ग्वा": 265,
    "ग्स": 266,
    "ग्य़ा": 267,
    "ग्॰ु": 268,
    "ग्‌": 269,
    "ग॰": 270,
    "गॱ": 271,
    "घ": 272,
    "घा": 273,
    "घां": 274,
    "घु": 275,
    "घे": 276,
    "घो": 277,
    "घौ": 278,
    "घ्य": 279,
    "घ्या": 280,
    "घ्र": 281,
    "ङ": 282,
    "ङा": 283,
    "ङि": 284,
    "ङे": 285,
    "ङ्": 286,
    "ङ्क": 287,
    "ङ्का": 288,
    "ङ्कि": 289,
    "ङ्कु": 290,
    "ङ्के": 291,
    "ङ्कै": 292,
    "ङ्को": 293,
    "ङ्क्": 294,
    "ङ्क्षा": 295,
    "ङ्ग": 296,
    "ङ्गा": 297,
    "ङ्गि": 298,
    "ङ्गी": 299,
    "ङ्गु": 300,
    "ङ्गे": 301,
    "ङ्गो": 302,
    "ङ्घ": 303,
    "ङ्ङ": 304,
    "ङ्ङा": 305,
    "ङ्ङि": 306,
    "ङ्ङों": 307,
    "ङ्ङ्‌": 308,
    "ङ्ट": 309,
    "ङ्त": 310,
    "ङ्ष": 311,
    "ङ्‌": 312,
    "च": 313,
    "चं": 314,
    "च़": 315,
    "चा": 316,
    "चां": 317,
    "चा्": 318,
    "चा्जि": 319,
    "चा्व": 320,
    "चि": 321,
    "चिं": 322,
    "चि़": 323,
    "ची": 324,
    "चु": 325,
    "चुे": 326,
    "चू": 327,
    "चॆ": 328,
    "चे": 329,
    "चें": 330,
    "चेा्ऩ्": 331,
    "चै": 332,
    "चॊ": 333,
    "चो": 334,
    "चौ": 335,
    "च्": 336,
    "च्च": 337,
    "च्चं": 338,
    "च्चा": 339,
    "च्चि": 340,
    "च्ची": 341,
    "च्चे": 342,
    "च्चेाि": 343,
    "च्च्": 344,
    "च्च्‌": 345,
    "च्छ": 346,
    "च्छा": 347,
    "च्छु": 348,
    "च्छ्": 349,
    "च्ट": 350,
    "च्य": 351,
    "च्या": 352,
    "च्यु": 353,
    "च्य़ु": 354,
    "च॑": 355,
    "चॖे": 356,
    "च॰": 357,
    "चॱ": 358,
    "छ": 359,
    "छा": 360,
    "छि": 361,
    "छु": 362,
    "छुॱ": 363,
    "छे": 364,
    "छें": 365,
    "छो": 366,
    "छोँ": 367,
    "छ॰": 368,
    "ज": 369,
    "जं": 370,
    "ज़": 371,
    "ज़ी": 372,
    "ज़ु": 373,
    "जा": 374,
    "जि": 375,
    "जिं": 376,
    "जि॰": 377,
    "जिॱ": 378,
    "जी": 379,
    "जु": 380,
    "जुॱ": 381,
    "जू": 382,
    "जॆ": 383,
    "जे": 384,
    "जें": 385,
    "जै": 386,
    "जो": 387,
    "ज्": 388,
    "ज्ज": 389,
    "ज्जं": 390,
    "ज्ञ": 391,
    "ज्ञा": 392,
    "ज्ञी": 393,
    "ज्ब": 394,
    "ज्य": 395,
    "ज्यु": 396,
    "ज्यू": 397,
    "ज्येा": 398,
    "ज्यो": 399,
    "ज्यों": 400,
    "ज्व": 401,
    "ज्सि": 402,
    "ज्य़": 403,
    "ज्य़ो": 404,
    "ज॰": 405,
    "झ": 406,
    "झा": 407,
    "झाँ": 408,
    "झां": 409,
    "झि": 410,
    "झी": 411,
    "झे": 412,
    "झ॰": 413,
    "ञ": 414,
    "ञा": 415,
    "ञ्च": 416,
    "ञ्चा": 417,
    "ञ्चा्": 418,
    "ञ्चि": 419,
    "ञ्चे": 420,
    "ञ्ज": 421,
    "ञ्जा": 422,
    "ञ्जि": 423,
    "ञ्जी": 424,
    "ञ्ञ": 425,
    "ञ्ञा": 426,
    "ञ्ञि": 427,
    "ञ्ञॆ": 428,
    "ट": 429,
    "टा": 430,
    "टाा": 431,
    "टि": 432,
    "टिं": 433,
    "टी": 434,
    "टु": 435,
    "टू": 436,
    "टॆ": 437,
    "टे": 438,
    "टै": 439,
    "टैं": 440,
    "टो": 441,
    "टौ": 442,
    "ट्": 443,
    "ट्चाा्च्च": 444,
    "ट्चि": 445,
    "ट्ट": 446,
    "ट्टं": 447,
    "ट्ट़": 448,
    "ट्टा": 449,
    "ट्टि": 450,
    "ट्टी": 451,
    "ट्टु": 452,
    "ट्टूा्पु": 453,
    "ट्टॆ": 454,
    "ट्टै": 455,
    "ट्टो": 456,
    "ट्ट्": 457,
    "ट्ण": 458,
    "ट्त": 459,
    "ट्न": 460,
    "ट्नं": 461,
    "ट्प": 462,
    "ट्मि": 463,
    "ट्य": 464,
    "ट्यू": 465,
    "ट्र": 466,
    "ट्रा": 467,
    "ट्रि": 468,
    "ट्रे": 469,
    "ट्रै": 470,
    "ट्रो": 471,
    "ट्र्या": 472,
    "ट्ल": 473,
    "ट्लु": 474,
    "ट्व": 475,
    "ट्स्": 476,
    "ट्॰": 477,
    "ट्‌": 478,
    "ट्‍": 479,
    "ट‌": 480,
    "ठ": 481,
    "ठा": 482,
    "ठि": 483,
    "ठि॰": 484,
    "ठी": 485,
    "ठे": 486,
    "ठें": 487,
    "ठो": 488,
    "ठ्ठ": 489,
    "ड": 490,
    "डः": 491,
    "ड़": 492,
    "ड़ा": 493,
    "ड़ि": 494,
    "ड़ी": 495,
    "ड़े": 496,
    "ड़ौ": 497,
    "डा": 498,
    "डाः": 499,
    "डि": 500,
    "डी": 501,
    "डु": 502,
    "डू": 503,
    "डॆ": 504,
    "डॆं": 505,
    "डे": 506,
    "डै": 507,
    "डो": 508,
    "ड्": 509,
    "ड्क": 510,
    "ड्ड": 511,
    "ड्डा": 512,
    "ड्डि": 513,
    "ड्डु": 514,
    "ड्पे": 515,
    "ड्यं": 516,
    "ड्या": 517,
    "ड्यां": 518,
    "ड्यू": 519,
    "ड्र": 520,
    "ड्रि": 521,
    "ड्री": 522,
    "ड्रो": 523,
    "ड्‌": 524,
    "ड्‍": 525,
    "ढ": 526,
    "ढ़": 527,
    "ढ़ि": 528,
    "ढ़ी": 529,
    "ढि": 530,
    "ढु": 531,
    "ढे": 532,
    "ढे़": 533,
    "ण": 534,
    "णं": 535,
    "णा": 536,
    "णाः": 537,
    "णि": 538,
    "णी": 539,
    "णीं": 540,
    "णु": 541,
    "णू": 542,
    "णॆ": 543,
    "णे": 544,
    "णै": 545,
    "णो": 546,
    "ण्": 547,
    "ण्क": 548,
    "ण्का": 549,
    "ण्ट": 550,
    "ण्टं": 551,
    "ण्टा": 552,
    "ण्टि": 553,
    "ण्टी": 554,
    "ण्टु": 555,
    "ण्टॆ": 556,
    "ण्टे": 557,
    "ण्टै": 558,
    "ण्ट्": 559,
    "ण्ट्‌": 560,
    "ण्ठु": 561,
    "ण्ड": 562,
    "ण्डा": 563,
    "ण्डि": 564,
    "ण्ढ": 565,
    "ण्ण": 566,
    "ण्णा": 567,
    "ण्णी": 568,
    "ण्णु": 569,
    "ण्णू": 570,
    "ण्त": 571,
    "ण्ता": 572,
    "ण्ति": 573,
    "ण्पु": 574,
    "ण्मै": 575,
    "ण्य": 576,
    "ण्या": 577,
    "ण्र": 578,
    "ण्रा": 579,
    "ण्री": 580,
    "ण्‌": 581,
    "ण‍": 582,
    "त": 583,
    "तं": 584,
    "तः": 585,
    "त़": 586,
    "त़ा": 587,
    "त़ि": 588,
    "ता": 589,
    "ताँ": 590,
    "तां": 591,
    "ता्का": 592,
    "ति": 593,
    "तिं": 594,
    "तिः": 595,
    "तिाि": 596,
    "ती": 597,
    "तीा्": 598,
    "तीा्त्त": 599,
    "तु": 600,
    "तुं": 601,
    "तू": 602,
    "तूा्": 603,
    "तू॰": 604,
    "तृ": 605,
    "तॆ": 606,
    "तॆॆ": 607,
    "तॆ्र्र": 608,
    "ते": 609,
    "तें": 610,
    "तै": 611,
    "तॊ": 612,
    "तो": 613,
    "तों": 614,
    "त्": 615,
    "त्उ": 616,
    "त्क": 617,
    "त्का": 618,
    "त्कू": 619,
    "त्त": 620,
    "त्ता": 621,
    "त्ति": 622,
    "त्ती": 623,
    "त्तु": 624,
    "त्तू": 625,
    "त्तॆ": 626,
    "त्तेा्": 627,
    "त्तै": 628,
    "त्तॊ": 629,
    "त्तो": 630,
    "त्त्": 631,
    "त्त्य": 632,
    "त्त्व": 633,
    "त्त्‌": 634,
    "त्थ": 635,
    "त्थि": 636,
    "त्न": 637,
    "त्प": 638,
    "त्पा": 639,
    "त्ब": 640,
    "त्बे": 641,
    "त्भ": 642,
    "त्म": 643,
    "त्मा": 644,
    "त्य": 645,
    "त्या": 646,
    "त्यां": 647,
    "त्यु": 648,
    "त्ये": 649,
    "त्य्": 650,
    "त्र": 651,
    "त्रं": 652,
    "त्रं‌": 653,
    "त्रा": 654,
    "त्रि": 655,
    "त्री": 656,
    "त्रॆ": 657,
    "त्रे": 658,
    "त्रों": 659,
    "त्र्य": 660,
    "त्र्यं": 661,
    "त्व": 662,
    "त्वा": 663,
    "त्वि": 664,
    "त्स": 665,
    "त्सा": 666,
    "त्स्": 667,
    "त्स्ना": 668,
    "त्य़": 669,
    "त्य़ु": 670,
    "त्य़े": 671,
    "त्॰": 672,
    "त्‌": 673,
    "त्‍": 674,
    "त॰": 675,
    "त‍े": 676,
    "थ": 677,
    "था": 678,
    "थां": 679,
    "थि": 680,
    "थी": 681,
    "थु": 682,
    "थू": 683,
    "थृ": 684,
    "थे": 685,
    "थ्य": 686,
    "थ्य़": 687,
    "द": 688,
    "दं": 689,
    "दा": 690,
    "दां": 691,
    "दि": 692,
    "दिं": 693,
    "दि॰": 694,
    "दी": 695,
    "दु": 696,
    "दुि": 697,
    "दू": 698,
    "दूं": 699,
    "दृ": 700,
    "दॆ": 701,
    "दे": 702,
    "दें": 703,
    "दै": 704,
    "दॊ": 705,
    "दो": 706,
    "दौ": 707,
    "द्": 708,
    "द्घा": 709,
    "द्ट": 710,
    "द्टु": 711,
    "द्द": 712,
    "द्दा": 713,
    "द्दि": 714,
    "द्दु": 715,
    "द्ध": 716,
    "द्धा": 717,
    "द्धि": 718,
    "द्धी": 719,
    "द्ध्यं": 720,
    "द्ब": 721,
    "द्बा": 722,
    "द्बि": 723,
    "द्बी": 724,
    "द्बो": 725,
    "द्म": 726,
    "द्मा": 727,
    "द्य": 728,
    "द्या": 729,
    "द्यो": 730,
    "द्र": 731,
    "द्रा": 732,
    "द्रि": 733,
    "द्री": 734,
    "द्रु": 735,
    "द्रे": 736,
    "द्रौ": 737,
    "द्व": 738,
    "द्वा": 739,
    "द्वी": 740,
    "द्य़": 741,
    "द्य़ा": 742,
    "द्॰": 743,
    "द्‌": 744,
    "ध": 745,
    "धा": 746,
    "धि": 747,
    "धिि": 748,
    "धी": 749,
    "धीं": 750,
    "धु": 751,
    "धू": 752,
    "धे": 753,
    "धो": 754,
    "ध्दा": 755,
    "ध्दी": 756,
    "ध्ब": 757,
    "ध्य": 758,
    "ध्या": 759,
    "ध्ये": 760,
    "ध्र": 761,
    "ध्व": 762,
    "ध्य़": 763,
    "ध॰": 764,
    "न": 765,
    "नं": 766,
    "नः": 767,
    "ना": 768,
    "नाँ": 769,
    "नां": 770,
    "नाि": 771,
    "ना्": 772,
    "नि": 773,
    "निं": 774,
    "निः": 775,
    "निॕ": 776,
    "नि‍": 777,
    "नी": 778,
    "नीा्": 779,
    "नु": 780,
    "नुं": 781,
    "नू": 782,
    "नू॰": 783,
    "नृ": 784,
    "नॅ": 785,
    "नॆ": 786,
    "ने": 787,
    "नेे": 788,
    "नै": 789,
    "नॊ": 790,
    "नो": 791,
    "नौ": 792,
    "न्": 793,
    "न्कु": 794,
    "न्ट": 795,
    "न्टा": 796,
    "न्ट्र": 797,
    "न्ट्रा": 798,
    "न्ड": 799,
    "न्डि": 800,
    "न्डी": 801,
    "न्डे": 802,
    "न्त": 803,
    "न्ता": 804,
    "न्ति": 805,
    "न्ती": 806,
    "न्तु": 807,
    "न्तू": 808,
    "न्ते": 809,
    "न्तो": 810,
    "न्त्": 811,
    "न्त्र": 812,
    "न्त्रि": 813,
    "न्त्री": 814,
    "न्त्॰ा": 815,
    "न्त्॰ि": 816,
    "न्त्॰ी": 817,
    "न्थ": 818,
    "न्था": 819,
    "न्द": 820,
    "न्दा": 821,
    "न्दि": 822,
    "न्दी": 823,
    "न्दु": 824,
    "न्दे": 825,
    "न्दो": 826,
    "न्द्यो": 827,
    "न्द्र": 828,
    "न्द्रं": 829,
    "न्द्रा": 830,
    "न्द्री": 831,
    "न्द्र्र": 832,
    "न्द्॰": 833,
    "न्द्॰ी": 834,
    "न्ध": 835,
    "न्धि": 836,
    "न्धी": 837,
    "न्न": 838,
    "न्नं": 839,
    "न्ना": 840,
    "न्नि": 841,
    "न्नि‍": 842,
    "न्नु": 843,
    "न्नुं": 844,
    "न्नू": 845,
    "न्नै": 846,
    "न्न्": 847,
    "न्ब": 848,
    "न्म": 849,
    "न्मा": 850,
    "न्मे": 851,
    "न्मो": 852,
    "न्म्या": 853,
    "न्य": 854,
    "न्यः": 855,
    "न्या": 856,
    "न्यु": 857,
    "न्यू": 858,
    "न्ये": 859,
    "न्ऱॆ": 860,
    "न्ऱ्": 861,
    "न्ल": 862,
    "न्वी": 863,
    "न्वे": 864,
    "न्स": 865,
    "न्सा": 866,
    "न्सि": 867,
    "न्सी": 868,
    "न्सू": 869,
    "न्से": 870,
    "न्स्": 871,
    "न्स्टि": 872,
    "न्हा": 873,
    "न्हां": 874,
    "न्य़": 875,
    "न्य़ा": 876,
    "न्‌": 877,
    "न॰": 878,
    "न॰ः": 879,
    "नॱ": 880,
    "ऩ": 881,
    "ऩा": 882,
    "ऩा्": 883,
    "ऩि": 884,
    "ऩी": 885,
    "ऩु": 886,
    "ऩू": 887,
    "ऩे": 888,
    "ऩै": 889,
    "ऩ्": 890,
    "ऩ्टा्": 891,
    "ऩ्ट्": 892,
    "ऩ्ट्र": 893,
    "ऩ्ऩ": 894,
    "ऩ्ऩा": 895,
    "ऩ्ऩूा्": 896,
    "ऩ्ऩै": 897,
    "ऩ्ऩो": 898,
    "ऩ्पु": 899,
    "ऩ्ऱ": 900,
    "ऩ्ऱि": 901,
    "ऩ्वॆ": 902,
    "प": 903,
    "पं": 904,
    "पा": 905,
    "पाँ": 906,
    "पां": 907,
    "पा्": 908,
    "पि": 909,
    "पिं": 910,
    "पिाि": 911,
    "पिु": 912,
    "पी": 913,
    "पु": 914,
    "पू": 915,
    "पूँ": 916,
    "पृ": 917,
    "पॅ": 918,
    "पॆ": 919,
    "पॆं": 920,
    "पे": 921,
    "पेा": 922,
    "पै": 923,
    "पैा": 924,
    "पॉ": 925,
    "पॊ": 926,
    "पॊं": 927,
    "पो": 928,
    "पोा्चु": 929,
    "पौ": 930,
    "प्": 931,
    "प्का": 932,
    "प्टॆ": 933,
    "प्ण": 934,
    "प्त": 935,
    "प्ता": 936,
    "प्ति": 937,
    "प्न": 938,
    "प्प": 939,
    "प्पं": 940,
    "प्पा": 941,
    "प्पि": 942,
    "प्पिं": 943,
    "प्पी": 944,
    "प्पु": 945,
    "प्पॆ": 946,
    "प्पे": 947,
    "प्पो": 948,
    "प्प्": 949,
    "प्प्‌": 950,
    "प्या": 951,
    "प्र": 952,
    "प्रा": 953,
    "प्रां": 954,
    "प्राः": 955,
    "प्रि": 956,
    "प्री": 957,
    "प्रीि": 958,
    "प्रॅ": 959,
    "प्रॆ": 960,
    "प्रे": 961,
    "प्रै": 962,
    "प्रॊ": 963,
    "प्रो": 964,
    "प्रौ": 965,
    "प्ल": 966,
    "प्ला": 967,
    "प्ले": 968,
    "प्लै": 969,
    "प्लॉ": 970,
    "प्व": 971,
    "प्ष": 972,
    "प्स्": 973,
    "प्॰": 974,
    "प्॰ि": 975,
    "प्‍": 976,
    "प॰": 977,
    "प‌": 978,
    "फ": 979,
    "फ़": 980,
    "फा": 981,
    "फां": 982,
    "फि": 983,
    "फी": 984,
    "फु": 985,
    "फॆ": 986,
    "फे": 987,
    "फै": 988,
    "फो": 989,
    "फ्": 990,
    "फ्ट्": 991,
    "फ्या": 992,
    "फ्र": 993,
    "फ्री": 994,
    "फ्रू": 995,
    "फ्रो": 996,
    "फ्ला": 997,
    "फ्॰े": 998,
    "ब": 999,
    "बँ": 1000,
    "बं": 1001,
    "बा": 1002,
    "बां": 1003,
    "बि": 1004,
    "बिं": 1005,
    "बि॰": 1006,
    "बी": 1007,
    "बु": 1008,
    "बू": 1009,
    "बृ": 1010,
    "बॆ": 1011,
    "बॆं": 1012,
    "बे": 1013,
    "बें": 1014,
    "बेॖ": 1015,
    "बै": 1016,
    "बैं": 1017,
    "बॉ": 1018,
    "बो": 1019,
    "बौ": 1020,
    "ब्": 1021,
    "ब्थ": 1022,
    "ब्द": 1023,
    "ब्दी": 1024,
    "ब्दु": 1025,
    "ब्ध": 1026,
    "ब्ब": 1027,
    "ब्बा": 1028,
    "ब्य": 1029,
    "ब्या": 1030,
    "ब्यां": 1031,
    "ब्यु": 1032,
    "ब्यू": 1033,
    "ब्र": 1034,
    "ब्रा": 1035,
    "ब्रि": 1036,
    "ब्रु": 1037,
    "ब्रू": 1038,
    "ब्रे": 1039,
    "ब्ल": 1040,
    "ब्लि": 1041,
    "ब्लु": 1042,
    "ब्लो": 1043,
    "ब्ल्यू": 1044,
    "ब्स": 1045,
    "ब्सि": 1046,
    "ब्य़": 1047,
    "ब्य़ा": 1048,
    "ब्॰ु": 1049,
    "ब॰": 1050,
    "बॱ": 1051,
    "भ": 1052,
    "भं": 1053,
    "भा": 1054,
    "भां": 1055,
    "भि": 1056,
    "भिं": 1057,
    "भी": 1058,
    "भु": 1059,
    "भू": 1060,
    "भृा": 1061,
    "भे": 1062,
    "भें": 1063,
    "भै": 1064,
    "भो": 1065,
    "भ्य": 1066,
    "भ्या": 1067,
    "भ्र": 1068,
    "भ॰": 1069,
    "म": 1070,
    "मं": 1071,
    "मः": 1072,
    "मा": 1073,
    "मां": 1074,
    "मााि": 1075,
    "मि": 1076,
    "मी": 1077,
    "मु": 1078,
    "मुं": 1079,
    "मुॱ": 1080,
    "मू": 1081,
    "मूा्त्ति": 1082,
    "मृ": 1083,
    "मॆ": 1084,
    "मे": 1085,
    "में": 1086,
    "मै": 1087,
    "मैं": 1088,
    "मैा": 1089,
    "मॊ": 1090,
    "मो": 1091,
    "मों": 1092,
    "मौ": 1093,
    "म्": 1094,
    "म्A": 1095,
    "म्ः": 1096,
    "म्का": 1097,
    "म्के": 1098,
    "म्ना": 1099,
    "म्प": 1100,
    "म्पा": 1101,
    "म्पि": 1102,
    "म्पु": 1103,
    "म्पू": 1104,
    "म्पे": 1105,
    "म्पो": 1106,
    "म्प्": 1107,
    "म्प्या": 1108,
    "म्प्यु": 1109,
    "म्प्यू": 1110,
    "म्प्र": 1111,
    "म्प्ले": 1112,
    "म्प्वा": 1113,
    "म्प्॰": 1114,
    "म्ब": 1115,
    "म्बा": 1116,
    "म्बि": 1117,
    "म्बे": 1118,
    "म्ब्न": 1119,
    "म्भ": 1120,
    "म्भा": 1121,
    "म्भु": 1122,
    "म्म": 1123,
    "म्मा": 1124,
    "म्मि": 1125,
    "म्मु": 1126,
    "म्मू": 1127,
    "म्मे": 1128,
    "म्य": 1129,
    "म्या": 1130,
    "म्यां": 1131,
    "म्यु": 1132,
    "म्यू": 1133,
    "म्र": 1134,
    "म्रा": 1135,
    "म्रि": 1136,
    "म्श": 1137,
    "म्स": 1138,
    "म्ह": 1139,
    "म्ही": 1140,
    "म्य़": 1141,
    "म्य़ो": 1142,
    "म्॰ा": 1143,
    "म्‌": 1144,
    "म॰": 1145,
    "मॱ": 1146,
    "य": 1147,
    "यं": 1148,
    "य़": 1149,
    "य़ा": 1150,
    "य़े": 1151,
    "या": 1152,
    "यां": 1153,
    "याा्": 1154,
    "याा्पे": 1155,
    "या‍": 1156,
    "यि": 1157,
    "यिाि": 1158,
    "यी": 1159,
    "यु": 1160,
    "युं": 1161,
    "यू": 1162,
    "ये": 1163,
    "यें": 1164,
    "यै": 1165,
    "यॊ": 1166,
    "यो": 1167,
    "यों": 1168,
    "य्": 1169,
    "य्क्का": 1170,
    "य्क्कां": 1171,
    "य्क्क्": 1172,
    "य्त": 1173,
    "य्न्त": 1174,
    "य्भ": 1175,
    "य्भा": 1176,
    "य्म": 1177,
    "य्मा": 1178,
    "य्य": 1179,
    "य्वु": 1180,
    "य्स्री": 1181,
    "य्य़ा": 1182,
    "य्‌": 1183,
    "यॖ": 1184,
    "र": 1185,
    "रं": 1186,
    "रा": 1187,
    "रां": 1188,
    "राा्": 1189,
    "रा्": 1190,
    "रि": 1191,
    "रि॰": 1192,
    "री": 1193,
    "रीं": 1194,
    "रु": 1195,
    "रुं": 1196,
    "रू": 1197,
    "रॆ": 1198,
    "रॆं": 1199,
    "रे": 1200,
    "रें": 1201,
    "रै": 1202,
    "रॉँ": 1203,
    "रॊ": 1204,
    "रो": 1205,
    "र्": 1206,
    "र्ऎ": 1207,
    "र्क": 1208,
    "र्का": 1209,
    "र्कि": 1210,
    "र्किं": 1211,
    "र्कॆ": 1212,
    "र्के": 1213,
    "र्कॊं": 1214,
    "र्ग": 1215,
    "र्गा": 1216,
    "र्गि": 1217,
    "र्च": 1218,
    "र्चा": 1219,
    "र्चि": 1220,
    "र्चू": 1221,
    "र्च्च": 1222,
    "र्च्चि": 1223,
    "र्ज": 1224,
    "र्जा": 1225,
    "र्जि": 1226,
    "र्जी": 1227,
    "र्ट": 1228,
    "र्टि": 1229,
    "र्टी": 1230,
    "र्ट्": 1231,
    "र्ट्स्": 1232,
    "र्ड": 1233,
    "र्डी": 1234,
    "र्डॆ": 1235,
    "र्ण": 1236,
    "र्णा": 1237,
    "र्णि": 1238,
    "र्णी": 1239,
    "र्णो": 1240,
    "र्ण्णा": 1241,
    "र्ण्णि": 1242,
    "र्ण्णी": 1243,
    "र्ण्न": 1244,
    "र्त": 1245,
    "र्ति": 1246,
    "र्ती": 1247,
    "र्तु": 1248,
    "र्ते": 1249,
    "र्त्त": 1250,
    "र्त्ता": 1251,
    "र्थ": 1252,
    "र्थं": 1253,
    "र्थि": 1254,
    "र्द": 1255,
    "र्दि": 1256,
    "र्दु": 1257,
    "र्दे": 1258,
    "र्द्": 1259,
    "र्ध": 1260,
    "र्न": 1261,
    "र्ना": 1262,
    "र्नी": 1263,
    "र्प": 1264,
    "र्पा": 1265,
    "र्पे": 1266,
    "र्पै": 1267,
    "र्पॊ": 1268,
    "र्पो": 1269,
    "र्फे": 1270,
    "र्ब": 1271,
    "र्बा": 1272,
    "र्बि": 1273,
    "र्बो": 1274,
    "र्ब्ब": 1275,
    "र्भ": 1276,
    "र्भा": 1277,
    "र्भी": 1278,
    "र्म": 1279,
    "र्मा": 1280,
    "र्मि": 1281,
    "र्मी": 1282,
    "र्मु": 1283,
    "र्मे": 1284,
    "र्म्": 1285,
    "र्य": 1286,
    "र्या": 1287,
    "र्य्य": 1288,
    "र्य्या": 1289,
    "र्य्य़": 1290,
    "र्य्य़ा": 1291,
    "र्र": 1292,
    "र्रा": 1293,
    "र्रि": 1294,
    "र्ल": 1295,
    "र्लु": 1296,
    "र्लो": 1297,
    "र्व": 1298,
    "र्वा": 1299,
    "र्वि": 1300,
    "र्वे": 1301,
    "र्श": 1302,
    "र्शि": 1303,
    "र्ष": 1304,
    "र्षा": 1305,
    "र्षि": 1306,
    "र्षे": 1307,
    "र्स": 1308,
    "र्सि": 1309,
    "र्सिं": 1310,
    "र्सी": 1311,
    "र्सु": 1312,
    "र्स्": 1313,
    "र्‌": 1314,
    "र॰": 1315,
    "रॱ": 1316,
    "र‌": 1317,
    "र‍": 1318,
    "ऱ": 1319,
    "ऱं": 1320,
    "ऱा": 1321,
    "ऱि": 1322,
    "ऱिं": 1323,
    "ऱु": 1324,
    "ऱॆ": 1325,
    "ऱे": 1326,
    "ऱै": 1327,
    "ऱॊ": 1328,
    "ऱो": 1329,
    "ऱ्": 1330,
    "ऱ्क": 1331,
    "ऱ्का": 1332,
    "ऱ्कु": 1333,
    "ऱ्के": 1334,
    "ऱ्प": 1335,
    "ऱ्पू": 1336,
    "ऱ्ऱ": 1337,
    "ऱ्ऱा": 1338,
    "ऱ्ऱि": 1339,
    "ऱ्ऱु": 1340,
    "ऱ्ऱे": 1341,
    "ऱ्ऱ्": 1342,
    "ऱ्ऱ्यू": 1343,
    "ऱ्ऱ्ऱ्‌": 1344,
    "ल": 1345,
    "लं": 1346,
    "ला": 1347,
    "लां": 1348,
    "लि": 1349,
    "लिं": 1350,
    "लिा": 1351,
    "ली": 1352,
    "लु": 1353,
    "लुं": 1354,
    "लू": 1355,
    "लूा्": 1356,
    "लॆ": 1357,
    "लॆं": 1358,
    "ले": 1359,
    "लै": 1360,
    "लॉ": 1361,
    "लो": 1362,
    "लोँ": 1363,
    "लौ": 1364,
    "ल्": 1365,
    "ल्क": 1366,
    "ल्कि": 1367,
    "ल्कै": 1368,
    "ल्क्कु": 1369,
    "ल्क्स्": 1370,
    "ल्गू": 1371,
    "ल्ट": 1372,
    "ल्टि": 1373,
    "ल्टी": 1374,
    "ल्टु": 1375,
    "ल्ट्": 1376,
    "ल्ट्रा": 1377,
    "ल्ड": 1378,
    "ल्डीं": 1379,
    "ल्ड्र": 1380,
    "ल्थ": 1381,
    "ल्दा": 1382,
    "ल्नी": 1383,
    "ल्प": 1384,
    "ल्पी": 1385,
    "ल्पॊ": 1386,
    "ल्फे": 1387,
    "ल्य": 1388,
    "ल्या": 1389,
    "ल्यां": 1390,
    "ल्यु": 1391,
    "ल्ल": 1392,
    "ल्ला": 1393,
    "ल्ला‍": 1394,
    "ल्लि": 1395,
    "ल्ली": 1396,
    "ल्लु": 1397,
    "ल्लू": 1398,
    "ल्लूाि": 1399,
    "ल्लूा्": 1400,
    "ल्लॆ": 1401,
    "ल्ले": 1402,
    "ल्लै": 1403,
    "ल्ल्": 1404,
    "ल्वि": 1405,
    "ल्वॆ": 1406,
    "ल्वे": 1407,
    "ल्स": 1408,
    "ल्स्": 1409,
    "ल्हा": 1410,
    "ल्हे": 1411,
    "ल्ह्या": 1412,
    "ल्‌": 1413,
    "ल्‍": 1414,
    "ल॰": 1415,
    "लॱ": 1416,
    "ळ": 1417,
    "ळं": 1418,
    "ळा": 1419,
    "ळां": 1420,
    "ळा्": 1421,
    "ळि": 1422,
    "ळी": 1423,
    "ळु": 1424,
    "ळू": 1425,
    "ळॆ": 1426,
    "ळे": 1427,
    "ळै": 1428,
    "ळो": 1429,
    "ळ्": 1430,
    "ळ्अ": 1431,
    "ळ्क": 1432,
    "ळ्ट": 1433,
    "ळ्प": 1434,
    "ळ्मि": 1435,
    "ळ्मी": 1436,
    "ळ्या": 1437,
    "ळ्यां": 1438,
    "ळ्ळ": 1439,
    "ळ्ळा": 1440,
    "ळ्ळि": 1441,
    "ळ्ळु": 1442,
    "ळ‍": 1443,
    "ऴ": 1444,
    "ऴं": 1445,
    "ऴा": 1446,
    "ऴि": 1447,
    "ऴु": 1448,
    "ऴॆ": 1449,
    "ऴै": 1450,
    "ऴ्": 1451,
    "ऴ्क": 1452,
    "ऴ्च्": 1453,
    "ऴ्न": 1454,
    "ऴ्ना": 1455,
    "ऴ्वु": 1456,
    "ऴ्‌": 1457,
    "व": 1458,
    "वं": 1459,
    "वः": 1460,
    "व़": 1461,
    "वा": 1462,
    "वां": 1463,
    "वा्": 1464,
    "वा्स्": 1465,
    "वि": 1466,
    "विं": 1467,
    "वि॰": 1468,
    "विॱ": 1469,
    "वी": 1470,
    "वीं": 1471,
    "वीः": 1472,
    "वु": 1473,
    "वुं": 1474,
    "वू": 1475,
    "वृ": 1476,
    "वॅ": 1477,
    "वॆ": 1478,
    "वॆं": 1479,
    "वे": 1480,
    "वेा्ल्टु": 1481,
    "वै": 1482,
    "वॉ": 1483,
    "वॊ": 1484,
    "वो": 1485,
    "व्": 1486,
    "व्य": 1487,
    "व्या": 1488,
    "व्र": 1489,
    "व्वि": 1490,
    "व्वू": 1491,
    "व्वे": 1492,
    "व्ह": 1493,
    "व्हि": 1494,
    "व्ही": 1495,
    "व्‌": 1496,
    "व॰": 1497,
    "व‌": 1498,
    "श": 1499,
    "शं": 1500,
    "शा": 1501,
    "शां": 1502,
    "शाः": 1503,
    "शि": 1504,
    "शी": 1505,
    "शीू": 1506,
    "शु": 1507,
    "शू": 1508,
    "शृ": 1509,
    "शॅ": 1510,
    "शॆ": 1511,
    "शे": 1512,
    "शै": 1513,
    "शो": 1514,
    "श्": 1515,
    "श्च": 1516,
    "श्चि": 1517,
    "श्ते": 1518,
    "श्ब": 1519,
    "श्मा": 1520,
    "श्य": 1521,
    "श्र": 1522,
    "श्रा": 1523,
    "श्रि": 1524,
    "श्री": 1525,
    "श्रु": 1526,
    "श्रे": 1527,
    "श्व": 1528,
    "श्वा": 1529,
    "श्शि": 1530,
    "श्शे": 1531,
    "श्स": 1532,
    "श्य़": 1533,
    "श्॰ी": 1534,
    "श्ॱ": 1535,
    "श्‍": 1536,
    "ष": 1537,
    "षं": 1538,
    "षा": 1539,
    "षि": 1540,
    "षी": 1541,
    "षु": 1542,
    "षू": 1543,
    "षे": 1544,
    "षो": 1545,
    "ष्का": 1546,
    "ष्कृ": 1547,
    "ष्ट": 1548,
    "ष्टा": 1549,
    "ष्टि": 1550,
    "ष्टी": 1551,
    "ष्टु": 1552,
    "ष्टे": 1553,
    "ष्टो": 1554,
    "ष्ट्र": 1555,
    "ष्ट्रा": 1556,
    "ष्ट्री": 1557,
    "ष्ट्॰": 1558,
    "ष्ट्॰ी": 1559,
    "ष्ठ": 1560,
    "ष्ठा": 1561,
    "ष्ठि": 1562,
    "ष्ण": 1563,
    "ष्णा": 1564,
    "ष्णू": 1565,
    "ष्ना": 1566,
    "ष्पा": 1567,
    "ष्म": 1568,
    "ष्मॆ": 1569,
    "ष्य": 1570,
    "ष्यं": 1571,
    "ष्य़": 1572,
    "ष्‌": 1573,
    "ष्‍": 1574,
    "षॢ": 1575,
    "स": 1576,
    "सं": 1577,
    "सः": 1578,
    "स़": 1579,
    "स़ा": 1580,
    "स़ि": 1581,
    "सा": 1582,
    "सां": 1583,
    "सि": 1584,
    "सिं": 1585,
    "सि॰": 1586,
    "सी": 1587,
    "सु": 1588,
    "सुँ": 1589,
    "सुं": 1590,
    "सू": 1591,
    "सृ": 1592,
    "सृं": 1593,
    "सॆ": 1594,
    "से": 1595,
    "सें": 1596,
    "से‍": 1597,
    "सै": 1598,
    "सैं": 1599,
    "सो": 1600,
    "सोँ": 1601,
    "सौ": 1602,
    "स्": 1603,
    "स्क": 1604,
    "स्का": 1605,
    "स्कु": 1606,
    "स्कू": 1607,
    "स्कृ": 1608,
    "स्क्रि": 1609,
    "स्गि": 1610,
    "स्जि": 1611,
    "स्जी": 1612,
    "स्ट": 1613,
    "स्टा": 1614,
    "स्टु": 1615,
    "स्टॆ": 1616,
    "स्टे": 1617,
    "स्टो": 1618,
    "स्ट्": 1619,
    "स्ट्र": 1620,
    "स्ट्री": 1621,
    "स्ट्रे": 1622,
    "स्त": 1623,
    "स्तं": 1624,
    "स्ता": 1625,
    "स्ति": 1626,
    "स्तु": 1627,
    "स्तू": 1628,
    "स्तृ": 1629,
    "स्तॆ": 1630,
    "स्ते": 1631,
    "स्त्र": 1632,
    "स्त्रा": 1633,
    "स्थ": 1634,
    "स्था": 1635,
    "स्थि": 1636,
    "स्थी": 1637,
    "स्थॆ": 1638,
    "स्थे": 1639,
    "स्थ्य": 1640,
    "स्थ्य़": 1641,
    "स्ध": 1642,
    "स्धा": 1643,
    "स्धॆ": 1644,
    "स्ना": 1645,
    "स्नि": 1646,
    "स्ने": 1647,
    "स्प": 1648,
    "स्पा": 1649,
    "स्पि": 1650,
    "स्पृ": 1651,
    "स्पॆ": 1652,
    "स्पे": 1653,
    "स्फो": 1654,
    "स्ब": 1655,
    "स्बा": 1656,
    "स्भा": 1657,
    "स्म": 1658,
    "स्मा": 1659,
    "स्मृ": 1660,
    "स्य": 1661,
    "स्यः": 1662,
    "स्या": 1663,
    "स्र": 1664,
    "स्ऱी": 1665,
    "स्रा": 1666,
    "स्री": 1667,
    "स्ऱ्ऱ": 1668,
    "स्ऱ्ऱा": 1669,
    "स्ऱ्ऱि": 1670,
    "स्ऱ्ऱे": 1671,
    "स्ऱ्ऱै": 1672,
    "स्ऱ्ऱो": 1673,
    "स्ला": 1674,
    "स्लि": 1675,
    "स्व": 1676,
    "स्वं": 1677,
    "स्वा": 1678,
    "स्वे": 1679,
    "स्सा": 1680,
    "स्सु": 1681,
    "स्स्मा": 1682,
    "स्य़": 1683,
    "स्॰": 1684,
    "स्॰ा": 1685,
    "स्ॱ": 1686,
    "स्‌": 1687,
    "स्‍": 1688,
    "सॗ": 1689,
    "स॰": 1690,
    "सॱ": 1691,
    "ह": 1692,
    "हं": 1693,
    "हः": 1694,
    "हा": 1695,
    "हां": 1696,
    "हा‍": 1697,
    "हि": 1698,
    "हिँ": 1699,
    "हिं": 1700,
    "हिः": 1701,
    "हि॰": 1702,
    "ही": 1703,
    "हीं": 1704,
    "हु": 1705,
    "हु॰": 1706,
    "हू": 1707,
    "हृ": 1708,
    "हॆ": 1709,
    "हे": 1710,
    "हें": 1711,
    "है": 1712,
    "है‍": 1713,
    "हॉ": 1714,
    "हॊ": 1715,
    "हो": 1716,
    "ह्दि": 1717,
    "ह्न": 1718,
    "ह्म": 1719,
    "ह्य": 1720,
    "ह्या": 1721,
    "ह्रू": 1722,
    "ह॰": 1723,
    "हॱ": 1724,
    "ह‌": 1725,
    "ऽ": 1726,
    "ा": 1727,
    "े": 1728,
    "ॎ": 1729,
    "ॐ": 1730,
    "ज़ो": 1731,
    "ज़॰": 1732,
    "ड़": 1733,
    "ड़ा": 1734,
    "ड़ी": 1735,
    "ड़े": 1736,
    "ड़ै": 1737,
    "ड़ोु": 1738,
    "ड़्ह": 1739,
    "ड़्हे": 1740,
    "ढ़ि": 1741,
    "ढ़ी": 1742,
    "ढ़ो": 1743,
    "फ़": 1744,
    "फ़्ट": 1745,
    "फ़्दु": 1746,
    "य़": 1747,
    "य़ं": 1748,
    "य़ः": 1749,
    "य़़": 1750,
    "य़ा": 1751,
    "य़ां": 1752,
    "य़ि": 1753,
    "य़ी": 1754,
    "य़ु": 1755,
    "य़े": 1756,
    "य़ो": 1757,
    "य़्या": 1758,
    "य़ॗ": 1759,
    "ॠ": 1760,
    "।": 1761,
    "।‍": 1762,
    "॥": 1763,
    "०": 1764,
    "१": 1765,
    "१्को": 1766,
    "१‌": 1767,
    "२": 1768,
    "२़": 1769,
    "२ा": 1770,
    "३": 1771,
    "४": 1772,
    "५": 1773,
    "५ु": 1774,
    "५ो": 1775,
    "६": 1776,
    "७": 1777,
    "८": 1778,
    "९": 1779,
    "॰": 1780,
    "॰ा": 1781,
    "॰ि": 1782,
    "॰िः": 1783,
    "॰ी": 1784,
    "॰ु": 1785,
    "॰ू": 1786,
    "॰े": 1787,
    "॰ो": 1788,
    "॰्थ": 1789,
    "॰्प": 1790,
    "॰्ब": 1791,
    "॰्मा": 1792,
    "॰्य": 1793,
    "॰्य्य": 1794,
    "॰्य्या": 1795,
    "॰्ष": 1796,
    "ॱ": 1797,
    "ॱा": 1798,
    "ॱि": 1799,
    "ॱे": 1800,
    "ॱो": 1801,
    "ॳ": 1802,
    "ॳे": 1803,
    "ॷ": 1804,
    "ॺ": 1805,
    "ॺ‍": 1806,
    "ॻ": 1807,
    "ॻॆ": 1808,
    "ॻ्ऱॆ": 1809,
    "ॻ‌": 1810,
    "ॼ": 1811,
    "ॼ‌": 1812,
    "ॼ‍‍": 1813,
    "ॽ": 1814,
    "ॽ‍": 1815,
    "ॾ": 1816,
    "ॾ‌‌": 1817,
    "​": 1818,
    "’": 1819
  },
  "metadata": {
    "tag": "zs_loso_rungB_oriya",
    "num_graphemes": 1818,
    "space": "shared-abugida-pivot"
  }
}