{
  "grapheme2idx": {
    "<blank>": 0,
    "<unk>": 1,
    " ‌": 2,
    "!": 3,
    "\"": 4,
    "&": 5,
    "'": 6,
    "(": 7,
    ")": 8,
    ",": 9,
    "-": 10,
    "-ा": 11,
    ".": 12,
    "/": 13,
    "0": 14,
    "1": 15,
    "2": 16,
    "3": 17,
    "4": 18,
    "5": 19,
    "6": 20,
    "7": 21,
    "8": 22,
    "9": 23,
    ":": 24,
    "?": 25,
    "I": 26,
    "[": 27,
    "c": 28,
    "|": 29,
    "अ": 30,
    "अं": 31,
    "अि": 32,
    "अे": 33,
    "अ्या": 34,
    "अ॰": 35,
    "अॱ": 36,
    "आ": 37,
    "आं": 38,
    "आा्": 39,
    "आे": 40,
    "आ्य": 41,
    "इ": 42,
    "इं": 43,
    "इ्ट": 44,
    "इ॰": 45,
    "इॱ": 46,
    "ई": 47,
    "ईँ": 48,
    "ईं": 49,
    "उ": 50,
    "उं": 51,
    "उाि": 52,
    "उॱ": 53,
    "ऊ": 54,
    "ऊँ": 55,
    "ऊं": 56,
    "ऋ": 57,
    "ऎ": 58,
    "ऎं": 59,
    "ऎ‍": 60,
    "ए": 61,
    "एँ": 62,
    "एा": 63,
    "ऐ": 64,
    "ऐं": 65,
    "ऐे": 66,
    "ऑ": 67,
    "ऒ": 68,
    "ऒं": 69,
    "ऒाि": 70,
    "ऒा्क्स्": 71,
    "ऒ‌": 72,
    "ओ": 73,
    "ओँ": 74,
    "ओं": 75,
    "ओ्बा": 76,
    "औ": 77,
    "औं": 78,
    "क": 79,
    "कं": 80,
    "कं‌": 81,
    "कः": 82,
    "का": 83,
    "काँ": 84,
    "कां": 85,
    "काे": 86,
    "का्": 87,
    "का‍": 88,
    "का‍‌": 89,
    "कि": 90,
    "किं": 91,
    "किाि": 92,
    "की": 93,
    "कीे": 94,
    "कु": 95,
    "कुं": 96,
    "कू": 97,
    "कृ": 98,
    "कॅ": 99,
    "कॅा": 100,
    "कॆ": 101,
    "कॆं": 102,
    "के": 103,
    "कें": 104,
    "केा": 105,
    "केॆ्टा": 106,
    "केे": 107,
    "कै": 108,
    "कॉ": 109,
    "कॊ": 110,
    "कॊं": 111,
    "कॊॕ": 112,
    "को": 113,
    "कोँ": 114,
    "कों": 115,
    "कौ": 116,
    "क्": 117,
    "क्क": 118,
    "क्कं": 119,
    "क्का": 120,
    "क्कि": 121,
    "क्कु": 122,
    "क्कू": 123,
    "क्कॆ": 124,
    "क्के": 125,
    "क्कै": 126,
    "क्कॊ": 127,
    "क्को": 128,
    "क्क्": 129,
    "क्क्‌": 130,
    "क्कॗ": 131,
    "क्ट": 132,
    "क्टो": 133,
    "क्ट्रि": 134,
    "क्ट्रो": 135,
    "क्त": 136,
    "क्ता": 137,
    "क्तां": 138,
    "क्ति": 139,
    "क्तीं": 140,
    "क्तु": 141,
    "क्ते": 142,
    "क्नो": 143,
    "क्प": 144,
    "क्पे": 145,
    "क्मि": 146,
    "क्य": 147,
    "क्या": 148,
    "क्यू": 149,
    "क्र": 150,
    "क्रं": 151,
    "क्रा": 152,
    "क्रि": 153,
    "क्री": 154,
    "क्रे": 155,
    "क्रै": 156,
    "क्रो": 157,
    "क्ल": 158,
    "क्ला": 159,
    "क्लि": 160,
    "क्ळे": 161,
    "क्व": 162,
    "क्वा": 163,
    "क्वॆ": 164,
    "क्श": 165,
    "क्ष": 166,
    "क्षा": 167,
    "क्षां": 168,
    "क्षि": 169,
    "क्षिं": 170,
    "क्षी": 171,
    "क्षुः": 172,
    "क्षॆ": 173,
    "क्षे": 174,
    "क्षो": 175,
    "क्ष्म": 176,
    "क्ष्मि": 177,
    "क्ष्मिॕ": 178,
    "क्ष्मी": 179,
    "क्ष्य": 180,
    "क्स": 181,
    "क्सि": 182,
    "क्स्": 183,
    "क्य़ा": 184,
    "क्॰": 185,
    "क्॰ा": 186,
    "क्॰े": 187,
    "क्‌": 188,
    "क्‍": 189,
    "क॰": 190,
    "क‌": 191,
    "क‍ी": 192,
    "ख": 193,
    "खं": 194,
    "खा": 195,
    "खाँ": 196,
    "खां": 197,
    "खि": 198,
    "खी": 199,
    "खु": 200,
    "खू": 201,
    "खे": 202,
    "खेा": 203,
    "खै": 204,
    "खो": 205,
    "ख्त": 206,
    "ख्य": 207,
    "ख्यॆ": 208,
    "ख्रीः": 209,
    "ग": 210,
    "गं": 211,
    "ग़ि": 212,
    "गा": 213,
    "गां": 214,
    "गि": 215,
    "गि॰": 216,
    "गी": 217,
    "गु": 218,
    "गुं": 219,
    "गू": 220,
    "गृ": 221,
    "गॆ": 222,
    "गॆं": 223,
    "गे": 224,
    "गे्ड": 225,
    "गै": 226,
    "गॊ": 227,
    "गो": 228,
    "गों": 229,
    "गौ": 230,
    "ग्": 231,
    "ग्ई": 232,
    "ग्ग": 233,
    "ग्गि": 234,
    "ग्गॆ": 235,
    "ग्ण": 236,
    "ग्नि": 237,
    "ग्भ": 238,
    "ग्य": 239,
    "ग्या": 240,
    "ग्र": 241,
    "ग्रं": 242,
    "ग्रा": 243,
    "ग्रां": 244,
    "ग्री": 245,
    "ग्रू": 246,
    "ग्रे": 247,
    "ग्ला": 248,
    "ग्वा": 249,
    "ग्ष": 250,
    "ग्य़ा": 251,
    "ग्॰ु": 252,
    "गॱ": 253,
    "घ": 254,
    "घं": 255,
    "घा": 256,
    "घु": 257,
    "घे": 258,
    "घो": 259,
    "घौ": 260,
    "घ्या": 261,
    "घ्र": 262,
    "ङ": 263,
    "ङा": 264,
    "ङि": 265,
    "ङे": 266,
    "ङ्": 267,
    "ङ्क": 268,
    "ङ्का": 269,
    "ङ्कि": 270,
    "ङ्कु": 271,
    "ङ्के": 272,
    "ङ्कै": 273,
    "ङ्को": 274,
    "ङ्क्": 275,
    "ङ्ग": 276,
    "ङ्गा": 277,
    "ङ्गी": 278,
    "ङ्गु": 279,
    "ङ्गे": 280,
    "ङ्गो": 281,
    "ङ्घ": 282,
    "ङ्ङ": 283,
    "ङ्ङा": 284,
    "ङ्ङि": 285,
    "ङ्ङे": 286,
    "ङ्ङों": 287,
    "ङ्ङ्‌": 288,
    "ङ्ट": 289,
    "ङ्त": 290,
    "ङ्ष": 291,
    "ङ्‌": 292,
    "च": 293,
    "चं": 294,
    "चा": 295,
    "चां": 296,
    "चा्": 297,
    "चा्जि": 298,
    "चा्व": 299,
    "चि": 300,
    "चिं": 301,
    "चिॕ": 302,
    "ची": 303,
    "चु": 304,
    "चू": 305,
    "चॆ": 306,
    "चे": 307,
    "चेा्ऩ्": 308,
    "चै": 309,
    "चॊ": 310,
    "चो": 311,
    "चों": 312,
    "चौ": 313,
    "च्": 314,
    "च्च": 315,
    "च्चं": 316,
    "च्चा": 317,
    "च्चि": 318,
    "च्ची": 319,
    "च्चु": 320,
    "च्चे": 321,
    "च्चेाि": 322,
    "च्च्": 323,
    "च्च्‌": 324,
    "च्छ": 325,
    "च्छा": 326,
    "च्छु": 327,
    "च्छे": 328,
    "च्छ्": 329,
    "च्य": 330,
    "च्या": 331,
    "च॰": 332,
    "चॱ": 333,
    "छ": 334,
    "छा": 335,
    "छि": 336,
    "छे": 337,
    "छो": 338,
    "छोँ": 339,
    "छ॰": 340,
    "ज": 341,
    "जं": 342,
    "ज़": 343,
    "ज़ी": 344,
    "ज़ु": 345,
    "जा": 346,
    "जि": 347,
    "जिं": 348,
    "जि॰": 349,
    "जिॱ": 350,
    "जी": 351,
    "जु": 352,
    "जुॱ": 353,
    "जू": 354,
    "जॆ": 355,
    "जे": 356,
    "जै": 357,
    "जो": 358,
    "ज्": 359,
    "ज्ञ": 360,
    "ज्ञा": 361,
    "ज्ञी": 362,
    "ज्ब": 363,
    "ज्य": 364,
    "ज्यु": 365,
    "ज्यू": 366,
    "ज्येा": 367,
    "ज्यो": 368,
    "ज्यों": 369,
    "ज्ल": 370,
    "ज्व": 371,
    "ज्सि": 372,
    "ज्य़": 373,
    "ज॰": 374,
    "झ": 375,
    "झा": 376,
    "झाँ": 377,
    "झां": 378,
    "झि": 379,
    "झु": 380,
    "झ॰": 381,
    "ञ": 382,
    "ञा": 383,
    "ञ्च": 384,
    "ञ्चा": 385,
    "ञ्चा्": 386,
    "ञ्चि": 387,
    "ञ्ज": 388,
    "ञ्जा": 389,
    "ञ्जि": 390,
    "ञ्जी": 391,
    "ञ्ञ": 392,
    "ञ्ञि": 393,
    "ञ्ञो": 394,
    "ट": 395,
    "टं": 396,
    "टा": 397,
    "टाा": 398,
    "टि": 399,
    "टिं": 400,
    "टिॱ": 401,
    "टी": 402,
    "टु": 403,
    "टुं": 404,
    "टू": 405,
    "टॆ": 406,
    "टे": 407,
    "टे्नि": 408,
    "टै": 409,
    "टैं": 410,
    "टो": 411,
    "टौ": 412,
    "ट्": 413,
    "ट्चाा्च्च": 414,
    "ट्चि": 415,
    "ट्ट": 416,
    "ट्टं": 417,
    "ट्टा": 418,
    "ट्टि": 419,
    "ट्टी": 420,
    "ट्टु": 421,
    "ट्टूा्पु": 422,
    "ट्टै": 423,
    "ट्टो": 424,
    "ट्ट्": 425,
    "ट्ण": 426,
    "ट्न": 427,
    "ट्नं": 428,
    "ट्प": 429,
    "ट्मि": 430,
    "ट्य": 431,
    "ट्यू": 432,
    "ट्र": 433,
    "ट्रा": 434,
    "ट्रि": 435,
    "ट्री": 436,
    "ट्रॆ": 437,
    "ट्रे": 438,
    "ट्रै": 439,
    "ट्रो": 440,
    "ट्र्या": 441,
    "ट्ल": 442,
    "ट्लु": 443,
    "ट्व": 444,
    "ट्श्री": 445,
    "ट्स्": 446,
    "ट्॰": 447,
    "टॗ": 448,
    "ठ": 449,
    "ठा": 450,
    "ठां": 451,
    "ठि": 452,
    "ठि॰": 453,
    "ठी": 454,
    "ठु": 455,
    "ठे": 456,
    "ठें": 457,
    "ठो": 458,
    "ठ्ठ": 459,
    "ड": 460,
    "डः": 461,
    "ड़": 462,
    "ड़ा": 463,
    "ड़ि": 464,
    "ड़े": 465,
    "ड़ौ": 466,
    "डा": 467,
    "डां": 468,
    "डाः": 469,
    "डि": 470,
    "डिं": 471,
    "डी": 472,
    "डु": 473,
    "डू": 474,
    "डॆ": 475,
    "डॆं": 476,
    "डे": 477,
    "डै": 478,
    "डो": 479,
    "ड्": 480,
    "ड्क": 481,
    "ड्ड": 482,
    "ड्डा": 483,
    "ड्डि": 484,
    "ड्डु": 485,
    "ड्या": 486,
    "ड्यां": 487,
    "ड्र": 488,
    "ड्रा": 489,
    "ड्रि": 490,
    "ड्री": 491,
    "ड्‌": 492,
    "ड्‍": 493,
    "ढ": 494,
    "ढ़": 495,
    "ढ़ि": 496,
    "ढ़ी": 497,
    "ढि": 498,
    "ढे": 499,
    "ढे़": 500,
    "ण": 501,
    "णं": 502,
    "ण़": 503,
    "णा": 504,
    "णाः": 505,
    "णि": 506,
    "णी": 507,
    "णीं": 508,
    "णु": 509,
    "णु्": 510,
    "णू": 511,
    "णॆ": 512,
    "णे": 513,
    "णें": 514,
    "णै": 515,
    "णो": 516,
    "णौ": 517,
    "ण्": 518,
    "ण्क": 519,
    "ण्का": 520,
    "ण्ट": 521,
    "ण्टं": 522,
    "ण्टा": 523,
    "ण्टि": 524,
    "ण्टी": 525,
    "ण्टु": 526,
    "ण्टे": 527,
    "ण्टै": 528,
    "ण्ट्": 529,
    "ण्ट्स्": 530,
    "ण्ट्‌": 531,
    "ण्ठु": 532,
    "ण्ड": 533,
    "ण्डा": 534,
    "ण्डि": 535,
    "ण्ण": 536,
    "ण्णा": 537,
    "ण्णि": 538,
    "ण्णु": 539,
    "ण्णू": 540,
    "ण्ता": 541,
    "ण्ति": 542,
    "ण्पु": 543,
    "ण्मै": 544,
    "ण्य": 545,
    "ण्या": 546,
    "ण‍": 547,
    "त": 548,
    "तं": 549,
    "तः": 550,
    "त़": 551,
    "त़ा": 552,
    "त़ि": 553,
    "ता": 554,
    "ताँ": 555,
    "तां": 556,
    "ता्का": 557,
    "ति": 558,
    "तिं": 559,
    "तिः": 560,
    "तिाि": 561,
    "ति॰": 562,
    "ती": 563,
    "तीा्": 564,
    "तीा्त्त": 565,
    "तु": 566,
    "तू": 567,
    "तूा्": 568,
    "तू॰": 569,
    "तृ": 570,
    "तॆ": 571,
    "तॆॆ": 572,
    "ते": 573,
    "तै": 574,
    "तॊ": 575,
    "तो": 576,
    "तों": 577,
    "त्": 578,
    "त्क": 579,
    "त्कू": 580,
    "त्कृ": 581,
    "त्त": 582,
    "त्ता": 583,
    "त्ति": 584,
    "त्ती": 585,
    "त्तु": 586,
    "त्तू": 587,
    "त्तॆ": 588,
    "त्ते": 589,
    "त्तेा्": 590,
    "त्तै": 591,
    "त्तॊ": 592,
    "त्त्": 593,
    "त्त्य": 594,
    "त्त्व": 595,
    "त्त्‌": 596,
    "त्थ": 597,
    "त्थि": 598,
    "त्न": 599,
    "त्प": 600,
    "त्बे": 601,
    "त्म": 602,
    "त्मा": 603,
    "त्य": 604,
    "त्या": 605,
    "त्यां": 606,
    "त्यु": 607,
    "त्ये": 608,
    "त्र": 609,
    "त्रं": 610,
    "त्रं‌": 611,
    "त्रा": 612,
    "त्रि": 613,
    "त्री": 614,
    "त्रॆ": 615,
    "त्रे": 616,
    "त्रों": 617,
    "त्र्यं": 618,
    "त्व": 619,
    "त्वा": 620,
    "त्वि": 621,
    "त्स": 622,
    "त्सा": 623,
    "त्स्ना": 624,
    "त्ह": 625,
    "त्य़": 626,
    "त्य़ु": 627,
    "त्य़े": 628,
    "त्॰": 629,
    "त्‌": 630,
    "त्‍": 631,
    "त॰": 632,
    "त‍े": 633,
    "थ": 634,
    "था": 635,
    "थां": 636,
    "थि": 637,
    "थी": 638,
    "थु": 639,
    "थू": 640,
    "थृ": 641,
    "थे": 642,
    "थ्य": 643,
    "थ॰": 644,
    "द": 645,
    "दा": 646,
    "दां": 647,
    "दि": 648,
    "दिं": 649,
    "दी": 650,
    "दु": 651,
    "दुं": 652,
    "दुि": 653,
    "दू": 654,
    "दूं": 655,
    "दृ": 656,
    "दॆ": 657,
    "दे": 658,
    "दें": 659,
    "दै": 660,
    "दॊ": 661,
    "दो": 662,
    "दौ": 663,
    "द्": 664,
    "द्घा": 665,
    "द्ट": 666,
    "द्द": 667,
    "द्दा": 668,
    "द्दि": 669,
    "द्दु": 670,
    "द्दू": 671,
    "द्ध": 672,
    "द्धा": 673,
    "द्धि": 674,
    "द्धी": 675,
    "द्फु": 676,
    "द्ब": 677,
    "द्बा": 678,
    "द्बि": 679,
    "द्बी": 680,
    "द्बो": 681,
    "द्म": 682,
    "द्य": 683,
    "द्या": 684,
    "द्यु": 685,
    "द्यो": 686,
    "द्र": 687,
    "द्रा": 688,
    "द्रि": 689,
    "द्री": 690,
    "द्रु": 691,
    "द्रे": 692,
    "द्ळु": 693,
    "द्वा": 694,
    "द्वी": 695,
    "द्शि": 696,
    "द्य़": 697,
    "द्य़ा": 698,
    "द्॰": 699,
    "द्‌": 700,
    "ध": 701,
    "धा": 702,
    "धि": 703,
    "धिि": 704,
    "धी": 705,
    "धीं": 706,
    "धु": 707,
    "धू": 708,
    "धे": 709,
    "धो": 710,
    "धौ": 711,
    "ध्दा": 712,
    "ध्दी": 713,
    "ध्ब": 714,
    "ध्य": 715,
    "ध्या": 716,
    "ध्ये": 717,
    "ध्र": 718,
    "ध्व": 719,
    "न": 720,
    "नं": 721,
    "नः": 722,
    "ना": 723,
    "नाँ": 724,
    "नां": 725,
    "नाि": 726,
    "ना्": 727,
    "नि": 728,
    "निं": 729,
    "निॕ": 730,
    "नि‍": 731,
    "नी": 732,
    "नीा्": 733,
    "नु": 734,
    "नुं": 735,
    "नू": 736,
    "नू॰": 737,
    "नृ": 738,
    "नॆ": 739,
    "ने": 740,
    "नेे": 741,
    "नै": 742,
    "नॊ": 743,
    "नो": 744,
    "नौ": 745,
    "न्": 746,
    "न्कु": 747,
    "न्ट": 748,
    "न्टा": 749,
    "न्ट्रा": 750,
    "न्ड": 751,
    "न्डि": 752,
    "न्डे": 753,
    "न्त": 754,
    "न्ता": 755,
    "न्ति": 756,
    "न्ती": 757,
    "न्तु": 758,
    "न्तू": 759,
    "न्ते": 760,
    "न्तो": 761,
    "न्त्": 762,
    "न्त्य": 763,
    "न्त्र": 764,
    "न्त्रि": 765,
    "न्त्री": 766,
    "न्त्॰ा": 767,
    "न्त्॰ि": 768,
    "न्त्॰ी": 769,
    "न्थ": 770,
    "न्था": 771,
    "न्द": 772,
    "न्दा": 773,
    "न्दि": 774,
    "न्दी": 775,
    "न्दु": 776,
    "न्दे": 777,
    "न्दो": 778,
    "न्द्यो": 779,
    "न्द्र": 780,
    "न्द्रं": 781,
    "न्द्रा": 782,
    "न्द्री": 783,
    "न्द्र्र": 784,
    "न्द्॰": 785,
    "न्द्॰ी": 786,
    "न्द्‌": 787,
    "न्ध": 788,
    "न्धं": 789,
    "न्धि": 790,
    "न्धी": 791,
    "न्ध्यं": 792,
    "न्न": 793,
    "न्ना": 794,
    "न्नि": 795,
    "न्नु": 796,
    "न्नुं": 797,
    "न्नू": 798,
    "न्नै": 799,
    "न्ब": 800,
    "न्म": 801,
    "न्मा": 802,
    "न्मे": 803,
    "न्मो": 804,
    "न्य": 805,
    "न्यः": 806,
    "न्या": 807,
    "न्यू": 808,
    "न्ये": 809,
    "न्ऱ": 810,
    "न्ऱॆ": 811,
    "न्ऱ्": 812,
    "न्ल": 813,
    "न्लु": 814,
    "न्व": 815,
    "न्स": 816,
    "न्सि": 817,
    "न्सी": 818,
    "न्सू": 819,
    "न्स्": 820,
    "न्स्टि": 821,
    "न्हा": 822,
    "न्हां": 823,
    "न्य़": 824,
    "न्य़ा": 825,
    "न्‌": 826,
    "न॰": 827,
    "नॱ": 828,
    "ऩ": 829,
    "ऩा": 830,
    "ऩा्": 831,
    "ऩि": 832,
    "ऩी": 833,
    "ऩु": 834,
    "ऩू": 835,
    "ऩे": 836,
    "ऩै": 837,
    "ऩ्": 838,
    "ऩ्टा्": 839,
    "ऩ्ट्": 840,
    "ऩ्ट्र": 841,
    "ऩ्ऩ": 842,
    "ऩ्ऩा": 843,
    "ऩ्ऩूा्": 844,
    "ऩ्ऩै": 845,
    "ऩ्ऩो": 846,
    "ऩ्पु": 847,
    "ऩ्ऱ": 848,
    "ऩ्ऱि": 849,
    "ऩ्वॆ": 850,
    "प": 851,
    "पं": 852,
    "पा": 853,
    "पाँ": 854,
    "पां": 855,
    "पा्": 856,
    "पि": 857,
    "पिं": 858,
    "पिाि": 859,
    "पि॰": 860,
    "पी": 861,
    "पु": 862,
    "पू": 863,
    "पूँ": 864,
    "पॅ": 865,
    "पॆ": 866,
    "पॆं": 867,
    "पे": 868,
    "पेा": 869,
    "पै": 870,
    "पैा": 871,
    "पॉ": 872,
    "पॊ": 873,
    "पॊं": 874,
    "पो": 875,
    "पोा्चु": 876,
    "पौ": 877,
    "प्": 878,
    "प्टॆ": 879,
    "प्त": 880,
    "प्तं": 881,
    "प्तॆ": 882,
    "प्प": 883,
    "प्पं": 884,
    "प्पा": 885,
    "प्पि": 886,
    "प्पी": 887,
    "प्पु": 888,
    "प्पॆ": 889,
    "प्पे": 890,
    "प्पो": 891,
    "प्प्": 892,
    "प्प्मू": 893,
    "प्या": 894,
    "प्र": 895,
    "प्रा": 896,
    "प्रां": 897,
    "प्राः": 898,
    "प्रि": 899,
    "प्री": 900,
    "प्रॆ": 901,
    "प्रे": 902,
    "प्रै": 903,
    "प्रॊ": 904,
    "प्रो": 905,
    "प्रौ": 906,
    "प्ला": 907,
    "प्ले": 908,
    "प्लै": 909,
    "प्लॉ": 910,
    "प्ष": 911,
    "प्स्": 912,
    "प्॰": 913,
    "प्॰ि": 914,
    "प्‍": 915,
    "प॰": 916,
    "पॱ": 917,
    "प‌": 918,
    "फ": 919,
    "फ़": 920,
    "फा": 921,
    "फां": 922,
    "फि": 923,
    "फी": 924,
    "फु": 925,
    "फॆ": 926,
    "फे": 927,
    "फै": 928,
    "फो": 929,
    "फ्": 930,
    "फ्या": 931,
    "फ्र": 932,
    "फ्॰े": 933,
    "ब": 934,
    "बँ": 935,
    "बं": 936,
    "बा": 937,
    "बां": 938,
    "बा‍": 939,
    "बि": 940,
    "बि॑": 941,
    "बि॰": 942,
    "बी": 943,
    "बु": 944,
    "बू": 945,
    "बृ": 946,
    "बॆ": 947,
    "बे": 948,
    "बें": 949,
    "बै": 950,
    "बैं": 951,
    "बॉ": 952,
    "बॊ": 953,
    "बो": 954,
    "बौ": 955,
    "ब्": 956,
    "ब्थ": 957,
    "ब्द": 958,
    "ब्दी": 959,
    "ब्दु": 960,
    "ब्ध": 961,
    "ब्ब": 962,
    "ब्बा": 963,
    "ब्य": 964,
    "ब्या": 965,
    "ब्यां": 966,
    "ब्यु": 967,
    "ब्र": 968,
    "ब्रा": 969,
    "ब्रि": 970,
    "ब्रु": 971,
    "ब्रे": 972,
    "ब्ल": 973,
    "ब्लि": 974,
    "ब्लु": 975,
    "ब्लो": 976,
    "ब्ल्यू": 977,
    "ब्स": 978,
    "ब्सि": 979,
    "ब्य़": 980,
    "ब्य़ा": 981,
    "ब्॰ु": 982,
    "ब्‌": 983,
    "ब॰": 984,
    "बॱ": 985,
    "भ": 986,
    "भं": 987,
    "भा": 988,
    "भां": 989,
    "भि": 990,
    "भिं": 991,
    "भी": 992,
    "भु": 993,
    "भुॱ": 994,
    "भू": 995,
    "भृा": 996,
    "भे": 997,
    "भें": 998,
    "भै": 999,
    "भो": 1000,
    "भ्या": 1001,
    "भ्र": 1002,
    "भ॰": 1003,
    "म": 1004,
    "मं": 1005,
    "मः": 1006,
    "मा": 1007,
    "मां": 1008,
    "मााि": 1009,
    "मा‍": 1010,
    "मि": 1011,
    "मी": 1012,
    "मु": 1013,
    "मुं": 1014,
    "मुॱ": 1015,
    "मू": 1016,
    "मूा्त्ति": 1017,
    "मृ": 1018,
    "मॆ": 1019,
    "मे": 1020,
    "में": 1021,
    "मै": 1022,
    "मैा": 1023,
    "मॊ": 1024,
    "मो": 1025,
    "मों": 1026,
    "मौ": 1027,
    "म्": 1028,
    "म्A": 1029,
    "म्ः": 1030,
    "म्के": 1031,
    "म्ट": 1032,
    "म्प": 1033,
    "म्पा": 1034,
    "म्पि": 1035,
    "म्पु": 1036,
    "म्पू": 1037,
    "म्पे": 1038,
    "म्पो": 1039,
    "म्प्": 1040,
    "म्प्य": 1041,
    "म्प्र": 1042,
    "म्प्वा": 1043,
    "म्प्॰": 1044,
    "म्ब": 1045,
    "म्बा": 1046,
    "म्बि": 1047,
    "म्बे": 1048,
    "म्भ": 1049,
    "म्भा": 1050,
    "म्भु": 1051,
    "म्म": 1052,
    "म्मा": 1053,
    "म्मि": 1054,
    "म्मु": 1055,
    "म्मे": 1056,
    "म्य": 1057,
    "म्या": 1058,
    "म्यू": 1059,
    "म्र": 1060,
    "म्रि": 1061,
    "म्श": 1062,
    "म्ह": 1063,
    "म्ही": 1064,
    "म्य़": 1065,
    "म्य़ो": 1066,
    "म्॰ा": 1067,
    "म॰": 1068,
    "य": 1069,
    "यं": 1070,
    "य़": 1071,
    "य़ा": 1072,
    "य़े": 1073,
    "या": 1074,
    "यां": 1075,
    "याा्": 1076,
    "याा्पे": 1077,
    "या‍": 1078,
    "यि": 1079,
    "यिाि": 1080,
    "यी": 1081,
    "यु": 1082,
    "युं": 1083,
    "यू": 1084,
    "यॆ": 1085,
    "ये": 1086,
    "यें": 1087,
    "यै": 1088,
    "यॊ": 1089,
    "यो": 1090,
    "यों": 1091,
    "य्": 1092,
    "य्क्कां": 1093,
    "य्क्कु": 1094,
    "य्क्क्": 1095,
    "य्त": 1096,
    "य्न्त": 1097,
    "य्भ": 1098,
    "य्म": 1099,
    "य्मा": 1100,
    "य्य": 1101,
    "य्यु": 1102,
    "य्यो": 1103,
    "य्वु": 1104,
    "य्स्री": 1105,
    "य्‌": 1106,
    "र": 1107,
    "रं": 1108,
    "ऱ": 1109,
    "रा": 1110,
    "रां": 1111,
    "राा्": 1112,
    "रा्": 1113,
    "रि": 1114,
    "रिं": 1115,
    "रि॰": 1116,
    "री": 1117,
    "रीं": 1118,
    "रु": 1119,
    "रुं": 1120,
    "रु‍": 1121,
    "रू": 1122,
    "रॆ": 1123,
    "रॆं": 1124,
    "रे": 1125,
    "रें": 1126,
    "रै": 1127,
    "रॉँ": 1128,
    "रो": 1129,
    "र्": 1130,
    "र्क": 1131,
    "र्का": 1132,
    "र्किं": 1133,
    "र्कॆ": 1134,
    "र्के": 1135,
    "र्कॊं": 1136,
    "र्ग": 1137,
    "र्गा": 1138,
    "र्गि": 1139,
    "र्च": 1140,
    "र्चा": 1141,
    "र्चि": 1142,
    "र्चू": 1143,
    "र्च्चि": 1144,
    "र्ज": 1145,
    "र्ज़": 1146,
    "र्जा": 1147,
    "र्जि": 1148,
    "र्जी": 1149,
    "र्जु": 1150,
    "र्ट": 1151,
    "र्टि": 1152,
    "र्टी": 1153,
    "र्ट्": 1154,
    "र्ड": 1155,
    "र्डी": 1156,
    "र्डॆ": 1157,
    "र्ण": 1158,
    "र्णा": 1159,
    "र्णि": 1160,
    "र्णी": 1161,
    "र्णो": 1162,
    "र्त": 1163,
    "र्ति": 1164,
    "र्तु": 1165,
    "र्ते": 1166,
    "र्त्त": 1167,
    "र्त्ता": 1168,
    "र्थ": 1169,
    "र्थं": 1170,
    "र्थि": 1171,
    "र्द": 1172,
    "र्दि": 1173,
    "र्दे": 1174,
    "र्दॊ": 1175,
    "र्ध": 1176,
    "र्न": 1177,
    "र्ना": 1178,
    "र्नी": 1179,
    "र्प": 1180,
    "र्पा": 1181,
    "र्पे": 1182,
    "र्पै": 1183,
    "र्पॊ": 1184,
    "र्पो": 1185,
    "र्फे": 1186,
    "र्ब": 1187,
    "र्बा": 1188,
    "र्बि": 1189,
    "र्बो": 1190,
    "र्ब्ब": 1191,
    "र्भ": 1192,
    "र्भी": 1193,
    "र्म": 1194,
    "र्मा": 1195,
    "र्मि": 1196,
    "र्मु": 1197,
    "र्मे": 1198,
    "र्य": 1199,
    "र्या": 1200,
    "र्य्य": 1201,
    "र्य्या": 1202,
    "र्य्य़": 1203,
    "र्य्य़ा": 1204,
    "र्र": 1205,
    "र्रा": 1206,
    "र्रि": 1207,
    "र्ल": 1208,
    "र्लु": 1209,
    "र्लो": 1210,
    "र्व": 1211,
    "र्वा": 1212,
    "र्वि": 1213,
    "र्वे": 1214,
    "र्श": 1215,
    "र्शि": 1216,
    "र्ष": 1217,
    "र्षा": 1218,
    "र्षि": 1219,
    "र्षे": 1220,
    "र्स": 1221,
    "र्सिं": 1222,
    "र्सी": 1223,
    "र्सु": 1224,
    "र्स्": 1225,
    "र॰": 1226,
    "रॱ": 1227,
    "र‌": 1228,
    "र‍": 1229,
    "ऱ": 1230,
    "ऱा": 1231,
    "ऱि": 1232,
    "ऱिं": 1233,
    "ऱु": 1234,
    "ऱुं": 1235,
    "ऱू": 1236,
    "ऱॆ": 1237,
    "ऱे": 1238,
    "ऱै": 1239,
    "ऱॊ": 1240,
    "ऱो": 1241,
    "ऱ्": 1242,
    "ऱ्क": 1243,
    "ऱ्का": 1244,
    "ऱ्कु": 1245,
    "ऱ्के": 1246,
    "ऱ्प": 1247,
    "ऱ्पू": 1248,
    "ऱ्ऱ": 1249,
    "ऱ्ऱं": 1250,
    "ऱ्ऱा": 1251,
    "ऱ्ऱि": 1252,
    "ऱ्ऱी": 1253,
    "ऱ्ऱु": 1254,
    "ऱ्ऱे": 1255,
    "ऱ्ऱ्": 1256,
    "ऱ्ऱ्यू": 1257,
    "ल": 1258,
    "लं": 1259,
    "ला": 1260,
    "लां": 1261,
    "लि": 1262,
    "लिं": 1263,
    "ली": 1264,
    "लु": 1265,
    "लुं": 1266,
    "लू": 1267,
    "लूा्": 1268,
    "लॆ": 1269,
    "लॆं": 1270,
    "ले": 1271,
    "लें": 1272,
    "लै": 1273,
    "लॉ": 1274,
    "लो": 1275,
    "लोँ": 1276,
    "लों": 1277,
    "लौ": 1278,
    "ल्": 1279,
    "ल्क": 1280,
    "ल्कै": 1281,
    "ल्गू": 1282,
    "ल्ट": 1283,
    "ल्टि": 1284,
    "ल्टी": 1285,
    "ल्टु": 1286,
    "ल्ट्": 1287,
    "ल्ट्रा": 1288,
    "ल्ड": 1289,
    "ल्त्": 1290,
    "ल्थ": 1291,
    "ल्दा": 1292,
    "ल्नी": 1293,
    "ल्प": 1294,
    "ल्पी": 1295,
    "ल्पॊ": 1296,
    "ल्य": 1297,
    "ल्या": 1298,
    "ल्यां": 1299,
    "ल्यु": 1300,
    "ल्यू": 1301,
    "ल्ल": 1302,
    "ल्लं": 1303,
    "ल्ला": 1304,
    "ल्लि": 1305,
    "ल्ली": 1306,
    "ल्लु": 1307,
    "ल्लू": 1308,
    "ल्लूाि": 1309,
    "ल्लूा्": 1310,
    "ल्लॆ": 1311,
    "ल्ले": 1312,
    "ल्लै": 1313,
    "ल्ल्": 1314,
    "ल्ल्‌": 1315,
    "ल्वि": 1316,
    "ल्वे": 1317,
    "ल्स्": 1318,
    "ल्हा": 1319,
    "ल्हे": 1320,
    "ल्ह्या": 1321,
    "ल्‌": 1322,
    "ल्‍": 1323,
    "ल॰": 1324,
    "लॱ": 1325,
    "ळ": 1326,
    "ळं": 1327,
    "ळा": 1328,
    "ळा्": 1329,
    "ळि": 1330,
    "ळिं": 1331,
    "ळी": 1332,
    "ळु": 1333,
    "ळू": 1334,
    "ळॆ": 1335,
    "ळे": 1336,
    "ळै": 1337,
    "ळ्": 1338,
    "ळ्अ": 1339,
    "ळ्ट": 1340,
    "ळ्प": 1341,
    "ळ्मि": 1342,
    "ळ्मी": 1343,
    "ळ्या": 1344,
    "ळ्यां": 1345,
    "ळ्ळ": 1346,
    "ळ्ळा": 1347,
    "ळ्ळि": 1348,
    "ळ्ळी": 1349,
    "ळ्ळु": 1350,
    "ळ्ळे": 1351,
    "ळ‍": 1352,
    "ऴ": 1353,
    "ऴा": 1354,
    "ऴि": 1355,
    "ऴि‌": 1356,
    "ऴु": 1357,
    "ऴॆ": 1358,
    "ऴै": 1359,
    "ऴ्": 1360,
    "ऴ्क": 1361,
    "ऴ्च्": 1362,
    "ऴ्त्त": 1363,
    "ऴ्न": 1364,
    "ऴ्ना": 1365,
    "ऴ्वु": 1366,
    "ऴ्स्": 1367,
    "ऴ्‌": 1368,
    "व": 1369,
    "वं": 1370,
    "वः": 1371,
    "व़": 1372,
    "वा": 1373,
    "वां": 1374,
    "वा्": 1375,
    "वा्स्": 1376,
    "वि": 1377,
    "वि॰": 1378,
    "विॱ": 1379,
    "वी": 1380,
    "वु": 1381,
    "वुं": 1382,
    "वू": 1383,
    "वृ": 1384,
    "वॅ": 1385,
    "वॆ": 1386,
    "वॆं": 1387,
    "वे": 1388,
    "वेा्ल्टु": 1389,
    "वै": 1390,
    "वॉ": 1391,
    "वॊ": 1392,
    "वो": 1393,
    "व्": 1394,
    "व्य": 1395,
    "व्या": 1396,
    "व्व": 1397,
    "व्वं": 1398,
    "व्वि": 1399,
    "व्वी": 1400,
    "व्वू": 1401,
    "व्वे": 1402,
    "व्ह": 1403,
    "व्हि": 1404,
    "व्ही": 1405,
    "व्‌": 1406,
    "व॰": 1407,
    "वॱ": 1408,
    "श": 1409,
    "शं": 1410,
    "शा": 1411,
    "शां": 1412,
    "शाः": 1413,
    "शि": 1414,
    "शी": 1415,
    "शु": 1416,
    "शू": 1417,
    "शृ": 1418,
    "शॅ": 1419,
    "शे": 1420,
    "शै": 1421,
    "शो": 1422,
    "शौ": 1423,
    "श्": 1424,
    "श्च": 1425,
    "श्चि": 1426,
    "श्ते": 1427,
    "श्ब": 1428,
    "श्मा": 1429,
    "श्य": 1430,
    "श्र": 1431,
    "श्रा": 1432,
    "श्री": 1433,
    "श्रु": 1434,
    "श्रे": 1435,
    "श्ले": 1436,
    "श्व": 1437,
    "श्श": 1438,
    "श्शि": 1439,
    "श्शे": 1440,
    "श्ष": 1441,
    "श्य़": 1442,
    "श्॰ी": 1443,
    "श्ॱ": 1444,
    "श्‍": 1445,
    "शॗ": 1446,
    "ष": 1447,
    "षं": 1448,
    "षा": 1449,
    "षि": 1450,
    "षी": 1451,
    "षु": 1452,
    "षू": 1453,
    "षे": 1454,
    "ष्": 1455,
    "ष्का": 1456,
    "ष्कृ": 1457,
    "ष्ट": 1458,
    "ष्टा": 1459,
    "ष्टि": 1460,
    "ष्टी": 1461,
    "ष्टु": 1462,
    "ष्ट्र": 1463,
    "ष्ट्री": 1464,
    "ष्ट्॰": 1465,
    "ष्ट्॰ी": 1466,
    "ष्ठ": 1467,
    "ष्ठा": 1468,
    "ष्ण": 1469,
    "ष्णा": 1470,
    "ष्णू": 1471,
    "ष्पा": 1472,
    "ष्म": 1473,
    "ष्मॆ": 1474,
    "ष्य": 1475,
    "ष्यं": 1476,
    "ष्‌": 1477,
    "ष्‍": 1478,
    "षॢ": 1479,
    "स": 1480,
    "सं": 1481,
    "सः": 1482,
    "स़": 1483,
    "स़ा": 1484,
    "स़ि": 1485,
    "सा": 1486,
    "सां": 1487,
    "सि": 1488,
    "सिं": 1489,
    "सि॰": 1490,
    "सिॱ": 1491,
    "सी": 1492,
    "सीं": 1493,
    "सु": 1494,
    "सुँ": 1495,
    "सू": 1496,
    "सूी": 1497,
    "सृ": 1498,
    "सृं": 1499,
    "सॆ": 1500,
    "सॆं": 1501,
    "से": 1502,
    "सें": 1503,
    "सेे": 1504,
    "से‍": 1505,
    "सै": 1506,
    "सॊ": 1507,
    "सो": 1508,
    "सोँ": 1509,
    "सौ": 1510,
    "स्": 1511,
    "स्क": 1512,
    "स्का": 1513,
    "स्कु": 1514,
    "स्कृ": 1515,
    "स्गि": 1516,
    "स्ट": 1517,
    "स्टा": 1518,
    "स्टि": 1519,
    "स्टॆ": 1520,
    "स्टे": 1521,
    "स्टो": 1522,
    "स्ट्": 1523,
    "स्ट्री": 1524,
    "स्ट्रे": 1525,
    "स्ठ": 1526,
    "स्ड": 1527,
    "स्त": 1528,
    "स्तं": 1529,
    "स्ता": 1530,
    "स्ति": 1531,
    "स्तु": 1532,
    "स्तू": 1533,
    "स्तृ": 1534,
    "स्ते": 1535,
    "स्त्र": 1536,
    "स्त्रा": 1537,
    "स्थ": 1538,
    "स्था": 1539,
    "स्थि": 1540,
    "स्थी": 1541,
    "स्थॆ": 1542,
    "स्थे": 1543,
    "स्थ्य": 1544,
    "स्दु": 1545,
    "स्ध": 1546,
    "स्धा": 1547,
    "स्नि": 1548,
    "स्ने": 1549,
    "स्प": 1550,
    "स्पा": 1551,
    "स्पि": 1552,
    "स्पृ": 1553,
    "स्पॆ": 1554,
    "स्पे": 1555,
    "स्प्पि": 1556,
    "स्फो": 1557,
    "स्ब": 1558,
    "स्बा": 1559,
    "स्भा": 1560,
    "स्म": 1561,
    "स्मा": 1562,
    "स्मृ": 1563,
    "स्य": 1564,
    "स्र": 1565,
    "स्रा": 1566,
    "स्री": 1567,
    "स्ऱ्ऱा": 1568,
    "स्ऱ्ऱि": 1569,
    "स्ऱ्ऱु": 1570,
    "स्ऱ्ऱे": 1571,
    "स्ऱ्ऱै": 1572,
    "स्ऱ्ऱ्": 1573,
    "स्व": 1574,
    "स्वं": 1575,
    "स्वा": 1576,
    "स्वी": 1577,
    "स्वे": 1578,
    "स्सा": 1579,
    "स्सु": 1580,
    "स्स्": 1581,
    "स्स्मा": 1582,
    "स्स्‌": 1583,
    "स्ह": 1584,
    "स्॰": 1585,
    "स्॰ा": 1586,
    "स्ॱ": 1587,
    "स्‌": 1588,
    "स्‍": 1589,
    "स॰": 1590,
    "सॱ": 1591,
    "ह": 1592,
    "हं": 1593,
    "हः": 1594,
    "हा": 1595,
    "हां": 1596,
    "हा‍": 1597,
    "हि": 1598,
    "हिं": 1599,
    "हिः": 1600,
    "हि॰": 1601,
    "ही": 1602,
    "हु": 1603,
    "हु॰": 1604,
    "हू": 1605,
    "हृ": 1606,
    "हॆ": 1607,
    "हे": 1608,
    "हें": 1609,
    "है": 1610,
    "हैं": 1611,
    "है‍": 1612,
    "हॊ": 1613,
    "हो": 1614,
    "ह्दि": 1615,
    "ह्न": 1616,
    "ह्म": 1617,
    "ह्य": 1618,
    "ह्या": 1619,
    "ह्रू": 1620,
    "हॱ": 1621,
    "ा": 1622,
    "ॎ": 1623,
    "ॐ": 1624,
    "ख़ु": 1625,
    "ज़ा": 1626,
    "ड़": 1627,
    "ड़ा": 1628,
    "ड़ी": 1629,
    "ड़े": 1630,
    "ड़ो": 1631,
    "ड़्ह": 1632,
    "ड़्हे": 1633,
    "ढ़ि": 1634,
    "ढ़ी": 1635,
    "ढ़ो": 1636,
    "फ़": 1637,
    "फ़्ट": 1638,
    "फ़्दु": 1639,
    "य़": 1640,
    "य़ं": 1641,
    "य़ः": 1642,
    "य़़": 1643,
    "य़ा": 1644,
    "य़ां": 1645,
    "य़ि": 1646,
    "य़ी": 1647,
    "य़ु": 1648,
    "य़े": 1649,
    "य़ो": 1650,
    "य़्या": 1651,
    "य़ॗ": 1652,
    "।": 1653,
    "।‍": 1654,
    "॥": 1655,
    "०": 1656,
    "१": 1657,
    "१्को": 1658,
    "१‌": 1659,
    "२": 1660,
    "२़": 1661,
    "३": 1662,
    "४": 1663,
    "५": 1664,
    "६": 1665,
    "७": 1666,
    "८": 1667,
    "९": 1668,
    "॰": 1669,
    "॰ा": 1670,
    "॰ि": 1671,
    "॰िः": 1672,
    "॰ी": 1673,
    "॰ु": 1674,
    "॰ू": 1675,
    "॰े": 1676,
    "॰ो": 1677,
    "॰्थ": 1678,
    "॰्प": 1679,
    "॰्ब": 1680,
    "॰्मा": 1681,
    "॰्य": 1682,
    "॰्य्य": 1683,
    "॰्य्या": 1684,
    "॰्ष": 1685,
    "ॱ": 1686,
    "ॱा": 1687,
    "ॱि": 1688,
    "ॱे": 1689,
    "ॱो": 1690,
    "ॲा": 1691,
    "ॳ": 1692,
    "ॳे": 1693,
    "ॷ": 1694,
    "ॺ": 1695,
    "ॺ‌": 1696,
    "ॺ‍": 1697,
    "ॻ": 1698,
    "ॻ्ऱॆ": 1699,
    "ॻ्ऱ्": 1700,
    "ॻ‌": 1701,
    "ॻ‌‌": 1702,
    "ॻ‍": 1703,
    "ॼ": 1704,
    "ॼ‌": 1705,
    "ॼ‍‍": 1706,
    "ॽ": 1707,
    "ॽ‌": 1708,
    "ॽ‍": 1709,
    "ॾ": 1710,
    "ॾ‌": 1711,
    "ॾ‌‌": 1712,
    "​": 1713
  },
  "metadata": {
    "tag": "zs_loso_rungA_gujarati",
    "num_graphemes": 1712,
    "space": "shared-abugida-pivot"
  }
}