{
  "grapheme2idx": {
    "<blank>": 0,
    "<unk>": 1,
    " ‌": 2,
    "!": 3,
    "\"": 4,
    "&": 5,
    "'": 6,
    "(": 7,
    ")": 8,
    ",": 9,
    "-": 10,
    "-ा": 11,
    ".": 12,
    "/": 13,
    "0": 14,
    "1": 15,
    "2": 16,
    "3": 17,
    "4": 18,
    "5": 19,
    "6": 20,
    "7": 21,
    "8": 22,
    "9": 23,
    ":": 24,
    "?": 25,
    "A": 26,
    "D": 27,
    "G": 28,
    "H": 29,
    "I": 30,
    "O": 31,
    "P": 32,
    "V": 33,
    "[": 34,
    "c": 35,
    "|": 36,
    "°": 37,
    "ا": 38,
    "ت": 39,
    "ج": 40,
    "ر": 41,
    "گ": 42,
    "ی": 43,
    "ँ": 44,
    "अ": 45,
    "अं": 46,
    "अि": 47,
    "अ्या": 48,
    "अ॰": 49,
    "आ": 50,
    "आं": 51,
    "आा्": 52,
    "आे": 53,
    "आॕ": 54,
    "इ": 55,
    "इं": 56,
    "इ्ट": 57,
    "इ॰": 58,
    "इॱ": 59,
    "ई": 60,
    "ईँ": 61,
    "ईं": 62,
    "उ": 63,
    "उाि": 64,
    "उॱ": 65,
    "ऊ": 66,
    "ऊँ": 67,
    "ऊं": 68,
    "ऋ": 69,
    "ऍ": 70,
    "ऎ": 71,
    "ऎं": 72,
    "ऎ‍": 73,
    "ए": 74,
    "एँ": 75,
    "एा": 76,
    "ऐ": 77,
    "ऐं": 78,
    "ऑ": 79,
    "ऒ": 80,
    "ऒं": 81,
    "ऒाि": 82,
    "ऒा्क्स्": 83,
    "ऒ‌": 84,
    "ओ": 85,
    "ओँ": 86,
    "ओं": 87,
    "ओ्बा": 88,
    "औ": 89,
    "औं": 90,
    "क": 91,
    "कं": 92,
    "कं‌": 93,
    "कः": 94,
    "का": 95,
    "काँ": 96,
    "कां": 97,
    "काुं": 98,
    "काे": 99,
    "का्": 100,
    "का‍": 101,
    "का‍‌": 102,
    "कि": 103,
    "किं": 104,
    "किाि": 105,
    "की": 106,
    "कीे": 107,
    "कु": 108,
    "कुं": 109,
    "कु॰": 110,
    "कू": 111,
    "कृ": 112,
    "कॅ": 113,
    "कॅा": 114,
    "कॆ": 115,
    "कॆं": 116,
    "के": 117,
    "कें": 118,
    "केा": 119,
    "केॆ्टा": 120,
    "केे": 121,
    "कै": 122,
    "कॉ": 123,
    "कॊ": 124,
    "कॊं": 125,
    "को": 126,
    "कोँ": 127,
    "कों": 128,
    "कों‌": 129,
    "क्": 130,
    "क्क": 131,
    "क्कं": 132,
    "क्का": 133,
    "क्कि": 134,
    "क्की": 135,
    "क्कु": 136,
    "क्कुं": 137,
    "क्कू": 138,
    "क्कॆ": 139,
    "क्के": 140,
    "क्कै": 141,
    "क्कॊ": 142,
    "क्को": 143,
    "क्क्": 144,
    "क्क्‌": 145,
    "क्कॗ": 146,
    "क्ट": 147,
    "क्टो": 148,
    "क्ट्रि": 149,
    "क्ट्रो": 150,
    "क्त": 151,
    "क्तां": 152,
    "क्ति": 153,
    "क्तीं": 154,
    "क्तु": 155,
    "क्नो": 156,
    "क्प": 157,
    "क्पे": 158,
    "क्मि": 159,
    "क्य": 160,
    "क्या": 161,
    "क्यू": 162,
    "क्र": 163,
    "क्रं": 164,
    "क्रा": 165,
    "क्रि": 166,
    "क्री": 167,
    "क्रे": 168,
    "क्रै": 169,
    "क्रो": 170,
    "क्ला": 171,
    "क्लि": 172,
    "क्ळे": 173,
    "क्व": 174,
    "क्वा": 175,
    "क्वॆ": 176,
    "क्श": 177,
    "क्ष": 178,
    "क्षा": 179,
    "क्षां": 180,
    "क्षि": 181,
    "क्षिं": 182,
    "क्षी": 183,
    "क्षुः": 184,
    "क्षे": 185,
    "क्षो": 186,
    "क्ष्म": 187,
    "क्ष्मि": 188,
    "क्ष्मी": 189,
    "क्ष्य": 190,
    "क्स": 191,
    "क्सि": 192,
    "क्स्": 193,
    "क्य़ा": 194,
    "क्॰": 195,
    "क्॰ा": 196,
    "क्॰े": 197,
    "क्‌": 198,
    "क्‍": 199,
    "कॗ": 200,
    "क॰": 201,
    "कॱ": 202,
    "क‌": 203,
    "क‍ी": 204,
    "ख": 205,
    "खं": 206,
    "ख़": 207,
    "खा": 208,
    "खाँ": 209,
    "खां": 210,
    "खा‍": 211,
    "खि": 212,
    "खी": 213,
    "खु": 214,
    "खू": 215,
    "खॆ": 216,
    "खे": 217,
    "खै": 218,
    "खो": 219,
    "ख्त": 220,
    "ख्य": 221,
    "ख्यु": 222,
    "ख्रीः": 223,
    "ग": 224,
    "गं": 225,
    "गा": 226,
    "गां": 227,
    "गि": 228,
    "गि॰": 229,
    "गी": 230,
    "गु": 231,
    "गुं": 232,
    "गू": 233,
    "गृ": 234,
    "गॆ": 235,
    "गॆं": 236,
    "गे": 237,
    "गे्ड": 238,
    "गै": 239,
    "गॊ": 240,
    "गो": 241,
    "गों": 242,
    "गौ": 243,
    "ग्": 244,
    "ग्ग": 245,
    "ग्गा": 246,
    "ग्गि": 247,
    "ग्गॆ": 248,
    "ग्ण": 249,
    "ग्नि": 250,
    "ग्ब": 251,
    "ग्भ": 252,
    "ग्य": 253,
    "ग्या": 254,
    "ग्ये": 255,
    "ग्र": 256,
    "ग्रं": 257,
    "ग्रा": 258,
    "ग्रां": 259,
    "ग्री": 260,
    "ग्रू": 261,
    "ग्रे": 262,
    "ग्ला": 263,
    "ग्ली": 264,
    "ग्वा": 265,
    "ग्ष": 266,
    "ग्स": 267,
    "ग्य़ा": 268,
    "ग्॰ु": 269,
    "ग्‌": 270,
    "ग॰": 271,
    "गॱ": 272,
    "घ": 273,
    "घं": 274,
    "घा": 275,
    "घां": 276,
    "घु": 277,
    "घे": 278,
    "घो": 279,
    "घौ": 280,
    "घ्य": 281,
    "घ्या": 282,
    "घ्र": 283,
    "ङ": 284,
    "ङा": 285,
    "ङि": 286,
    "ङे": 287,
    "ङ्": 288,
    "ङ्क": 289,
    "ङ्का": 290,
    "ङ्कि": 291,
    "ङ्कु": 292,
    "ङ्के": 293,
    "ङ्कै": 294,
    "ङ्को": 295,
    "ङ्क्": 296,
    "ङ्क्स्": 297,
    "ङ्ग": 298,
    "ङ्गा": 299,
    "ङ्गी": 300,
    "ङ्गु": 301,
    "ङ्गे": 302,
    "ङ्गो": 303,
    "ङ्घ": 304,
    "ङ्ङ": 305,
    "ङ्ङा": 306,
    "ङ्ङि": 307,
    "ङ्ङे": 308,
    "ङ्ङो": 309,
    "ङ्ङों": 310,
    "ङ्ङ्‌": 311,
    "ङ्ट": 312,
    "ङ्त": 313,
    "ङ्ष": 314,
    "ङ्‌": 315,
    "च": 316,
    "चं": 317,
    "चा": 318,
    "चां": 319,
    "चा्": 320,
    "चा्जि": 321,
    "चा्व": 322,
    "चि": 323,
    "चिं": 324,
    "ची": 325,
    "चु": 326,
    "चुे": 327,
    "चू": 328,
    "चॆ": 329,
    "चे": 330,
    "चें": 331,
    "चेा्ऩ्": 332,
    "चै": 333,
    "चॊ": 334,
    "चो": 335,
    "चौ": 336,
    "च्": 337,
    "च्च": 338,
    "च्चं": 339,
    "च्चा": 340,
    "च्चि": 341,
    "च्ची": 342,
    "च्चु": 343,
    "च्चे": 344,
    "च्चेाि": 345,
    "च्च्": 346,
    "च्च्‌": 347,
    "च्छ": 348,
    "च्छा": 349,
    "च्छु": 350,
    "च्छे": 351,
    "च्छ्": 352,
    "च्ट": 353,
    "च्य": 354,
    "च्या": 355,
    "च्यु": 356,
    "च॑": 357,
    "च॰": 358,
    "चॱ": 359,
    "छ": 360,
    "छा": 361,
    "छि": 362,
    "छु": 363,
    "छुॱ": 364,
    "छे": 365,
    "छें": 366,
    "छो": 367,
    "छोँ": 368,
    "छ॰": 369,
    "ज": 370,
    "जं": 371,
    "ज़": 372,
    "ज़ी": 373,
    "ज़ु": 374,
    "जा": 375,
    "जि": 376,
    "जिं": 377,
    "जि॰": 378,
    "जिॱ": 379,
    "जी": 380,
    "जु": 381,
    "जुॱ": 382,
    "जू": 383,
    "जॆ": 384,
    "जे": 385,
    "जें": 386,
    "जै": 387,
    "जो": 388,
    "ज्": 389,
    "ज्ज": 390,
    "ज्जं": 391,
    "ज्ज्": 392,
    "ज्ञ": 393,
    "ज्ञा": 394,
    "ज्ञी": 395,
    "ज्ब": 396,
    "ज्य": 397,
    "ज्यु": 398,
    "ज्यू": 399,
    "ज्येा": 400,
    "ज्यो": 401,
    "ज्यों": 402,
    "ज्व": 403,
    "ज्सि": 404,
    "ज्य़": 405,
    "ज॰": 406,
    "झ": 407,
    "झा": 408,
    "झाँ": 409,
    "झां": 410,
    "झि": 411,
    "झी": 412,
    "झे": 413,
    "झ॰": 414,
    "ञ": 415,
    "ञा": 416,
    "ञ्च": 417,
    "ञ्चा": 418,
    "ञ्चा्": 419,
    "ञ्चि": 420,
    "ञ्चे": 421,
    "ञ्ज": 422,
    "ञ्जा": 423,
    "ञ्जि": 424,
    "ञ्जी": 425,
    "ञ्ञ": 426,
    "ञ्ञा": 427,
    "ञ्ञि": 428,
    "ञ्ञॆ": 429,
    "ञ्ञो": 430,
    "ट": 431,
    "टं": 432,
    "टा": 433,
    "टां": 434,
    "टाा": 435,
    "टि": 436,
    "टिं": 437,
    "टी": 438,
    "टु": 439,
    "टुं": 440,
    "टू": 441,
    "टॆ": 442,
    "टे": 443,
    "टै": 444,
    "टैं": 445,
    "टो": 446,
    "टों": 447,
    "टौ": 448,
    "ट्": 449,
    "ट्चाा्च्च": 450,
    "ट्चि": 451,
    "ट्ट": 452,
    "ट्टं": 453,
    "ट्ट़": 454,
    "ट्टा": 455,
    "ट्टि": 456,
    "ट्टी": 457,
    "ट्टु": 458,
    "ट्टुं": 459,
    "ट्टूा्पु": 460,
    "ट्टॆ": 461,
    "ट्टै": 462,
    "ट्टो": 463,
    "ट्ट्": 464,
    "ट्ण": 465,
    "ट्त": 466,
    "ट्न": 467,
    "ट्नं": 468,
    "ट्प": 469,
    "ट्मि": 470,
    "ट्य": 471,
    "ट्यू": 472,
    "ट्र": 473,
    "ट्रा": 474,
    "ट्रि": 475,
    "ट्रॆ": 476,
    "ट्रे": 477,
    "ट्रै": 478,
    "ट्रो": 479,
    "ट्र्या": 480,
    "ट्ल": 481,
    "ट्लु": 482,
    "ट्व": 483,
    "ट्श्री": 484,
    "ट्स्": 485,
    "ट्॰": 486,
    "ट्‌": 487,
    "ट्‍": 488,
    "टॗ": 489,
    "ट‌": 490,
    "ठ": 491,
    "ठा": 492,
    "ठि": 493,
    "ठि॰": 494,
    "ठी": 495,
    "ठे": 496,
    "ठें": 497,
    "ठो": 498,
    "ठ्ठ": 499,
    "ड": 500,
    "डः": 501,
    "ड़": 502,
    "ड़ा": 503,
    "ड़ि": 504,
    "ड़ी": 505,
    "ड़े": 506,
    "ड़ौ": 507,
    "डा": 508,
    "डाः": 509,
    "डि": 510,
    "डिं": 511,
    "डी": 512,
    "डु": 513,
    "डू": 514,
    "डॆ": 515,
    "डॆं": 516,
    "डे": 517,
    "डै": 518,
    "डो": 519,
    "ड्": 520,
    "ड्क": 521,
    "ड्ड": 522,
    "ड्डा": 523,
    "ड्डि": 524,
    "ड्डु": 525,
    "ड्पे": 526,
    "ड्यं": 527,
    "ड्या": 528,
    "ड्यां": 529,
    "ड्यू": 530,
    "ड्र": 531,
    "ड्रा": 532,
    "ड्रि": 533,
    "ड्री": 534,
    "ड्स्": 535,
    "ड्‌": 536,
    "ड्‍": 537,
    "ढ": 538,
    "ढ़": 539,
    "ढ़ि": 540,
    "ढ़ी": 541,
    "ढि": 542,
    "ढु": 543,
    "ढे": 544,
    "ढे़": 545,
    "ण": 546,
    "णं": 547,
    "ण़": 548,
    "णा": 549,
    "णाः": 550,
    "णि": 551,
    "णी": 552,
    "णीं": 553,
    "णु": 554,
    "णु्": 555,
    "णू": 556,
    "णॆ": 557,
    "णे": 558,
    "णै": 559,
    "णो": 560,
    "ण्": 561,
    "ण्क": 562,
    "ण्का": 563,
    "ण्ट": 564,
    "ण्टं": 565,
    "ण्टा": 566,
    "ण्टि": 567,
    "ण्टी": 568,
    "ण्टु": 569,
    "ण्टू": 570,
    "ण्टॆ": 571,
    "ण्टे": 572,
    "ण्टै": 573,
    "ण्ट्": 574,
    "ण्ट्स्": 575,
    "ण्ट्‌": 576,
    "ण्ठु": 577,
    "ण्ड": 578,
    "ण्डा": 579,
    "ण्डि": 580,
    "ण्ण": 581,
    "ण्णा": 582,
    "ण्णि": 583,
    "ण्णी": 584,
    "ण्णु": 585,
    "ण्णू": 586,
    "ण्णू‍": 587,
    "ण्ता": 588,
    "ण्ति": 589,
    "ण्पु": 590,
    "ण्मै": 591,
    "ण्य": 592,
    "ण्या": 593,
    "ण्‌": 594,
    "ण‍": 595,
    "त": 596,
    "तं": 597,
    "तः": 598,
    "त़": 599,
    "त़ा": 600,
    "त़ि": 601,
    "ता": 602,
    "ताँ": 603,
    "तां": 604,
    "ता्का": 605,
    "ति": 606,
    "तिं": 607,
    "तिः": 608,
    "तिाि": 609,
    "ती": 610,
    "तीा्": 611,
    "तीा्त्त": 612,
    "तु": 613,
    "तुं": 614,
    "तू": 615,
    "तूा्": 616,
    "तू॰": 617,
    "तृ": 618,
    "तॆ": 619,
    "तॆॆ": 620,
    "तॆ्र्र": 621,
    "ते": 622,
    "तें": 623,
    "तै": 624,
    "तॊ": 625,
    "तो": 626,
    "तों": 627,
    "त्": 628,
    "त्उ": 629,
    "त्क": 630,
    "त्का": 631,
    "त्कू": 632,
    "त्त": 633,
    "त्ता": 634,
    "त्ति": 635,
    "त्ती": 636,
    "त्तु": 637,
    "त्तू": 638,
    "त्तॆ": 639,
    "त्ते": 640,
    "त्तेा्": 641,
    "त्तै": 642,
    "त्तॊ": 643,
    "त्तो": 644,
    "त्त्": 645,
    "त्त्प": 646,
    "त्त्य": 647,
    "त्त्व": 648,
    "त्त्‌": 649,
    "त्थ": 650,
    "त्थि": 651,
    "त्न": 652,
    "त्प": 653,
    "त्बे": 654,
    "त्भ": 655,
    "त्म": 656,
    "त्मा": 657,
    "त्य": 658,
    "त्या": 659,
    "त्यां": 660,
    "त्यु": 661,
    "त्ये": 662,
    "त्य्": 663,
    "त्र": 664,
    "त्रं": 665,
    "त्रं‌": 666,
    "त्रा": 667,
    "त्रि": 668,
    "त्री": 669,
    "त्रॆ": 670,
    "त्रे": 671,
    "त्रों": 672,
    "त्र्य": 673,
    "त्र्यं": 674,
    "त्व": 675,
    "त्वा": 676,
    "त्वि": 677,
    "त्स": 678,
    "त्सा": 679,
    "त्स्": 680,
    "त्स्ना": 681,
    "त्य़": 682,
    "त्य़ु": 683,
    "त्य़े": 684,
    "त्॰": 685,
    "त्‌": 686,
    "त्‍": 687,
    "त॰": 688,
    "त‍े": 689,
    "थ": 690,
    "था": 691,
    "थां": 692,
    "थि": 693,
    "थी": 694,
    "थु": 695,
    "थू": 696,
    "थृ": 697,
    "थे": 698,
    "थों": 699,
    "थ्य": 700,
    "द": 701,
    "दं": 702,
    "दा": 703,
    "दां": 704,
    "दि": 705,
    "दिं": 706,
    "दि॰": 707,
    "दी": 708,
    "दु": 709,
    "दुि": 710,
    "दू": 711,
    "दूं": 712,
    "दृ": 713,
    "दॆ": 714,
    "दे": 715,
    "दें": 716,
    "दै": 717,
    "दॊ": 718,
    "दो": 719,
    "दौ": 720,
    "द्": 721,
    "द्गु": 722,
    "द्घा": 723,
    "द्ट": 724,
    "द्टु": 725,
    "द्द": 726,
    "द्दा": 727,
    "द्दि": 728,
    "द्दु": 729,
    "द्ध": 730,
    "द्धा": 731,
    "द्धि": 732,
    "द्धी": 733,
    "द्ध्य": 734,
    "द्ध्यं": 735,
    "द्ब": 736,
    "द्बा": 737,
    "द्बि": 738,
    "द्बी": 739,
    "द्बो": 740,
    "द्म": 741,
    "द्मा": 742,
    "द्य": 743,
    "द्या": 744,
    "द्यो": 745,
    "द्र": 746,
    "द्रं": 747,
    "द्रा": 748,
    "द्रि": 749,
    "द्री": 750,
    "द्रु": 751,
    "द्रे": 752,
    "द्रौ": 753,
    "द्व": 754,
    "द्वा": 755,
    "द्वी": 756,
    "द्शि": 757,
    "द्य़": 758,
    "द्य़ा": 759,
    "द्॰": 760,
    "द्‌": 761,
    "ध": 762,
    "धा": 763,
    "धि": 764,
    "धिि": 765,
    "धी": 766,
    "धीं": 767,
    "धु": 768,
    "धू": 769,
    "धे": 770,
    "धो": 771,
    "ध्दा": 772,
    "ध्दी": 773,
    "ध्ब": 774,
    "ध्य": 775,
    "ध्या": 776,
    "ध्ये": 777,
    "ध्र": 778,
    "ध्व": 779,
    "ध॰": 780,
    "न": 781,
    "नं": 782,
    "नः": 783,
    "ना": 784,
    "नाँ": 785,
    "नां": 786,
    "नाि": 787,
    "ना्": 788,
    "नि": 789,
    "निं": 790,
    "निॕ": 791,
    "नि‍": 792,
    "नी": 793,
    "नीा्": 794,
    "नु": 795,
    "नुं": 796,
    "नू": 797,
    "नू॰": 798,
    "नृ": 799,
    "नॅ": 800,
    "नॆ": 801,
    "ने": 802,
    "नेे": 803,
    "नै": 804,
    "नॊ": 805,
    "नो": 806,
    "नौ": 807,
    "न्": 808,
    "न्कु": 809,
    "न्ट": 810,
    "न्टा": 811,
    "न्ट्र": 812,
    "न्ट्रा": 813,
    "न्ड": 814,
    "न्डि": 815,
    "न्डी": 816,
    "न्डे": 817,
    "न्त": 818,
    "न्ता": 819,
    "न्ति": 820,
    "न्ती": 821,
    "न्तु": 822,
    "न्तू": 823,
    "न्ते": 824,
    "न्तो": 825,
    "न्त्": 826,
    "न्त्य": 827,
    "न्त्र": 828,
    "न्त्रि": 829,
    "न्त्री": 830,
    "न्त्॰ा": 831,
    "न्त्॰ि": 832,
    "न्त्॰ी": 833,
    "न्थ": 834,
    "न्था": 835,
    "न्द": 836,
    "न्दा": 837,
    "न्दि": 838,
    "न्दी": 839,
    "न्दु": 840,
    "न्दे": 841,
    "न्दो": 842,
    "न्द्यो": 843,
    "न्द्र": 844,
    "न्द्रं": 845,
    "न्द्रा": 846,
    "न्द्री": 847,
    "न्द्र्र": 848,
    "न्द्॰": 849,
    "न्द्॰ी": 850,
    "न्द्‌": 851,
    "न्ध": 852,
    "न्धं": 853,
    "न्धा": 854,
    "न्धि": 855,
    "न्धी": 856,
    "न्ध्यं": 857,
    "न्न": 858,
    "न्नं": 859,
    "न्ना": 860,
    "न्नि": 861,
    "न्नि‍": 862,
    "न्नी": 863,
    "न्नु": 864,
    "न्नुं": 865,
    "न्नू": 866,
    "न्नै": 867,
    "न्न्": 868,
    "न्ब": 869,
    "न्म": 870,
    "न्मा": 871,
    "न्मे": 872,
    "न्मो": 873,
    "न्म्या": 874,
    "न्य": 875,
    "न्यः": 876,
    "न्या": 877,
    "न्यु": 878,
    "न्यू": 879,
    "न्ये": 880,
    "न्ऱ": 881,
    "न्ऱा": 882,
    "न्ऱॆ": 883,
    "न्ऱ्": 884,
    "न्ल": 885,
    "न्व": 886,
    "न्वी": 887,
    "न्वे": 888,
    "न्स": 889,
    "न्सा": 890,
    "न्सि": 891,
    "न्सी": 892,
    "न्सू": 893,
    "न्स्": 894,
    "न्स्टि": 895,
    "न्हा": 896,
    "न्हां": 897,
    "न्य़": 898,
    "न्य़ा": 899,
    "न्‌": 900,
    "न॰": 901,
    "न॰ः": 902,
    "नॱ": 903,
    "ऩ": 904,
    "ऩा": 905,
    "ऩा्": 906,
    "ऩि": 907,
    "ऩी": 908,
    "ऩु": 909,
    "ऩू": 910,
    "ऩे": 911,
    "ऩै": 912,
    "ऩ्": 913,
    "ऩ्टा्": 914,
    "ऩ्ट्": 915,
    "ऩ्ट्र": 916,
    "ऩ्ऩ": 917,
    "ऩ्ऩा": 918,
    "ऩ्ऩूा्": 919,
    "ऩ्ऩै": 920,
    "ऩ्ऩो": 921,
    "ऩ्पु": 922,
    "ऩ्ऱ": 923,
    "ऩ्ऱि": 924,
    "ऩ्वॆ": 925,
    "प": 926,
    "पं": 927,
    "पा": 928,
    "पाँ": 929,
    "पां": 930,
    "पा्": 931,
    "पि": 932,
    "पिं": 933,
    "पिा": 934,
    "पिाि": 935,
    "पिु": 936,
    "पी": 937,
    "पु": 938,
    "पू": 939,
    "पूँ": 940,
    "पॅ": 941,
    "पॆ": 942,
    "पॆं": 943,
    "पे": 944,
    "पेा": 945,
    "पै": 946,
    "पैा": 947,
    "पॉ": 948,
    "पॊ": 949,
    "पॊं": 950,
    "पो": 951,
    "पोा्चु": 952,
    "पौ": 953,
    "प्": 954,
    "प्का": 955,
    "प्टॆ": 956,
    "प्ण": 957,
    "प्त": 958,
    "प्तं": 959,
    "प्प": 960,
    "प्पं": 961,
    "प्पा": 962,
    "प्पि": 963,
    "प्पिं": 964,
    "प्पी": 965,
    "प्पु": 966,
    "प्पॆ": 967,
    "प्पे": 968,
    "प्पो": 969,
    "प्प्": 970,
    "प्प्मू": 971,
    "प्प्‌": 972,
    "प्या": 973,
    "प्र": 974,
    "प्रा": 975,
    "प्रां": 976,
    "प्राः": 977,
    "प्रि": 978,
    "प्री": 979,
    "प्रीि": 980,
    "प्रॅ": 981,
    "प्रॆ": 982,
    "प्रे": 983,
    "प्रै": 984,
    "प्रॊ": 985,
    "प्रो": 986,
    "प्रौ": 987,
    "प्ल": 988,
    "प्ला": 989,
    "प्ले": 990,
    "प्लै": 991,
    "प्लॉ": 992,
    "प्ष": 993,
    "प्स्": 994,
    "प्॰": 995,
    "प्॰ि": 996,
    "प्‌": 997,
    "प्‍": 998,
    "प॰": 999,
    "प‌": 1000,
    "फ": 1001,
    "फ़": 1002,
    "फा": 1003,
    "फां": 1004,
    "फि": 1005,
    "फी": 1006,
    "फु": 1007,
    "फॆ": 1008,
    "फे": 1009,
    "फै": 1010,
    "फो": 1011,
    "फ्": 1012,
    "फ्ट्": 1013,
    "फ्या": 1014,
    "फ्र": 1015,
    "फ्री": 1016,
    "फ्रू": 1017,
    "फ्रो": 1018,
    "फ्र‌": 1019,
    "फ्ला": 1020,
    "फ्॰े": 1021,
    "ब": 1022,
    "बँ": 1023,
    "बं": 1024,
    "बा": 1025,
    "बां": 1026,
    "बा‍": 1027,
    "बि": 1028,
    "बि॰": 1029,
    "बी": 1030,
    "बु": 1031,
    "बू": 1032,
    "बृ": 1033,
    "बॆ": 1034,
    "बॆं": 1035,
    "बे": 1036,
    "बें": 1037,
    "बै": 1038,
    "बैं": 1039,
    "बॉ": 1040,
    "बो": 1041,
    "बौ": 1042,
    "ब्": 1043,
    "ब्थ": 1044,
    "ब्द": 1045,
    "ब्दी": 1046,
    "ब्दु": 1047,
    "ब्ध": 1048,
    "ब्ब": 1049,
    "ब्बा": 1050,
    "ब्य": 1051,
    "ब्या": 1052,
    "ब्यां": 1053,
    "ब्यु": 1054,
    "ब्यू": 1055,
    "ब्र": 1056,
    "ब्रा": 1057,
    "ब्रि": 1058,
    "ब्रु": 1059,
    "ब्रू": 1060,
    "ब्रे": 1061,
    "ब्ल": 1062,
    "ब्लि": 1063,
    "ब्लु": 1064,
    "ब्लो": 1065,
    "ब्ल्यू": 1066,
    "ब्स": 1067,
    "ब्सि": 1068,
    "ब्य़": 1069,
    "ब्य़ा": 1070,
    "ब्॰ु": 1071,
    "ब्‌": 1072,
    "ब्‍": 1073,
    "ब॰": 1074,
    "बॱ": 1075,
    "भ": 1076,
    "भं": 1077,
    "भा": 1078,
    "भां": 1079,
    "भि": 1080,
    "भिं": 1081,
    "भी": 1082,
    "भु": 1083,
    "भू": 1084,
    "भृा": 1085,
    "भे": 1086,
    "भें": 1087,
    "भै": 1088,
    "भो": 1089,
    "भ्य": 1090,
    "भ्या": 1091,
    "भ्र": 1092,
    "भ॰": 1093,
    "म": 1094,
    "मं": 1095,
    "मः": 1096,
    "मा": 1097,
    "मां": 1098,
    "मााि": 1099,
    "मा‍": 1100,
    "मि": 1101,
    "मी": 1102,
    "मु": 1103,
    "मुं": 1104,
    "मुॱ": 1105,
    "मू": 1106,
    "मूा्त्ति": 1107,
    "मृ": 1108,
    "मॆ": 1109,
    "मे": 1110,
    "में": 1111,
    "मै": 1112,
    "मैं": 1113,
    "मैा": 1114,
    "मॊ": 1115,
    "मो": 1116,
    "मों": 1117,
    "मौ": 1118,
    "म्": 1119,
    "म्A": 1120,
    "म्ः": 1121,
    "म्का": 1122,
    "म्के": 1123,
    "म्प": 1124,
    "म्पा": 1125,
    "म्पि": 1126,
    "म्पु": 1127,
    "म्पू": 1128,
    "म्पे": 1129,
    "म्पो": 1130,
    "म्प्": 1131,
    "म्प्य": 1132,
    "म्प्या": 1133,
    "म्प्यु": 1134,
    "म्प्यू": 1135,
    "म्प्र": 1136,
    "म्प्वा": 1137,
    "म्प्॰": 1138,
    "म्ब": 1139,
    "म्बा": 1140,
    "म्बि": 1141,
    "म्बे": 1142,
    "म्ब्न": 1143,
    "म्भ": 1144,
    "म्भा": 1145,
    "म्भु": 1146,
    "म्म": 1147,
    "म्मा": 1148,
    "म्मि": 1149,
    "म्मु": 1150,
    "म्मू": 1151,
    "म्मे": 1152,
    "म्य": 1153,
    "म्या": 1154,
    "म्यां": 1155,
    "म्यु": 1156,
    "म्यू": 1157,
    "म्र": 1158,
    "म्रि": 1159,
    "म्श": 1160,
    "म्स": 1161,
    "म्ह": 1162,
    "म्ही": 1163,
    "म्य़": 1164,
    "म्य़ो": 1165,
    "म्॰ा": 1166,
    "म॰": 1167,
    "मॱ": 1168,
    "य": 1169,
    "यं": 1170,
    "य़": 1171,
    "य़ा": 1172,
    "य़े": 1173,
    "या": 1174,
    "यां": 1175,
    "याा्": 1176,
    "याा्पे": 1177,
    "या‍": 1178,
    "यि": 1179,
    "यिाि": 1180,
    "यी": 1181,
    "यु": 1182,
    "युं": 1183,
    "यू": 1184,
    "यॆ": 1185,
    "ये": 1186,
    "यें": 1187,
    "यै": 1188,
    "यॊ": 1189,
    "यो": 1190,
    "यों": 1191,
    "य्": 1192,
    "य्क्का": 1193,
    "य्क्कां": 1194,
    "य्क्कु": 1195,
    "य्क्क्": 1196,
    "य्त": 1197,
    "य्न्त": 1198,
    "य्भ": 1199,
    "य्म": 1200,
    "य्मा": 1201,
    "य्य": 1202,
    "य्यु": 1203,
    "य्यो": 1204,
    "य्वु": 1205,
    "य्स्री": 1206,
    "य्‌": 1207,
    "र": 1208,
    "रं": 1209,
    "ऱ": 1210,
    "रा": 1211,
    "रां": 1212,
    "राा्": 1213,
    "रा्": 1214,
    "रि": 1215,
    "रि॰": 1216,
    "री": 1217,
    "रीं": 1218,
    "रु": 1219,
    "रुं": 1220,
    "रु‍": 1221,
    "रू": 1222,
    "रॆ": 1223,
    "रॆं": 1224,
    "रे": 1225,
    "रें": 1226,
    "रै": 1227,
    "रॉँ": 1228,
    "रॊ": 1229,
    "रो": 1230,
    "र्": 1231,
    "र्ऎ": 1232,
    "र्क": 1233,
    "र्का": 1234,
    "र्कि": 1235,
    "र्किं": 1236,
    "र्कॆ": 1237,
    "र्के": 1238,
    "र्कॊं": 1239,
    "र्ग": 1240,
    "र्गा": 1241,
    "र्गि": 1242,
    "र्च": 1243,
    "र्चा": 1244,
    "र्चि": 1245,
    "र्चू": 1246,
    "र्च्चि": 1247,
    "र्ज": 1248,
    "र्जा": 1249,
    "र्जि": 1250,
    "र्जी": 1251,
    "र्ट": 1252,
    "र्टि": 1253,
    "र्टी": 1254,
    "र्ट्": 1255,
    "र्ट्स्": 1256,
    "र्ड": 1257,
    "र्डी": 1258,
    "र्डॆ": 1259,
    "र्ण": 1260,
    "र्णा": 1261,
    "र्णि": 1262,
    "र्णी": 1263,
    "र्णो": 1264,
    "र्त": 1265,
    "र्ति": 1266,
    "र्ती": 1267,
    "र्तु": 1268,
    "र्ते": 1269,
    "र्त्त": 1270,
    "र्त्ता": 1271,
    "र्थ": 1272,
    "र्थं": 1273,
    "र्थि": 1274,
    "र्द": 1275,
    "र्दि": 1276,
    "र्दे": 1277,
    "र्द्": 1278,
    "र्ध": 1279,
    "र्न": 1280,
    "र्ना": 1281,
    "र्नी": 1282,
    "र्प": 1283,
    "र्पा": 1284,
    "र्पे": 1285,
    "र्पै": 1286,
    "र्पॊ": 1287,
    "र्पो": 1288,
    "र्फे": 1289,
    "र्ब": 1290,
    "र्बा": 1291,
    "र्बि": 1292,
    "र्बो": 1293,
    "र्ब्ब": 1294,
    "र्भ": 1295,
    "र्भी": 1296,
    "र्म": 1297,
    "र्मा": 1298,
    "र्मि": 1299,
    "र्मी": 1300,
    "र्मु": 1301,
    "र्मे": 1302,
    "र्म्": 1303,
    "र्य": 1304,
    "र्या": 1305,
    "र्य्य": 1306,
    "र्य्या": 1307,
    "र्य्य़": 1308,
    "र्य्य़ा": 1309,
    "र्र": 1310,
    "र्रा": 1311,
    "र्रि": 1312,
    "र्ल": 1313,
    "र्लु": 1314,
    "र्लो": 1315,
    "र्व": 1316,
    "र्वा": 1317,
    "र्वि": 1318,
    "र्वे": 1319,
    "र्श": 1320,
    "र्शि": 1321,
    "र्ष": 1322,
    "र्षा": 1323,
    "र्षि": 1324,
    "र्षे": 1325,
    "र्स": 1326,
    "र्सि": 1327,
    "र्सिं": 1328,
    "र्सी": 1329,
    "र्सु": 1330,
    "र्स्": 1331,
    "र्‌": 1332,
    "र॰": 1333,
    "रॱ": 1334,
    "र‌": 1335,
    "र‍": 1336,
    "ऱ": 1337,
    "ऱं": 1338,
    "ऱा": 1339,
    "ऱि": 1340,
    "ऱिं": 1341,
    "ऱी": 1342,
    "ऱु": 1343,
    "ऱुं": 1344,
    "ऱू": 1345,
    "ऱॆ": 1346,
    "ऱे": 1347,
    "ऱै": 1348,
    "ऱॊ": 1349,
    "ऱो": 1350,
    "ऱ्": 1351,
    "ऱ्क": 1352,
    "ऱ्का": 1353,
    "ऱ्कु": 1354,
    "ऱ्के": 1355,
    "ऱ्प": 1356,
    "ऱ्पू": 1357,
    "ऱ्ऱ": 1358,
    "ऱ्ऱं": 1359,
    "ऱ्ऱा": 1360,
    "ऱ्ऱि": 1361,
    "ऱ्ऱी": 1362,
    "ऱ्ऱु": 1363,
    "ऱ्ऱे": 1364,
    "ऱ्ऱो": 1365,
    "ऱ्ऱ्": 1366,
    "ऱ्ऱ्यू": 1367,
    "ऱ्ऱ्ऱ्‌": 1368,
    "ल": 1369,
    "लं": 1370,
    "ला": 1371,
    "लां": 1372,
    "लि": 1373,
    "लिं": 1374,
    "लिा": 1375,
    "ली": 1376,
    "लु": 1377,
    "लुं": 1378,
    "लू": 1379,
    "लूा्": 1380,
    "लॆ": 1381,
    "लॆं": 1382,
    "ले": 1383,
    "लै": 1384,
    "लॉ": 1385,
    "लो": 1386,
    "लोँ": 1387,
    "लौ": 1388,
    "ल्": 1389,
    "ल्क": 1390,
    "ल्कि": 1391,
    "ल्कै": 1392,
    "ल्क्कु": 1393,
    "ल्क्स्": 1394,
    "ल्गू": 1395,
    "ल्ट": 1396,
    "ल्टि": 1397,
    "ल्टी": 1398,
    "ल्टु": 1399,
    "ल्ट्": 1400,
    "ल्ट्रा": 1401,
    "ल्ड": 1402,
    "ल्डीं": 1403,
    "ल्ड्र": 1404,
    "ल्थ": 1405,
    "ल्दा": 1406,
    "ल्नी": 1407,
    "ल्प": 1408,
    "ल्पी": 1409,
    "ल्पॊ": 1410,
    "ल्फे": 1411,
    "ल्य": 1412,
    "ल्या": 1413,
    "ल्यां": 1414,
    "ल्यु": 1415,
    "ल्ल": 1416,
    "ल्लं": 1417,
    "ल्ला": 1418,
    "ल्ला‍": 1419,
    "ल्लि": 1420,
    "ल्ली": 1421,
    "ल्लु": 1422,
    "ल्लू": 1423,
    "ल्लूाि": 1424,
    "ल्लूा्": 1425,
    "ल्लॆ": 1426,
    "ल्ले": 1427,
    "ल्लै": 1428,
    "ल्ल्": 1429,
    "ल्ल्‌": 1430,
    "ल्वि": 1431,
    "ल्वॆ": 1432,
    "ल्वे": 1433,
    "ल्स्": 1434,
    "ल्हा": 1435,
    "ल्हे": 1436,
    "ल्ह्या": 1437,
    "ल्‌": 1438,
    "ल्‍": 1439,
    "ल॰": 1440,
    "लॱ": 1441,
    "ळ": 1442,
    "ळं": 1443,
    "ळा": 1444,
    "ळां": 1445,
    "ळा्": 1446,
    "ळि": 1447,
    "ळिं": 1448,
    "ळी": 1449,
    "ळु": 1450,
    "ळुं": 1451,
    "ळू": 1452,
    "ळॆ": 1453,
    "ळे": 1454,
    "ळै": 1455,
    "ळो": 1456,
    "ळ्": 1457,
    "ळ्अ": 1458,
    "ळ्ट": 1459,
    "ळ्प": 1460,
    "ळ्मि": 1461,
    "ळ्मी": 1462,
    "ळ्या": 1463,
    "ळ्यां": 1464,
    "ळ्ळ": 1465,
    "ळ्ळा": 1466,
    "ळ्ळि": 1467,
    "ळ्ळी": 1468,
    "ळ्ळु": 1469,
    "ळ‍": 1470,
    "ऴ": 1471,
    "ऴं": 1472,
    "ऴा": 1473,
    "ऴि": 1474,
    "ऴि‌": 1475,
    "ऴु": 1476,
    "ऴॆ": 1477,
    "ऴेां": 1478,
    "ऴै": 1479,
    "ऴों": 1480,
    "ऴ्": 1481,
    "ऴ्क": 1482,
    "ऴ्च्": 1483,
    "ऴ्त्त": 1484,
    "ऴ्न": 1485,
    "ऴ्ना": 1486,
    "ऴ्वु": 1487,
    "ऴ्स्": 1488,
    "ऴ्‌": 1489,
    "व": 1490,
    "वं": 1491,
    "वः": 1492,
    "व़": 1493,
    "वा": 1494,
    "वां": 1495,
    "वा्": 1496,
    "वा्स्": 1497,
    "वि": 1498,
    "विं": 1499,
    "वि॰": 1500,
    "विॱ": 1501,
    "वी": 1502,
    "वीं": 1503,
    "वीः": 1504,
    "वु": 1505,
    "वुं": 1506,
    "वू": 1507,
    "वृ": 1508,
    "वॅ": 1509,
    "वॆ": 1510,
    "वॆं": 1511,
    "वे": 1512,
    "वेा्ल्टु": 1513,
    "वै": 1514,
    "वॉ": 1515,
    "वॊ": 1516,
    "वो": 1517,
    "व्": 1518,
    "व्भ": 1519,
    "व्य": 1520,
    "व्या": 1521,
    "व्र": 1522,
    "व्व": 1523,
    "व्वं": 1524,
    "व्वि": 1525,
    "व्वी": 1526,
    "व्वू": 1527,
    "व्वे": 1528,
    "व्ह": 1529,
    "व्हि": 1530,
    "व्ही": 1531,
    "व्‌": 1532,
    "व॰": 1533,
    "व‌": 1534,
    "श": 1535,
    "शं": 1536,
    "शा": 1537,
    "शां": 1538,
    "शाः": 1539,
    "शा‍": 1540,
    "शि": 1541,
    "शी": 1542,
    "शीू": 1543,
    "शु": 1544,
    "शू": 1545,
    "शृ": 1546,
    "शॅ": 1547,
    "शॆ": 1548,
    "शे": 1549,
    "शै": 1550,
    "शो": 1551,
    "श्": 1552,
    "श्च": 1553,
    "श्चि": 1554,
    "श्ते": 1555,
    "श्ब": 1556,
    "श्मा": 1557,
    "श्य": 1558,
    "श्र": 1559,
    "श्रा": 1560,
    "श्रि": 1561,
    "श्री": 1562,
    "श्रु": 1563,
    "श्रे": 1564,
    "श्व": 1565,
    "श्वा": 1566,
    "श्श": 1567,
    "श्शि": 1568,
    "श्शे": 1569,
    "श्ष": 1570,
    "श्स": 1571,
    "श्य़": 1572,
    "श्॰ी": 1573,
    "श्ॱ": 1574,
    "श्‍": 1575,
    "शॗ": 1576,
    "ष": 1577,
    "षं": 1578,
    "षा": 1579,
    "षि": 1580,
    "षी": 1581,
    "षु": 1582,
    "षू": 1583,
    "षे": 1584,
    "षो": 1585,
    "ष्": 1586,
    "ष्का": 1587,
    "ष्कृ": 1588,
    "ष्ट": 1589,
    "ष्टा": 1590,
    "ष्टि": 1591,
    "ष्टी": 1592,
    "ष्टु": 1593,
    "ष्ट्र": 1594,
    "ष्ट्रा": 1595,
    "ष्ट्री": 1596,
    "ष्ट्॰": 1597,
    "ष्ट्॰ी": 1598,
    "ष्ठ": 1599,
    "ष्ठा": 1600,
    "ष्ण": 1601,
    "ष्णा": 1602,
    "ष्णू": 1603,
    "ष्ना": 1604,
    "ष्पा": 1605,
    "ष्म": 1606,
    "ष्मॆ": 1607,
    "ष्य": 1608,
    "ष्यं": 1609,
    "ष्‌": 1610,
    "ष्‍": 1611,
    "षॢ": 1612,
    "स": 1613,
    "सं": 1614,
    "सं‌": 1615,
    "सः": 1616,
    "स़": 1617,
    "स़ा": 1618,
    "स़ि": 1619,
    "सा": 1620,
    "सां": 1621,
    "सा‍": 1622,
    "सि": 1623,
    "सिं": 1624,
    "सि॰": 1625,
    "सी": 1626,
    "सु": 1627,
    "सुँ": 1628,
    "सुं": 1629,
    "सू": 1630,
    "सृ": 1631,
    "सृं": 1632,
    "सॆ": 1633,
    "से": 1634,
    "सें": 1635,
    "से‍": 1636,
    "सै": 1637,
    "सैं": 1638,
    "सो": 1639,
    "सोँ": 1640,
    "सौ": 1641,
    "स्": 1642,
    "स्क": 1643,
    "स्का": 1644,
    "स्कु": 1645,
    "स्कू": 1646,
    "स्कृ": 1647,
    "स्क्का": 1648,
    "स्गि": 1649,
    "स्जि": 1650,
    "स्जी": 1651,
    "स्ट": 1652,
    "स्टा": 1653,
    "स्टु": 1654,
    "स्टॆ": 1655,
    "स्टे": 1656,
    "स्टो": 1657,
    "स्ट्": 1658,
    "स्ट्र": 1659,
    "स्ट्री": 1660,
    "स्ट्रे": 1661,
    "स्त": 1662,
    "स्तं": 1663,
    "स्ता": 1664,
    "स्ति": 1665,
    "स्तु": 1666,
    "स्तू": 1667,
    "स्तृ": 1668,
    "स्तॆ": 1669,
    "स्ते": 1670,
    "स्त्र": 1671,
    "स्त्रा": 1672,
    "स्थ": 1673,
    "स्था": 1674,
    "स्थि": 1675,
    "स्थी": 1676,
    "स्थॆ": 1677,
    "स्थे": 1678,
    "स्थ्य": 1679,
    "स्दु": 1680,
    "स्ध": 1681,
    "स्धा": 1682,
    "स्धॆ": 1683,
    "स्नि": 1684,
    "स्ने": 1685,
    "स्प": 1686,
    "स्पा": 1687,
    "स्पि": 1688,
    "स्पृ": 1689,
    "स्पॆ": 1690,
    "स्पे": 1691,
    "स्प्पि": 1692,
    "स्फो": 1693,
    "स्ब": 1694,
    "स्बा": 1695,
    "स्भा": 1696,
    "स्म": 1697,
    "स्मा": 1698,
    "स्मृ": 1699,
    "स्य": 1700,
    "स्यः": 1701,
    "स्र": 1702,
    "स्ऱी": 1703,
    "स्री": 1704,
    "स्ऱ्ऱ": 1705,
    "स्ऱ्ऱा": 1706,
    "स्ऱ्ऱि": 1707,
    "स्ऱ्ऱु": 1708,
    "स्ऱ्ऱे": 1709,
    "स्ऱ्ऱै": 1710,
    "स्ऱ्ऱो": 1711,
    "स्ऱ्ऱ्": 1712,
    "स्ला": 1713,
    "स्लि": 1714,
    "स्लॊ": 1715,
    "स्व": 1716,
    "स्वं": 1717,
    "स्वा": 1718,
    "स्वे": 1719,
    "स्सा": 1720,
    "स्सि": 1721,
    "स्सु": 1722,
    "स्सो": 1723,
    "स्स्": 1724,
    "स्स्मा": 1725,
    "स्स्‌": 1726,
    "स्॰": 1727,
    "स्॰ा": 1728,
    "स्ॱ": 1729,
    "स्‌": 1730,
    "स्‍": 1731,
    "सॗ": 1732,
    "स॰": 1733,
    "सॱ": 1734,
    "ह": 1735,
    "हं": 1736,
    "हः": 1737,
    "हा": 1738,
    "हां": 1739,
    "हा‍": 1740,
    "हि": 1741,
    "हिं": 1742,
    "हिः": 1743,
    "हि॰": 1744,
    "ही": 1745,
    "हीं": 1746,
    "हु": 1747,
    "हु॰": 1748,
    "हू": 1749,
    "हृ": 1750,
    "हॆ": 1751,
    "हे": 1752,
    "हें": 1753,
    "है": 1754,
    "है‍": 1755,
    "हॉ": 1756,
    "हॊ": 1757,
    "हो": 1758,
    "ह्": 1759,
    "ह्दि": 1760,
    "ह्न": 1761,
    "ह्म": 1762,
    "ह्य": 1763,
    "ह्या": 1764,
    "ह्रू": 1765,
    "ह॰": 1766,
    "हॱ": 1767,
    "ऽ": 1768,
    "ा": 1769,
    "े": 1770,
    "ॎ": 1771,
    "ॐ": 1772,
    "ज़ो": 1773,
    "ज़॰": 1774,
    "ड़": 1775,
    "ड़ा": 1776,
    "ड़ी": 1777,
    "ड़े": 1778,
    "ड़ै": 1779,
    "ड़ोु": 1780,
    "ड़्ह": 1781,
    "ड़्हे": 1782,
    "ढ़ि": 1783,
    "ढ़ी": 1784,
    "ढ़ो": 1785,
    "फ़": 1786,
    "फ़्ट": 1787,
    "फ़्दु": 1788,
    "य़": 1789,
    "य़ं": 1790,
    "य़ः": 1791,
    "य़़": 1792,
    "य़ा": 1793,
    "य़ां": 1794,
    "य़ि": 1795,
    "य़ी": 1796,
    "य़ु": 1797,
    "य़े": 1798,
    "य़ो": 1799,
    "य़्या": 1800,
    "य़ॗ": 1801,
    "ॠ": 1802,
    "।": 1803,
    "।‍": 1804,
    "॥": 1805,
    "०": 1806,
    "१": 1807,
    "१्को": 1808,
    "१‌": 1809,
    "२": 1810,
    "२़": 1811,
    "२ा": 1812,
    "३": 1813,
    "४": 1814,
    "५": 1815,
    "५ु": 1816,
    "५ो": 1817,
    "६": 1818,
    "७": 1819,
    "८": 1820,
    "९": 1821,
    "॰": 1822,
    "॰ा": 1823,
    "॰ि": 1824,
    "॰िः": 1825,
    "॰ी": 1826,
    "॰ु": 1827,
    "॰ू": 1828,
    "॰े": 1829,
    "॰ो": 1830,
    "॰्थ": 1831,
    "॰्प": 1832,
    "॰्ब": 1833,
    "॰्मा": 1834,
    "॰्य": 1835,
    "॰्य्य": 1836,
    "॰्य्या": 1837,
    "॰्ष": 1838,
    "ॱ": 1839,
    "ॱा": 1840,
    "ॱि": 1841,
    "ॱे": 1842,
    "ॱो": 1843,
    "ॳ": 1844,
    "ॳे": 1845,
    "ॷ": 1846,
    "ॺ": 1847,
    "ॺ‌": 1848,
    "ॺ‍": 1849,
    "ॻ": 1850,
    "ॻॆ": 1851,
    "ॻ्ऱ": 1852,
    "ॻ्ऱॆ": 1853,
    "ॻ्ऱ्": 1854,
    "ॻ्ऱ्स्": 1855,
    "ॻ‌": 1856,
    "ॻ‌‌": 1857,
    "ॻ‍": 1858,
    "ॼ": 1859,
    "ॼ‌": 1860,
    "ॼ‍": 1861,
    "ॼ‍‍": 1862,
    "ॽ": 1863,
    "ॽ‌": 1864,
    "ॽ‍": 1865,
    "ॾ": 1866,
    "ॾ‌": 1867,
    "ॾ‌‌": 1868,
    "​": 1869
  },
  "metadata": {
    "tag": "zs_loso_rungB_malayalam",
    "num_graphemes": 1868,
    "space": "shared-abugida-pivot"
  }
}