{
  "grapheme2idx": {
    "<blank>": 0,
    "<unk>": 1,
    " ‌": 2,
    "!": 3,
    "\"": 4,
    "&": 5,
    "(": 6,
    ")": 7,
    ",": 8,
    "-": 9,
    ".": 10,
    "/": 11,
    "0": 12,
    "1": 13,
    "2": 14,
    "3": 15,
    "3ः": 16,
    "4": 17,
    "5": 18,
    "6": 19,
    "7": 20,
    "8": 21,
    "9": 22,
    ":": 23,
    "?": 24,
    "A": 25,
    "D": 26,
    "E": 27,
    "G": 28,
    "H": 29,
    "I": 30,
    "L": 31,
    "N": 32,
    "O": 33,
    "P": 34,
    "U": 35,
    "V": 36,
    "W": 37,
    "c": 38,
    "|": 39,
    "°": 40,
    "×": 41,
    "अ": 42,
    "अं": 43,
    "अि": 44,
    "अे": 45,
    "अ॰": 46,
    "अॱ": 47,
    "आ": 48,
    "आं": 49,
    "आा्": 50,
    "इ": 51,
    "इँ": 52,
    "इं": 53,
    "इ॰": 54,
    "इॱ": 55,
    "ई": 56,
    "ईं": 57,
    "ईः": 58,
    "उ": 59,
    "उं": 60,
    "उाि": 61,
    "उॱ": 62,
    "ऊ": 63,
    "ऊँ": 64,
    "ऊं": 65,
    "ऊा्": 66,
    "ऋ": 67,
    "ऎ": 68,
    "ऎं": 69,
    "ऎ‍": 70,
    "ए": 71,
    "एँ": 72,
    "एः": 73,
    "एा": 74,
    "ऐ": 75,
    "ऐं": 76,
    "ऑ": 77,
    "ऒ": 78,
    "ऒा्क्स्": 79,
    "ऒ‌": 80,
    "ओ": 81,
    "ओं": 82,
    "ओ्बा": 83,
    "औ": 84,
    "औं": 85,
    "क": 86,
    "कं": 87,
    "कं‌": 88,
    "का": 89,
    "कां": 90,
    "काुं": 91,
    "काे": 92,
    "का्": 93,
    "का‍": 94,
    "का‍‌": 95,
    "कि": 96,
    "किं": 97,
    "किाि": 98,
    "कि‍": 99,
    "की": 100,
    "कु": 101,
    "कुं": 102,
    "कु॰": 103,
    "कू": 104,
    "कृ": 105,
    "कॅा": 106,
    "कॆ": 107,
    "कॆं": 108,
    "के": 109,
    "कें": 110,
    "केा": 111,
    "केा्": 112,
    "केॆ्टा": 113,
    "केे": 114,
    "के‌": 115,
    "कै": 116,
    "कॉ": 117,
    "कॊ": 118,
    "कॊं": 119,
    "कॊॕ": 120,
    "को": 121,
    "कों": 122,
    "कों‌": 123,
    "कौ": 124,
    "क्": 125,
    "क्ए": 126,
    "क्क": 127,
    "क्कं": 128,
    "क्का": 129,
    "क्कि": 130,
    "क्कु": 131,
    "क्कुं": 132,
    "क्कू": 133,
    "क्कॆ": 134,
    "क्के": 135,
    "क्कॊ": 136,
    "क्को": 137,
    "क्क्": 138,
    "क्क्‌": 139,
    "क्कॗ": 140,
    "क्ट": 141,
    "क्टा्": 142,
    "क्टू": 143,
    "क्टो": 144,
    "क्ट्रि": 145,
    "क्त": 146,
    "क्तां": 147,
    "क्ति": 148,
    "क्ते": 149,
    "क्नो": 150,
    "क्मि": 151,
    "क्य": 152,
    "क्या": 153,
    "क्यू": 154,
    "क्र": 155,
    "क्रं": 156,
    "क्रः": 157,
    "क्रा": 158,
    "क्रि": 159,
    "क्री": 160,
    "क्रो": 161,
    "क्ळे": 162,
    "क्वॆ": 163,
    "क्श": 164,
    "क्ष": 165,
    "क्षा": 166,
    "क्षां": 167,
    "क्षि": 168,
    "क्षिं": 169,
    "क्षी": 170,
    "क्षॆ": 171,
    "क्षे": 172,
    "क्ष्मि": 173,
    "क्ष्मिॕ": 174,
    "क्ष्मी": 175,
    "क्ष्य": 176,
    "क्स": 177,
    "क्सी": 178,
    "क्स्": 179,
    "क्स्टा": 180,
    "क्य़ा": 181,
    "क्‌": 182,
    "क्‍": 183,
    "क॰": 184,
    "क‌": 185,
    "क‍": 186,
    "क‍ी": 187,
    "ख": 188,
    "खं": 189,
    "खा": 190,
    "खां": 191,
    "खि": 192,
    "खी": 193,
    "खु": 194,
    "खू": 195,
    "खॆ": 196,
    "खे": 197,
    "खें": 198,
    "खै": 199,
    "खो": 200,
    "ख्त": 201,
    "ख्मि": 202,
    "ख्य": 203,
    "ख्यु": 204,
    "ख्यॆ": 205,
    "ख्री": 206,
    "ग": 207,
    "गं": 208,
    "गा": 209,
    "गां": 210,
    "गि": 211,
    "गी": 212,
    "गु": 213,
    "गुं": 214,
    "गुः": 215,
    "गू": 216,
    "गृ": 217,
    "गॆ": 218,
    "गे": 219,
    "गै": 220,
    "गॊ": 221,
    "गॊं": 222,
    "गो": 223,
    "गों": 224,
    "गौ": 225,
    "ग्": 226,
    "ग्ई": 227,
    "ग्ग": 228,
    "ग्गॆ": 229,
    "ग्ण": 230,
    "ग्धा": 231,
    "ग्ना": 232,
    "ग्नि": 233,
    "ग्भ": 234,
    "ग्य": 235,
    "ग्या": 236,
    "ग्ये": 237,
    "ग्र": 238,
    "ग्रं": 239,
    "ग्रा": 240,
    "ग्रि": 241,
    "ग्री": 242,
    "ग्रू": 243,
    "ग्रो": 244,
    "ग्लं": 245,
    "ग्ला": 246,
    "ग्लां": 247,
    "ग्ली": 248,
    "ग्वा": 249,
    "ग्ष": 250,
    "ग्स": 251,
    "ग्य़ा": 252,
    "घ": 253,
    "घा": 254,
    "घां": 255,
    "घु": 256,
    "घे": 257,
    "घो": 258,
    "घ्या": 259,
    "घ्र": 260,
    "ङ": 261,
    "ङ्": 262,
    "ङ्क": 263,
    "ङ्का": 264,
    "ङ्कि": 265,
    "ङ्कु": 266,
    "ङ्के": 267,
    "ङ्कै": 268,
    "ङ्को": 269,
    "ङ्क्": 270,
    "ङ्क्षा": 271,
    "ङ्ग": 272,
    "ङ्गा": 273,
    "ङ्ङ": 274,
    "ङ्ङा": 275,
    "ङ्ङि": 276,
    "ङ्ङो": 277,
    "ङ्ङों": 278,
    "ङ्चा": 279,
    "ङ्ट": 280,
    "ङ्ष": 281,
    "ङ्‌": 282,
    "च": 283,
    "चं": 284,
    "चा": 285,
    "चां": 286,
    "चा्": 287,
    "चा्जि": 288,
    "चा्व": 289,
    "चि": 290,
    "चिं": 291,
    "ची": 292,
    "चु": 293,
    "चू": 294,
    "चॆ": 295,
    "चे": 296,
    "चें": 297,
    "चै": 298,
    "चॉ": 299,
    "चॊ": 300,
    "चो": 301,
    "चों": 302,
    "चौ": 303,
    "च्": 304,
    "च्च": 305,
    "च्चं": 306,
    "च्चा": 307,
    "च्चि": 308,
    "च्ची": 309,
    "च्चूा्": 310,
    "च्चे": 311,
    "च्चेाि": 312,
    "च्च्": 313,
    "च्छ": 314,
    "च्छा": 315,
    "च्छु": 316,
    "च्छे": 317,
    "च्य": 318,
    "च्या": 319,
    "च्यु": 320,
    "च्र": 321,
    "च्य़ु": 322,
    "च॑": 323,
    "चॖे": 324,
    "च॰": 325,
    "छ": 326,
    "छा": 327,
    "छु": 328,
    "छे": 329,
    "छें": 330,
    "छो": 331,
    "ज": 332,
    "जं": 333,
    "ज़": 334,
    "जा": 335,
    "जा्": 336,
    "जि": 337,
    "जिं": 338,
    "जिॱ": 339,
    "जी": 340,
    "जीं": 341,
    "जु": 342,
    "जुॱ": 343,
    "जू": 344,
    "जॆ": 345,
    "जे": 346,
    "जें": 347,
    "जै": 348,
    "जो": 349,
    "ज्": 350,
    "ज्जं": 351,
    "ज्ज्": 352,
    "ज्ज्व": 353,
    "ज्ञ": 354,
    "ज्ञा": 355,
    "ज्न": 356,
    "ज्य": 357,
    "ज्यी": 358,
    "ज्यु": 359,
    "ज्यू": 360,
    "ज्यो": 361,
    "ज्यों": 362,
    "ज्य़": 363,
    "ज॰": 364,
    "झ": 365,
    "झा": 366,
    "झां": 367,
    "झु": 368,
    "झे": 369,
    "झॉ": 370,
    "ञ": 371,
    "ञा": 372,
    "ञा्": 373,
    "ञ्च": 374,
    "ञ्चा": 375,
    "ञ्चि": 376,
    "ञ्ज": 377,
    "ञ्जा": 378,
    "ञ्जि": 379,
    "ञ्ञ": 380,
    "ञ्ञा": 381,
    "ञ्ञि": 382,
    "ट": 383,
    "टं": 384,
    "टा": 385,
    "टाा": 386,
    "टि": 387,
    "टिं": 388,
    "टिॱ": 389,
    "टी": 390,
    "टु": 391,
    "टुं": 392,
    "टू": 393,
    "टॅ": 394,
    "टॆ": 395,
    "टॆं": 396,
    "टे": 397,
    "टे्नि": 398,
    "टै": 399,
    "टॉ": 400,
    "टो": 401,
    "टों": 402,
    "टोाि": 403,
    "टौ": 404,
    "ट्": 405,
    "ट्क": 406,
    "ट्ङ": 407,
    "ट्च": 408,
    "ट्चाा्च्च": 409,
    "ट्चि": 410,
    "ट्ट": 411,
    "ट्टा": 412,
    "ट्टाा्": 413,
    "ट्टि": 414,
    "ट्टी": 415,
    "ट्टु": 416,
    "ट्टुं": 417,
    "ट्टॆ": 418,
    "ट्टै": 419,
    "ट्टो": 420,
    "ट्ट्": 421,
    "ट्ण": 422,
    "ट्नं": 423,
    "ट्प": 424,
    "ट्य": 425,
    "ट्यू": 426,
    "ट्र": 427,
    "ट्रा": 428,
    "ट्रि": 429,
    "ट्रॆ": 430,
    "ट्रे": 431,
    "ट्रो": 432,
    "ट्ल": 433,
    "ट्लि": 434,
    "ट्लु": 435,
    "ट्श्री": 436,
    "ट्स्": 437,
    "ट्‌": 438,
    "टॗ": 439,
    "ठ": 440,
    "ठा": 441,
    "ठां": 442,
    "ठि": 443,
    "ठि॰": 444,
    "ठी": 445,
    "ठु": 446,
    "ठे": 447,
    "ठो": 448,
    "ठ्ठ": 449,
    "ठ॰": 450,
    "ड": 451,
    "डं": 452,
    "ड़": 453,
    "ड़ा": 454,
    "ड़ि": 455,
    "ड़ी": 456,
    "ड़े": 457,
    "ड़ौ": 458,
    "डा": 459,
    "डां": 460,
    "डि": 461,
    "डिं": 462,
    "डी": 463,
    "डीं": 464,
    "डु": 465,
    "डुं": 466,
    "डू": 467,
    "डॆ": 468,
    "डॆं": 469,
    "डे": 470,
    "डै": 471,
    "डो": 472,
    "डों": 473,
    "ड्": 474,
    "ड्क": 475,
    "ड्ड": 476,
    "ड्डा": 477,
    "ड्डि": 478,
    "ड्डु": 479,
    "ड्यं": 480,
    "ड्या": 481,
    "ड्यां": 482,
    "ड्रा": 483,
    "ड्रि": 484,
    "ड्री": 485,
    "ड्वु": 486,
    "ड्स": 487,
    "ड्‌": 488,
    "ढ": 489,
    "ढ़": 490,
    "ढ़ि": 491,
    "ढ़ी": 492,
    "ढा": 493,
    "ढे": 494,
    "ण": 495,
    "णं": 496,
    "णा": 497,
    "णि": 498,
    "णी": 499,
    "णीं": 500,
    "णु": 501,
    "णू": 502,
    "णॆ": 503,
    "णे": 504,
    "णै": 505,
    "णो": 506,
    "ण्": 507,
    "ण्क": 508,
    "ण्का": 509,
    "ण्कॊ": 510,
    "ण्ट": 511,
    "ण्टं": 512,
    "ण्टा": 513,
    "ण्टि": 514,
    "ण्टु": 515,
    "ण्टू": 516,
    "ण्टॆ": 517,
    "ण्ट्": 518,
    "ण्ट्लू": 519,
    "ण्ट्स्": 520,
    "ण्ठु": 521,
    "ण्ड": 522,
    "ण्डा": 523,
    "ण्डि": 524,
    "ण्ण": 525,
    "ण्णा": 526,
    "ण्णि": 527,
    "ण्णु": 528,
    "ण्णू": 529,
    "ण्णूा्": 530,
    "ण्त": 531,
    "ण्ता": 532,
    "ण्ति": 533,
    "ण्पु": 534,
    "ण्मै": 535,
    "ण्य": 536,
    "ण्या": 537,
    "ण्रा": 538,
    "ण्‌": 539,
    "त": 540,
    "तं": 541,
    "त़": 542,
    "त़ि": 543,
    "ता": 544,
    "तां": 545,
    "ता्": 546,
    "ता्का": 547,
    "ति": 548,
    "तिं": 549,
    "तिाि": 550,
    "ति॰": 551,
    "ती": 552,
    "तु": 553,
    "तू": 554,
    "तूा्": 555,
    "तृ": 556,
    "तॆ": 557,
    "तॆॆ": 558,
    "तॆ्र्र": 559,
    "ते": 560,
    "तें": 561,
    "ते‍": 562,
    "तै": 563,
    "तॊ": 564,
    "तो": 565,
    "तों": 566,
    "त्": 567,
    "त्क": 568,
    "त्का": 569,
    "त्कृ": 570,
    "त्त": 571,
    "त्ता": 572,
    "त्ताा्": 573,
    "त्ति": 574,
    "त्ती": 575,
    "त्तु": 576,
    "त्तू": 577,
    "त्तॆ": 578,
    "त्तै": 579,
    "त्तॊ": 580,
    "त्तो": 581,
    "त्तोि": 582,
    "त्त्": 583,
    "त्त्प": 584,
    "त्त्‌": 585,
    "त्थि": 586,
    "त्न": 587,
    "त्ना": 588,
    "त्पा": 589,
    "त्ब": 590,
    "त्भ": 591,
    "त्म": 592,
    "त्मा": 593,
    "त्य": 594,
    "त्या": 595,
    "त्यू": 596,
    "त्ये": 597,
    "त्र": 598,
    "त्रं": 599,
    "त्रं‌": 600,
    "त्रा": 601,
    "त्रि": 602,
    "त्री": 603,
    "त्रॆ": 604,
    "त्र्य": 605,
    "त्र्यं": 606,
    "त्व": 607,
    "त्वि": 608,
    "त्स": 609,
    "त्सा": 610,
    "त्स्ना": 611,
    "त्य़ु": 612,
    "त्य़े": 613,
    "त्‌": 614,
    "त॰": 615,
    "तॱ": 616,
    "त‍े": 617,
    "थ": 618,
    "थः": 619,
    "था": 620,
    "थि": 621,
    "थी": 622,
    "थु": 623,
    "थू": 624,
    "थे": 625,
    "थै": 626,
    "थो": 627,
    "थ्वी": 628,
    "थ॰": 629,
    "द": 630,
    "दं": 631,
    "दा": 632,
    "दि": 633,
    "दि॰": 634,
    "दी": 635,
    "दी्": 636,
    "दु": 637,
    "दुि": 638,
    "दू": 639,
    "दृ": 640,
    "दॆ": 641,
    "दे": 642,
    "दै": 643,
    "दॊ": 644,
    "दो": 645,
    "दौ": 646,
    "द्": 647,
    "द्गु": 648,
    "द्घा": 649,
    "द्द": 650,
    "द्दि": 651,
    "द्दी": 652,
    "द्दू": 653,
    "द्ध": 654,
    "द्धा": 655,
    "द्धि": 656,
    "द्धी": 657,
    "द्ध्फि": 658,
    "द्ध्यं": 659,
    "द्बा": 660,
    "द्बि": 661,
    "द्म": 662,
    "द्मा": 663,
    "द्य": 664,
    "द्या": 665,
    "द्यो": 666,
    "द्र": 667,
    "द्रा": 668,
    "द्रि": 669,
    "द्री": 670,
    "द्रु": 671,
    "द्रे": 672,
    "द्ळु": 673,
    "द्वा": 674,
    "द्वी": 675,
    "द्य़": 676,
    "द्य़ा": 677,
    "द्‌": 678,
    "ध": 679,
    "धं": 680,
    "धा": 681,
    "धि": 682,
    "धी": 683,
    "धु": 684,
    "धू": 685,
    "धे": 686,
    "धो": 687,
    "धौ": 688,
    "ध्दा": 689,
    "ध्दी": 690,
    "ध्य": 691,
    "ध्या": 692,
    "ध्ये": 693,
    "ध्र": 694,
    "ध्व": 695,
    "ध्य़": 696,
    "न": 697,
    "नं": 698,
    "ना": 699,
    "नाँ": 700,
    "नां": 701,
    "नाि": 702,
    "नि": 703,
    "नी": 704,
    "नीा्": 705,
    "नु": 706,
    "नुं": 707,
    "नू": 708,
    "नू॰": 709,
    "नॅ": 710,
    "नॆ": 711,
    "ने": 712,
    "नै": 713,
    "नॊ": 714,
    "नो": 715,
    "नौ": 716,
    "न्": 717,
    "न्क": 718,
    "न्जी": 719,
    "न्ट": 720,
    "न्टे": 721,
    "न्ड": 722,
    "न्डि": 723,
    "न्त": 724,
    "न्ता": 725,
    "न्ति": 726,
    "न्ती": 727,
    "न्तु": 728,
    "न्तूा्पे": 729,
    "न्ते": 730,
    "न्तै": 731,
    "न्तो": 732,
    "न्त्": 733,
    "न्त्र": 734,
    "न्त्रि": 735,
    "न्त्री": 736,
    "न्द": 737,
    "न्दि": 738,
    "न्दु": 739,
    "न्दू": 740,
    "न्दो": 741,
    "न्द्द": 742,
    "न्द्र": 743,
    "न्द्रं": 744,
    "न्द्रा": 745,
    "न्ध": 746,
    "न्धं": 747,
    "न्धा": 748,
    "न्धि": 749,
    "न्न": 750,
    "न्नं": 751,
    "न्ना": 752,
    "न्नि": 753,
    "न्नु": 754,
    "न्नुं": 755,
    "न्नू": 756,
    "न्ने": 757,
    "न्म": 758,
    "न्मो": 759,
    "न्म्र": 760,
    "न्य": 761,
    "न्या": 762,
    "न्यु": 763,
    "न्यू": 764,
    "न्ये": 765,
    "न्ऱॆ": 766,
    "न्ष": 767,
    "न्स": 768,
    "न्सा": 769,
    "न्सी": 770,
    "न्सू": 771,
    "न्से": 772,
    "न्स्": 773,
    "न्स्टि": 774,
    "न्स्टी": 775,
    "न्ह": 776,
    "न्य़": 777,
    "न्‌": 778,
    "न्‍": 779,
    "न॰": 780,
    "न॰ः": 781,
    "ऩ": 782,
    "ऩा": 783,
    "ऩा्क": 784,
    "ऩि": 785,
    "ऩी": 786,
    "ऩु": 787,
    "ऩू": 788,
    "ऩूा्": 789,
    "ऩे": 790,
    "ऩै": 791,
    "ऩ्": 792,
    "ऩ्ऩ": 793,
    "ऩ्ऩि": 794,
    "ऩ्ऩै": 795,
    "ऩ्ऩो": 796,
    "ऩ्प": 797,
    "ऩ्ऱ": 798,
    "ऩ्ऱु": 799,
    "ऩ्ऱॆ": 800,
    "ऩ्सी": 801,
    "प": 802,
    "पं": 803,
    "पा": 804,
    "पा्": 805,
    "पा्टि": 806,
    "पि": 807,
    "पिं": 808,
    "पिा": 809,
    "पी": 810,
    "पु": 811,
    "पु॰": 812,
    "पू": 813,
    "पूँ": 814,
    "पूाि": 815,
    "पृ": 816,
    "पॅ": 817,
    "पॆ": 818,
    "पॆं": 819,
    "पे": 820,
    "पें": 821,
    "पेा": 822,
    "पै": 823,
    "पैं": 824,
    "पॊ": 825,
    "पो": 826,
    "पौ": 827,
    "प्": 828,
    "प्टॆ": 829,
    "प्टें": 830,
    "प्ण": 831,
    "प्त": 832,
    "प्ति": 833,
    "प्न": 834,
    "प्प": 835,
    "प्पं": 836,
    "प्पा": 837,
    "प्पि": 838,
    "प्पिं": 839,
    "प्पी": 840,
    "प्पु": 841,
    "प्पू": 842,
    "प्पॆ": 843,
    "प्पे": 844,
    "प्पॊ": 845,
    "प्पो": 846,
    "प्प्": 847,
    "प्प्मू": 848,
    "प्प्‌": 849,
    "प्या": 850,
    "प्र": 851,
    "प्रा": 852,
    "प्रि": 853,
    "प्री": 854,
    "प्रे": 855,
    "प्रै": 856,
    "प्रो": 857,
    "प्रौ": 858,
    "प्ल": 859,
    "प्ला": 860,
    "प्लै": 861,
    "प्लॉ": 862,
    "प्व": 863,
    "प्स्": 864,
    "प्‍": 865,
    "प॰": 866,
    "पॱ": 867,
    "फ": 868,
    "फ़": 869,
    "फा": 870,
    "फि": 871,
    "फी": 872,
    "फु": 873,
    "फॅ": 874,
    "फॆ": 875,
    "फे": 876,
    "फै": 877,
    "फॉ": 878,
    "फो": 879,
    "फ्": 880,
    "फ्या": 881,
    "फ्ल": 882,
    "ब": 883,
    "बँ": 884,
    "बं": 885,
    "बा": 886,
    "बां": 887,
    "बि": 888,
    "बिं": 889,
    "बि॰": 890,
    "बी": 891,
    "बु": 892,
    "बू": 893,
    "बृ": 894,
    "बॅ": 895,
    "बॆ": 896,
    "बॆं": 897,
    "बे": 898,
    "बें": 899,
    "बै": 900,
    "बैं": 901,
    "बॉ": 902,
    "बॊ": 903,
    "बो": 904,
    "बौ": 905,
    "ब्थ": 906,
    "ब्दी": 907,
    "ब्ध": 908,
    "ब्ब": 909,
    "ब्बा": 910,
    "ब्या": 911,
    "ब्यां": 912,
    "ब्यू": 913,
    "ब्र": 914,
    "ब्रा": 915,
    "ब्रि": 916,
    "ब्रू": 917,
    "ब्रे": 918,
    "ब्ल": 919,
    "ब्लु": 920,
    "ब्लो": 921,
    "ब्ल्यू": 922,
    "ब्य़ा": 923,
    "ब्‍": 924,
    "ब॰": 925,
    "बॱ": 926,
    "भ": 927,
    "भं": 928,
    "भा": 929,
    "भां": 930,
    "भि": 931,
    "भिं": 932,
    "भी": 933,
    "भु": 934,
    "भुॱ": 935,
    "भू": 936,
    "भृ": 937,
    "भे": 938,
    "भें": 939,
    "भै": 940,
    "भो": 941,
    "भ्या": 942,
    "भ्र": 943,
    "भ॰": 944,
    "म": 945,
    "मं": 946,
    "मः": 947,
    "मा": 948,
    "मां": 949,
    "मि": 950,
    "मि्त": 951,
    "मी": 952,
    "मु": 953,
    "मुं": 954,
    "मुॱ": 955,
    "मू": 956,
    "मृ": 957,
    "मॆ": 958,
    "मॆं": 959,
    "मे": 960,
    "में": 961,
    "मै": 962,
    "मैं": 963,
    "मॉ": 964,
    "मॊ": 965,
    "मो": 966,
    "मौ": 967,
    "म्": 968,
    "म्A": 969,
    "म्इ": 970,
    "म्को": 971,
    "म्ट": 972,
    "म्प": 973,
    "म्पा": 974,
    "म्पा्": 975,
    "म्पि": 976,
    "म्पु": 977,
    "म्पू": 978,
    "म्पूा्": 979,
    "म्पो": 980,
    "म्प्": 981,
    "म्प्यु": 982,
    "म्प्लॉ": 983,
    "म्ब": 984,
    "म्बा": 985,
    "म्ब्न": 986,
    "म्भ": 987,
    "म्भा": 988,
    "म्म": 989,
    "म्मा": 990,
    "म्मे": 991,
    "म्मै": 992,
    "म्म्न": 993,
    "म्य": 994,
    "म्या": 995,
    "म्र": 996,
    "म्रि": 997,
    "म्श": 998,
    "म्ह": 999,
    "म्य़": 1000,
    "म्‌": 1001,
    "म॰": 1002,
    "य": 1003,
    "यं": 1004,
    "या": 1005,
    "यां": 1006,
    "याा्": 1007,
    "या्": 1008,
    "यि": 1009,
    "यी": 1010,
    "यु": 1011,
    "युं": 1012,
    "यू": 1013,
    "यूः": 1014,
    "ये": 1015,
    "यें": 1016,
    "यै": 1017,
    "यॊ": 1018,
    "यो": 1019,
    "यों": 1020,
    "य्": 1021,
    "य्क्कु": 1022,
    "य्त": 1023,
    "य्न्त": 1024,
    "य्म": 1025,
    "य्मा": 1026,
    "य्मै": 1027,
    "य्य": 1028,
    "य्या्": 1029,
    "य्यु": 1030,
    "य्यो": 1031,
    "य्व": 1032,
    "य्वि": 1033,
    "य्वु": 1034,
    "य्स्री": 1035,
    "य्य़ा": 1036,
    "य्‌": 1037,
    "यॖ": 1038,
    "र": 1039,
    "रं": 1040,
    "रा": 1041,
    "रां": 1042,
    "रा्": 1043,
    "रि": 1044,
    "रिं": 1045,
    "रिा": 1046,
    "रि॰": 1047,
    "री": 1048,
    "रीं": 1049,
    "रीु": 1050,
    "रु": 1051,
    "रुं": 1052,
    "रुॱ": 1053,
    "रु‍": 1054,
    "रू": 1055,
    "रूा्": 1056,
    "रॆ": 1057,
    "रे": 1058,
    "रें": 1059,
    "रै": 1060,
    "रॊ": 1061,
    "रो": 1062,
    "र्": 1063,
    "र्क": 1064,
    "र्का": 1065,
    "र्किं": 1066,
    "र्कॆ": 1067,
    "र्के": 1068,
    "र्ग": 1069,
    "र्गा": 1070,
    "र्गि": 1071,
    "र्च": 1072,
    "र्चा": 1073,
    "र्चि": 1074,
    "र्चु": 1075,
    "र्ज": 1076,
    "र्ज़": 1077,
    "र्जि": 1078,
    "र्जी": 1079,
    "र्जु": 1080,
    "र्ट": 1081,
    "र्टि": 1082,
    "र्टी": 1083,
    "र्ट्": 1084,
    "र्ट्स": 1085,
    "र्ट्स्": 1086,
    "र्ड": 1087,
    "र्डा": 1088,
    "र्डी": 1089,
    "र्ड्": 1090,
    "र्ण": 1091,
    "र्णा": 1092,
    "र्णि": 1093,
    "र्णी": 1094,
    "र्णो": 1095,
    "र्ण्णा": 1096,
    "र्ण्न": 1097,
    "र्त": 1098,
    "र्ति": 1099,
    "र्ती": 1100,
    "र्तु": 1101,
    "र्तू": 1102,
    "र्थ": 1103,
    "र्थं": 1104,
    "र्थि": 1105,
    "र्थी": 1106,
    "र्द": 1107,
    "र्दि": 1108,
    "र्दु": 1109,
    "र्दे": 1110,
    "र्द्व": 1111,
    "र्ध": 1112,
    "र्न": 1113,
    "र्ना": 1114,
    "र्नी": 1115,
    "र्नू": 1116,
    "र्प": 1117,
    "र्पा": 1118,
    "र्पि": 1119,
    "र्पे": 1120,
    "र्पॊ": 1121,
    "र्पो": 1122,
    "र्ब": 1123,
    "र्बा": 1124,
    "र्बि": 1125,
    "र्भ": 1126,
    "र्भा": 1127,
    "र्भी": 1128,
    "र्म": 1129,
    "र्मा": 1130,
    "र्मि": 1131,
    "र्मु": 1132,
    "र्य": 1133,
    "र्या": 1134,
    "र्य्य": 1135,
    "र्य्य़": 1136,
    "र्य्य़ा": 1137,
    "र्र": 1138,
    "र्रा": 1139,
    "र्ल": 1140,
    "र्लु": 1141,
    "र्व": 1142,
    "र्वि": 1143,
    "र्वे": 1144,
    "र्वो": 1145,
    "र्श": 1146,
    "र्शा": 1147,
    "र्शि": 1148,
    "र्ष": 1149,
    "र्षा": 1150,
    "र्स": 1151,
    "र्सि": 1152,
    "र्सी": 1153,
    "र्स्": 1154,
    "र्‍": 1155,
    "रॕ": 1156,
    "र॰": 1157,
    "रॱ": 1158,
    "र‌": 1159,
    "र‍": 1160,
    "ऱ": 1161,
    "ऱं": 1162,
    "ऱा": 1163,
    "ऱि": 1164,
    "ऱिं": 1165,
    "ऱी": 1166,
    "ऱु": 1167,
    "ऱू": 1168,
    "ऱॆ": 1169,
    "ऱे": 1170,
    "ऱै": 1171,
    "ऱो": 1172,
    "ऱ्क": 1173,
    "ऱ्का": 1174,
    "ऱ्कु": 1175,
    "ऱ्कै": 1176,
    "ऱ्चि": 1177,
    "ऱ्प": 1178,
    "ऱ्पू": 1179,
    "ऱ्ऱ": 1180,
    "ऱ्ऱं": 1181,
    "ऱ्ऱा": 1182,
    "ऱ्ऱि": 1183,
    "ऱ्ऱु": 1184,
    "ऱ्ऱे": 1185,
    "ऱ्ऱो": 1186,
    "ऱ्ऱ्": 1187,
    "ऱ्ऱ्यू": 1188,
    "ऱ्ऱ्ऱ्‌": 1189,
    "ल": 1190,
    "लं": 1191,
    "ला": 1192,
    "लां": 1193,
    "ला्क": 1194,
    "लि": 1195,
    "लिं": 1196,
    "ली": 1197,
    "लु": 1198,
    "लुं": 1199,
    "लू": 1200,
    "लूा्": 1201,
    "लॆ": 1202,
    "लॆं": 1203,
    "ले": 1204,
    "लें": 1205,
    "लै": 1206,
    "लॉ": 1207,
    "लो": 1208,
    "लों": 1209,
    "ल्": 1210,
    "ल्ऎ": 1211,
    "ल्क": 1212,
    "ल्की": 1213,
    "ल्कु": 1214,
    "ल्कै": 1215,
    "ल्क्कु": 1216,
    "ल्क्स्": 1217,
    "ल्गू": 1218,
    "ल्ट": 1219,
    "ल्टि": 1220,
    "ल्टे": 1221,
    "ल्ट्": 1222,
    "ल्ट्रा": 1223,
    "ल्ड": 1224,
    "ल्डी": 1225,
    "ल्डीं": 1226,
    "ल्ड्": 1227,
    "ल्ड्र": 1228,
    "ल्ड्री": 1229,
    "ल्द": 1230,
    "ल्दा": 1231,
    "ल्न": 1232,
    "ल्प": 1233,
    "ल्पी": 1234,
    "ल्पु": 1235,
    "ल्पॊ": 1236,
    "ल्भ": 1237,
    "ल्म": 1238,
    "ल्य": 1239,
    "ल्या": 1240,
    "ल्यु": 1241,
    "ल्ल": 1242,
    "ल्लं": 1243,
    "ल्ला": 1244,
    "ल्ला‍": 1245,
    "ल्लि": 1246,
    "ल्ली": 1247,
    "ल्लु": 1248,
    "ल्लू": 1249,
    "ल्लूाि": 1250,
    "ल्लॆ": 1251,
    "ल्ले": 1252,
    "ल्लै": 1253,
    "ल्ल्": 1254,
    "ल्वि": 1255,
    "ल्वॆ": 1256,
    "ल्वे": 1257,
    "ल्स": 1258,
    "ल्स्": 1259,
    "ल्हा": 1260,
    "ल्हे": 1261,
    "ल्ह्या": 1262,
    "ल्‌": 1263,
    "ल॰": 1264,
    "लॱ": 1265,
    "ल‍": 1266,
    "ळ": 1267,
    "ळं": 1268,
    "ळा": 1269,
    "ळां": 1270,
    "ळा्": 1271,
    "ळि": 1272,
    "ळी": 1273,
    "ळु": 1274,
    "ळुं": 1275,
    "ळू": 1276,
    "ळॆ": 1277,
    "ळे": 1278,
    "ळै": 1279,
    "ळो": 1280,
    "ळ्": 1281,
    "ळ्ट": 1282,
    "ळ्प": 1283,
    "ळ्मि": 1284,
    "ळ्मी": 1285,
    "ळ्या": 1286,
    "ळ्यां": 1287,
    "ळ्ळ": 1288,
    "ळ्ळा": 1289,
    "ळ्ळि": 1290,
    "ळ्ळु": 1291,
    "ळ‍": 1292,
    "ऴ": 1293,
    "ऴा": 1294,
    "ऴि": 1295,
    "ऴु": 1296,
    "ऴेां": 1297,
    "ऴै": 1298,
    "ऴ्": 1299,
    "ऴ्क": 1300,
    "ऴ्चॆ": 1301,
    "ऴ्न": 1302,
    "ऴ्ना": 1303,
    "ऴ्स्": 1304,
    "ऴ्‌": 1305,
    "व": 1306,
    "वं": 1307,
    "वः": 1308,
    "वा": 1309,
    "वां": 1310,
    "वा्": 1311,
    "वि": 1312,
    "विं": 1313,
    "विॱ": 1314,
    "वि‍": 1315,
    "वी": 1316,
    "वीः": 1317,
    "वीा्": 1318,
    "वु": 1319,
    "वुं": 1320,
    "वू": 1321,
    "वृ": 1322,
    "वॅ": 1323,
    "वॆ": 1324,
    "वॆं": 1325,
    "वे": 1326,
    "वें": 1327,
    "वेा्ल्टु": 1328,
    "वै": 1329,
    "वॉ": 1330,
    "वो": 1331,
    "व्": 1332,
    "व्दा": 1333,
    "व्य": 1334,
    "व्या": 1335,
    "व्युं": 1336,
    "व्र": 1337,
    "व्व": 1338,
    "व्वं": 1339,
    "व्वी": 1340,
    "व्वॆं": 1341,
    "व्वे": 1342,
    "व्ह": 1343,
    "व्हि": 1344,
    "व्ही": 1345,
    "व्‌": 1346,
    "व॰": 1347,
    "वॱ": 1348,
    "व‌": 1349,
    "श": 1350,
    "शं": 1351,
    "शा": 1352,
    "शां": 1353,
    "शाः": 1354,
    "शि": 1355,
    "शिं": 1356,
    "शी": 1357,
    "शीू": 1358,
    "शु": 1359,
    "शू": 1360,
    "शे": 1361,
    "शै": 1362,
    "शॉ": 1363,
    "शो": 1364,
    "शौ": 1365,
    "श्": 1366,
    "श्च": 1367,
    "श्चा": 1368,
    "श्चि": 1369,
    "श्ब": 1370,
    "श्य": 1371,
    "श्र": 1372,
    "श्रा": 1373,
    "श्रि": 1374,
    "श्री": 1375,
    "श्व": 1376,
    "श्वा": 1377,
    "श्वे": 1378,
    "श्श": 1379,
    "श्शि": 1380,
    "श्ष": 1381,
    "श्स": 1382,
    "श्ॱ": 1383,
    "श्‍": 1384,
    "शॗ": 1385,
    "ष": 1386,
    "षं": 1387,
    "षा": 1388,
    "षां": 1389,
    "षि": 1390,
    "षी": 1391,
    "षु": 1392,
    "षू": 1393,
    "षे": 1394,
    "षो": 1395,
    "ष्": 1396,
    "ष्क": 1397,
    "ष्ट": 1398,
    "ष्टा": 1399,
    "ष्टि": 1400,
    "ष्टु": 1401,
    "ष्टो": 1402,
    "ष्ट्र": 1403,
    "ष्ट्रा": 1404,
    "ष्ट्री": 1405,
    "ष्ठ": 1406,
    "ष्ठा": 1407,
    "ष्ण": 1408,
    "ष्णा": 1409,
    "ष्ना": 1410,
    "ष्मॆ": 1411,
    "ष्य": 1412,
    "ष्य़": 1413,
    "ष्‌": 1414,
    "ष्‍": 1415,
    "षॢ": 1416,
    "स": 1417,
    "सं": 1418,
    "स़": 1419,
    "स़ा": 1420,
    "स़ि": 1421,
    "सा": 1422,
    "सां": 1423,
    "सा‍": 1424,
    "सि": 1425,
    "सिं": 1426,
    "सि॰": 1427,
    "सिॱ": 1428,
    "सी": 1429,
    "सीं": 1430,
    "सी्अ॰": 1431,
    "सी‍": 1432,
    "सु": 1433,
    "सुं": 1434,
    "सुॱ": 1435,
    "सू": 1436,
    "सृं": 1437,
    "सॅ": 1438,
    "सॆ": 1439,
    "से": 1440,
    "सें": 1441,
    "से‍": 1442,
    "सै": 1443,
    "सैं": 1444,
    "सॊ": 1445,
    "सो": 1446,
    "सौ": 1447,
    "स्": 1448,
    "स्क": 1449,
    "स्का": 1450,
    "स्कु": 1451,
    "स्कू": 1452,
    "स्कृ": 1453,
    "स्क्का": 1454,
    "स्क्रि": 1455,
    "स्जि": 1456,
    "स्ट": 1457,
    "स्टा": 1458,
    "स्टि": 1459,
    "स्टु": 1460,
    "स्टॆ": 1461,
    "स्टे": 1462,
    "स्टॉ": 1463,
    "स्टो": 1464,
    "स्टोा्स्": 1465,
    "स्ट्": 1466,
    "स्ट्री": 1467,
    "स्ठ": 1468,
    "स्ड": 1469,
    "स्त": 1470,
    "स्तं": 1471,
    "स्ता": 1472,
    "स्ति": 1473,
    "स्तु": 1474,
    "स्तू": 1475,
    "स्ते": 1476,
    "स्तो": 1477,
    "स्त्या": 1478,
    "स्त्र": 1479,
    "स्त्रा": 1480,
    "स्त्रि": 1481,
    "स्थ": 1482,
    "स्था": 1483,
    "स्थि": 1484,
    "स्थू": 1485,
    "स्थॆ": 1486,
    "स्दु": 1487,
    "स्ध": 1488,
    "स्धा": 1489,
    "स्धॆ": 1490,
    "स्ने": 1491,
    "स्प": 1492,
    "स्पा": 1493,
    "स्पि": 1494,
    "स्पॆ": 1495,
    "स्पे": 1496,
    "स्ब": 1497,
    "स्भा": 1498,
    "स्म": 1499,
    "स्मा": 1500,
    "स्मृ": 1501,
    "स्मे": 1502,
    "स्य": 1503,
    "स्या": 1504,
    "स्र": 1505,
    "स्ऱी": 1506,
    "स्रा": 1507,
    "स्री": 1508,
    "स्रो": 1509,
    "स्ऱ्ऱ": 1510,
    "स्ऱ्ऱा": 1511,
    "स्ऱ्ऱि": 1512,
    "स्ऱ्ऱु": 1513,
    "स्ऱ्ऱे": 1514,
    "स्ऱ्ऱै": 1515,
    "स्ऱ्ऱ्": 1516,
    "स्लि": 1517,
    "स्लॊ": 1518,
    "स्व": 1519,
    "स्वं": 1520,
    "स्वा": 1521,
    "स्वी": 1522,
    "स्वे": 1523,
    "स्सा": 1524,
    "स्सि": 1525,
    "स्सु": 1526,
    "स्से": 1527,
    "स्स्‌": 1528,
    "स्ह": 1529,
    "स्ॱ": 1530,
    "स्‌": 1531,
    "स्‍": 1532,
    "सॗ": 1533,
    "स॰": 1534,
    "सॱ": 1535,
    "ह": 1536,
    "हं": 1537,
    "हः": 1538,
    "हा": 1539,
    "हाँ": 1540,
    "हां": 1541,
    "हा‍": 1542,
    "हि": 1543,
    "हिँ": 1544,
    "हिं": 1545,
    "हि॰": 1546,
    "हिॱ": 1547,
    "ही": 1548,
    "हीं": 1549,
    "हु": 1550,
    "हु॰": 1551,
    "हू": 1552,
    "हॆ": 1553,
    "हे": 1554,
    "है": 1555,
    "हैं": 1556,
    "हैे": 1557,
    "हॉ": 1558,
    "हॊ": 1559,
    "हो": 1560,
    "हौ": 1561,
    "ह्": 1562,
    "ह्दि": 1563,
    "ह्न": 1564,
    "ह्म": 1565,
    "ह्मां": 1566,
    "ह्मि": 1567,
    "ह्य": 1568,
    "ह्या": 1569,
    "ां": 1570,
    "े": 1571,
    "ॐ": 1572,
    "ख़ु": 1573,
    "ज़ो": 1574,
    "ज़॰": 1575,
    "ड़": 1576,
    "ड़ा": 1577,
    "ड़ि": 1578,
    "ड़े": 1579,
    "ड़ो": 1580,
    "ड़्ह": 1581,
    "फ़": 1582,
    "फ़्ट": 1583,
    "फ़्दु": 1584,
    "य़": 1585,
    "य़ं": 1586,
    "य़ा": 1587,
    "य़ि": 1588,
    "य़ु": 1589,
    "ॠ": 1590,
    "।": 1591,
    "।‍": 1592,
    "॥": 1593,
    "०": 1594,
    "१": 1595,
    "१ः": 1596,
    "१्को": 1597,
    "१‌": 1598,
    "२": 1599,
    "२़": 1600,
    "२ा": 1601,
    "३": 1602,
    "४": 1603,
    "५": 1604,
    "६": 1605,
    "६ः": 1606,
    "७": 1607,
    "८": 1608,
    "८े": 1609,
    "९": 1610,
    "ॳ": 1611,
    "ॳे": 1612,
    "ॺ": 1613,
    "ॺ‌": 1614,
    "ॻ": 1615,
    "ॻॆ": 1616,
    "ॻ्ऱ": 1617,
    "ॻ्ऱॆ": 1618,
    "ॻ्ऱ्": 1619,
    "ॻ्ऱ्स्": 1620,
    "ॻ‌": 1621,
    "ॻ‌‌": 1622,
    "ॻ‍": 1623,
    "ॼ": 1624,
    "ॼ‌": 1625,
    "ॼ‍‍": 1626,
    "ॽ": 1627,
    "ॽ‌": 1628,
    "ॽ‍": 1629,
    "ॾ": 1630,
    "​": 1631,
    "↑": 1632
  },
  "metadata": {
    "tag": "zs_loso_rungA_bengali",
    "num_graphemes": 1631,
    "space": "shared-abugida-pivot"
  }
}