{
  "grapheme2idx": {
    "<blank>": 0,
    "<unk>": 1,
    "!": 2,
    "\"": 3,
    "&": 4,
    "'": 5,
    "(": 6,
    ")": 7,
    ",": 8,
    "-": 9,
    ".": 10,
    "/": 11,
    "0": 12,
    "1": 13,
    "2": 14,
    "3": 15,
    "4": 16,
    "5": 17,
    "6": 18,
    "7": 19,
    "8": 20,
    "9": 21,
    ":": 22,
    "?": 23,
    "A": 24,
    "D": 25,
    "G": 26,
    "H": 27,
    "I": 28,
    "O": 29,
    "P": 30,
    "V": 31,
    "[": 32,
    "c": 33,
    "|": 34,
    "°": 35,
    "ا": 36,
    "ت": 37,
    "ج": 38,
    "ر": 39,
    "گ": 40,
    "ی": 41,
    "ँ": 42,
    "अ": 43,
    "अं": 44,
    "अि": 45,
    "अ्या": 46,
    "अ॰": 47,
    "आ": 48,
    "आं": 49,
    "आा्": 50,
    "आे": 51,
    "आॕ": 52,
    "इ": 53,
    "इं": 54,
    "इ॰": 55,
    "इॱ": 56,
    "ई": 57,
    "ईं": 58,
    "उ": 59,
    "उाि": 60,
    "उॱ": 61,
    "ऊ": 62,
    "ऊँ": 63,
    "ऊं": 64,
    "ऋ": 65,
    "ऍ": 66,
    "ऎ": 67,
    "ऎं": 68,
    "ऎ‍": 69,
    "ए": 70,
    "एँ": 71,
    "एा": 72,
    "ऐ": 73,
    "ऐं": 74,
    "ऑ": 75,
    "ऒ": 76,
    "ऒं": 77,
    "ऒाि": 78,
    "ऒा्क्स्": 79,
    "ऒ‌": 80,
    "ओ": 81,
    "ओँ": 82,
    "ओं": 83,
    "औ": 84,
    "औं": 85,
    "क": 86,
    "कं": 87,
    "कः": 88,
    "का": 89,
    "काँ": 90,
    "कां": 91,
    "काुं": 92,
    "का्": 93,
    "का‍": 94,
    "का‍‌": 95,
    "कि": 96,
    "किं": 97,
    "किाि": 98,
    "की": 99,
    "कीे": 100,
    "कु": 101,
    "कुं": 102,
    "कु॰": 103,
    "कू": 104,
    "कृ": 105,
    "कॅ": 106,
    "कॅा": 107,
    "कॆ": 108,
    "कॆं": 109,
    "के": 110,
    "कें": 111,
    "केे": 112,
    "कै": 113,
    "कॉ": 114,
    "कॊ": 115,
    "कॊं": 116,
    "को": 117,
    "कोँ": 118,
    "कों": 119,
    "कों‌": 120,
    "क्": 121,
    "क्क": 122,
    "क्कं": 123,
    "क्का": 124,
    "क्कि": 125,
    "क्की": 126,
    "क्कु": 127,
    "क्कू": 128,
    "क्कॆ": 129,
    "क्के": 130,
    "क्कै": 131,
    "क्कॊ": 132,
    "क्को": 133,
    "क्क्": 134,
    "क्कॗ": 135,
    "क्ट": 136,
    "क्टो": 137,
    "क्ट्रि": 138,
    "क्त": 139,
    "क्तां": 140,
    "क्ति": 141,
    "क्तीं": 142,
    "क्तु": 143,
    "क्पे": 144,
    "क्मि": 145,
    "क्य": 146,
    "क्या": 147,
    "क्यू": 148,
    "क्र": 149,
    "क्रं": 150,
    "क्रा": 151,
    "क्रि": 152,
    "क्री": 153,
    "क्रे": 154,
    "क्रै": 155,
    "क्रो": 156,
    "क्ला": 157,
    "क्व": 158,
    "क्वा": 159,
    "क्वॆ": 160,
    "क्श": 161,
    "क्ष": 162,
    "क्षा": 163,
    "क्षां": 164,
    "क्षि": 165,
    "क्षिं": 166,
    "क्षी": 167,
    "क्षुः": 168,
    "क्षे": 169,
    "क्षो": 170,
    "क्ष्म": 171,
    "क्ष्मि": 172,
    "क्ष्मी": 173,
    "क्ष्य": 174,
    "क्स": 175,
    "क्सि": 176,
    "क्स्": 177,
    "क्॰": 178,
    "क्॰ा": 179,
    "क्॰े": 180,
    "क्‌": 181,
    "क्‍": 182,
    "क॰": 183,
    "कॱ": 184,
    "क‌": 185,
    "क‍ी": 186,
    "ख": 187,
    "खं": 188,
    "ख़": 189,
    "खा": 190,
    "खाँ": 191,
    "खां": 192,
    "खि": 193,
    "खी": 194,
    "खु": 195,
    "खू": 196,
    "खॆ": 197,
    "खे": 198,
    "खै": 199,
    "खो": 200,
    "ख्त": 201,
    "ख्य": 202,
    "ख्यु": 203,
    "ख्रीः": 204,
    "ग": 205,
    "गं": 206,
    "गा": 207,
    "गां": 208,
    "गि": 209,
    "गि॰": 210,
    "गी": 211,
    "गु": 212,
    "गुं": 213,
    "गू": 214,
    "गृ": 215,
    "गॆ": 216,
    "गॆं": 217,
    "गे": 218,
    "गै": 219,
    "गॊ": 220,
    "गो": 221,
    "गों": 222,
    "गौ": 223,
    "ग्": 224,
    "ग्ग": 225,
    "ग्गि": 226,
    "ग्गॆ": 227,
    "ग्ण": 228,
    "ग्नि": 229,
    "ग्ब": 230,
    "ग्य": 231,
    "ग्या": 232,
    "ग्ये": 233,
    "ग्र": 234,
    "ग्रं": 235,
    "ग्रा": 236,
    "ग्रां": 237,
    "ग्री": 238,
    "ग्रू": 239,
    "ग्रे": 240,
    "ग्ला": 241,
    "ग्वा": 242,
    "ग्स": 243,
    "ग्॰ु": 244,
    "ग्‌": 245,
    "ग॰": 246,
    "गॱ": 247,
    "घ": 248,
    "घा": 249,
    "घां": 250,
    "घु": 251,
    "घे": 252,
    "घो": 253,
    "घौ": 254,
    "घ्य": 255,
    "घ्या": 256,
    "ङ": 257,
    "ङा": 258,
    "ङि": 259,
    "ङे": 260,
    "ङ्": 261,
    "ङ्क": 262,
    "ङ्का": 263,
    "ङ्कि": 264,
    "ङ्कु": 265,
    "ङ्के": 266,
    "ङ्कै": 267,
    "ङ्को": 268,
    "ङ्क्": 269,
    "ङ्ग": 270,
    "ङ्गु": 271,
    "ङ्गे": 272,
    "ङ्गो": 273,
    "ङ्घ": 274,
    "ङ्ङ": 275,
    "ङ्ङा": 276,
    "ङ्ङि": 277,
    "ङ्ङों": 278,
    "ङ्ङ्‌": 279,
    "ङ्ट": 280,
    "ङ्त": 281,
    "ङ्ष": 282,
    "ङ्‌": 283,
    "च": 284,
    "चं": 285,
    "चा": 286,
    "चां": 287,
    "चा्": 288,
    "चा्जि": 289,
    "चा्व": 290,
    "चि": 291,
    "चिं": 292,
    "ची": 293,
    "चु": 294,
    "चुे": 295,
    "चू": 296,
    "चॆ": 297,
    "चे": 298,
    "चें": 299,
    "चेा्ऩ्": 300,
    "चै": 301,
    "चॊ": 302,
    "चो": 303,
    "चौ": 304,
    "च्": 305,
    "च्च": 306,
    "च्चं": 307,
    "च्चा": 308,
    "च्चि": 309,
    "च्ची": 310,
    "च्चे": 311,
    "च्चेाि": 312,
    "च्च्": 313,
    "च्च्‌": 314,
    "च्छ": 315,
    "च्छा": 316,
    "च्छु": 317,
    "च्छ्": 318,
    "च्ट": 319,
    "च्य": 320,
    "च्या": 321,
    "च्यु": 322,
    "च॑": 323,
    "च॰": 324,
    "चॱ": 325,
    "छ": 326,
    "छा": 327,
    "छि": 328,
    "छु": 329,
    "छुॱ": 330,
    "छे": 331,
    "छें": 332,
    "छो": 333,
    "छोँ": 334,
    "छ॰": 335,
    "ज": 336,
    "जं": 337,
    "ज़": 338,
    "ज़ी": 339,
    "ज़ु": 340,
    "जा": 341,
    "जि": 342,
    "जिं": 343,
    "जि॰": 344,
    "जिॱ": 345,
    "जी": 346,
    "जु": 347,
    "जुॱ": 348,
    "जू": 349,
    "जॆ": 350,
    "जे": 351,
    "जें": 352,
    "जै": 353,
    "जो": 354,
    "ज्": 355,
    "ज्ज": 356,
    "ज्जं": 357,
    "ज्ञ": 358,
    "ज्ञा": 359,
    "ज्ञी": 360,
    "ज्ब": 361,
    "ज्य": 362,
    "ज्यु": 363,
    "ज्यू": 364,
    "ज्येा": 365,
    "ज्यो": 366,
    "ज्यों": 367,
    "ज्व": 368,
    "ज॰": 369,
    "झ": 370,
    "झा": 371,
    "झाँ": 372,
    "झां": 373,
    "झि": 374,
    "झी": 375,
    "झे": 376,
    "झ॰": 377,
    "ञ": 378,
    "ञा": 379,
    "ञ्च": 380,
    "ञ्चा": 381,
    "ञ्चा्": 382,
    "ञ्चि": 383,
    "ञ्चे": 384,
    "ञ्ज": 385,
    "ञ्जा": 386,
    "ञ्जि": 387,
    "ञ्जी": 388,
    "ञ्ञ": 389,
    "ञ्ञा": 390,
    "ञ्ञि": 391,
    "ञ्ञॆ": 392,
    "ट": 393,
    "टा": 394,
    "टाा": 395,
    "टि": 396,
    "टिं": 397,
    "टी": 398,
    "टु": 399,
    "टू": 400,
    "टॆ": 401,
    "टे": 402,
    "टै": 403,
    "टैं": 404,
    "टो": 405,
    "टौ": 406,
    "ट्": 407,
    "ट्चाा्च्च": 408,
    "ट्चि": 409,
    "ट्ट": 410,
    "ट्टं": 411,
    "ट्ट़": 412,
    "ट्टा": 413,
    "ट्टि": 414,
    "ट्टी": 415,
    "ट्टु": 416,
    "ट्टूा्पु": 417,
    "ट्टॆ": 418,
    "ट्टै": 419,
    "ट्टो": 420,
    "ट्ट्": 421,
    "ट्ण": 422,
    "ट्त": 423,
    "ट्न": 424,
    "ट्नं": 425,
    "ट्प": 426,
    "ट्मि": 427,
    "ट्य": 428,
    "ट्यू": 429,
    "ट्र": 430,
    "ट्रा": 431,
    "ट्रि": 432,
    "ट्रे": 433,
    "ट्रै": 434,
    "ट्रो": 435,
    "ट्र्या": 436,
    "ट्ल": 437,
    "ट्लु": 438,
    "ट्व": 439,
    "ट्स्": 440,
    "ट्॰": 441,
    "ट्‌": 442,
    "ट्‍": 443,
    "ट‌": 444,
    "ठ": 445,
    "ठा": 446,
    "ठि": 447,
    "ठि॰": 448,
    "ठी": 449,
    "ठे": 450,
    "ठें": 451,
    "ठो": 452,
    "ठ्ठ": 453,
    "ड": 454,
    "ड़": 455,
    "ड़ा": 456,
    "ड़ी": 457,
    "ड़ौ": 458,
    "डा": 459,
    "डाः": 460,
    "डि": 461,
    "डी": 462,
    "डु": 463,
    "डू": 464,
    "डॆ": 465,
    "डॆं": 466,
    "डे": 467,
    "डै": 468,
    "डो": 469,
    "ड्": 470,
    "ड्क": 471,
    "ड्ड": 472,
    "ड्डा": 473,
    "ड्डि": 474,
    "ड्डु": 475,
    "ड्पे": 476,
    "ड्यं": 477,
    "ड्या": 478,
    "ड्यां": 479,
    "ड्यू": 480,
    "ड्र": 481,
    "ड्रि": 482,
    "ड्री": 483,
    "ड्‍": 484,
    "ढ": 485,
    "ढ़": 486,
    "ढ़ी": 487,
    "ढि": 488,
    "ढु": 489,
    "ढे": 490,
    "ढे़": 491,
    "ण": 492,
    "णं": 493,
    "णा": 494,
    "णाः": 495,
    "णि": 496,
    "णी": 497,
    "णीं": 498,
    "णु": 499,
    "णू": 500,
    "णॆ": 501,
    "णे": 502,
    "णै": 503,
    "णो": 504,
    "ण्": 505,
    "ण्क": 506,
    "ण्का": 507,
    "ण्ट": 508,
    "ण्टं": 509,
    "ण्टा": 510,
    "ण्टि": 511,
    "ण्टी": 512,
    "ण्टु": 513,
    "ण्टॆ": 514,
    "ण्टे": 515,
    "ण्टै": 516,
    "ण्ट्": 517,
    "ण्ट्‌": 518,
    "ण्ड": 519,
    "ण्डा": 520,
    "ण्डि": 521,
    "ण्ण": 522,
    "ण्णा": 523,
    "ण्णी": 524,
    "ण्णु": 525,
    "ण्णू": 526,
    "ण्पु": 527,
    "ण्मै": 528,
    "ण्य": 529,
    "ण्या": 530,
    "ण्‌": 531,
    "ण‍": 532,
    "त": 533,
    "तं": 534,
    "तः": 535,
    "ता": 536,
    "ताँ": 537,
    "तां": 538,
    "ता्का": 539,
    "ति": 540,
    "तिं": 541,
    "तिः": 542,
    "तिाि": 543,
    "ती": 544,
    "तीा्": 545,
    "तीा्त्त": 546,
    "तु": 547,
    "तुं": 548,
    "तू": 549,
    "तूा्": 550,
    "तू॰": 551,
    "तृ": 552,
    "तॆ": 553,
    "तॆॆ": 554,
    "तॆ्र्र": 555,
    "ते": 556,
    "तें": 557,
    "तै": 558,
    "तॊ": 559,
    "तो": 560,
    "तों": 561,
    "त्": 562,
    "त्उ": 563,
    "त्का": 564,
    "त्कू": 565,
    "त्त": 566,
    "त्ता": 567,
    "त्ति": 568,
    "त्ती": 569,
    "त्तु": 570,
    "त्तू": 571,
    "त्तॆ": 572,
    "त्तेा्": 573,
    "त्तै": 574,
    "त्तॊ": 575,
    "त्तो": 576,
    "त्त्": 577,
    "त्त्य": 578,
    "त्त्व": 579,
    "त्त्‌": 580,
    "त्थ": 581,
    "त्थि": 582,
    "त्न": 583,
    "त्प": 584,
    "त्बे": 585,
    "त्भ": 586,
    "त्म": 587,
    "त्मा": 588,
    "त्य": 589,
    "त्या": 590,
    "त्यां": 591,
    "त्यु": 592,
    "त्ये": 593,
    "त्य्": 594,
    "त्र": 595,
    "त्रं": 596,
    "त्रं‌": 597,
    "त्रा": 598,
    "त्रि": 599,
    "त्री": 600,
    "त्रॆ": 601,
    "त्रे": 602,
    "त्रों": 603,
    "त्र्य": 604,
    "त्र्यं": 605,
    "त्व": 606,
    "त्वा": 607,
    "त्वि": 608,
    "त्स": 609,
    "त्सा": 610,
    "त्स्": 611,
    "त्स्ना": 612,
    "त्॰": 613,
    "त्‌": 614,
    "त्‍": 615,
    "त॰": 616,
    "त‍े": 617,
    "थ": 618,
    "था": 619,
    "थां": 620,
    "थी": 621,
    "थु": 622,
    "थू": 623,
    "थृ": 624,
    "थे": 625,
    "थ्य": 626,
    "द": 627,
    "दा": 628,
    "दां": 629,
    "दि": 630,
    "दिं": 631,
    "दि॰": 632,
    "दी": 633,
    "दु": 634,
    "दू": 635,
    "दूं": 636,
    "दृ": 637,
    "दॆ": 638,
    "दे": 639,
    "दें": 640,
    "दै": 641,
    "दॊ": 642,
    "दो": 643,
    "दौ": 644,
    "द्": 645,
    "द्घा": 646,
    "द्ट": 647,
    "द्टु": 648,
    "द्द": 649,
    "द्दा": 650,
    "द्दि": 651,
    "द्दु": 652,
    "द्ध": 653,
    "द्धा": 654,
    "द्धि": 655,
    "द्धी": 656,
    "द्ध्यं": 657,
    "द्ब": 658,
    "द्बा": 659,
    "द्बी": 660,
    "द्बो": 661,
    "द्म": 662,
    "द्मा": 663,
    "द्य": 664,
    "द्या": 665,
    "द्यो": 666,
    "द्र": 667,
    "द्रा": 668,
    "द्रि": 669,
    "द्री": 670,
    "द्रु": 671,
    "द्रे": 672,
    "द्रौ": 673,
    "द्व": 674,
    "द्वा": 675,
    "द्वी": 676,
    "द्॰": 677,
    "द्‌": 678,
    "ध": 679,
    "धा": 680,
    "धि": 681,
    "धी": 682,
    "धीं": 683,
    "धु": 684,
    "धू": 685,
    "धे": 686,
    "धो": 687,
    "ध्दा": 688,
    "ध्दी": 689,
    "ध्ब": 690,
    "ध्य": 691,
    "ध्या": 692,
    "ध्ये": 693,
    "ध्र": 694,
    "ध्व": 695,
    "ध॰": 696,
    "न": 697,
    "नं": 698,
    "नः": 699,
    "ना": 700,
    "नां": 701,
    "नाि": 702,
    "ना्": 703,
    "नि": 704,
    "निं": 705,
    "निॕ": 706,
    "नि‍": 707,
    "नी": 708,
    "नीा्": 709,
    "नु": 710,
    "नुं": 711,
    "नू": 712,
    "नू॰": 713,
    "नृ": 714,
    "नॅ": 715,
    "नॆ": 716,
    "ने": 717,
    "नेे": 718,
    "नै": 719,
    "नॊ": 720,
    "नो": 721,
    "नौ": 722,
    "न्": 723,
    "न्कु": 724,
    "न्ट": 725,
    "न्टा": 726,
    "न्ट्र": 727,
    "न्ट्रा": 728,
    "न्ड": 729,
    "न्डि": 730,
    "न्डी": 731,
    "न्डे": 732,
    "न्त": 733,
    "न्ता": 734,
    "न्ति": 735,
    "न्ती": 736,
    "न्तु": 737,
    "न्तू": 738,
    "न्ते": 739,
    "न्तो": 740,
    "न्त्": 741,
    "न्त्र": 742,
    "न्त्रि": 743,
    "न्त्री": 744,
    "न्त्॰ा": 745,
    "न्त्॰ि": 746,
    "न्त्॰ी": 747,
    "न्थ": 748,
    "न्था": 749,
    "न्द": 750,
    "न्दा": 751,
    "न्दि": 752,
    "न्दु": 753,
    "न्दे": 754,
    "न्दो": 755,
    "न्द्यो": 756,
    "न्द्र": 757,
    "न्द्रं": 758,
    "न्द्रा": 759,
    "न्द्री": 760,
    "न्द्र्र": 761,
    "न्द्॰": 762,
    "न्द्॰ी": 763,
    "न्धि": 764,
    "न्धी": 765,
    "न्न": 766,
    "न्नं": 767,
    "न्ना": 768,
    "न्नि": 769,
    "न्नि‍": 770,
    "न्नु": 771,
    "न्नुं": 772,
    "न्नू": 773,
    "न्नै": 774,
    "न्न्": 775,
    "न्ब": 776,
    "न्म": 777,
    "न्मा": 778,
    "न्मे": 779,
    "न्मो": 780,
    "न्म्या": 781,
    "न्य": 782,
    "न्यः": 783,
    "न्या": 784,
    "न्यु": 785,
    "न्यू": 786,
    "न्ये": 787,
    "न्ऱॆ": 788,
    "न्ऱ्": 789,
    "न्ल": 790,
    "न्वी": 791,
    "न्वे": 792,
    "न्स": 793,
    "न्सा": 794,
    "न्सि": 795,
    "न्सी": 796,
    "न्सू": 797,
    "न्स्": 798,
    "न्स्टि": 799,
    "न्हा": 800,
    "न्हां": 801,
    "न्‌": 802,
    "न॰": 803,
    "न॰ः": 804,
    "नॱ": 805,
    "ऩ": 806,
    "ऩा": 807,
    "ऩा्": 808,
    "ऩि": 809,
    "ऩी": 810,
    "ऩु": 811,
    "ऩू": 812,
    "ऩे": 813,
    "ऩै": 814,
    "ऩ्": 815,
    "ऩ्टा्": 816,
    "ऩ्ट्": 817,
    "ऩ्ट्र": 818,
    "ऩ्ऩ": 819,
    "ऩ्ऩा": 820,
    "ऩ्ऩूा्": 821,
    "ऩ्ऩै": 822,
    "ऩ्ऩो": 823,
    "ऩ्पु": 824,
    "ऩ्ऱ": 825,
    "ऩ्ऱि": 826,
    "ऩ्वॆ": 827,
    "प": 828,
    "पं": 829,
    "पा": 830,
    "पाँ": 831,
    "पां": 832,
    "पा्": 833,
    "पि": 834,
    "पिं": 835,
    "पिाि": 836,
    "पिु": 837,
    "पी": 838,
    "पु": 839,
    "पू": 840,
    "पूँ": 841,
    "पॅ": 842,
    "पॆ": 843,
    "पॆं": 844,
    "पे": 845,
    "पेा": 846,
    "पै": 847,
    "पैा": 848,
    "पॉ": 849,
    "पॊ": 850,
    "पॊं": 851,
    "पो": 852,
    "पोा्चु": 853,
    "पौ": 854,
    "प्": 855,
    "प्का": 856,
    "प्टॆ": 857,
    "प्ण": 858,
    "प्त": 859,
    "प्प": 860,
    "प्पं": 861,
    "प्पा": 862,
    "प्पि": 863,
    "प्पिं": 864,
    "प्पी": 865,
    "प्पु": 866,
    "प्पॆ": 867,
    "प्पे": 868,
    "प्पो": 869,
    "प्प्": 870,
    "प्प्‌": 871,
    "प्या": 872,
    "प्र": 873,
    "प्रा": 874,
    "प्रां": 875,
    "प्राः": 876,
    "प्रि": 877,
    "प्री": 878,
    "प्रीि": 879,
    "प्रॅ": 880,
    "प्रॆ": 881,
    "प्रे": 882,
    "प्रै": 883,
    "प्रॊ": 884,
    "प्रो": 885,
    "प्रौ": 886,
    "प्ल": 887,
    "प्ला": 888,
    "प्ले": 889,
    "प्लै": 890,
    "प्लॉ": 891,
    "प्ष": 892,
    "प्स्": 893,
    "प्॰": 894,
    "प्॰ि": 895,
    "प्‍": 896,
    "प॰": 897,
    "फ": 898,
    "फ़": 899,
    "फा": 900,
    "फां": 901,
    "फि": 902,
    "फी": 903,
    "फु": 904,
    "फॆ": 905,
    "फे": 906,
    "फै": 907,
    "फो": 908,
    "फ्": 909,
    "फ्ट्": 910,
    "फ्या": 911,
    "फ्र": 912,
    "फ्री": 913,
    "फ्रू": 914,
    "फ्रो": 915,
    "फ्ला": 916,
    "फ्॰े": 917,
    "ब": 918,
    "बँ": 919,
    "बं": 920,
    "बा": 921,
    "बां": 922,
    "बि": 923,
    "बि॰": 924,
    "बी": 925,
    "बु": 926,
    "बू": 927,
    "बृ": 928,
    "बॆ": 929,
    "बॆं": 930,
    "बे": 931,
    "बें": 932,
    "बै": 933,
    "बैं": 934,
    "बॉ": 935,
    "बो": 936,
    "बौ": 937,
    "ब्": 938,
    "ब्थ": 939,
    "ब्द": 940,
    "ब्दु": 941,
    "ब्ध": 942,
    "ब्ब": 943,
    "ब्बा": 944,
    "ब्य": 945,
    "ब्या": 946,
    "ब्यां": 947,
    "ब्यु": 948,
    "ब्यू": 949,
    "ब्र": 950,
    "ब्रा": 951,
    "ब्रि": 952,
    "ब्रु": 953,
    "ब्रू": 954,
    "ब्रे": 955,
    "ब्ल": 956,
    "ब्लु": 957,
    "ब्लो": 958,
    "ब्ल्यू": 959,
    "ब्स": 960,
    "ब्सि": 961,
    "ब्॰ु": 962,
    "ब॰": 963,
    "बॱ": 964,
    "भ": 965,
    "भं": 966,
    "भा": 967,
    "भां": 968,
    "भि": 969,
    "भिं": 970,
    "भी": 971,
    "भु": 972,
    "भू": 973,
    "भृा": 974,
    "भे": 975,
    "भें": 976,
    "भै": 977,
    "भो": 978,
    "भ्य": 979,
    "भ्या": 980,
    "भ्र": 981,
    "भ॰": 982,
    "म": 983,
    "मं": 984,
    "मः": 985,
    "मा": 986,
    "मां": 987,
    "मााि": 988,
    "मि": 989,
    "मी": 990,
    "मु": 991,
    "मुं": 992,
    "मुॱ": 993,
    "मू": 994,
    "मूा्त्ति": 995,
    "मृ": 996,
    "मॆ": 997,
    "मे": 998,
    "में": 999,
    "मै": 1000,
    "मैं": 1001,
    "मैा": 1002,
    "मॊ": 1003,
    "मो": 1004,
    "मों": 1005,
    "मौ": 1006,
    "म्": 1007,
    "म्A": 1008,
    "म्ः": 1009,
    "म्का": 1010,
    "म्के": 1011,
    "म्प": 1012,
    "म्पा": 1013,
    "म्पि": 1014,
    "म्पु": 1015,
    "म्पू": 1016,
    "म्पे": 1017,
    "म्पो": 1018,
    "म्प्": 1019,
    "म्प्या": 1020,
    "म्प्यु": 1021,
    "म्प्यू": 1022,
    "म्प्वा": 1023,
    "म्प्॰": 1024,
    "म्ब": 1025,
    "म्बा": 1026,
    "म्बि": 1027,
    "म्बे": 1028,
    "म्ब्न": 1029,
    "म्भ": 1030,
    "म्भा": 1031,
    "म्भु": 1032,
    "म्म": 1033,
    "म्मा": 1034,
    "म्मि": 1035,
    "म्मु": 1036,
    "म्मू": 1037,
    "म्मे": 1038,
    "म्य": 1039,
    "म्या": 1040,
    "म्यां": 1041,
    "म्यु": 1042,
    "म्यू": 1043,
    "म्र": 1044,
    "म्रि": 1045,
    "म्श": 1046,
    "म्स": 1047,
    "म्ह": 1048,
    "म्ही": 1049,
    "म्॰ा": 1050,
    "म॰": 1051,
    "मॱ": 1052,
    "य": 1053,
    "यं": 1054,
    "य़": 1055,
    "य़ा": 1056,
    "य़े": 1057,
    "या": 1058,
    "यां": 1059,
    "याा्": 1060,
    "याा्पे": 1061,
    "या‍": 1062,
    "यि": 1063,
    "यिाि": 1064,
    "यी": 1065,
    "यु": 1066,
    "युं": 1067,
    "यू": 1068,
    "ये": 1069,
    "यें": 1070,
    "यै": 1071,
    "यॊ": 1072,
    "यो": 1073,
    "यों": 1074,
    "य्": 1075,
    "य्क्का": 1076,
    "य्क्कां": 1077,
    "य्क्क्": 1078,
    "य्त": 1079,
    "य्न्त": 1080,
    "य्म": 1081,
    "य्मा": 1082,
    "य्य": 1083,
    "य्वु": 1084,
    "य्स्री": 1085,
    "य्‌": 1086,
    "र": 1087,
    "रं": 1088,
    "रा": 1089,
    "रां": 1090,
    "राा्": 1091,
    "रा्": 1092,
    "रि": 1093,
    "रि॰": 1094,
    "री": 1095,
    "रीं": 1096,
    "रु": 1097,
    "रुं": 1098,
    "रू": 1099,
    "रॆ": 1100,
    "रॆं": 1101,
    "रे": 1102,
    "रें": 1103,
    "रै": 1104,
    "रॉँ": 1105,
    "रॊ": 1106,
    "रो": 1107,
    "र्": 1108,
    "र्ऎ": 1109,
    "र्क": 1110,
    "र्का": 1111,
    "र्कि": 1112,
    "र्किं": 1113,
    "र्कॆ": 1114,
    "र्के": 1115,
    "र्कॊं": 1116,
    "र्ग": 1117,
    "र्गि": 1118,
    "र्च": 1119,
    "र्चा": 1120,
    "र्चि": 1121,
    "र्चू": 1122,
    "र्ज": 1123,
    "र्जा": 1124,
    "र्जि": 1125,
    "र्जी": 1126,
    "र्ट": 1127,
    "र्टि": 1128,
    "र्टी": 1129,
    "र्ट्": 1130,
    "र्ट्स्": 1131,
    "र्ड": 1132,
    "र्डी": 1133,
    "र्डॆ": 1134,
    "र्ण": 1135,
    "र्णा": 1136,
    "र्णि": 1137,
    "र्णी": 1138,
    "र्णो": 1139,
    "र्त": 1140,
    "र्ति": 1141,
    "र्ती": 1142,
    "र्तु": 1143,
    "र्ते": 1144,
    "र्त्त": 1145,
    "र्थ": 1146,
    "र्थं": 1147,
    "र्द": 1148,
    "र्दि": 1149,
    "र्दे": 1150,
    "र्द्": 1151,
    "र्ध": 1152,
    "र्न": 1153,
    "र्ना": 1154,
    "र्नी": 1155,
    "र्प": 1156,
    "र्पा": 1157,
    "र्पे": 1158,
    "र्पै": 1159,
    "र्पॊ": 1160,
    "र्पो": 1161,
    "र्फे": 1162,
    "र्ब": 1163,
    "र्ब्ब": 1164,
    "र्भ": 1165,
    "र्भी": 1166,
    "र्म": 1167,
    "र्मा": 1168,
    "र्मि": 1169,
    "र्मी": 1170,
    "र्मु": 1171,
    "र्मे": 1172,
    "र्म्": 1173,
    "र्य": 1174,
    "र्या": 1175,
    "र्य्या": 1176,
    "र्र": 1177,
    "र्रा": 1178,
    "र्रि": 1179,
    "र्ल": 1180,
    "र्लु": 1181,
    "र्लो": 1182,
    "र्व": 1183,
    "र्वा": 1184,
    "र्वि": 1185,
    "र्वे": 1186,
    "र्श": 1187,
    "र्शि": 1188,
    "र्ष": 1189,
    "र्षि": 1190,
    "र्षे": 1191,
    "र्स": 1192,
    "र्सि": 1193,
    "र्सिं": 1194,
    "र्सी": 1195,
    "र्सु": 1196,
    "र्स्": 1197,
    "र्‌": 1198,
    "र॰": 1199,
    "रॱ": 1200,
    "र‌": 1201,
    "र‍": 1202,
    "ऱ": 1203,
    "ऱं": 1204,
    "ऱा": 1205,
    "ऱि": 1206,
    "ऱिं": 1207,
    "ऱु": 1208,
    "ऱॆ": 1209,
    "ऱे": 1210,
    "ऱै": 1211,
    "ऱॊ": 1212,
    "ऱो": 1213,
    "ऱ्": 1214,
    "ऱ्क": 1215,
    "ऱ्का": 1216,
    "ऱ्कु": 1217,
    "ऱ्के": 1218,
    "ऱ्प": 1219,
    "ऱ्पू": 1220,
    "ऱ्ऱ": 1221,
    "ऱ्ऱा": 1222,
    "ऱ्ऱि": 1223,
    "ऱ्ऱु": 1224,
    "ऱ्ऱे": 1225,
    "ऱ्ऱ्": 1226,
    "ऱ्ऱ्यू": 1227,
    "ऱ्ऱ्ऱ्‌": 1228,
    "ल": 1229,
    "लं": 1230,
    "ला": 1231,
    "लां": 1232,
    "लि": 1233,
    "लिं": 1234,
    "लिा": 1235,
    "ली": 1236,
    "लु": 1237,
    "लुं": 1238,
    "लू": 1239,
    "लूा्": 1240,
    "लॆ": 1241,
    "लॆं": 1242,
    "ले": 1243,
    "लै": 1244,
    "लॉ": 1245,
    "लो": 1246,
    "लोँ": 1247,
    "लौ": 1248,
    "ल्": 1249,
    "ल्क": 1250,
    "ल्कि": 1251,
    "ल्कै": 1252,
    "ल्क्कु": 1253,
    "ल्क्स्": 1254,
    "ल्गू": 1255,
    "ल्टि": 1256,
    "ल्टी": 1257,
    "ल्टु": 1258,
    "ल्ट्": 1259,
    "ल्ट्रा": 1260,
    "ल्ड": 1261,
    "ल्डीं": 1262,
    "ल्ड्र": 1263,
    "ल्थ": 1264,
    "ल्दा": 1265,
    "ल्नी": 1266,
    "ल्प": 1267,
    "ल्पी": 1268,
    "ल्पॊ": 1269,
    "ल्फे": 1270,
    "ल्य": 1271,
    "ल्या": 1272,
    "ल्यां": 1273,
    "ल्यु": 1274,
    "ल्ल": 1275,
    "ल्ला": 1276,
    "ल्ला‍": 1277,
    "ल्लि": 1278,
    "ल्ली": 1279,
    "ल्लु": 1280,
    "ल्लू": 1281,
    "ल्लूाि": 1282,
    "ल्लूा्": 1283,
    "ल्लॆ": 1284,
    "ल्ले": 1285,
    "ल्लै": 1286,
    "ल्ल्": 1287,
    "ल्वि": 1288,
    "ल्वॆ": 1289,
    "ल्वे": 1290,
    "ल्स्": 1291,
    "ल्हा": 1292,
    "ल्हे": 1293,
    "ल्ह्या": 1294,
    "ल्‌": 1295,
    "ल्‍": 1296,
    "ल॰": 1297,
    "लॱ": 1298,
    "ळ": 1299,
    "ळं": 1300,
    "ळा": 1301,
    "ळां": 1302,
    "ळा्": 1303,
    "ळि": 1304,
    "ळी": 1305,
    "ळु": 1306,
    "ळू": 1307,
    "ळॆ": 1308,
    "ळे": 1309,
    "ळै": 1310,
    "ळो": 1311,
    "ळ्": 1312,
    "ळ्अ": 1313,
    "ळ्ट": 1314,
    "ळ्मि": 1315,
    "ळ्मी": 1316,
    "ळ्या": 1317,
    "ळ्यां": 1318,
    "ळ्ळ": 1319,
    "ळ्ळा": 1320,
    "ळ्ळि": 1321,
    "ळ्ळु": 1322,
    "ळ‍": 1323,
    "ऴ": 1324,
    "ऴं": 1325,
    "ऴा": 1326,
    "ऴि": 1327,
    "ऴु": 1328,
    "ऴॆ": 1329,
    "ऴै": 1330,
    "ऴ्": 1331,
    "ऴ्क": 1332,
    "ऴ्च्": 1333,
    "ऴ्न": 1334,
    "ऴ्ना": 1335,
    "ऴ्वु": 1336,
    "ऴ्‌": 1337,
    "व": 1338,
    "वं": 1339,
    "वः": 1340,
    "व़": 1341,
    "वा": 1342,
    "वां": 1343,
    "वा्": 1344,
    "वा्स्": 1345,
    "वि": 1346,
    "विं": 1347,
    "वि॰": 1348,
    "विॱ": 1349,
    "वी": 1350,
    "वीं": 1351,
    "वीः": 1352,
    "वु": 1353,
    "वुं": 1354,
    "वू": 1355,
    "वृ": 1356,
    "वॅ": 1357,
    "वॆ": 1358,
    "वॆं": 1359,
    "वे": 1360,
    "वेा्ल्टु": 1361,
    "वै": 1362,
    "वॉ": 1363,
    "वॊ": 1364,
    "वो": 1365,
    "व्": 1366,
    "व्य": 1367,
    "व्या": 1368,
    "व्र": 1369,
    "व्वि": 1370,
    "व्वू": 1371,
    "व्वे": 1372,
    "व्ह": 1373,
    "व्हि": 1374,
    "व्ही": 1375,
    "व्‌": 1376,
    "व॰": 1377,
    "व‌": 1378,
    "श": 1379,
    "शं": 1380,
    "शा": 1381,
    "शां": 1382,
    "शाः": 1383,
    "शि": 1384,
    "शी": 1385,
    "शीू": 1386,
    "शु": 1387,
    "शू": 1388,
    "शृ": 1389,
    "शॅ": 1390,
    "शॆ": 1391,
    "शे": 1392,
    "शै": 1393,
    "शो": 1394,
    "श्": 1395,
    "श्च": 1396,
    "श्चि": 1397,
    "श्ते": 1398,
    "श्ब": 1399,
    "श्मा": 1400,
    "श्य": 1401,
    "श्र": 1402,
    "श्रा": 1403,
    "श्रि": 1404,
    "श्री": 1405,
    "श्रु": 1406,
    "श्रे": 1407,
    "श्व": 1408,
    "श्वा": 1409,
    "श्शि": 1410,
    "श्शे": 1411,
    "श्स": 1412,
    "श्॰ी": 1413,
    "श्‍": 1414,
    "ष": 1415,
    "षं": 1416,
    "षा": 1417,
    "षि": 1418,
    "षी": 1419,
    "षु": 1420,
    "षू": 1421,
    "षे": 1422,
    "षो": 1423,
    "ष्कृ": 1424,
    "ष्ट": 1425,
    "ष्टा": 1426,
    "ष्टि": 1427,
    "ष्टी": 1428,
    "ष्टु": 1429,
    "ष्ट्र": 1430,
    "ष्ट्रा": 1431,
    "ष्ट्री": 1432,
    "ष्ट्॰": 1433,
    "ष्ट्॰ी": 1434,
    "ष्ठ": 1435,
    "ष्ठा": 1436,
    "ष्ण": 1437,
    "ष्णा": 1438,
    "ष्णू": 1439,
    "ष्ना": 1440,
    "ष्पा": 1441,
    "ष्म": 1442,
    "ष्मॆ": 1443,
    "ष्य": 1444,
    "ष्यं": 1445,
    "ष्‌": 1446,
    "ष्‍": 1447,
    "षॢ": 1448,
    "स": 1449,
    "सं": 1450,
    "सः": 1451,
    "स़": 1452,
    "स़ा": 1453,
    "स़ि": 1454,
    "सा": 1455,
    "सां": 1456,
    "सि": 1457,
    "सिं": 1458,
    "सि॰": 1459,
    "सी": 1460,
    "सु": 1461,
    "सुँ": 1462,
    "सुं": 1463,
    "सू": 1464,
    "सृ": 1465,
    "सृं": 1466,
    "सॆ": 1467,
    "से": 1468,
    "सें": 1469,
    "से‍": 1470,
    "सै": 1471,
    "सैं": 1472,
    "सो": 1473,
    "सोँ": 1474,
    "सौ": 1475,
    "स्": 1476,
    "स्क": 1477,
    "स्का": 1478,
    "स्कु": 1479,
    "स्कू": 1480,
    "स्कृ": 1481,
    "स्गि": 1482,
    "स्जि": 1483,
    "स्जी": 1484,
    "स्ट": 1485,
    "स्टा": 1486,
    "स्टु": 1487,
    "स्टॆ": 1488,
    "स्टे": 1489,
    "स्टो": 1490,
    "स्ट्": 1491,
    "स्ट्र": 1492,
    "स्ट्री": 1493,
    "स्ट्रे": 1494,
    "स्त": 1495,
    "स्तं": 1496,
    "स्ता": 1497,
    "स्ति": 1498,
    "स्तु": 1499,
    "स्तू": 1500,
    "स्तृ": 1501,
    "स्तॆ": 1502,
    "स्ते": 1503,
    "स्त्र": 1504,
    "स्त्रा": 1505,
    "स्थ": 1506,
    "स्था": 1507,
    "स्थि": 1508,
    "स्थी": 1509,
    "स्थॆ": 1510,
    "स्थे": 1511,
    "स्थ्य": 1512,
    "स्ध": 1513,
    "स्धा": 1514,
    "स्धॆ": 1515,
    "स्ने": 1516,
    "स्प": 1517,
    "स्पा": 1518,
    "स्पि": 1519,
    "स्पृ": 1520,
    "स्पॆ": 1521,
    "स्पे": 1522,
    "स्ब": 1523,
    "स्बा": 1524,
    "स्भा": 1525,
    "स्म": 1526,
    "स्मा": 1527,
    "स्मृ": 1528,
    "स्य": 1529,
    "स्यः": 1530,
    "स्र": 1531,
    "स्ऱी": 1532,
    "स्री": 1533,
    "स्ऱ्ऱ": 1534,
    "स्ऱ्ऱा": 1535,
    "स्ऱ्ऱि": 1536,
    "स्ऱ्ऱे": 1537,
    "स्ऱ्ऱै": 1538,
    "स्ऱ्ऱो": 1539,
    "स्ला": 1540,
    "स्लि": 1541,
    "स्व": 1542,
    "स्वं": 1543,
    "स्वा": 1544,
    "स्वे": 1545,
    "स्सा": 1546,
    "स्सु": 1547,
    "स्स्मा": 1548,
    "स्॰": 1549,
    "स्॰ा": 1550,
    "स्‌": 1551,
    "स्‍": 1552,
    "सॗ": 1553,
    "स॰": 1554,
    "सॱ": 1555,
    "ह": 1556,
    "हं": 1557,
    "हः": 1558,
    "हा": 1559,
    "हां": 1560,
    "हा‍": 1561,
    "हि": 1562,
    "हिं": 1563,
    "हिः": 1564,
    "हि॰": 1565,
    "ही": 1566,
    "हीं": 1567,
    "हु": 1568,
    "हु॰": 1569,
    "हू": 1570,
    "हृ": 1571,
    "हॆ": 1572,
    "हे": 1573,
    "हें": 1574,
    "है": 1575,
    "है‍": 1576,
    "हॉ": 1577,
    "हॊ": 1578,
    "हो": 1579,
    "ह्दि": 1580,
    "ह्न": 1581,
    "ह्म": 1582,
    "ह्य": 1583,
    "ह्या": 1584,
    "ह्रू": 1585,
    "ह॰": 1586,
    "हॱ": 1587,
    "ऽ": 1588,
    "ा": 1589,
    "े": 1590,
    "ॎ": 1591,
    "ॐ": 1592,
    "ज़ो": 1593,
    "ज़॰": 1594,
    "ड़": 1595,
    "ड़ा": 1596,
    "ड़ी": 1597,
    "ड़े": 1598,
    "ड़ै": 1599,
    "ड़ोु": 1600,
    "ड़्ह": 1601,
    "ड़्हे": 1602,
    "ढ़ि": 1603,
    "ढ़ी": 1604,
    "ढ़ो": 1605,
    "फ़": 1606,
    "फ़्ट": 1607,
    "फ़्दु": 1608,
    "य़": 1609,
    "य़ः": 1610,
    "य़़": 1611,
    "य़ा": 1612,
    "य़ां": 1613,
    "य़ि": 1614,
    "य़े": 1615,
    "य़ो": 1616,
    "य़्या": 1617,
    "य़ॗ": 1618,
    "ॠ": 1619,
    "।": 1620,
    "।‍": 1621,
    "॥": 1622,
    "०": 1623,
    "१": 1624,
    "१्को": 1625,
    "१‌": 1626,
    "२": 1627,
    "२़": 1628,
    "२ा": 1629,
    "३": 1630,
    "४": 1631,
    "५": 1632,
    "५ु": 1633,
    "५ो": 1634,
    "६": 1635,
    "७": 1636,
    "८": 1637,
    "९": 1638,
    "॰": 1639,
    "॰ा": 1640,
    "॰ि": 1641,
    "॰िः": 1642,
    "॰ी": 1643,
    "॰ु": 1644,
    "॰ू": 1645,
    "॰े": 1646,
    "॰ो": 1647,
    "॰्थ": 1648,
    "॰्प": 1649,
    "॰्ब": 1650,
    "॰्मा": 1651,
    "॰्य": 1652,
    "॰्य्य": 1653,
    "॰्य्या": 1654,
    "॰्ष": 1655,
    "ॱ": 1656,
    "ॱा": 1657,
    "ॱि": 1658,
    "ॱे": 1659,
    "ॱो": 1660,
    "ॳ": 1661,
    "ॳे": 1662,
    "ॷ": 1663,
    "ॺ": 1664,
    "ॺ‍": 1665,
    "ॻ": 1666,
    "ॻॆ": 1667,
    "ॻ्ऱॆ": 1668,
    "ॻ‌": 1669,
    "ॼ": 1670,
    "ॼ‌": 1671,
    "ॼ‍‍": 1672,
    "ॽ": 1673,
    "ॽ‍": 1674,
    "ॾ": 1675,
    "ॾ‌‌": 1676,
    "​": 1677
  },
  "metadata": {
    "tag": "zs_loso_rungA_oriya",
    "num_graphemes": 1676,
    "space": "shared-abugida-pivot"
  }
}