{
  "grapheme2idx": {
    "<blank>": 0,
    "<unk>": 1,
    "!": 2,
    "\"": 3,
    "&": 4,
    "'": 5,
    "(": 6,
    ")": 7,
    ",": 8,
    "-": 9,
    ".": 10,
    "/": 11,
    "0": 12,
    "1": 13,
    "2": 14,
    "3": 15,
    "4": 16,
    "5": 17,
    "6": 18,
    "7": 19,
    "8": 20,
    "9": 21,
    ":": 22,
    "?": 23,
    "A": 24,
    "D": 25,
    "E": 26,
    "G": 27,
    "H": 28,
    "I": 29,
    "O": 30,
    "P": 31,
    "V": 32,
    "[": 33,
    "c": 34,
    "|": 35,
    "°": 36,
    "ا": 37,
    "ت": 38,
    "ج": 39,
    "ر": 40,
    "گ": 41,
    "ی": 42,
    "ँ": 43,
    "अ": 44,
    "अं": 45,
    "अि": 46,
    "अ्या": 47,
    "अ॰": 48,
    "आ": 49,
    "आं": 50,
    "आा्": 51,
    "आे": 52,
    "आॕ": 53,
    "इ": 54,
    "इँ": 55,
    "इं": 56,
    "इ॰": 57,
    "इॱ": 58,
    "ई": 59,
    "ईँ": 60,
    "ईं": 61,
    "उ": 62,
    "उाि": 63,
    "उॱ": 64,
    "ऊ": 65,
    "ऊँ": 66,
    "ऊं": 67,
    "ऊा्": 68,
    "ऋ": 69,
    "ऍ": 70,
    "ऎ": 71,
    "ऎं": 72,
    "ऎ‍": 73,
    "ए": 74,
    "एँ": 75,
    "एा": 76,
    "ऐ": 77,
    "ऐं": 78,
    "ऑ": 79,
    "ऒ": 80,
    "ऒं": 81,
    "ऒाि": 82,
    "ऒा्क्स्": 83,
    "ऒ‌": 84,
    "ओ": 85,
    "ओँ": 86,
    "ओं": 87,
    "ओ्बा": 88,
    "औ": 89,
    "औं": 90,
    "क": 91,
    "कं": 92,
    "कः": 93,
    "का": 94,
    "काँ": 95,
    "कां": 96,
    "काुं": 97,
    "काे": 98,
    "का्": 99,
    "का‍": 100,
    "का‍‌": 101,
    "कि": 102,
    "किं": 103,
    "किाि": 104,
    "की": 105,
    "कीे": 106,
    "कु": 107,
    "कुं": 108,
    "कु॰": 109,
    "कू": 110,
    "कृ": 111,
    "कॅ": 112,
    "कॅा": 113,
    "कॆ": 114,
    "कॆं": 115,
    "के": 116,
    "कें": 117,
    "केा": 118,
    "केा्": 119,
    "केे": 120,
    "कै": 121,
    "कॉ": 122,
    "कॊ": 123,
    "कॊं": 124,
    "को": 125,
    "कोँ": 126,
    "कों": 127,
    "कों‌": 128,
    "क्": 129,
    "क्क": 130,
    "क्कं": 131,
    "क्का": 132,
    "क्का्": 133,
    "क्कि": 134,
    "क्की": 135,
    "क्कु": 136,
    "क्कू": 137,
    "क्कॆ": 138,
    "क्के": 139,
    "क्कै": 140,
    "क्कॊ": 141,
    "क्को": 142,
    "क्क्": 143,
    "क्कॗ": 144,
    "क्ट": 145,
    "क्टा्": 146,
    "क्टो": 147,
    "क्ट्रि": 148,
    "क्त": 149,
    "क्ता": 150,
    "क्तां": 151,
    "क्ति": 152,
    "क्तीं": 153,
    "क्तु": 154,
    "क्ऩा": 155,
    "क्पे": 156,
    "क्मि": 157,
    "क्य": 158,
    "क्या": 159,
    "क्यू": 160,
    "क्र": 161,
    "क्रं": 162,
    "क्रा": 163,
    "क्रि": 164,
    "क्री": 165,
    "क्रे": 166,
    "क्रै": 167,
    "क्रो": 168,
    "क्ला": 169,
    "क्ळ": 170,
    "क्व": 171,
    "क्वा": 172,
    "क्वॆ": 173,
    "क्श": 174,
    "क्ष": 175,
    "क्षा": 176,
    "क्षां": 177,
    "क्षि": 178,
    "क्षिं": 179,
    "क्षी": 180,
    "क्षुः": 181,
    "क्षे": 182,
    "क्षो": 183,
    "क्ष्म": 184,
    "क्ष्मि": 185,
    "क्ष्मी": 186,
    "क्ष्य": 187,
    "क्स": 188,
    "क्सि": 189,
    "क्स्": 190,
    "क्य़ा": 191,
    "क्॰": 192,
    "क्॰ा": 193,
    "क्॰े": 194,
    "क्‌": 195,
    "क्‍": 196,
    "क॰": 197,
    "कॱ": 198,
    "क‌": 199,
    "क‍ी": 200,
    "ख": 201,
    "खं": 202,
    "ख़": 203,
    "खा": 204,
    "खाँ": 205,
    "खां": 206,
    "खि": 207,
    "खी": 208,
    "खु": 209,
    "खू": 210,
    "खॆ": 211,
    "खे": 212,
    "खै": 213,
    "खो": 214,
    "ख्त": 215,
    "ख्य": 216,
    "ख्यु": 217,
    "ख्रीः": 218,
    "ग": 219,
    "गं": 220,
    "गा": 221,
    "गाँ": 222,
    "गां": 223,
    "गि": 224,
    "गि॰": 225,
    "गी": 226,
    "गु": 227,
    "गुं": 228,
    "गू": 229,
    "गृ": 230,
    "गॆ": 231,
    "गॆं": 232,
    "गे": 233,
    "गै": 234,
    "गॊ": 235,
    "गो": 236,
    "गों": 237,
    "गौ": 238,
    "ग्": 239,
    "ग्ग": 240,
    "ग्गि": 241,
    "ग्गॆ": 242,
    "ग्ण": 243,
    "ग्न": 244,
    "ग्नि": 245,
    "ग्ब": 246,
    "ग्य": 247,
    "ग्या": 248,
    "ग्ये": 249,
    "ग्र": 250,
    "ग्रं": 251,
    "ग्रा": 252,
    "ग्रां": 253,
    "ग्री": 254,
    "ग्रू": 255,
    "ग्रे": 256,
    "ग्ला": 257,
    "ग्वा": 258,
    "ग्स": 259,
    "ग्य़ा": 260,
    "ग्॰ु": 261,
    "ग्‌": 262,
    "ग॰": 263,
    "गॱ": 264,
    "घ": 265,
    "घा": 266,
    "घां": 267,
    "घु": 268,
    "घे": 269,
    "घो": 270,
    "घौ": 271,
    "घ्य": 272,
    "घ्या": 273,
    "ङ": 274,
    "ङा": 275,
    "ङि": 276,
    "ङे": 277,
    "ङ्": 278,
    "ङ्क": 279,
    "ङ्का": 280,
    "ङ्कि": 281,
    "ङ्कु": 282,
    "ङ्के": 283,
    "ङ्कै": 284,
    "ङ्को": 285,
    "ङ्क्": 286,
    "ङ्क्षा": 287,
    "ङ्ग": 288,
    "ङ्गि": 289,
    "ङ्गी": 290,
    "ङ्गु": 291,
    "ङ्गे": 292,
    "ङ्गो": 293,
    "ङ्घ": 294,
    "ङ्ङ": 295,
    "ङ्ङा": 296,
    "ङ्ङि": 297,
    "ङ्ङों": 298,
    "ङ्ङ्‌": 299,
    "ङ्चा": 300,
    "ङ्ट": 301,
    "ङ्त": 302,
    "ङ्ष": 303,
    "ङ्‌": 304,
    "च": 305,
    "चं": 306,
    "च़": 307,
    "चा": 308,
    "चां": 309,
    "चा्": 310,
    "चा्क्काा्": 311,
    "चा्जि": 312,
    "चा्व": 313,
    "चि": 314,
    "चिं": 315,
    "ची": 316,
    "चीा्": 317,
    "चु": 318,
    "चुे": 319,
    "चू": 320,
    "चॆ": 321,
    "चे": 322,
    "चें": 323,
    "चेा्क्कै": 324,
    "चेा्ऩ्": 325,
    "चै": 326,
    "चॊ": 327,
    "चो": 328,
    "चौ": 329,
    "च्": 330,
    "च्च": 331,
    "च्चं": 332,
    "च्चा": 333,
    "च्चा्": 334,
    "च्चि": 335,
    "च्ची": 336,
    "च्चूा्": 337,
    "च्चे": 338,
    "च्चेाि": 339,
    "च्च्": 340,
    "च्च्‌": 341,
    "च्छ": 342,
    "च्छा": 343,
    "च्छु": 344,
    "च्छ्": 345,
    "च्ट": 346,
    "च्य": 347,
    "च्या": 348,
    "च्यु": 349,
    "च॑": 350,
    "चॖे": 351,
    "च॰": 352,
    "चॱ": 353,
    "छ": 354,
    "छा": 355,
    "छि": 356,
    "छु": 357,
    "छुॱ": 358,
    "छे": 359,
    "छें": 360,
    "छो": 361,
    "छोँ": 362,
    "छ॰": 363,
    "ज": 364,
    "जं": 365,
    "ज़": 366,
    "ज़ी": 367,
    "ज़ु": 368,
    "जा": 369,
    "जा्": 370,
    "जि": 371,
    "जिं": 372,
    "जि॰": 373,
    "जिॱ": 374,
    "जी": 375,
    "जु": 376,
    "जुॱ": 377,
    "जू": 378,
    "जॆ": 379,
    "जे": 380,
    "जें": 381,
    "जै": 382,
    "जो": 383,
    "ज्": 384,
    "ज्ज": 385,
    "ज्जं": 386,
    "ज्ञ": 387,
    "ज्ञा": 388,
    "ज्ञी": 389,
    "ज्ब": 390,
    "ज्म": 391,
    "ज्य": 392,
    "ज्यु": 393,
    "ज्यू": 394,
    "ज्येा": 395,
    "ज्यो": 396,
    "ज्यों": 397,
    "ज्व": 398,
    "ज्सि": 399,
    "ज्य़": 400,
    "ज्य़ो": 401,
    "ज॰": 402,
    "झ": 403,
    "झा": 404,
    "झाँ": 405,
    "झां": 406,
    "झि": 407,
    "झी": 408,
    "झे": 409,
    "झ॰": 410,
    "ञ": 411,
    "ञा": 412,
    "ञा्": 413,
    "ञ्च": 414,
    "ञ्चा": 415,
    "ञ्चा्": 416,
    "ञ्चि": 417,
    "ञ्चे": 418,
    "ञ्ज": 419,
    "ञ्जा": 420,
    "ञ्जि": 421,
    "ञ्जी": 422,
    "ञ्ञ": 423,
    "ञ्ञा": 424,
    "ञ्ञि": 425,
    "ञ्ञॆ": 426,
    "ट": 427,
    "टा": 428,
    "टाा": 429,
    "टााि": 430,
    "टा्": 431,
    "टि": 432,
    "टिं": 433,
    "टी": 434,
    "टु": 435,
    "टू": 436,
    "टॆ": 437,
    "टे": 438,
    "टै": 439,
    "टैं": 440,
    "टो": 441,
    "टोाि": 442,
    "टौ": 443,
    "ट्": 444,
    "ट्क": 445,
    "ट्च": 446,
    "ट्चाा्च्च": 447,
    "ट्चि": 448,
    "ट्ट": 449,
    "ट्टं": 450,
    "ट्ट़": 451,
    "ट्टा": 452,
    "ट्टाा्": 453,
    "ट्टा्": 454,
    "ट्टि": 455,
    "ट्टी": 456,
    "ट्टु": 457,
    "ट्टूा्पु": 458,
    "ट्टॆ": 459,
    "ट्टै": 460,
    "ट्टो": 461,
    "ट्ट्": 462,
    "ट्ण": 463,
    "ट्त": 464,
    "ट्न": 465,
    "ट्नं": 466,
    "ट्प": 467,
    "ट्पा": 468,
    "ट्मि": 469,
    "ट्य": 470,
    "ट्यू": 471,
    "ट्र": 472,
    "ट्रा": 473,
    "ट्रि": 474,
    "ट्रे": 475,
    "ट्रै": 476,
    "ट्रो": 477,
    "ट्र्या": 478,
    "ट्ल": 479,
    "ट्लि": 480,
    "ट्लु": 481,
    "ट्व": 482,
    "ट्स्": 483,
    "ट्॰": 484,
    "ट्‌": 485,
    "ट्‍": 486,
    "ट‌": 487,
    "ठ": 488,
    "ठा": 489,
    "ठि": 490,
    "ठि॰": 491,
    "ठी": 492,
    "ठे": 493,
    "ठें": 494,
    "ठो": 495,
    "ठ्ठ": 496,
    "ड": 497,
    "डः": 498,
    "ड़": 499,
    "ड़ा": 500,
    "ड़ि": 501,
    "ड़ी": 502,
    "ड़े": 503,
    "ड़ौ": 504,
    "डा": 505,
    "डाः": 506,
    "डि": 507,
    "डी": 508,
    "डु": 509,
    "डू": 510,
    "डॆ": 511,
    "डॆं": 512,
    "डे": 513,
    "डै": 514,
    "डो": 515,
    "ड्": 516,
    "ड्क": 517,
    "ड्ड": 518,
    "ड्डा": 519,
    "ड्डि": 520,
    "ड्डु": 521,
    "ड्पे": 522,
    "ड्यं": 523,
    "ड्या": 524,
    "ड्यां": 525,
    "ड्यू": 526,
    "ड्र": 527,
    "ड्रि": 528,
    "ड्री": 529,
    "ड्रो": 530,
    "ड्‌": 531,
    "ड्‍": 532,
    "ढ": 533,
    "ढ़": 534,
    "ढ़ि": 535,
    "ढ़ी": 536,
    "ढि": 537,
    "ढु": 538,
    "ढे": 539,
    "ढे़": 540,
    "ण": 541,
    "णं": 542,
    "णा": 543,
    "णाः": 544,
    "णि": 545,
    "णी": 546,
    "णीं": 547,
    "णु": 548,
    "णू": 549,
    "णॆ": 550,
    "णे": 551,
    "णै": 552,
    "णो": 553,
    "ण्": 554,
    "ण्क": 555,
    "ण्का": 556,
    "ण्कॊ": 557,
    "ण्ट": 558,
    "ण्टं": 559,
    "ण्टा": 560,
    "ण्टि": 561,
    "ण्टी": 562,
    "ण्टु": 563,
    "ण्टॆ": 564,
    "ण्टे": 565,
    "ण्टै": 566,
    "ण्ट्": 567,
    "ण्ट्लू": 568,
    "ण्ट्‌": 569,
    "ण्ड": 570,
    "ण्डा": 571,
    "ण्डि": 572,
    "ण्ढ": 573,
    "ण्ण": 574,
    "ण्णा": 575,
    "ण्णि": 576,
    "ण्णी": 577,
    "ण्णु": 578,
    "ण्णू": 579,
    "ण्णूा्": 580,
    "ण्णॆ": 581,
    "ण्ता": 582,
    "ण्पु": 583,
    "ण्मै": 584,
    "ण्य": 585,
    "ण्या": 586,
    "ण्रा": 587,
    "ण्री": 588,
    "ण्‌": 589,
    "ण‍": 590,
    "त": 591,
    "तं": 592,
    "तः": 593,
    "त़": 594,
    "त़ि": 595,
    "ता": 596,
    "ताँ": 597,
    "तां": 598,
    "ता्": 599,
    "ता्का": 600,
    "ति": 601,
    "तिं": 602,
    "तिः": 603,
    "तिाि": 604,
    "ती": 605,
    "तीा्": 606,
    "तीा्क": 607,
    "तीा्त्त": 608,
    "तु": 609,
    "तुं": 610,
    "तू": 611,
    "तूा्": 612,
    "तू॰": 613,
    "तृ": 614,
    "तॆ": 615,
    "तॆॆ": 616,
    "तॆ्र्र": 617,
    "ते": 618,
    "तें": 619,
    "तै": 620,
    "तॊ": 621,
    "तो": 622,
    "तों": 623,
    "त्": 624,
    "त्उ": 625,
    "त्क": 626,
    "त्का": 627,
    "त्कू": 628,
    "त्त": 629,
    "त्ता": 630,
    "त्ताा्": 631,
    "त्ति": 632,
    "त्ती": 633,
    "त्तु": 634,
    "त्तू": 635,
    "त्तूा्": 636,
    "त्तॆ": 637,
    "त्तेा्": 638,
    "त्तै": 639,
    "त्तॊ": 640,
    "त्तो": 641,
    "त्तोि": 642,
    "त्त्": 643,
    "त्त्य": 644,
    "त्त्व": 645,
    "त्त्‌": 646,
    "त्थ": 647,
    "त्थि": 648,
    "त्न": 649,
    "त्ऩा": 650,
    "त्प": 651,
    "त्ब": 652,
    "त्बे": 653,
    "त्भ": 654,
    "त्म": 655,
    "त्मा": 656,
    "त्य": 657,
    "त्या": 658,
    "त्यां": 659,
    "त्यु": 660,
    "त्ये": 661,
    "त्य्": 662,
    "त्र": 663,
    "त्रं": 664,
    "त्रं‌": 665,
    "त्रा": 666,
    "त्रि": 667,
    "त्री": 668,
    "त्रॆ": 669,
    "त्रे": 670,
    "त्रों": 671,
    "त्र्य": 672,
    "त्र्यं": 673,
    "त्व": 674,
    "त्वा": 675,
    "त्वि": 676,
    "त्स": 677,
    "त्सा": 678,
    "त्स्": 679,
    "त्स्ना": 680,
    "त्य़": 681,
    "त्य़ु": 682,
    "त्य़े": 683,
    "त्॰": 684,
    "त्‌": 685,
    "त्‍": 686,
    "त॰": 687,
    "त‍े": 688,
    "थ": 689,
    "था": 690,
    "थां": 691,
    "थि": 692,
    "थी": 693,
    "थु": 694,
    "थू": 695,
    "थृ": 696,
    "थे": 697,
    "थ्य": 698,
    "थ्य़": 699,
    "द": 700,
    "दा": 701,
    "दां": 702,
    "दि": 703,
    "दिं": 704,
    "दि॰": 705,
    "दी": 706,
    "दु": 707,
    "दू": 708,
    "दूं": 709,
    "दृ": 710,
    "दॆ": 711,
    "दे": 712,
    "दें": 713,
    "दै": 714,
    "दॊ": 715,
    "दो": 716,
    "दौ": 717,
    "द्": 718,
    "द्घा": 719,
    "द्ट": 720,
    "द्टु": 721,
    "द्द": 722,
    "द्दा": 723,
    "द्दि": 724,
    "द्दु": 725,
    "द्ध": 726,
    "द्धा": 727,
    "द्धि": 728,
    "द्धी": 729,
    "द्ध्यं": 730,
    "द्ब": 731,
    "द्बा": 732,
    "द्बि": 733,
    "द्बी": 734,
    "द्बो": 735,
    "द्म": 736,
    "द्मा": 737,
    "द्य": 738,
    "द्या": 739,
    "द्यो": 740,
    "द्र": 741,
    "द्रा": 742,
    "द्रि": 743,
    "द्री": 744,
    "द्रु": 745,
    "द्रे": 746,
    "द्रौ": 747,
    "द्व": 748,
    "द्वा": 749,
    "द्वी": 750,
    "द्य़": 751,
    "द्य़ा": 752,
    "द्॰": 753,
    "द्‌": 754,
    "ध": 755,
    "धा": 756,
    "धि": 757,
    "धिि": 758,
    "धी": 759,
    "धीं": 760,
    "धु": 761,
    "धू": 762,
    "धे": 763,
    "धो": 764,
    "ध्दा": 765,
    "ध्दी": 766,
    "ध्ब": 767,
    "ध्य": 768,
    "ध्या": 769,
    "ध्ये": 770,
    "ध्र": 771,
    "ध्व": 772,
    "ध॰": 773,
    "न": 774,
    "नं": 775,
    "नः": 776,
    "ना": 777,
    "नां": 778,
    "नाि": 779,
    "ना्": 780,
    "नि": 781,
    "निं": 782,
    "निः": 783,
    "निॕ": 784,
    "नि‍": 785,
    "नी": 786,
    "नीा्": 787,
    "नु": 788,
    "नुं": 789,
    "नू": 790,
    "नू॰": 791,
    "नृ": 792,
    "नॅ": 793,
    "नॆ": 794,
    "ने": 795,
    "नेे": 796,
    "नै": 797,
    "नॊ": 798,
    "नो": 799,
    "नौ": 800,
    "न्": 801,
    "न्कु": 802,
    "न्ट": 803,
    "न्टा": 804,
    "न्ट्र": 805,
    "न्ट्रा": 806,
    "न्ड": 807,
    "न्डि": 808,
    "न्डी": 809,
    "न्डे": 810,
    "न्त": 811,
    "न्ता": 812,
    "न्ति": 813,
    "न्ती": 814,
    "न्तु": 815,
    "न्तू": 816,
    "न्तूा्पे": 817,
    "न्ते": 818,
    "न्तै": 819,
    "न्तो": 820,
    "न्त्": 821,
    "न्त्र": 822,
    "न्त्रि": 823,
    "न्त्री": 824,
    "न्त्॰ा": 825,
    "न्त्॰ि": 826,
    "न्त्॰ी": 827,
    "न्थ": 828,
    "न्था": 829,
    "न्द": 830,
    "न्दा": 831,
    "न्दि": 832,
    "न्दी": 833,
    "न्दु": 834,
    "न्दे": 835,
    "न्दो": 836,
    "न्द्यो": 837,
    "न्द्र": 838,
    "न्द्रं": 839,
    "न्द्रा": 840,
    "न्द्री": 841,
    "न्द्र्र": 842,
    "न्द्॰": 843,
    "न्द्॰ी": 844,
    "न्ध": 845,
    "न्धि": 846,
    "न्धी": 847,
    "न्न": 848,
    "न्नं": 849,
    "न्ना": 850,
    "न्नि": 851,
    "न्नि‍": 852,
    "न्नु": 853,
    "न्नुं": 854,
    "न्नू": 855,
    "न्नै": 856,
    "न्न्": 857,
    "न्ब": 858,
    "न्म": 859,
    "न्मा": 860,
    "न्मे": 861,
    "न्मो": 862,
    "न्म्या": 863,
    "न्य": 864,
    "न्यः": 865,
    "न्या": 866,
    "न्यु": 867,
    "न्यू": 868,
    "न्ये": 869,
    "न्ऱॆ": 870,
    "न्ऱ्": 871,
    "न्ल": 872,
    "न्वी": 873,
    "न्वे": 874,
    "न्स": 875,
    "न्सा": 876,
    "न्सि": 877,
    "न्सी": 878,
    "न्सू": 879,
    "न्स्": 880,
    "न्स्टि": 881,
    "न्हा": 882,
    "न्हां": 883,
    "न्य़": 884,
    "न्य़ा": 885,
    "न्‌": 886,
    "न॰": 887,
    "न॰ः": 888,
    "नॱ": 889,
    "ऩ": 890,
    "ऩा": 891,
    "ऩाा्": 892,
    "ऩा्": 893,
    "ऩा्क": 894,
    "ऩि": 895,
    "ऩी": 896,
    "ऩु": 897,
    "ऩू": 898,
    "ऩूा्": 899,
    "ऩे": 900,
    "ऩै": 901,
    "ऩ्": 902,
    "ऩ्क": 903,
    "ऩ्ट": 904,
    "ऩ्टा्": 905,
    "ऩ्ट्": 906,
    "ऩ्ट्र": 907,
    "ऩ्त": 908,
    "ऩ्ऩ": 909,
    "ऩ्ऩा": 910,
    "ऩ्ऩा्": 911,
    "ऩ्ऩि": 912,
    "ऩ्ऩूा्": 913,
    "ऩ्ऩे": 914,
    "ऩ्ऩै": 915,
    "ऩ्ऩो": 916,
    "ऩ्प": 917,
    "ऩ्पु": 918,
    "ऩ्मै": 919,
    "ऩ्ऱ": 920,
    "ऩ्ऱि": 921,
    "ऩ्ऱु": 922,
    "ऩ्ऱॆ": 923,
    "ऩ्ऱो": 924,
    "ऩ्वॆ": 925,
    "ऩ्सी": 926,
    "ऩ्स्": 927,
    "प": 928,
    "पं": 929,
    "पा": 930,
    "पाँ": 931,
    "पां": 932,
    "पाा्": 933,
    "पा्": 934,
    "पा्टि": 935,
    "पि": 936,
    "पिं": 937,
    "पिा": 938,
    "पिाि": 939,
    "पिु": 940,
    "पी": 941,
    "पु": 942,
    "पू": 943,
    "पूँ": 944,
    "पूाि": 945,
    "पृ": 946,
    "पॅ": 947,
    "पॆ": 948,
    "पॆं": 949,
    "पे": 950,
    "पेा": 951,
    "पै": 952,
    "पैा": 953,
    "पॉ": 954,
    "पॊ": 955,
    "पॊं": 956,
    "पो": 957,
    "पोा्चु": 958,
    "पौ": 959,
    "प्": 960,
    "प्का": 961,
    "प्ट": 962,
    "प्टॆ": 963,
    "प्ट्ट": 964,
    "प्ण": 965,
    "प्त": 966,
    "प्ति": 967,
    "प्न": 968,
    "प्प": 969,
    "प्पं": 970,
    "प्पा": 971,
    "प्पा्": 972,
    "प्पि": 973,
    "प्पिं": 974,
    "प्पी": 975,
    "प्पु": 976,
    "प्पू": 977,
    "प्पूा्": 978,
    "प्पॆ": 979,
    "प्पे": 980,
    "प्पै": 981,
    "प्पॊ": 982,
    "प्पो": 983,
    "प्पोा्": 984,
    "प्प्": 985,
    "प्प्‌": 986,
    "प्या": 987,
    "प्र": 988,
    "प्रा": 989,
    "प्रां": 990,
    "प्राः": 991,
    "प्रि": 992,
    "प्री": 993,
    "प्रीि": 994,
    "प्रॅ": 995,
    "प्रॆ": 996,
    "प्रे": 997,
    "प्रै": 998,
    "प्रॊ": 999,
    "प्रो": 1000,
    "प्रौ": 1001,
    "प्ल": 1002,
    "प्ला": 1003,
    "प्ले": 1004,
    "प्लै": 1005,
    "प्लॉ": 1006,
    "प्ष": 1007,
    "प्स्": 1008,
    "प्॰": 1009,
    "प्॰ि": 1010,
    "प्‍": 1011,
    "प॰": 1012,
    "प‌": 1013,
    "फ": 1014,
    "फ़": 1015,
    "फा": 1016,
    "फां": 1017,
    "फि": 1018,
    "फी": 1019,
    "फु": 1020,
    "फॆ": 1021,
    "फे": 1022,
    "फै": 1023,
    "फो": 1024,
    "फ्": 1025,
    "फ्ट्": 1026,
    "फ्या": 1027,
    "फ्र": 1028,
    "फ्री": 1029,
    "फ्रू": 1030,
    "फ्रो": 1031,
    "फ्ला": 1032,
    "फ्॰े": 1033,
    "ब": 1034,
    "बँ": 1035,
    "बं": 1036,
    "बा": 1037,
    "बां": 1038,
    "बि": 1039,
    "बि॰": 1040,
    "बी": 1041,
    "बु": 1042,
    "बू": 1043,
    "बृ": 1044,
    "बॆ": 1045,
    "बॆं": 1046,
    "बे": 1047,
    "बें": 1048,
    "बै": 1049,
    "बैं": 1050,
    "बॉ": 1051,
    "बो": 1052,
    "बौ": 1053,
    "ब्": 1054,
    "ब्थ": 1055,
    "ब्द": 1056,
    "ब्दी": 1057,
    "ब्दु": 1058,
    "ब्ध": 1059,
    "ब्ब": 1060,
    "ब्बा": 1061,
    "ब्य": 1062,
    "ब्या": 1063,
    "ब्यां": 1064,
    "ब्यु": 1065,
    "ब्यू": 1066,
    "ब्र": 1067,
    "ब्रा": 1068,
    "ब्रि": 1069,
    "ब्रु": 1070,
    "ब्रू": 1071,
    "ब्रे": 1072,
    "ब्ल": 1073,
    "ब्लु": 1074,
    "ब्लो": 1075,
    "ब्ल्यू": 1076,
    "ब्स": 1077,
    "ब्सि": 1078,
    "ब्य़ा": 1079,
    "ब्॰ु": 1080,
    "ब॰": 1081,
    "बॱ": 1082,
    "भ": 1083,
    "भं": 1084,
    "भा": 1085,
    "भां": 1086,
    "भि": 1087,
    "भिं": 1088,
    "भी": 1089,
    "भु": 1090,
    "भू": 1091,
    "भृा": 1092,
    "भे": 1093,
    "भें": 1094,
    "भै": 1095,
    "भो": 1096,
    "भ्य": 1097,
    "भ्या": 1098,
    "भ्र": 1099,
    "भ॰": 1100,
    "म": 1101,
    "मं": 1102,
    "मः": 1103,
    "मा": 1104,
    "मां": 1105,
    "मााि": 1106,
    "माा्": 1107,
    "माा्च्": 1108,
    "मि": 1109,
    "मी": 1110,
    "मु": 1111,
    "मुं": 1112,
    "मुॱ": 1113,
    "मू": 1114,
    "मूा्त्ति": 1115,
    "मृ": 1116,
    "मॆ": 1117,
    "मे": 1118,
    "में": 1119,
    "मै": 1120,
    "मैं": 1121,
    "मैा": 1122,
    "मॊ": 1123,
    "मो": 1124,
    "मों": 1125,
    "मौ": 1126,
    "म्": 1127,
    "म्A": 1128,
    "म्ः": 1129,
    "म्इ": 1130,
    "म्का": 1131,
    "म्के": 1132,
    "म्को": 1133,
    "म्न": 1134,
    "म्ना": 1135,
    "म्प": 1136,
    "म्पा": 1137,
    "म्पा्": 1138,
    "म्पि": 1139,
    "म्पु": 1140,
    "म्पू": 1141,
    "म्पूा्": 1142,
    "म्पे": 1143,
    "म्पो": 1144,
    "म्प्": 1145,
    "म्प्या": 1146,
    "म्प्यु": 1147,
    "म्प्यू": 1148,
    "म्प्ले": 1149,
    "म्प्वा": 1150,
    "म्प्॰": 1151,
    "म्ब": 1152,
    "म्बा": 1153,
    "म्बि": 1154,
    "म्बे": 1155,
    "म्ब्न": 1156,
    "म्भ": 1157,
    "म्भा": 1158,
    "म्भु": 1159,
    "म्म": 1160,
    "म्मा": 1161,
    "म्मि": 1162,
    "म्मु": 1163,
    "म्मू": 1164,
    "म्मे": 1165,
    "म्मै": 1166,
    "म्मॊ": 1167,
    "म्य": 1168,
    "म्या": 1169,
    "म्यां": 1170,
    "म्यु": 1171,
    "म्यू": 1172,
    "म्र": 1173,
    "म्रा": 1174,
    "म्रि": 1175,
    "म्श": 1176,
    "म्स": 1177,
    "म्ह": 1178,
    "म्ही": 1179,
    "म्॰ा": 1180,
    "म्‌": 1181,
    "म॰": 1182,
    "मॱ": 1183,
    "य": 1184,
    "यं": 1185,
    "य़": 1186,
    "य़ा": 1187,
    "य़े": 1188,
    "या": 1189,
    "यां": 1190,
    "याा्": 1191,
    "याा्पे": 1192,
    "या्": 1193,
    "या्क": 1194,
    "या‍": 1195,
    "यि": 1196,
    "यिाि": 1197,
    "यी": 1198,
    "यु": 1199,
    "युं": 1200,
    "यू": 1201,
    "ये": 1202,
    "यें": 1203,
    "यै": 1204,
    "यॊ": 1205,
    "यो": 1206,
    "यों": 1207,
    "य्": 1208,
    "य्क": 1209,
    "य्क्का": 1210,
    "य्क्कां": 1211,
    "य्क्क्": 1212,
    "य्ञ्चि": 1213,
    "य्त": 1214,
    "य्त्": 1215,
    "य्त्तु": 1216,
    "य्न्त": 1217,
    "य्म": 1218,
    "य्मा": 1219,
    "य्मै": 1220,
    "य्य": 1221,
    "य्या्": 1222,
    "य्व": 1223,
    "य्वि": 1224,
    "य्वु": 1225,
    "य्वे": 1226,
    "य्स्री": 1227,
    "य्य़ा": 1228,
    "य्‌": 1229,
    "यॖ": 1230,
    "र": 1231,
    "रं": 1232,
    "रा": 1233,
    "रां": 1234,
    "राा्": 1235,
    "रा्": 1236,
    "रि": 1237,
    "रि॰": 1238,
    "री": 1239,
    "रीं": 1240,
    "रु": 1241,
    "रुं": 1242,
    "रू": 1243,
    "रूा्": 1244,
    "रॆ": 1245,
    "रॆं": 1246,
    "रे": 1247,
    "रें": 1248,
    "रै": 1249,
    "रॉँ": 1250,
    "रॊ": 1251,
    "रो": 1252,
    "र्": 1253,
    "र्ऎ": 1254,
    "र्क": 1255,
    "र्का": 1256,
    "र्कि": 1257,
    "र्किं": 1258,
    "र्कॆ": 1259,
    "र्के": 1260,
    "र्कॊं": 1261,
    "र्ग": 1262,
    "र्गि": 1263,
    "र्च": 1264,
    "र्चा": 1265,
    "र्चि": 1266,
    "र्चू": 1267,
    "र्च्च": 1268,
    "र्च्चि": 1269,
    "र्ज": 1270,
    "र्जा": 1271,
    "र्जि": 1272,
    "र्जी": 1273,
    "र्ट": 1274,
    "र्टि": 1275,
    "र्टी": 1276,
    "र्ट्": 1277,
    "र्ट्स्": 1278,
    "र्ड": 1279,
    "र्डी": 1280,
    "र्डॆ": 1281,
    "र्ण": 1282,
    "र्णा": 1283,
    "र्णि": 1284,
    "र्णी": 1285,
    "र्णो": 1286,
    "र्ण्णा": 1287,
    "र्ण्णी": 1288,
    "र्ण्न": 1289,
    "र्त": 1290,
    "र्ति": 1291,
    "र्ती": 1292,
    "र्तु": 1293,
    "र्ते": 1294,
    "र्त्त": 1295,
    "र्थ": 1296,
    "र्थं": 1297,
    "र्थि": 1298,
    "र्द": 1299,
    "र्दि": 1300,
    "र्दु": 1301,
    "र्दे": 1302,
    "र्द्": 1303,
    "र्ध": 1304,
    "र्न": 1305,
    "र्ना": 1306,
    "र्नी": 1307,
    "र्न्तॆ": 1308,
    "र्प": 1309,
    "र्पा": 1310,
    "र्पे": 1311,
    "र्पै": 1312,
    "र्पॊ": 1313,
    "र्पो": 1314,
    "र्फे": 1315,
    "र्ब": 1316,
    "र्बि": 1317,
    "र्बो": 1318,
    "र्ब्ब": 1319,
    "र्भ": 1320,
    "र्भा": 1321,
    "र्भी": 1322,
    "र्म": 1323,
    "र्मा": 1324,
    "र्मि": 1325,
    "र्मी": 1326,
    "र्मु": 1327,
    "र्मे": 1328,
    "र्म्": 1329,
    "र्य": 1330,
    "र्या": 1331,
    "र्य्या": 1332,
    "र्य्य़": 1333,
    "र्य्य़ा": 1334,
    "र्र": 1335,
    "र्रा": 1336,
    "र्रि": 1337,
    "र्ल": 1338,
    "र्लु": 1339,
    "र्लो": 1340,
    "र्व": 1341,
    "र्वा": 1342,
    "र्वि": 1343,
    "र्वे": 1344,
    "र्वो": 1345,
    "र्श": 1346,
    "र्शि": 1347,
    "र्ष": 1348,
    "र्षा": 1349,
    "र्षि": 1350,
    "र्षे": 1351,
    "र्स": 1352,
    "र्सि": 1353,
    "र्सिं": 1354,
    "र्सी": 1355,
    "र्सु": 1356,
    "र्स्": 1357,
    "र्‌": 1358,
    "र॰": 1359,
    "रॱ": 1360,
    "र‌": 1361,
    "र‍": 1362,
    "ऱ": 1363,
    "ऱं": 1364,
    "ऱा": 1365,
    "ऱि": 1366,
    "ऱिं": 1367,
    "ऱु": 1368,
    "ऱॆ": 1369,
    "ऱे": 1370,
    "ऱै": 1371,
    "ऱॊ": 1372,
    "ऱो": 1373,
    "ऱ्": 1374,
    "ऱ्क": 1375,
    "ऱ्का": 1376,
    "ऱ्कि": 1377,
    "ऱ्कु": 1378,
    "ऱ्के": 1379,
    "ऱ्कै": 1380,
    "ऱ्चि": 1381,
    "ऱ्प": 1382,
    "ऱ्पू": 1383,
    "ऱ्ऱ": 1384,
    "ऱ्ऱा": 1385,
    "ऱ्ऱि": 1386,
    "ऱ्ऱु": 1387,
    "ऱ्ऱे": 1388,
    "ऱ्ऱ्": 1389,
    "ऱ्ऱ्यू": 1390,
    "ऱ्ऱ्ऱ्‌": 1391,
    "ल": 1392,
    "लं": 1393,
    "ला": 1394,
    "लां": 1395,
    "ला्क": 1396,
    "लि": 1397,
    "लिं": 1398,
    "लिा": 1399,
    "ली": 1400,
    "लु": 1401,
    "लुं": 1402,
    "लू": 1403,
    "लूा्": 1404,
    "लॆ": 1405,
    "लॆं": 1406,
    "ले": 1407,
    "लै": 1408,
    "लॉ": 1409,
    "लो": 1410,
    "लोँ": 1411,
    "लौ": 1412,
    "ल्": 1413,
    "ल्ऎ": 1414,
    "ल्क": 1415,
    "ल्कि": 1416,
    "ल्कु": 1417,
    "ल्कै": 1418,
    "ल्क्कु": 1419,
    "ल्क्स्": 1420,
    "ल्गू": 1421,
    "ल्ट": 1422,
    "ल्टि": 1423,
    "ल्टी": 1424,
    "ल्टु": 1425,
    "ल्ट्": 1426,
    "ल्ट्रा": 1427,
    "ल्ड": 1428,
    "ल्डीं": 1429,
    "ल्ड्र": 1430,
    "ल्थ": 1431,
    "ल्दा": 1432,
    "ल्न": 1433,
    "ल्नी": 1434,
    "ल्प": 1435,
    "ल्पी": 1436,
    "ल्पॊ": 1437,
    "ल्पो": 1438,
    "ल्फे": 1439,
    "ल्य": 1440,
    "ल्या": 1441,
    "ल्यां": 1442,
    "ल्यु": 1443,
    "ल्ल": 1444,
    "ल्ला": 1445,
    "ल्लाि": 1446,
    "ल्ला‍": 1447,
    "ल्लि": 1448,
    "ल्ली": 1449,
    "ल्लु": 1450,
    "ल्लू": 1451,
    "ल्लूाि": 1452,
    "ल्लूा्": 1453,
    "ल्लॆ": 1454,
    "ल्ले": 1455,
    "ल्लै": 1456,
    "ल्ल्": 1457,
    "ल्वि": 1458,
    "ल्वॆ": 1459,
    "ल्वे": 1460,
    "ल्स्": 1461,
    "ल्हा": 1462,
    "ल्हे": 1463,
    "ल्ह्या": 1464,
    "ल्‌": 1465,
    "ल्‍": 1466,
    "ल॰": 1467,
    "लॱ": 1468,
    "ळ": 1469,
    "ळं": 1470,
    "ळा": 1471,
    "ळां": 1472,
    "ळा्": 1473,
    "ळि": 1474,
    "ळी": 1475,
    "ळु": 1476,
    "ळू": 1477,
    "ळॆ": 1478,
    "ळे": 1479,
    "ळै": 1480,
    "ळो": 1481,
    "ळ्": 1482,
    "ळ्अ": 1483,
    "ळ्क": 1484,
    "ळ्ट": 1485,
    "ळ्मि": 1486,
    "ळ्मी": 1487,
    "ळ्या": 1488,
    "ळ्यां": 1489,
    "ळ्ळ": 1490,
    "ळ्ळा": 1491,
    "ळ्ळि": 1492,
    "ळ्ळु": 1493,
    "ळ‍": 1494,
    "ऴ": 1495,
    "ऴं": 1496,
    "ऴा": 1497,
    "ऴि": 1498,
    "ऴु": 1499,
    "ऴॆ": 1500,
    "ऴै": 1501,
    "ऴ्": 1502,
    "ऴ्क": 1503,
    "ऴ्चॆ": 1504,
    "ऴ्च्": 1505,
    "ऴ्न": 1506,
    "ऴ्ना": 1507,
    "ऴ्वु": 1508,
    "ऴ्‌": 1509,
    "व": 1510,
    "वं": 1511,
    "वः": 1512,
    "व़": 1513,
    "वा": 1514,
    "वां": 1515,
    "वाा्टु": 1516,
    "वाि": 1517,
    "वा्": 1518,
    "वा्क": 1519,
    "वा्स्": 1520,
    "वि": 1521,
    "विं": 1522,
    "वि॰": 1523,
    "विॱ": 1524,
    "वी": 1525,
    "वीं": 1526,
    "वीः": 1527,
    "वीा्": 1528,
    "वु": 1529,
    "वुं": 1530,
    "वू": 1531,
    "वृ": 1532,
    "वॅ": 1533,
    "वॆ": 1534,
    "वॆं": 1535,
    "वे": 1536,
    "वेा्ल्टु": 1537,
    "वै": 1538,
    "वॉ": 1539,
    "वॊ": 1540,
    "वो": 1541,
    "व्": 1542,
    "व्टे": 1543,
    "व्य": 1544,
    "व्या": 1545,
    "व्र": 1546,
    "व्वि": 1547,
    "व्वू": 1548,
    "व्वे": 1549,
    "व्ह": 1550,
    "व्हि": 1551,
    "व्ही": 1552,
    "व्‌": 1553,
    "व॰": 1554,
    "व‌": 1555,
    "श": 1556,
    "शं": 1557,
    "शा": 1558,
    "शां": 1559,
    "शाः": 1560,
    "शि": 1561,
    "शी": 1562,
    "शीू": 1563,
    "शु": 1564,
    "शू": 1565,
    "शृ": 1566,
    "शॅ": 1567,
    "शॆ": 1568,
    "शे": 1569,
    "शै": 1570,
    "शो": 1571,
    "श्": 1572,
    "श्च": 1573,
    "श्चि": 1574,
    "श्ते": 1575,
    "श्ब": 1576,
    "श्मा": 1577,
    "श्य": 1578,
    "श्र": 1579,
    "श्रा": 1580,
    "श्रि": 1581,
    "श्री": 1582,
    "श्रु": 1583,
    "श्रे": 1584,
    "श्व": 1585,
    "श्वा": 1586,
    "श्शि": 1587,
    "श्शे": 1588,
    "श्स": 1589,
    "श्॰ी": 1590,
    "श्ॱ": 1591,
    "श्‍": 1592,
    "ष": 1593,
    "षं": 1594,
    "षा": 1595,
    "षि": 1596,
    "षी": 1597,
    "षु": 1598,
    "षू": 1599,
    "षे": 1600,
    "षो": 1601,
    "ष्कृ": 1602,
    "ष्ट": 1603,
    "ष्टा": 1604,
    "ष्टि": 1605,
    "ष्टी": 1606,
    "ष्टु": 1607,
    "ष्टे": 1608,
    "ष्टो": 1609,
    "ष्ट्र": 1610,
    "ष्ट्रा": 1611,
    "ष्ट्री": 1612,
    "ष्ट्॰": 1613,
    "ष्ट्॰ी": 1614,
    "ष्ठ": 1615,
    "ष्ठा": 1616,
    "ष्ण": 1617,
    "ष्णा": 1618,
    "ष्णु": 1619,
    "ष्णू": 1620,
    "ष्ना": 1621,
    "ष्पा": 1622,
    "ष्म": 1623,
    "ष्मॆ": 1624,
    "ष्य": 1625,
    "ष्यं": 1626,
    "ष्य़": 1627,
    "ष्‌": 1628,
    "ष्‍": 1629,
    "षॢ": 1630,
    "स": 1631,
    "सं": 1632,
    "सः": 1633,
    "स़": 1634,
    "स़ा": 1635,
    "स़ि": 1636,
    "सा": 1637,
    "सां": 1638,
    "सि": 1639,
    "सिं": 1640,
    "सि॰": 1641,
    "सी": 1642,
    "सु": 1643,
    "सुँ": 1644,
    "सुं": 1645,
    "सू": 1646,
    "सृ": 1647,
    "सृं": 1648,
    "सॆ": 1649,
    "से": 1650,
    "सें": 1651,
    "से‍": 1652,
    "सै": 1653,
    "सैं": 1654,
    "सो": 1655,
    "सोँ": 1656,
    "सौ": 1657,
    "स्": 1658,
    "स्क": 1659,
    "स्का": 1660,
    "स्कु": 1661,
    "स्कू": 1662,
    "स्कृ": 1663,
    "स्गि": 1664,
    "स्जि": 1665,
    "स्जी": 1666,
    "स्ट": 1667,
    "स्टा": 1668,
    "स्टी": 1669,
    "स्टु": 1670,
    "स्टॆ": 1671,
    "स्टे": 1672,
    "स्टो": 1673,
    "स्टोा्स्": 1674,
    "स्ट्": 1675,
    "स्ट्र": 1676,
    "स्ट्री": 1677,
    "स्ट्रे": 1678,
    "स्त": 1679,
    "स्तं": 1680,
    "स्ता": 1681,
    "स्ति": 1682,
    "स्तु": 1683,
    "स्तू": 1684,
    "स्तृ": 1685,
    "स्तॆ": 1686,
    "स्ते": 1687,
    "स्त्र": 1688,
    "स्त्रा": 1689,
    "स्थ": 1690,
    "स्था": 1691,
    "स्थि": 1692,
    "स्थी": 1693,
    "स्थॆ": 1694,
    "स्थे": 1695,
    "स्थ्य": 1696,
    "स्ध": 1697,
    "स्धा": 1698,
    "स्धॆ": 1699,
    "स्ना": 1700,
    "स्ने": 1701,
    "स्प": 1702,
    "स्पा": 1703,
    "स्पि": 1704,
    "स्पृ": 1705,
    "स्पॆ": 1706,
    "स्पे": 1707,
    "स्फो": 1708,
    "स्ब": 1709,
    "स्बा": 1710,
    "स्भा": 1711,
    "स्म": 1712,
    "स्मा": 1713,
    "स्मृ": 1714,
    "स्य": 1715,
    "स्यः": 1716,
    "स्र": 1717,
    "स्ऱी": 1718,
    "स्री": 1719,
    "स्ऱ्ऱ": 1720,
    "स्ऱ्ऱा": 1721,
    "स्ऱ्ऱि": 1722,
    "स्ऱ्ऱे": 1723,
    "स्ऱ्ऱै": 1724,
    "स्ऱ्ऱो": 1725,
    "स्ला": 1726,
    "स्लि": 1727,
    "स्व": 1728,
    "स्वं": 1729,
    "स्वा": 1730,
    "स्वी": 1731,
    "स्वे": 1732,
    "स्सा": 1733,
    "स्सु": 1734,
    "स्स्मा": 1735,
    "स्य़": 1736,
    "स्॰": 1737,
    "स्॰ा": 1738,
    "स्ॱ": 1739,
    "स्‌": 1740,
    "स्‍": 1741,
    "सॗ": 1742,
    "स॰": 1743,
    "सॱ": 1744,
    "ह": 1745,
    "हं": 1746,
    "हः": 1747,
    "हा": 1748,
    "हां": 1749,
    "हा‍": 1750,
    "हि": 1751,
    "हिँ": 1752,
    "हिं": 1753,
    "हिः": 1754,
    "हि॰": 1755,
    "ही": 1756,
    "हीं": 1757,
    "हु": 1758,
    "हु॰": 1759,
    "हू": 1760,
    "हृ": 1761,
    "हॆ": 1762,
    "हे": 1763,
    "हें": 1764,
    "है": 1765,
    "है‍": 1766,
    "हॉ": 1767,
    "हॊ": 1768,
    "हो": 1769,
    "ह्दि": 1770,
    "ह्न": 1771,
    "ह्म": 1772,
    "ह्य": 1773,
    "ह्या": 1774,
    "ह्रू": 1775,
    "ह॰": 1776,
    "हॱ": 1777,
    "ऽ": 1778,
    "ा": 1779,
    "े": 1780,
    "ॎ": 1781,
    "ॐ": 1782,
    "ज़ो": 1783,
    "ज़॰": 1784,
    "ड़": 1785,
    "ड़ा": 1786,
    "ड़ी": 1787,
    "ड़े": 1788,
    "ड़ै": 1789,
    "ड़ोु": 1790,
    "ड़्ह": 1791,
    "ड़्हे": 1792,
    "ढ़ि": 1793,
    "ढ़ी": 1794,
    "ढ़ो": 1795,
    "फ़": 1796,
    "फ़्ट": 1797,
    "फ़्दु": 1798,
    "य़": 1799,
    "य़ं": 1800,
    "य़ः": 1801,
    "य़़": 1802,
    "य़ा": 1803,
    "य़ां": 1804,
    "य़ि": 1805,
    "य़ु": 1806,
    "य़े": 1807,
    "य़ो": 1808,
    "य़्या": 1809,
    "य़ॗ": 1810,
    "ॠ": 1811,
    "।": 1812,
    "।‍": 1813,
    "॥": 1814,
    "०": 1815,
    "१": 1816,
    "१्को": 1817,
    "१‌": 1818,
    "२": 1819,
    "२़": 1820,
    "२ा": 1821,
    "३": 1822,
    "४": 1823,
    "५": 1824,
    "५ु": 1825,
    "५ो": 1826,
    "६": 1827,
    "७": 1828,
    "८": 1829,
    "९": 1830,
    "॰": 1831,
    "॰ा": 1832,
    "॰ि": 1833,
    "॰िः": 1834,
    "॰ी": 1835,
    "॰ु": 1836,
    "॰ू": 1837,
    "॰े": 1838,
    "॰ो": 1839,
    "॰्थ": 1840,
    "॰्प": 1841,
    "॰्ब": 1842,
    "॰्मा": 1843,
    "॰्य": 1844,
    "॰्य्य": 1845,
    "॰्य्या": 1846,
    "॰्ष": 1847,
    "ॱ": 1848,
    "ॱा": 1849,
    "ॱि": 1850,
    "ॱे": 1851,
    "ॱो": 1852,
    "ॳ": 1853,
    "ॳे": 1854,
    "ॷ": 1855,
    "ॹ": 1856,
    "ॺ": 1857,
    "ॺ‍": 1858,
    "ॻ": 1859,
    "ॻॆ": 1860,
    "ॻ्ऱॆ": 1861,
    "ॻ‌": 1862,
    "ॼ": 1863,
    "ॼ‌": 1864,
    "ॼ‍‍": 1865,
    "ॽ": 1866,
    "ॽ‍": 1867,
    "ॾ": 1868,
    "ॾ‌‌": 1869,
    "​": 1870,
    "’": 1871,
    "↑": 1872
  },
  "metadata": {
    "tag": "zs_loso_rungB_tamil",
    "num_graphemes": 1871,
    "space": "shared-abugida-pivot"
  }
}