{
  "grapheme2idx": {
    "<blank>": 0,
    "<unk>": 1,
    "\"": 2,
    "&": 3,
    "'": 4,
    "(": 5,
    ")": 6,
    ",": 7,
    "-": 8,
    ".": 9,
    "0": 10,
    "1": 11,
    "2": 12,
    "3": 13,
    "4": 14,
    "5": 15,
    "6": 16,
    "7": 17,
    "8": 18,
    "9": 19,
    ":": 20,
    "c": 21,
    "|": 22,
    "ا": 23,
    "ك": 24,
    "ل": 25,
    "و": 26,
    "॥": 27,
    "అ": 28,
    "అం": 29,
    "ఆ": 30,
    "ఆం": 31,
    "ఇ": 32,
    "ఇం": 33,
    "ఈ": 34,
    "ఉ": 35,
    "ఊ": 36,
    "ఋ": 37,
    "ఎ": 38,
    "ఎం": 39,
    "ఏ": 40,
    "ఐ": 41,
    "ఒ": 42,
    "ఒం": 43,
    "ఓ": 44,
    "ఓం": 45,
    "ఔ": 46,
    "క": 47,
    "కం": 48,
    "కా": 49,
    "కాం": 50,
    "కి": 51,
    "కిం": 52,
    "కీ": 53,
    "కు": 54,
    "కూ": 55,
    "కృ": 56,
    "కె": 57,
    "కెం": 58,
    "కే": 59,
    "కేం": 60,
    "కై": 61,
    "కొ": 62,
    "కొం": 63,
    "కో": 64,
    "కోం": 65,
    "క్": 66,
    "క్ఏ": 67,
    "క్క": 68,
    "క్కు": 69,
    "క్ట": 70,
    "క్టో": 71,
    "క్తి": 72,
    "క్తు": 73,
    "క్పే": 74,
    "క్యా": 75,
    "క్ర": 76,
    "క్రా": 77,
    "క్రి": 78,
    "క్రీ": 79,
    "క్ల": 80,
    "క్లీ": 81,
    "క్లె": 82,
    "క్వ": 83,
    "క్వె": 84,
    "క్ష": 85,
    "క్షి": 86,
    "క్షిం": 87,
    "క్షీ": 88,
    "క్షే": 89,
    "క్ష్మ": 90,
    "క్ష్మి": 91,
    "క్ష్మీ": 92,
    "క్స": 93,
    "క్స్": 94,
    "క్స్ప్రె": 95,
    "క్స్ఫ": 96,
    "ఖ": 97,
    "ఖా": 98,
    "ఖై": 99,
    "ఖ్య": 100,
    "గ": 101,
    "గం": 102,
    "గా": 103,
    "గి": 104,
    "గు": 105,
    "గుం": 106,
    "గూ": 107,
    "గెం": 108,
    "గే": 109,
    "గొ": 110,
    "గొం": 111,
    "గో": 112,
    "గౌ": 113,
    "గ్": 114,
    "గ్గ": 115,
    "గ్గా": 116,
    "గ్గి": 117,
    "గ్య": 118,
    "గ్ర": 119,
    "గ్రా": 120,
    "గ్రాం": 121,
    "గ్రీ": 122,
    "గ్రె": 123,
    "గ్లీ": 124,
    "గ్శ": 125,
    "ఘ": 126,
    "ఘం": 127,
    "ఘుం": 128,
    "ఘ్": 129,
    "చ": 130,
    "చం": 131,
    "చా": 132,
    "చి": 133,
    "చీ": 134,
    "చు": 135,
    "చూ": 136,
    "చె": 137,
    "చెం": 138,
    "చే": 139,
    "చై": 140,
    "చో": 141,
    "చౌ": 142,
    "చ్": 143,
    "చ్క": 144,
    "చ్చ": 145,
    "చ్చా": 146,
    "చ్చిం": 147,
    "చ్చె": 148,
    "చ్చే": 149,
    "చ్ఛ": 150,
    "చ్ఛా": 151,
    "చ్ర": 152,
    "జ": 153,
    "జం": 154,
    "జా": 155,
    "జి": 156,
    "జిం": 157,
    "జీ": 158,
    "జు": 159,
    "జూ": 160,
    "జె": 161,
    "జెం": 162,
    "జే": 163,
    "జేం": 164,
    "జై": 165,
    "జొ": 166,
    "జో": 167,
    "జౌ": 168,
    "జ్": 169,
    "జ్ఞా": 170,
    "జ్న": 171,
    "జ్యు": 172,
    "జ్యూ": 173,
    "ఝ": 174,
    "ట": 175,
    "టా": 176,
    "టి": 177,
    "టిం": 178,
    "టీ": 179,
    "టు": 180,
    "టూ": 181,
    "టె": 182,
    "టెం": 183,
    "టే": 184,
    "టై": 185,
    "టో": 186,
    "టౌ": 187,
    "ట్": 188,
    "ట్కే": 189,
    "ట్ఙ": 190,
    "ట్ట": 191,
    "ట్టం": 192,
    "ట్టా": 193,
    "ట్టి": 194,
    "ట్టు": 195,
    "ట్న": 196,
    "ట్నం": 197,
    "ట్ప": 198,
    "ట్యూ": 199,
    "ట్ర": 200,
    "ట్రా": 201,
    "ట్రో": 202,
    "ట్లం": 203,
    "ట్లు": 204,
    "ట్వ": 205,
    "ట్స": 206,
    "ట్స్": 207,
    "ఠ": 208,
    "ఠా": 209,
    "ఠే": 210,
    "డ": 211,
    "డం": 212,
    "డా": 213,
    "డి": 214,
    "డీ": 215,
    "డు": 216,
    "డూ": 217,
    "డె": 218,
    "డెం": 219,
    "డే": 220,
    "డై": 221,
    "డో": 222,
    "డ్": 223,
    "డ్జీ": 224,
    "డ్డ": 225,
    "డ్డి": 226,
    "డ్డు": 227,
    "డ్రి": 228,
    "డ్రై": 229,
    "డ్ల": 230,
    "డ్వు": 231,
    "డ్స్": 232,
    "ఢ": 233,
    "ణ": 234,
    "ణం": 235,
    "ణా": 236,
    "ణి": 237,
    "ణీ": 238,
    "ణు": 239,
    "ణ్య": 240,
    "త": 241,
    "తం": 242,
    "తా": 243,
    "తి": 244,
    "తిం": 245,
    "తీ": 246,
    "తు": 247,
    "తూ": 248,
    "తె": 249,
    "తే": 250,
    "తొ": 251,
    "తో": 252,
    "త్": 253,
    "త్కూ": 254,
    "త్త": 255,
    "త్తి": 256,
    "త్తు": 257,
    "త్తూ": 258,
    "త్తె": 259,
    "త్నం": 260,
    "త్ని": 261,
    "త్మ": 262,
    "త్య": 263,
    "త్యా": 264,
    "త్యు": 265,
    "త్ర": 266,
    "త్రా": 267,
    "త్రి": 268,
    "త్రు": 269,
    "త్వ": 270,
    "త్వం": 271,
    "త్స": 272,
    "త్సా": 273,
    "థ": 274,
    "థా": 275,
    "థి": 276,
    "థు": 277,
    "థె": 278,
    "ద": 279,
    "దా": 280,
    "ది": 281,
    "దిం": 282,
    "దీ": 283,
    "దు": 284,
    "దూ": 285,
    "దే": 286,
    "దొ": 287,
    "దో": 288,
    "దౌ": 289,
    "ద్": 290,
    "ద్ద": 291,
    "ద్దా": 292,
    "ద్దాం": 293,
    "ద్ది": 294,
    "ద్దు": 295,
    "ద్దూ": 296,
    "ద్ధ": 297,
    "ద్ధి": 298,
    "ద్ధ్ఫి": 299,
    "ద్పా": 300,
    "ద్మా": 301,
    "ద్య": 302,
    "ద్యా": 303,
    "ద్ర": 304,
    "ద్రా": 305,
    "ద్రి": 306,
    "ద్రు": 307,
    "ద్వ": 308,
    "ద్వా": 309,
    "ధ": 310,
    "ధం": 311,
    "ధా": 312,
    "ధి": 313,
    "ధీ": 314,
    "ధు": 315,
    "ధూ": 316,
    "ధృ": 317,
    "ధ్యా": 318,
    "ధ్యే": 319,
    "ధ్ర": 320,
    "న": 321,
    "నం": 322,
    "నా": 323,
    "ని": 324,
    "నిం": 325,
    "నీ": 326,
    "ను": 327,
    "నుం": 328,
    "నూ": 329,
    "నృ": 330,
    "నె": 331,
    "నే": 332,
    "నై": 333,
    "నొ": 334,
    "నో": 335,
    "నౌ": 336,
    "న్": 337,
    "న్కు": 338,
    "న్న": 339,
    "న్నా": 340,
    "న్ని": 341,
    "న్నూ": 342,
    "న్నో": 343,
    "న్ప": 344,
    "న్మ": 345,
    "న్మా": 346,
    "న్య": 347,
    "న్యూ": 348,
    "న్ల": 349,
    "న్ష": 350,
    "న్సి": 351,
    "న్సూ": 352,
    "న్స్": 353,
    "న్స్టి": 354,
    "ప": 355,
    "పం": 356,
    "పా": 357,
    "పాం": 358,
    "పి": 359,
    "పిం": 360,
    "పీ": 361,
    "పు": 362,
    "పూ": 363,
    "పె": 364,
    "పెం": 365,
    "పే": 366,
    "పై": 367,
    "పొ": 368,
    "పొం": 369,
    "పో": 370,
    "పౌ": 371,
    "ప్": 372,
    "ప్టి": 373,
    "ప్టెం": 374,
    "ప్త": 375,
    "ప్తి": 376,
    "ప్ప": 377,
    "ప్పా": 378,
    "ప్పి": 379,
    "ప్పు": 380,
    "ప్ర": 381,
    "ప్రా": 382,
    "ప్రాం": 383,
    "ప్రి": 384,
    "ప్రె": 385,
    "ప్రే": 386,
    "ప్రొ": 387,
    "ప్లా": 388,
    "ఫ": 389,
    "ఫా": 390,
    "ఫి": 391,
    "ఫు": 392,
    "ఫె": 393,
    "ఫై": 394,
    "ఫో": 395,
    "ఫౌ": 396,
    "ఫ్": 397,
    "ఫ్కో": 398,
    "ఫ్పె": 399,
    "ఫ్యా": 400,
    "బ": 401,
    "బం": 402,
    "బా": 403,
    "బి": 404,
    "బీ": 405,
    "బు": 406,
    "బూ": 407,
    "బృ": 408,
    "బృం": 409,
    "బె": 410,
    "బెం": 411,
    "బే": 412,
    "బై": 413,
    "బొ": 414,
    "బో": 415,
    "బౌ": 416,
    "బ్": 417,
    "బ్ట": 418,
    "బ్థ": 419,
    "బ్ద": 420,
    "బ్ది": 421,
    "బ్ధ": 422,
    "బ్బ": 423,
    "బ్బం": 424,
    "బ్బు": 425,
    "బ్య": 426,
    "బ్యా": 427,
    "బ్యాం": 428,
    "బ్ర": 429,
    "బ్రా": 430,
    "బ్స": 431,
    "బ్సి": 432,
    "భ": 433,
    "భా": 434,
    "భి": 435,
    "భీ": 436,
    "భు": 437,
    "భూ": 438,
    "భై": 439,
    "భో": 440,
    "భ్యు": 441,
    "మ": 442,
    "మం": 443,
    "మః": 444,
    "మా": 445,
    "మాం": 446,
    "మి": 447,
    "మీ": 448,
    "ము": 449,
    "ముం": 450,
    "మూ": 451,
    "మె": 452,
    "మెం": 453,
    "మే": 454,
    "మై": 455,
    "మొ": 456,
    "మో": 457,
    "మౌ": 458,
    "మ్": 459,
    "మ్మ": 460,
    "మ్మం": 461,
    "మ్ము": 462,
    "మ్య": 463,
    "మ్యా": 464,
    "మ్ర": 465,
    "మ్స్": 466,
    "య": 467,
    "యం": 468,
    "యా": 469,
    "యి": 470,
    "యీ": 471,
    "యు": 472,
    "యూ": 473,
    "యే": 474,
    "యొ": 475,
    "యో": 476,
    "య్": 477,
    "య్య": 478,
    "ర": 479,
    "రం": 480,
    "రా": 481,
    "రి": 482,
    "రిం": 483,
    "రీ": 484,
    "రీం": 485,
    "రు": 486,
    "రూ": 487,
    "రె": 488,
    "రెం": 489,
    "రే": 490,
    "రేం": 491,
    "రై": 492,
    "రో": 493,
    "ర్": 494,
    "ర్క": 495,
    "ర్కి": 496,
    "ర్కిం": 497,
    "ర్కె": 498,
    "ర్కొ": 499,
    "ర్కొం": 500,
    "ర్క్": 501,
    "ర్గ": 502,
    "ర్గం": 503,
    "ర్గా": 504,
    "ర్గీ": 505,
    "ర్గు": 506,
    "ర్చ": 507,
    "ర్చి": 508,
    "ర్చు": 509,
    "ర్చూ": 510,
    "ర్జ": 511,
    "ర్జా": 512,
    "ర్జు": 513,
    "ర్టీ": 514,
    "ర్ట్": 515,
    "ర్ట్స్": 516,
    "ర్డ": 517,
    "ర్డీ": 518,
    "ర్డు": 519,
    "ర్డె": 520,
    "ర్డ్": 521,
    "ర్ణ": 522,
    "ర్త": 523,
    "ర్తి": 524,
    "ర్తూ": 525,
    "ర్థ": 526,
    "ర్థం": 527,
    "ర్థి": 528,
    "ర్ది": 529,
    "ర్దీ": 530,
    "ర్దూ": 531,
    "ర్ధ": 532,
    "ర్ధం": 533,
    "ర్న": 534,
    "ర్నీ": 535,
    "ర్నూ": 536,
    "ర్నే": 537,
    "ర్ప": 538,
    "ర్పం": 539,
    "ర్పా": 540,
    "ర్పి": 541,
    "ర్పిం": 542,
    "ర్పే": 543,
    "ర్పై": 544,
    "ర్భ": 545,
    "ర్భం": 546,
    "ర్మ": 547,
    "ర్మా": 548,
    "ర్మి": 549,
    "ర్మిం": 550,
    "ర్ము": 551,
    "ర్య": 552,
    "ర్యా": 553,
    "ర్యు": 554,
    "ర్ర": 555,
    "ర్రి": 556,
    "ర్ల": 557,
    "ర్లా": 558,
    "ర్లు": 559,
    "ర్వ": 560,
    "ర్వా": 561,
    "ర్వే": 562,
    "ర్శ": 563,
    "ర్శి": 564,
    "ర్శ్వ": 565,
    "ర్షి": 566,
    "ర్స": 567,
    "ర్సి": 568,
    "ర్సిం": 569,
    "ర్సీ": 570,
    "ర్సు": 571,
    "ర్స్": 572,
    "ర్హ": 573,
    "ఱు": 574,
    "ల": 575,
    "లం": 576,
    "లా": 577,
    "లాం": 578,
    "లి": 579,
    "లిం": 580,
    "లీ": 581,
    "లు": 582,
    "లుం": 583,
    "లూ": 584,
    "లె": 585,
    "లెం": 586,
    "లే": 587,
    "లై": 588,
    "లొ": 589,
    "లో": 590,
    "ల్": 591,
    "ల్కీ": 592,
    "ల్గ": 593,
    "ల్గూ": 594,
    "ల్గొ": 595,
    "ల్చా": 596,
    "ల్జ": 597,
    "ల్ట": 598,
    "ల్ట్": 599,
    "ల్ట్రా": 600,
    "ల్డ్": 601,
    "ల్ద": 602,
    "ల్దా": 603,
    "ల్ద్": 604,
    "ల్ప": 605,
    "ల్పు": 606,
    "ల్మ": 607,
    "ల్యా": 608,
    "ల్ల": 609,
    "ల్లం": 610,
    "ల్లా": 611,
    "ల్లి": 612,
    "ల్లు": 613,
    "ల్లె": 614,
    "ల్వ": 615,
    "ల్వా": 616,
    "ల్వే": 617,
    "ల్స": 618,
    "ల్స్": 619,
    "ళ": 620,
    "ళా": 621,
    "ళి": 622,
    "ళూ": 623,
    "ళ్యా": 624,
    "ళ్ళ": 625,
    "ళ్శ": 626,
    "వ": 627,
    "వం": 628,
    "వః": 629,
    "వా": 630,
    "వి": 631,
    "వీ": 632,
    "వు": 633,
    "వూ": 634,
    "వృ": 635,
    "వె": 636,
    "వెం": 637,
    "వే": 638,
    "వేం": 639,
    "వై": 640,
    "వో": 641,
    "వ్య": 642,
    "వ్యా": 643,
    "వ్వ": 644,
    "వ్వా": 645,
    "వ్వెం": 646,
    "శ": 647,
    "శం": 648,
    "శా": 649,
    "శాం": 650,
    "శి": 651,
    "శీ": 652,
    "శు": 653,
    "శృ": 654,
    "శె": 655,
    "శై": 656,
    "శో": 657,
    "శ్": 658,
    "శ్చ": 659,
    "శ్ర": 660,
    "శ్రి": 661,
    "శ్రీ": 662,
    "శ్రే": 663,
    "శ్వ": 664,
    "ష": 665,
    "షా": 666,
    "షు": 667,
    "షే": 668,
    "ష్": 669,
    "ష్ట": 670,
    "ష్టి": 671,
    "ష్ట్ర": 672,
    "ష్ట్రం": 673,
    "ష్ఠ": 674,
    "ష్ణ": 675,
    "ష్ణా": 676,
    "ష్య": 677,
    "స": 678,
    "సం": 679,
    "సా": 680,
    "సి": 681,
    "సిం": 682,
    "సీ": 683,
    "సు": 684,
    "సుం": 685,
    "సూ": 686,
    "సృం": 687,
    "సె": 688,
    "సెం": 689,
    "సే": 690,
    "సై": 691,
    "సో": 692,
    "స్": 693,
    "స్క": 694,
    "స్కా": 695,
    "స్కూ": 696,
    "స్కృ": 697,
    "స్గి": 698,
    "స్ట": 699,
    "స్టా": 700,
    "స్టే": 701,
    "స్టో": 702,
    "స్ట్": 703,
    "స్ట్ర": 704,
    "స్ట్రీ": 705,
    "స్ట్రే": 706,
    "స్త": 707,
    "స్తం": 708,
    "స్తా": 709,
    "స్త్ర": 710,
    "స్థ": 711,
    "స్థా": 712,
    "స్థి": 713,
    "స్థీ": 714,
    "స్థూ": 715,
    "స్థ్ర": 716,
    "స్ధ": 717,
    "స్నే": 718,
    "స్ప": 719,
    "స్పా": 720,
    "స్పి": 721,
    "స్పె": 722,
    "స్ఫా": 723,
    "స్ఫి": 724,
    "స్మ": 725,
    "స్మా": 726,
    "స్య": 727,
    "స్యా": 728,
    "స్ర": 729,
    "స్వ": 730,
    "స్వం": 731,
    "స్వా": 732,
    "స్వే": 733,
    "స్సా": 734,
    "స్సు": 735,
    "స్సే": 736,
    "హ": 737,
    "హం": 738,
    "హా": 739,
    "హి": 740,
    "హిం": 741,
    "హీ": 742,
    "హీం": 743,
    "హు": 744,
    "హె": 745,
    "హే": 746,
    "హై": 747,
    "హో": 748,
    "హౌ": 749,
    "హ్న": 750,
    "హ్నం": 751,
    "హ్మ": 752,
    "హ్మి": 753,
    "హ్రూ": 754,
    "ఽ": 755,
    "౦": 756,
    "౧": 757,
    "౩": 758,
    "౪": 759,
    "౬": 760,
    "౯": 761
  },
  "metadata": {
    "lang": "telugu",
    "source_splits": "florence2_splits_synth_telugu_full.json",
    "num_graphemes": 760,
    "segmenter": "indic-generic (Mn/Mc + virama-join)"
  }
}