{
  "grapheme2idx": {
    "<blank>": 0,
    "<unk>": 1,
    " ‌": 2,
    "!": 3,
    "\"": 4,
    "&": 5,
    "'": 6,
    "(": 7,
    ")": 8,
    ",": 9,
    "-": 10,
    "-ा": 11,
    ".": 12,
    "/": 13,
    "0": 14,
    "1": 15,
    "2": 16,
    "3": 17,
    "4": 18,
    "5": 19,
    "6": 20,
    "7": 21,
    "8": 22,
    "9": 23,
    ":": 24,
    "?": 25,
    "A": 26,
    "D": 27,
    "G": 28,
    "H": 29,
    "I": 30,
    "O": 31,
    "P": 32,
    "V": 33,
    "[": 34,
    "c": 35,
    "|": 36,
    "°": 37,
    "ا": 38,
    "ت": 39,
    "ج": 40,
    "ر": 41,
    "گ": 42,
    "ی": 43,
    "ँ": 44,
    "अ": 45,
    "अं": 46,
    "अि": 47,
    "अ्या": 48,
    "अ॰": 49,
    "आ": 50,
    "आं": 51,
    "आा्": 52,
    "आे": 53,
    "आ्य": 54,
    "आॕ": 55,
    "इ": 56,
    "इं": 57,
    "इ्ट": 58,
    "इ॰": 59,
    "इॱ": 60,
    "ई": 61,
    "ईँ": 62,
    "ईं": 63,
    "उ": 64,
    "उाि": 65,
    "उॱ": 66,
    "ऊ": 67,
    "ऊँ": 68,
    "ऊं": 69,
    "ऋ": 70,
    "ऍ": 71,
    "ऎ": 72,
    "ऎं": 73,
    "ऎ‍": 74,
    "ए": 75,
    "एँ": 76,
    "एा": 77,
    "ऐ": 78,
    "ऐं": 79,
    "ऑ": 80,
    "ऒ": 81,
    "ऒं": 82,
    "ऒाि": 83,
    "ऒा्क्स्": 84,
    "ऒ‌": 85,
    "ओ": 86,
    "ओँ": 87,
    "ओं": 88,
    "ओ्बा": 89,
    "औ": 90,
    "औं": 91,
    "क": 92,
    "कं": 93,
    "कं‌": 94,
    "कः": 95,
    "का": 96,
    "काँ": 97,
    "कां": 98,
    "काुं": 99,
    "काे": 100,
    "का्": 101,
    "का‍": 102,
    "का‍‌": 103,
    "कि": 104,
    "किं": 105,
    "किाि": 106,
    "की": 107,
    "कीे": 108,
    "कु": 109,
    "कुं": 110,
    "कु॰": 111,
    "कू": 112,
    "कृ": 113,
    "कॅ": 114,
    "कॅा": 115,
    "कॆ": 116,
    "कॆं": 117,
    "के": 118,
    "कें": 119,
    "केा": 120,
    "केॆ्टा": 121,
    "केे": 122,
    "कै": 123,
    "कॉ": 124,
    "कॊ": 125,
    "कॊं": 126,
    "कॊॕ": 127,
    "को": 128,
    "कोँ": 129,
    "कों": 130,
    "क्": 131,
    "क्क": 132,
    "क्कं": 133,
    "क्का": 134,
    "क्कि": 135,
    "क्कु": 136,
    "क्कू": 137,
    "क्कॆ": 138,
    "क्के": 139,
    "क्कै": 140,
    "क्कॊ": 141,
    "क्को": 142,
    "क्क्": 143,
    "क्क्‌": 144,
    "क्कॗ": 145,
    "क्ट": 146,
    "क्टो": 147,
    "क्ट्रि": 148,
    "क्ट्रो": 149,
    "क्त": 150,
    "क्ता": 151,
    "क्तां": 152,
    "क्ति": 153,
    "क्तीं": 154,
    "क्तु": 155,
    "क्ते": 156,
    "क्नो": 157,
    "क्प": 158,
    "क्पे": 159,
    "क्मि": 160,
    "क्य": 161,
    "क्या": 162,
    "क्यू": 163,
    "क्र": 164,
    "क्रं": 165,
    "क्रा": 166,
    "क्रि": 167,
    "क्री": 168,
    "क्रे": 169,
    "क्रै": 170,
    "क्रो": 171,
    "क्ल": 172,
    "क्ला": 173,
    "क्लि": 174,
    "क्ले": 175,
    "क्ळे": 176,
    "क्व": 177,
    "क्वा": 178,
    "क्वॆ": 179,
    "क्श": 180,
    "क्ष": 181,
    "क्षा": 182,
    "क्षां": 183,
    "क्षि": 184,
    "क्षिं": 185,
    "क्षी": 186,
    "क्षुः": 187,
    "क्षॆ": 188,
    "क्षे": 189,
    "क्षो": 190,
    "क्ष्म": 191,
    "क्ष्मि": 192,
    "क्ष्मिॕ": 193,
    "क्ष्मी": 194,
    "क्ष्य": 195,
    "क्ष्या": 196,
    "क्स": 197,
    "क्सि": 198,
    "क्स्": 199,
    "क्य़ा": 200,
    "क्॰": 201,
    "क्॰ा": 202,
    "क्॰े": 203,
    "क्‌": 204,
    "क्‍": 205,
    "क॰": 206,
    "कॱ": 207,
    "क‌": 208,
    "क‍ी": 209,
    "ख": 210,
    "खं": 211,
    "ख़": 212,
    "खा": 213,
    "खाँ": 214,
    "खां": 215,
    "खि": 216,
    "खी": 217,
    "खु": 218,
    "खू": 219,
    "खॆ": 220,
    "खे": 221,
    "खै": 222,
    "खो": 223,
    "ख्त": 224,
    "ख्य": 225,
    "ख्यु": 226,
    "ख्यॆ": 227,
    "ख्रीः": 228,
    "ग": 229,
    "गं": 230,
    "गा": 231,
    "गां": 232,
    "गि": 233,
    "गि॰": 234,
    "गी": 235,
    "गु": 236,
    "गुं": 237,
    "गू": 238,
    "गृ": 239,
    "गॆ": 240,
    "गॆं": 241,
    "गे": 242,
    "गें": 243,
    "गे्ड": 244,
    "गै": 245,
    "गॊ": 246,
    "गो": 247,
    "गों": 248,
    "गौ": 249,
    "ग्": 250,
    "ग्ग": 251,
    "ग्गि": 252,
    "ग्गॆ": 253,
    "ग्ण": 254,
    "ग्नि": 255,
    "ग्ब": 256,
    "ग्भ": 257,
    "ग्य": 258,
    "ग्या": 259,
    "ग्ये": 260,
    "ग्र": 261,
    "ग्रं": 262,
    "ग्रा": 263,
    "ग्रां": 264,
    "ग्री": 265,
    "ग्रू": 266,
    "ग्रे": 267,
    "ग्ला": 268,
    "ग्वा": 269,
    "ग्ष": 270,
    "ग्स": 271,
    "ग्य़ा": 272,
    "ग्॰ु": 273,
    "ग॰": 274,
    "गॱ": 275,
    "घ": 276,
    "घं": 277,
    "घा": 278,
    "घां": 279,
    "घु": 280,
    "घे": 281,
    "घो": 282,
    "घौ": 283,
    "घ्य": 284,
    "घ्या": 285,
    "घ्र": 286,
    "ङ": 287,
    "ङा": 288,
    "ङि": 289,
    "ङे": 290,
    "ङ्": 291,
    "ङ्क": 292,
    "ङ्का": 293,
    "ङ्कि": 294,
    "ङ्कु": 295,
    "ङ्के": 296,
    "ङ्कै": 297,
    "ङ्को": 298,
    "ङ्क्": 299,
    "ङ्ग": 300,
    "ङ्गा": 301,
    "ङ्गी": 302,
    "ङ्गु": 303,
    "ङ्गे": 304,
    "ङ्गो": 305,
    "ङ्घ": 306,
    "ङ्ङ": 307,
    "ङ्ङा": 308,
    "ङ्ङि": 309,
    "ङ्ङे": 310,
    "ङ्ङों": 311,
    "ङ्ङ्‌": 312,
    "ङ्ट": 313,
    "ङ्त": 314,
    "ङ्ष": 315,
    "ङ्‌": 316,
    "च": 317,
    "चं": 318,
    "चा": 319,
    "चां": 320,
    "चा्": 321,
    "चा्जि": 322,
    "चा्व": 323,
    "चि": 324,
    "चिं": 325,
    "चिॕ": 326,
    "ची": 327,
    "चु": 328,
    "चुे": 329,
    "चू": 330,
    "चॆ": 331,
    "चे": 332,
    "चें": 333,
    "चेा्ऩ्": 334,
    "चै": 335,
    "चॊ": 336,
    "चो": 337,
    "चौ": 338,
    "च्": 339,
    "च्च": 340,
    "च्चं": 341,
    "च्चा": 342,
    "च्चि": 343,
    "च्ची": 344,
    "च्चु": 345,
    "च्चे": 346,
    "च्चेाि": 347,
    "च्च्": 348,
    "च्च्‌": 349,
    "च्छ": 350,
    "च्छा": 351,
    "च्छु": 352,
    "च्छे": 353,
    "च्छ्": 354,
    "च्ट": 355,
    "च्य": 356,
    "च्या": 357,
    "च॑": 358,
    "च॰": 359,
    "चॱ": 360,
    "छ": 361,
    "छा": 362,
    "छि": 363,
    "छु": 364,
    "छुॱ": 365,
    "छे": 366,
    "छें": 367,
    "छो": 368,
    "छोँ": 369,
    "छ॰": 370,
    "ज": 371,
    "जं": 372,
    "ज़": 373,
    "ज़ी": 374,
    "ज़ु": 375,
    "जा": 376,
    "जि": 377,
    "जिं": 378,
    "जि॰": 379,
    "जिॱ": 380,
    "जी": 381,
    "जु": 382,
    "जुॱ": 383,
    "जू": 384,
    "जॆ": 385,
    "जे": 386,
    "जें": 387,
    "जै": 388,
    "जो": 389,
    "ज्": 390,
    "ज्ञ": 391,
    "ज्ञा": 392,
    "ज्ञी": 393,
    "ज्ब": 394,
    "ज्य": 395,
    "ज्यु": 396,
    "ज्यू": 397,
    "ज्येा": 398,
    "ज्यो": 399,
    "ज्यों": 400,
    "ज्ल": 401,
    "ज्व": 402,
    "ज्सि": 403,
    "ज्य़": 404,
    "ज्‌": 405,
    "ज॰": 406,
    "झ": 407,
    "झा": 408,
    "झाँ": 409,
    "झां": 410,
    "झि": 411,
    "झी": 412,
    "झे": 413,
    "झ॰": 414,
    "ञ": 415,
    "ञा": 416,
    "ञ्च": 417,
    "ञ्चा": 418,
    "ञ्चा्": 419,
    "ञ्चि": 420,
    "ञ्ज": 421,
    "ञ्जा": 422,
    "ञ्जि": 423,
    "ञ्जी": 424,
    "ञ्ञ": 425,
    "ञ्ञि": 426,
    "ञ्ञो": 427,
    "ट": 428,
    "टं": 429,
    "टा": 430,
    "टाा": 431,
    "टि": 432,
    "टिं": 433,
    "टी": 434,
    "टु": 435,
    "टुं": 436,
    "टू": 437,
    "टॆ": 438,
    "टॆं": 439,
    "टे": 440,
    "टै": 441,
    "टैं": 442,
    "टॊ": 443,
    "टो": 444,
    "टौ": 445,
    "ट्": 446,
    "ट्चाा्च्च": 447,
    "ट्चि": 448,
    "ट्ट": 449,
    "ट्टं": 450,
    "ट्टा": 451,
    "ट्टि": 452,
    "ट्टी": 453,
    "ट्टु": 454,
    "ट्टूा्पु": 455,
    "ट्टॆ": 456,
    "ट्टै": 457,
    "ट्टो": 458,
    "ट्ट्": 459,
    "ट्ण": 460,
    "ट्त": 461,
    "ट्न": 462,
    "ट्नं": 463,
    "ट्प": 464,
    "ट्मि": 465,
    "ट्य": 466,
    "ट्यू": 467,
    "ट्र": 468,
    "ट्रा": 469,
    "ट्रि": 470,
    "ट्री": 471,
    "ट्रॆ": 472,
    "ट्रे": 473,
    "ट्रै": 474,
    "ट्रो": 475,
    "ट्र्या": 476,
    "ट्ल": 477,
    "ट्लु": 478,
    "ट्व": 479,
    "ट्श्री": 480,
    "ट्स्": 481,
    "ट्॰": 482,
    "ट्‌": 483,
    "टॗ": 484,
    "ठ": 485,
    "ठा": 486,
    "ठि": 487,
    "ठि॰": 488,
    "ठी": 489,
    "ठु": 490,
    "ठे": 491,
    "ठें": 492,
    "ठो": 493,
    "ठ्ठ": 494,
    "ड": 495,
    "डः": 496,
    "ड़": 497,
    "ड़ा": 498,
    "ड़ि": 499,
    "ड़ी": 500,
    "ड़े": 501,
    "ड़ौ": 502,
    "डा": 503,
    "डाः": 504,
    "डि": 505,
    "डिं": 506,
    "डी": 507,
    "डु": 508,
    "डू": 509,
    "डॆ": 510,
    "डॆं": 511,
    "डे": 512,
    "डै": 513,
    "डॊ": 514,
    "डो": 515,
    "ड्": 516,
    "ड्क": 517,
    "ड्ड": 518,
    "ड्डा": 519,
    "ड्डि": 520,
    "ड्डु": 521,
    "ड्यं": 522,
    "ड्या": 523,
    "ड्यां": 524,
    "ड्यू": 525,
    "ड्र": 526,
    "ड्रा": 527,
    "ड्रि": 528,
    "ड्री": 529,
    "ड्‌": 530,
    "ड्‍": 531,
    "ढ": 532,
    "ढ़": 533,
    "ढ़ि": 534,
    "ढ़ी": 535,
    "ढि": 536,
    "ढु": 537,
    "ढे": 538,
    "ढे़": 539,
    "ण": 540,
    "णं": 541,
    "ण़": 542,
    "णा": 543,
    "णाः": 544,
    "णि": 545,
    "णी": 546,
    "णीं": 547,
    "णु": 548,
    "णु्": 549,
    "णू": 550,
    "णॆ": 551,
    "णे": 552,
    "णै": 553,
    "णो": 554,
    "ण्": 555,
    "ण्क": 556,
    "ण्का": 557,
    "ण्ट": 558,
    "ण्टं": 559,
    "ण्टा": 560,
    "ण्टि": 561,
    "ण्टी": 562,
    "ण्टु": 563,
    "ण्टे": 564,
    "ण्टै": 565,
    "ण्ट्": 566,
    "ण्ट्स्": 567,
    "ण्ट्‌": 568,
    "ण्ठु": 569,
    "ण्ड": 570,
    "ण्डा": 571,
    "ण्डि": 572,
    "ण्ण": 573,
    "ण्णा": 574,
    "ण्णि": 575,
    "ण्णी": 576,
    "ण्णु": 577,
    "ण्णू": 578,
    "ण्ता": 579,
    "ण्ति": 580,
    "ण्प": 581,
    "ण्पु": 582,
    "ण्मै": 583,
    "ण्य": 584,
    "ण्या": 585,
    "ण‍": 586,
    "त": 587,
    "तं": 588,
    "तः": 589,
    "त़": 590,
    "त़ा": 591,
    "त़ि": 592,
    "ता": 593,
    "ताँ": 594,
    "तां": 595,
    "ता्का": 596,
    "ति": 597,
    "तिं": 598,
    "तिः": 599,
    "तिाि": 600,
    "ती": 601,
    "तीा्": 602,
    "तीा्त्त": 603,
    "तु": 604,
    "तुं": 605,
    "तू": 606,
    "तूा्": 607,
    "तू॰": 608,
    "तृ": 609,
    "तॆ": 610,
    "तॆॆ": 611,
    "तॆ्र्र": 612,
    "ते": 613,
    "तें": 614,
    "तै": 615,
    "तॊ": 616,
    "तो": 617,
    "तों": 618,
    "त्": 619,
    "त्उ": 620,
    "त्क": 621,
    "त्का": 622,
    "त्कू": 623,
    "त्कृ": 624,
    "त्त": 625,
    "त्तं": 626,
    "त्ता": 627,
    "त्ति": 628,
    "त्ती": 629,
    "त्तु": 630,
    "त्तू": 631,
    "त्तॆ": 632,
    "त्ते": 633,
    "त्तेा्": 634,
    "त्तै": 635,
    "त्तॊ": 636,
    "त्त्": 637,
    "त्त्य": 638,
    "त्त्व": 639,
    "त्त्‌": 640,
    "त्थ": 641,
    "त्थि": 642,
    "त्न": 643,
    "त्प": 644,
    "त्बे": 645,
    "त्म": 646,
    "त्मा": 647,
    "त्य": 648,
    "त्या": 649,
    "त्यां": 650,
    "त्यु": 651,
    "त्ये": 652,
    "त्य्": 653,
    "त्र": 654,
    "त्रं": 655,
    "त्रं‌": 656,
    "त्रा": 657,
    "त्रि": 658,
    "त्री": 659,
    "त्रॆ": 660,
    "त्रे": 661,
    "त्रों": 662,
    "त्र्य": 663,
    "त्र्यं": 664,
    "त्व": 665,
    "त्वा": 666,
    "त्वि": 667,
    "त्स": 668,
    "त्सा": 669,
    "त्स्ना": 670,
    "त्ह": 671,
    "त्य़": 672,
    "त्य़ु": 673,
    "त्य़े": 674,
    "त्॰": 675,
    "त्‌": 676,
    "त्‍": 677,
    "त॰": 678,
    "त‍े": 679,
    "थ": 680,
    "था": 681,
    "थां": 682,
    "थि": 683,
    "थी": 684,
    "थु": 685,
    "थू": 686,
    "थृ": 687,
    "थे": 688,
    "थ्य": 689,
    "द": 690,
    "दा": 691,
    "दां": 692,
    "दि": 693,
    "दिं": 694,
    "दि॰": 695,
    "दी": 696,
    "दु": 697,
    "दुं": 698,
    "दुि": 699,
    "दू": 700,
    "दूं": 701,
    "दृ": 702,
    "दॆ": 703,
    "दे": 704,
    "दें": 705,
    "दै": 706,
    "दॊ": 707,
    "दो": 708,
    "दौ": 709,
    "द्": 710,
    "द्घा": 711,
    "द्ट": 712,
    "द्टु": 713,
    "द्द": 714,
    "द्दा": 715,
    "द्दि": 716,
    "द्दु": 717,
    "द्दू": 718,
    "द्ध": 719,
    "द्धा": 720,
    "द्धि": 721,
    "द्धी": 722,
    "द्फु": 723,
    "द्ब": 724,
    "द्बा": 725,
    "द्बि": 726,
    "द्बी": 727,
    "द्बो": 728,
    "द्म": 729,
    "द्मा": 730,
    "द्य": 731,
    "द्या": 732,
    "द्यु": 733,
    "द्यो": 734,
    "द्र": 735,
    "द्रा": 736,
    "द्रि": 737,
    "द्री": 738,
    "द्रु": 739,
    "द्रे": 740,
    "द्रो": 741,
    "द्रौ": 742,
    "द्ळु": 743,
    "द्व": 744,
    "द्वा": 745,
    "द्वी": 746,
    "द्शि": 747,
    "द्य़": 748,
    "द्य़ा": 749,
    "द्॰": 750,
    "द्‌": 751,
    "ध": 752,
    "धा": 753,
    "धि": 754,
    "धिि": 755,
    "धी": 756,
    "धीं": 757,
    "धु": 758,
    "धू": 759,
    "धे": 760,
    "धो": 761,
    "ध्दा": 762,
    "ध्दी": 763,
    "ध्ब": 764,
    "ध्य": 765,
    "ध्या": 766,
    "ध्ये": 767,
    "ध्र": 768,
    "ध्व": 769,
    "ध॰": 770,
    "न": 771,
    "नं": 772,
    "नः": 773,
    "ना": 774,
    "नाँ": 775,
    "नां": 776,
    "नाि": 777,
    "ना्": 778,
    "नि": 779,
    "निं": 780,
    "निॕ": 781,
    "नि‍": 782,
    "नी": 783,
    "नीा्": 784,
    "नु": 785,
    "नुं": 786,
    "नू": 787,
    "नू॰": 788,
    "नृ": 789,
    "नॅ": 790,
    "नॆ": 791,
    "ने": 792,
    "नेे": 793,
    "नै": 794,
    "नॊ": 795,
    "नो": 796,
    "नौ": 797,
    "न्": 798,
    "न्कु": 799,
    "न्ट": 800,
    "न्टा": 801,
    "न्ट्र": 802,
    "न्ट्रा": 803,
    "न्ड": 804,
    "न्डि": 805,
    "न्डी": 806,
    "न्डे": 807,
    "न्त": 808,
    "न्ता": 809,
    "न्ति": 810,
    "न्ती": 811,
    "न्तु": 812,
    "न्तू": 813,
    "न्ते": 814,
    "न्तो": 815,
    "न्त्": 816,
    "न्त्य": 817,
    "न्त्र": 818,
    "न्त्रि": 819,
    "न्त्री": 820,
    "न्त्॰ा": 821,
    "न्त्॰ि": 822,
    "न्त्॰ी": 823,
    "न्थ": 824,
    "न्था": 825,
    "न्द": 826,
    "न्दा": 827,
    "न्दि": 828,
    "न्दी": 829,
    "न्दु": 830,
    "न्दे": 831,
    "न्दो": 832,
    "न्द्यो": 833,
    "न्द्र": 834,
    "न्द्रं": 835,
    "न्द्रा": 836,
    "न्द्री": 837,
    "न्द्र्र": 838,
    "न्द्॰": 839,
    "न्द्॰ी": 840,
    "न्द्‌": 841,
    "न्ध": 842,
    "न्धं": 843,
    "न्धि": 844,
    "न्धी": 845,
    "न्ध्यं": 846,
    "न्न": 847,
    "न्नं": 848,
    "न्ना": 849,
    "न्नि": 850,
    "न्नु": 851,
    "न्नुं": 852,
    "न्नू": 853,
    "न्नै": 854,
    "न्ब": 855,
    "न्म": 856,
    "न्मा": 857,
    "न्मे": 858,
    "न्मो": 859,
    "न्म्या": 860,
    "न्म्र": 861,
    "न्य": 862,
    "न्यः": 863,
    "न्या": 864,
    "न्यु": 865,
    "न्यू": 866,
    "न्ये": 867,
    "न्ऱ": 868,
    "न्ऱॆ": 869,
    "न्ऱ्": 870,
    "न्ल": 871,
    "न्लु": 872,
    "न्व": 873,
    "न्वी": 874,
    "न्स": 875,
    "न्सा": 876,
    "न्सि": 877,
    "न्सी": 878,
    "न्सू": 879,
    "न्स्": 880,
    "न्स्टि": 881,
    "न्ह": 882,
    "न्हा": 883,
    "न्हां": 884,
    "न्य़": 885,
    "न्य़ा": 886,
    "न्‌": 887,
    "न॰": 888,
    "न॰ः": 889,
    "नॱ": 890,
    "ऩ": 891,
    "ऩा": 892,
    "ऩा्": 893,
    "ऩि": 894,
    "ऩी": 895,
    "ऩु": 896,
    "ऩू": 897,
    "ऩे": 898,
    "ऩै": 899,
    "ऩ्": 900,
    "ऩ्टा्": 901,
    "ऩ्ट्": 902,
    "ऩ्ट्र": 903,
    "ऩ्ऩ": 904,
    "ऩ्ऩा": 905,
    "ऩ्ऩूा्": 906,
    "ऩ्ऩै": 907,
    "ऩ्ऩो": 908,
    "ऩ्पु": 909,
    "ऩ्ऱ": 910,
    "ऩ्ऱि": 911,
    "ऩ्वॆ": 912,
    "प": 913,
    "पं": 914,
    "पा": 915,
    "पाँ": 916,
    "पां": 917,
    "पा्": 918,
    "पि": 919,
    "पिं": 920,
    "पिाि": 921,
    "पिु": 922,
    "पी": 923,
    "पु": 924,
    "पू": 925,
    "पूँ": 926,
    "पॅ": 927,
    "पॆ": 928,
    "पॆं": 929,
    "पे": 930,
    "पेा": 931,
    "पै": 932,
    "पैा": 933,
    "पॉ": 934,
    "पॊ": 935,
    "पॊं": 936,
    "पो": 937,
    "पोा्चु": 938,
    "पौ": 939,
    "प्": 940,
    "प्का": 941,
    "प्टॆ": 942,
    "प्ण": 943,
    "प्त": 944,
    "प्तं": 945,
    "प्तॆ": 946,
    "प्प": 947,
    "प्पं": 948,
    "प्पा": 949,
    "प्पि": 950,
    "प्पी": 951,
    "प्पु": 952,
    "प्पॆ": 953,
    "प्पे": 954,
    "प्पो": 955,
    "प्प्": 956,
    "प्प्मू": 957,
    "प्या": 958,
    "प्र": 959,
    "प्रा": 960,
    "प्रां": 961,
    "प्राः": 962,
    "प्रि": 963,
    "प्री": 964,
    "प्रीि": 965,
    "प्रॅ": 966,
    "प्रॆ": 967,
    "प्रे": 968,
    "प्रै": 969,
    "प्रॊ": 970,
    "प्रो": 971,
    "प्रौ": 972,
    "प्ला": 973,
    "प्ले": 974,
    "प्लै": 975,
    "प्लॉ": 976,
    "प्ष": 977,
    "प्स्": 978,
    "प्॰": 979,
    "प्॰ि": 980,
    "प्‍": 981,
    "प॰": 982,
    "प‌": 983,
    "फ": 984,
    "फ़": 985,
    "फा": 986,
    "फां": 987,
    "फि": 988,
    "फी": 989,
    "फु": 990,
    "फॆ": 991,
    "फे": 992,
    "फै": 993,
    "फो": 994,
    "फ्": 995,
    "फ्ट्": 996,
    "फ्या": 997,
    "फ्र": 998,
    "फ्री": 999,
    "फ्रू": 1000,
    "फ्ल": 1001,
    "फ्ला": 1002,
    "फ्॰े": 1003,
    "ब": 1004,
    "बँ": 1005,
    "बं": 1006,
    "बा": 1007,
    "बां": 1008,
    "बा‍": 1009,
    "बि": 1010,
    "बि॰": 1011,
    "बी": 1012,
    "बु": 1013,
    "बू": 1014,
    "बृ": 1015,
    "बॆ": 1016,
    "बॆं": 1017,
    "बे": 1018,
    "बें": 1019,
    "बै": 1020,
    "बैं": 1021,
    "बॉ": 1022,
    "बॊ": 1023,
    "बो": 1024,
    "बौ": 1025,
    "ब्": 1026,
    "ब्थ": 1027,
    "ब्द": 1028,
    "ब्दी": 1029,
    "ब्दु": 1030,
    "ब्ध": 1031,
    "ब्ब": 1032,
    "ब्बा": 1033,
    "ब्य": 1034,
    "ब्या": 1035,
    "ब्यां": 1036,
    "ब्यु": 1037,
    "ब्र": 1038,
    "ब्रा": 1039,
    "ब्रि": 1040,
    "ब्रु": 1041,
    "ब्रे": 1042,
    "ब्ल": 1043,
    "ब्लि": 1044,
    "ब्लु": 1045,
    "ब्लो": 1046,
    "ब्ल्यू": 1047,
    "ब्स": 1048,
    "ब्सि": 1049,
    "ब्य़": 1050,
    "ब्य़ा": 1051,
    "ब्॰ु": 1052,
    "ब्‌": 1053,
    "ब॰": 1054,
    "बॱ": 1055,
    "भ": 1056,
    "भं": 1057,
    "भा": 1058,
    "भां": 1059,
    "भि": 1060,
    "भिं": 1061,
    "भी": 1062,
    "भु": 1063,
    "भू": 1064,
    "भृा": 1065,
    "भे": 1066,
    "भें": 1067,
    "भै": 1068,
    "भो": 1069,
    "भ्या": 1070,
    "भ्र": 1071,
    "भ॰": 1072,
    "म": 1073,
    "मं": 1074,
    "मः": 1075,
    "मा": 1076,
    "मां": 1077,
    "मााि": 1078,
    "मा‍": 1079,
    "मि": 1080,
    "मी": 1081,
    "मु": 1082,
    "मुं": 1083,
    "मुॱ": 1084,
    "मू": 1085,
    "मूा्त्ति": 1086,
    "मृ": 1087,
    "मॆ": 1088,
    "मॆं": 1089,
    "मे": 1090,
    "में": 1091,
    "मै": 1092,
    "मैं": 1093,
    "मैा": 1094,
    "मॊ": 1095,
    "मो": 1096,
    "मों": 1097,
    "मौ": 1098,
    "म्": 1099,
    "म्A": 1100,
    "म्ः": 1101,
    "म्का": 1102,
    "म्के": 1103,
    "म्ग्र": 1104,
    "म्ट": 1105,
    "म्प": 1106,
    "म्पा": 1107,
    "म्पि": 1108,
    "म्पु": 1109,
    "म्पू": 1110,
    "म्पे": 1111,
    "म्पो": 1112,
    "म्प्": 1113,
    "म्प्य": 1114,
    "म्प्यु": 1115,
    "म्प्र": 1116,
    "म्प्वा": 1117,
    "म्प्॰": 1118,
    "म्ब": 1119,
    "म्बा": 1120,
    "म्बि": 1121,
    "म्बे": 1122,
    "म्ब्न": 1123,
    "म्भ": 1124,
    "म्भा": 1125,
    "म्भु": 1126,
    "म्म": 1127,
    "म्मा": 1128,
    "म्मि": 1129,
    "म्मु": 1130,
    "म्मे": 1131,
    "म्म्न": 1132,
    "म्य": 1133,
    "म्या": 1134,
    "म्यां": 1135,
    "म्यु": 1136,
    "म्यू": 1137,
    "म्र": 1138,
    "म्रि": 1139,
    "म्श": 1140,
    "म्स": 1141,
    "म्ह": 1142,
    "म्ही": 1143,
    "म्य़": 1144,
    "म्य़ो": 1145,
    "म्॰ा": 1146,
    "मॖ": 1147,
    "म॰": 1148,
    "मॱ": 1149,
    "य": 1150,
    "यं": 1151,
    "य़": 1152,
    "य़ा": 1153,
    "य़े": 1154,
    "या": 1155,
    "यां": 1156,
    "याा्": 1157,
    "याा्पे": 1158,
    "या‍": 1159,
    "यि": 1160,
    "यिाि": 1161,
    "यी": 1162,
    "यु": 1163,
    "युं": 1164,
    "यू": 1165,
    "यॆ": 1166,
    "ये": 1167,
    "यें": 1168,
    "यै": 1169,
    "यॊ": 1170,
    "यो": 1171,
    "यों": 1172,
    "य्": 1173,
    "य्क्कां": 1174,
    "य्क्कु": 1175,
    "य्क्क्": 1176,
    "य्त": 1177,
    "य्न्त": 1178,
    "य्भ": 1179,
    "य्म": 1180,
    "य्मा": 1181,
    "य्य": 1182,
    "य्यु": 1183,
    "य्यो": 1184,
    "य्वु": 1185,
    "य्स्री": 1186,
    "य्‌": 1187,
    "र": 1188,
    "रं": 1189,
    "ऱ": 1190,
    "रा": 1191,
    "रां": 1192,
    "राा्": 1193,
    "रा्": 1194,
    "रि": 1195,
    "रिं": 1196,
    "रि॰": 1197,
    "री": 1198,
    "रीं": 1199,
    "रु": 1200,
    "रुं": 1201,
    "रु‍": 1202,
    "रू": 1203,
    "रॆ": 1204,
    "रॆं": 1205,
    "रे": 1206,
    "रें": 1207,
    "रै": 1208,
    "रॉँ": 1209,
    "रॊ": 1210,
    "रो": 1211,
    "र्": 1212,
    "र्ऎ": 1213,
    "र्क": 1214,
    "र्का": 1215,
    "र्कि": 1216,
    "र्किं": 1217,
    "र्कॆ": 1218,
    "र्के": 1219,
    "र्कॊं": 1220,
    "र्ग": 1221,
    "र्गा": 1222,
    "र्गि": 1223,
    "र्च": 1224,
    "र्चा": 1225,
    "र्चि": 1226,
    "र्चू": 1227,
    "र्च्चि": 1228,
    "र्ज": 1229,
    "र्ज़": 1230,
    "र्जा": 1231,
    "र्जि": 1232,
    "र्जी": 1233,
    "र्जु": 1234,
    "र्ट": 1235,
    "र्टि": 1236,
    "र्टी": 1237,
    "र्ट्": 1238,
    "र्ट्स्": 1239,
    "र्ड": 1240,
    "र्डी": 1241,
    "र्डॆ": 1242,
    "र्ड्‌": 1243,
    "र्ण": 1244,
    "र्णा": 1245,
    "र्णि": 1246,
    "र्णी": 1247,
    "र्णो": 1248,
    "र्त": 1249,
    "र्ति": 1250,
    "र्ती": 1251,
    "र्तु": 1252,
    "र्ते": 1253,
    "र्त्त": 1254,
    "र्त्ता": 1255,
    "र्थ": 1256,
    "र्थं": 1257,
    "र्थि": 1258,
    "र्द": 1259,
    "र्दि": 1260,
    "र्दे": 1261,
    "र्दॊ": 1262,
    "र्द्": 1263,
    "र्ध": 1264,
    "र्न": 1265,
    "र्ना": 1266,
    "र्नी": 1267,
    "र्न्": 1268,
    "र्प": 1269,
    "र्पा": 1270,
    "र्पे": 1271,
    "र्पै": 1272,
    "र्पॊ": 1273,
    "र्पो": 1274,
    "र्फे": 1275,
    "र्ब": 1276,
    "र्बा": 1277,
    "र्बि": 1278,
    "र्बो": 1279,
    "र्ब्ब": 1280,
    "र्भ": 1281,
    "र्भी": 1282,
    "र्म": 1283,
    "र्मा": 1284,
    "र्मि": 1285,
    "र्मी": 1286,
    "र्मु": 1287,
    "र्मे": 1288,
    "र्म्": 1289,
    "र्य": 1290,
    "र्या": 1291,
    "र्य्य": 1292,
    "र्य्या": 1293,
    "र्य्य़": 1294,
    "र्य्य़ा": 1295,
    "र्र": 1296,
    "र्रा": 1297,
    "र्रि": 1298,
    "र्ल": 1299,
    "र्ला": 1300,
    "र्लु": 1301,
    "र्लो": 1302,
    "र्व": 1303,
    "र्वा": 1304,
    "र्वि": 1305,
    "र्वे": 1306,
    "र्श": 1307,
    "र्शि": 1308,
    "र्ष": 1309,
    "र्षा": 1310,
    "र्षि": 1311,
    "र्षे": 1312,
    "र्स": 1313,
    "र्सि": 1314,
    "र्सिं": 1315,
    "र्सी": 1316,
    "र्सु": 1317,
    "र्स्": 1318,
    "र्‌": 1319,
    "रॕ": 1320,
    "र॰": 1321,
    "रॱ": 1322,
    "र‌": 1323,
    "र‍": 1324,
    "ऱ": 1325,
    "ऱा": 1326,
    "ऱि": 1327,
    "ऱिं": 1328,
    "ऱु": 1329,
    "ऱुं": 1330,
    "ऱू": 1331,
    "ऱॆ": 1332,
    "ऱे": 1333,
    "ऱै": 1334,
    "ऱॊ": 1335,
    "ऱो": 1336,
    "ऱ्": 1337,
    "ऱ्क": 1338,
    "ऱ्का": 1339,
    "ऱ्कु": 1340,
    "ऱ्के": 1341,
    "ऱ्प": 1342,
    "ऱ्पू": 1343,
    "ऱ्ऱ": 1344,
    "ऱ्ऱं": 1345,
    "ऱ्ऱा": 1346,
    "ऱ्ऱि": 1347,
    "ऱ्ऱी": 1348,
    "ऱ्ऱु": 1349,
    "ऱ्ऱे": 1350,
    "ऱ्ऱ्": 1351,
    "ऱ्ऱ्यू": 1352,
    "ल": 1353,
    "लं": 1354,
    "ला": 1355,
    "लां": 1356,
    "लि": 1357,
    "लिं": 1358,
    "लिा": 1359,
    "ली": 1360,
    "लु": 1361,
    "लुं": 1362,
    "लू": 1363,
    "लूा्": 1364,
    "लॆ": 1365,
    "लॆं": 1366,
    "ले": 1367,
    "लै": 1368,
    "लॉ": 1369,
    "लो": 1370,
    "लोँ": 1371,
    "लौ": 1372,
    "ल्": 1373,
    "ल्क": 1374,
    "ल्कि": 1375,
    "ल्कै": 1376,
    "ल्क्स्": 1377,
    "ल्गू": 1378,
    "ल्ट": 1379,
    "ल्टि": 1380,
    "ल्टी": 1381,
    "ल्टु": 1382,
    "ल्टे": 1383,
    "ल्ट्": 1384,
    "ल्ट्रा": 1385,
    "ल्ड": 1386,
    "ल्डीं": 1387,
    "ल्ड्र": 1388,
    "ल्त्": 1389,
    "ल्थ": 1390,
    "ल्दा": 1391,
    "ल्नी": 1392,
    "ल्प": 1393,
    "ल्पी": 1394,
    "ल्पॊ": 1395,
    "ल्फे": 1396,
    "ल्य": 1397,
    "ल्या": 1398,
    "ल्यां": 1399,
    "ल्यु": 1400,
    "ल्यू": 1401,
    "ल्ल": 1402,
    "ल्लं": 1403,
    "ल्ला": 1404,
    "ल्लि": 1405,
    "ल्ली": 1406,
    "ल्लु": 1407,
    "ल्लू": 1408,
    "ल्लूाि": 1409,
    "ल्लूा्": 1410,
    "ल्लॆ": 1411,
    "ल्ले": 1412,
    "ल्लै": 1413,
    "ल्ल्": 1414,
    "ल्ल्‌": 1415,
    "ल्व": 1416,
    "ल्वि": 1417,
    "ल्वॆ": 1418,
    "ल्वे": 1419,
    "ल्स": 1420,
    "ल्स्": 1421,
    "ल्हा": 1422,
    "ल्हे": 1423,
    "ल्ह्या": 1424,
    "ल्‌": 1425,
    "ल्‍": 1426,
    "ल॰": 1427,
    "लॱ": 1428,
    "ळ": 1429,
    "ळं": 1430,
    "ळा": 1431,
    "ळां": 1432,
    "ळा्": 1433,
    "ळि": 1434,
    "ळिं": 1435,
    "ळी": 1436,
    "ळु": 1437,
    "ळू": 1438,
    "ळॆ": 1439,
    "ळे": 1440,
    "ळै": 1441,
    "ळो": 1442,
    "ळ्": 1443,
    "ळ्अ": 1444,
    "ळ्ट": 1445,
    "ळ्प": 1446,
    "ळ्मि": 1447,
    "ळ्मी": 1448,
    "ळ्या": 1449,
    "ळ्यां": 1450,
    "ळ्ळ": 1451,
    "ळ्ळा": 1452,
    "ळ्ळि": 1453,
    "ळ्ळी": 1454,
    "ळ्ळु": 1455,
    "ळ्ळे": 1456,
    "ळ‍": 1457,
    "ऴ": 1458,
    "ऴा": 1459,
    "ऴि": 1460,
    "ऴि‌": 1461,
    "ऴु": 1462,
    "ऴॆ": 1463,
    "ऴै": 1464,
    "ऴ्": 1465,
    "ऴ्क": 1466,
    "ऴ्च्": 1467,
    "ऴ्त्त": 1468,
    "ऴ्न": 1469,
    "ऴ्ना": 1470,
    "ऴ्वु": 1471,
    "ऴ्स्": 1472,
    "ऴ्‌": 1473,
    "व": 1474,
    "वं": 1475,
    "वः": 1476,
    "व़": 1477,
    "वा": 1478,
    "वां": 1479,
    "वा्": 1480,
    "वा्स्": 1481,
    "वि": 1482,
    "विं": 1483,
    "वि॰": 1484,
    "विॱ": 1485,
    "वी": 1486,
    "वीं": 1487,
    "वु": 1488,
    "वुं": 1489,
    "वू": 1490,
    "वृ": 1491,
    "वॅ": 1492,
    "वॆ": 1493,
    "वॆं": 1494,
    "वे": 1495,
    "वें": 1496,
    "वेा्ल्टु": 1497,
    "वै": 1498,
    "वॉ": 1499,
    "वॊ": 1500,
    "वो": 1501,
    "व्": 1502,
    "व्त": 1503,
    "व्य": 1504,
    "व्या": 1505,
    "व्व": 1506,
    "व्वं": 1507,
    "व्वि": 1508,
    "व्वी": 1509,
    "व्वू": 1510,
    "व्वे": 1511,
    "व्ह": 1512,
    "व्हि": 1513,
    "व्ही": 1514,
    "व्‌": 1515,
    "व॰": 1516,
    "श": 1517,
    "शं": 1518,
    "शा": 1519,
    "शां": 1520,
    "शाः": 1521,
    "शि": 1522,
    "शी": 1523,
    "शीू": 1524,
    "शु": 1525,
    "शू": 1526,
    "शृ": 1527,
    "शॅ": 1528,
    "शॆ": 1529,
    "शे": 1530,
    "शै": 1531,
    "शो": 1532,
    "शौ": 1533,
    "श्": 1534,
    "श्च": 1535,
    "श्चि": 1536,
    "श्ते": 1537,
    "श्ब": 1538,
    "श्मा": 1539,
    "श्य": 1540,
    "श्र": 1541,
    "श्रा": 1542,
    "श्री": 1543,
    "श्रु": 1544,
    "श्रे": 1545,
    "श्ले": 1546,
    "श्व": 1547,
    "श्वा": 1548,
    "श्श": 1549,
    "श्शि": 1550,
    "श्शे": 1551,
    "श्ष": 1552,
    "श्स": 1553,
    "श्य़": 1554,
    "श्॰ी": 1555,
    "श्ॱ": 1556,
    "श्‍": 1557,
    "शॗ": 1558,
    "ष": 1559,
    "षं": 1560,
    "षा": 1561,
    "षि": 1562,
    "षी": 1563,
    "षु": 1564,
    "षू": 1565,
    "षे": 1566,
    "ष्": 1567,
    "ष्क": 1568,
    "ष्का": 1569,
    "ष्कृ": 1570,
    "ष्क्": 1571,
    "ष्ट": 1572,
    "ष्टा": 1573,
    "ष्टि": 1574,
    "ष्टी": 1575,
    "ष्टु": 1576,
    "ष्ट्र": 1577,
    "ष्ट्रा": 1578,
    "ष्ट्री": 1579,
    "ष्ट्॰": 1580,
    "ष्ट्॰ी": 1581,
    "ष्ठ": 1582,
    "ष्ठा": 1583,
    "ष्ण": 1584,
    "ष्णा": 1585,
    "ष्णू": 1586,
    "ष्ना": 1587,
    "ष्पा": 1588,
    "ष्म": 1589,
    "ष्मॆ": 1590,
    "ष्य": 1591,
    "ष्यं": 1592,
    "ष्‌": 1593,
    "ष्‍": 1594,
    "षॢ": 1595,
    "स": 1596,
    "सं": 1597,
    "सः": 1598,
    "स़": 1599,
    "स़ा": 1600,
    "स़ि": 1601,
    "सा": 1602,
    "सां": 1603,
    "सि": 1604,
    "सिं": 1605,
    "सि॰": 1606,
    "सी": 1607,
    "सु": 1608,
    "सुँ": 1609,
    "सुं": 1610,
    "सू": 1611,
    "सृ": 1612,
    "सृं": 1613,
    "सॆ": 1614,
    "सॆं": 1615,
    "से": 1616,
    "सें": 1617,
    "से‍": 1618,
    "सै": 1619,
    "सैं": 1620,
    "सॊ": 1621,
    "सो": 1622,
    "सोँ": 1623,
    "सौ": 1624,
    "स्": 1625,
    "स्क": 1626,
    "स्का": 1627,
    "स्कु": 1628,
    "स्कू": 1629,
    "स्कृ": 1630,
    "स्गि": 1631,
    "स्जि": 1632,
    "स्जी": 1633,
    "स्ट": 1634,
    "स्टा": 1635,
    "स्टि": 1636,
    "स्टी": 1637,
    "स्टु": 1638,
    "स्टॆ": 1639,
    "स्टे": 1640,
    "स्टो": 1641,
    "स्ट्": 1642,
    "स्ट्री": 1643,
    "स्ट्रे": 1644,
    "स्ठ": 1645,
    "स्ड": 1646,
    "स्त": 1647,
    "स्तं": 1648,
    "स्ता": 1649,
    "स्ति": 1650,
    "स्तु": 1651,
    "स्तू": 1652,
    "स्तृ": 1653,
    "स्तॆ": 1654,
    "स्ते": 1655,
    "स्त्र": 1656,
    "स्त्रा": 1657,
    "स्थ": 1658,
    "स्था": 1659,
    "स्थि": 1660,
    "स्थी": 1661,
    "स्थॆ": 1662,
    "स्थे": 1663,
    "स्थ्य": 1664,
    "स्दु": 1665,
    "स्ध": 1666,
    "स्धा": 1667,
    "स्धॆ": 1668,
    "स्ना": 1669,
    "स्नि": 1670,
    "स्ने": 1671,
    "स्प": 1672,
    "स्पा": 1673,
    "स्पि": 1674,
    "स्पृ": 1675,
    "स्पॆ": 1676,
    "स्पे": 1677,
    "स्प्पि": 1678,
    "स्फो": 1679,
    "स्ब": 1680,
    "स्बा": 1681,
    "स्भा": 1682,
    "स्म": 1683,
    "स्मा": 1684,
    "स्मृ": 1685,
    "स्य": 1686,
    "स्यः": 1687,
    "स्र": 1688,
    "स्ऱी": 1689,
    "स्रा": 1690,
    "स्री": 1691,
    "स्ऱ्ऱा": 1692,
    "स्ऱ्ऱि": 1693,
    "स्ऱ्ऱु": 1694,
    "स्ऱ्ऱे": 1695,
    "स्ऱ्ऱै": 1696,
    "स्ऱ्ऱ्": 1697,
    "स्लि": 1698,
    "स्व": 1699,
    "स्वं": 1700,
    "स्वा": 1701,
    "स्वि": 1702,
    "स्वी": 1703,
    "स्वे": 1704,
    "स्सा": 1705,
    "स्सु": 1706,
    "स्स्": 1707,
    "स्स्मा": 1708,
    "स्स्‌": 1709,
    "स्ह": 1710,
    "स्॰": 1711,
    "स्॰ा": 1712,
    "स्ॱ": 1713,
    "स्‌": 1714,
    "स्‍": 1715,
    "स॰": 1716,
    "सॱ": 1717,
    "ह": 1718,
    "हं": 1719,
    "हः": 1720,
    "हा": 1721,
    "हां": 1722,
    "हा‍": 1723,
    "हि": 1724,
    "हिं": 1725,
    "हिः": 1726,
    "हि॰": 1727,
    "ही": 1728,
    "हीं": 1729,
    "हु": 1730,
    "हु॰": 1731,
    "हू": 1732,
    "हृ": 1733,
    "हॆ": 1734,
    "हे": 1735,
    "हें": 1736,
    "है": 1737,
    "है‍": 1738,
    "हॉ": 1739,
    "हॊ": 1740,
    "हो": 1741,
    "ह्दि": 1742,
    "ह्न": 1743,
    "ह्म": 1744,
    "ह्य": 1745,
    "ह्या": 1746,
    "ह्रू": 1747,
    "ह॰": 1748,
    "हॱ": 1749,
    "ऽ": 1750,
    "ा": 1751,
    "े": 1752,
    "ॎ": 1753,
    "ॐ": 1754,
    "ज़ो": 1755,
    "ज़॰": 1756,
    "ड़": 1757,
    "ड़ा": 1758,
    "ड़ी": 1759,
    "ड़े": 1760,
    "ड़ै": 1761,
    "ड़ोु": 1762,
    "ड़्ह": 1763,
    "ड़्हे": 1764,
    "ढ़ि": 1765,
    "ढ़ी": 1766,
    "ढ़ो": 1767,
    "फ़": 1768,
    "फ़्ट": 1769,
    "फ़्दु": 1770,
    "य़": 1771,
    "य़ं": 1772,
    "य़ः": 1773,
    "य़़": 1774,
    "य़ा": 1775,
    "य़ां": 1776,
    "य़ि": 1777,
    "य़ी": 1778,
    "य़ु": 1779,
    "य़े": 1780,
    "य़ो": 1781,
    "य़्या": 1782,
    "य़ॗ": 1783,
    "ॠ": 1784,
    "।": 1785,
    "।‍": 1786,
    "॥": 1787,
    "०": 1788,
    "१": 1789,
    "१्को": 1790,
    "१‌": 1791,
    "२": 1792,
    "२़": 1793,
    "२ा": 1794,
    "३": 1795,
    "४": 1796,
    "५": 1797,
    "५ु": 1798,
    "५ो": 1799,
    "६": 1800,
    "७": 1801,
    "८": 1802,
    "९": 1803,
    "॰": 1804,
    "॰ा": 1805,
    "॰ि": 1806,
    "॰िः": 1807,
    "॰ी": 1808,
    "॰ु": 1809,
    "॰ू": 1810,
    "॰े": 1811,
    "॰ो": 1812,
    "॰्थ": 1813,
    "॰्प": 1814,
    "॰्ब": 1815,
    "॰्मा": 1816,
    "॰्य": 1817,
    "॰्य्य": 1818,
    "॰्य्या": 1819,
    "॰्ष": 1820,
    "ॱ": 1821,
    "ॱा": 1822,
    "ॱि": 1823,
    "ॱे": 1824,
    "ॱो": 1825,
    "ॳ": 1826,
    "ॳे": 1827,
    "ॷ": 1828,
    "ॺ": 1829,
    "ॺ‌": 1830,
    "ॺ‍": 1831,
    "ॻ": 1832,
    "ॻ्ऱॆ": 1833,
    "ॻ्ऱ्": 1834,
    "ॻ‌": 1835,
    "ॻ‌‌": 1836,
    "ॻ‍": 1837,
    "ॼ": 1838,
    "ॼ‌": 1839,
    "ॼ‍‍": 1840,
    "ॽ": 1841,
    "ॽ‌": 1842,
    "ॽ‍": 1843,
    "ॾ": 1844,
    "ॾ‌": 1845,
    "ॾ‌‌": 1846,
    "​": 1847
  },
  "metadata": {
    "tag": "zs_loso_rungB_kannada",
    "num_graphemes": 1846,
    "space": "shared-abugida-pivot"
  }
}