{
  "grapheme2idx": {
    "<blank>": 0,
    "<unk>": 1,
    "!": 2,
    "\"": 3,
    "&": 4,
    "'": 5,
    "(": 6,
    ")": 7,
    ",": 8,
    "-": 9,
    ".": 10,
    "/": 11,
    "0": 12,
    "1": 13,
    "2": 14,
    "3": 15,
    "4": 16,
    "5": 17,
    "6": 18,
    "7": 19,
    "8": 20,
    "9": 21,
    ":": 22,
    "?": 23,
    "A": 24,
    "D": 25,
    "G": 26,
    "H": 27,
    "I": 28,
    "O": 29,
    "P": 30,
    "V": 31,
    "[": 32,
    "c": 33,
    "|": 34,
    "°": 35,
    "ا": 36,
    "ت": 37,
    "ج": 38,
    "ر": 39,
    "گ": 40,
    "ی": 41,
    "ँ": 42,
    "अ": 43,
    "अं": 44,
    "अि": 45,
    "अ्या": 46,
    "अ॰": 47,
    "आ": 48,
    "आं": 49,
    "आा्": 50,
    "आे": 51,
    "आॕ": 52,
    "इ": 53,
    "इं": 54,
    "इ्ट": 55,
    "इ॰": 56,
    "इॱ": 57,
    "ई": 58,
    "ईँ": 59,
    "ईं": 60,
    "उ": 61,
    "उाि": 62,
    "उॱ": 63,
    "ऊ": 64,
    "ऊँ": 65,
    "ऊं": 66,
    "ऋ": 67,
    "ऍ": 68,
    "ऎ": 69,
    "ऎं": 70,
    "ए": 71,
    "एँ": 72,
    "एा": 73,
    "ऐ": 74,
    "ऐं": 75,
    "ऑ": 76,
    "ऒ": 77,
    "ऒं": 78,
    "ऒाि": 79,
    "ऒा्क्स्": 80,
    "ओ": 81,
    "ओँ": 82,
    "ओं": 83,
    "ओ्बा": 84,
    "औ": 85,
    "औं": 86,
    "क": 87,
    "कं": 88,
    "कः": 89,
    "का": 90,
    "काँ": 91,
    "कां": 92,
    "काुं": 93,
    "काे": 94,
    "का्": 95,
    "का‍": 96,
    "का‍‌": 97,
    "कि": 98,
    "किं": 99,
    "किाि": 100,
    "की": 101,
    "कीे": 102,
    "कु": 103,
    "कुं": 104,
    "कु॰": 105,
    "कू": 106,
    "कृ": 107,
    "कॅ": 108,
    "कॅा": 109,
    "कॆ": 110,
    "कॆं": 111,
    "के": 112,
    "कें": 113,
    "केे": 114,
    "कै": 115,
    "कॉ": 116,
    "कॊ": 117,
    "कॊं": 118,
    "को": 119,
    "कोँ": 120,
    "कों": 121,
    "क्": 122,
    "क्क": 123,
    "क्का": 124,
    "क्कि": 125,
    "क्कु": 126,
    "क्कू": 127,
    "क्कॆ": 128,
    "क्के": 129,
    "क्कै": 130,
    "क्को": 131,
    "क्ट": 132,
    "क्टो": 133,
    "क्ट्रि": 134,
    "क्ट्रो": 135,
    "क्त": 136,
    "क्तां": 137,
    "क्ति": 138,
    "क्तीं": 139,
    "क्तु": 140,
    "क्नो": 141,
    "क्प": 142,
    "क्पे": 143,
    "क्मि": 144,
    "क्या": 145,
    "क्र": 146,
    "क्रं": 147,
    "क्रा": 148,
    "क्रि": 149,
    "क्री": 150,
    "क्रे": 151,
    "क्रै": 152,
    "क्रो": 153,
    "क्ला": 154,
    "क्ळे": 155,
    "क्व": 156,
    "क्वॆ": 157,
    "क्श": 158,
    "क्ष": 159,
    "क्षा": 160,
    "क्षां": 161,
    "क्षि": 162,
    "क्षिं": 163,
    "क्षी": 164,
    "क्षुः": 165,
    "क्षे": 166,
    "क्षो": 167,
    "क्ष्म": 168,
    "क्ष्मि": 169,
    "क्ष्मी": 170,
    "क्ष्य": 171,
    "क्स": 172,
    "क्सि": 173,
    "क्स्": 174,
    "क्य़ा": 175,
    "क्॰": 176,
    "क्॰ा": 177,
    "क्॰े": 178,
    "क्‍": 179,
    "क॰": 180,
    "कॱ": 181,
    "क‌": 182,
    "क‍ी": 183,
    "ख": 184,
    "खं": 185,
    "ख़": 186,
    "खा": 187,
    "खाँ": 188,
    "खि": 189,
    "खी": 190,
    "खु": 191,
    "खू": 192,
    "खॆ": 193,
    "खे": 194,
    "खै": 195,
    "खो": 196,
    "ख्त": 197,
    "ख्य": 198,
    "ख्यु": 199,
    "ख्रीः": 200,
    "ग": 201,
    "गं": 202,
    "गा": 203,
    "गां": 204,
    "गि": 205,
    "गि॰": 206,
    "गी": 207,
    "गु": 208,
    "गुं": 209,
    "गू": 210,
    "गृ": 211,
    "गॆ": 212,
    "गॆं": 213,
    "गे": 214,
    "गे्ड": 215,
    "गै": 216,
    "गॊ": 217,
    "गो": 218,
    "गों": 219,
    "गौ": 220,
    "ग्": 221,
    "ग्ग": 222,
    "ग्गि": 223,
    "ग्गॆ": 224,
    "ग्ण": 225,
    "ग्नि": 226,
    "ग्ब": 227,
    "ग्भ": 228,
    "ग्य": 229,
    "ग्या": 230,
    "ग्ये": 231,
    "ग्र": 232,
    "ग्रं": 233,
    "ग्रा": 234,
    "ग्रां": 235,
    "ग्री": 236,
    "ग्रे": 237,
    "ग्ला": 238,
    "ग्वा": 239,
    "ग्स": 240,
    "ग्य़ा": 241,
    "ग्॰ु": 242,
    "ग॰": 243,
    "गॱ": 244,
    "घ": 245,
    "घा": 246,
    "घां": 247,
    "घु": 248,
    "घे": 249,
    "घो": 250,
    "घौ": 251,
    "घ्य": 252,
    "घ्या": 253,
    "घ्र": 254,
    "ङ": 255,
    "ङा": 256,
    "ङि": 257,
    "ङे": 258,
    "ङ्": 259,
    "ङ्क": 260,
    "ङ्का": 261,
    "ङ्कि": 262,
    "ङ्कु": 263,
    "ङ्के": 264,
    "ङ्कै": 265,
    "ङ्को": 266,
    "ङ्क्": 267,
    "ङ्ग": 268,
    "ङ्गा": 269,
    "ङ्गी": 270,
    "ङ्गु": 271,
    "ङ्गे": 272,
    "ङ्गो": 273,
    "ङ्घ": 274,
    "ङ्ट": 275,
    "ङ्त": 276,
    "ङ्ष": 277,
    "ङ्‌": 278,
    "च": 279,
    "चं": 280,
    "चा": 281,
    "चां": 282,
    "चा्": 283,
    "चा्जि": 284,
    "चा्व": 285,
    "चि": 286,
    "चिं": 287,
    "ची": 288,
    "चु": 289,
    "चुे": 290,
    "चू": 291,
    "चॆ": 292,
    "चे": 293,
    "चें": 294,
    "चेा्ऩ्": 295,
    "चै": 296,
    "चॊ": 297,
    "चो": 298,
    "चौ": 299,
    "च्": 300,
    "च्च": 301,
    "च्चा": 302,
    "च्चि": 303,
    "च्ची": 304,
    "च्चे": 305,
    "च्चेाि": 306,
    "च्छ": 307,
    "च्छा": 308,
    "च्छु": 309,
    "च्ट": 310,
    "च्य": 311,
    "च्या": 312,
    "च॑": 313,
    "च॰": 314,
    "चॱ": 315,
    "छ": 316,
    "छा": 317,
    "छि": 318,
    "छु": 319,
    "छुॱ": 320,
    "छे": 321,
    "छें": 322,
    "छो": 323,
    "छोँ": 324,
    "छ॰": 325,
    "ज": 326,
    "जं": 327,
    "ज़": 328,
    "ज़ी": 329,
    "ज़ु": 330,
    "जा": 331,
    "जि": 332,
    "जिं": 333,
    "जि॰": 334,
    "जिॱ": 335,
    "जी": 336,
    "जु": 337,
    "जुॱ": 338,
    "जू": 339,
    "जॆ": 340,
    "जे": 341,
    "जें": 342,
    "जै": 343,
    "जो": 344,
    "ज्": 345,
    "ज्ञ": 346,
    "ज्ञा": 347,
    "ज्ञी": 348,
    "ज्ब": 349,
    "ज्य": 350,
    "ज्यु": 351,
    "ज्यू": 352,
    "ज्येा": 353,
    "ज्यो": 354,
    "ज्यों": 355,
    "ज्व": 356,
    "ज्सि": 357,
    "ज्य़": 358,
    "ज॰": 359,
    "झ": 360,
    "झा": 361,
    "झाँ": 362,
    "झां": 363,
    "झि": 364,
    "झी": 365,
    "झे": 366,
    "झ॰": 367,
    "ञ": 368,
    "ञा": 369,
    "ञ्च": 370,
    "ञ्चा": 371,
    "ञ्चा्": 372,
    "ञ्चि": 373,
    "ञ्ज": 374,
    "ञ्जा": 375,
    "ञ्जि": 376,
    "ञ्जी": 377,
    "ट": 378,
    "टा": 379,
    "टाा": 380,
    "टि": 381,
    "टिं": 382,
    "टी": 383,
    "टु": 384,
    "टू": 385,
    "टॆ": 386,
    "टे": 387,
    "टै": 388,
    "टैं": 389,
    "टो": 390,
    "टौ": 391,
    "ट्": 392,
    "ट्चाा्च्च": 393,
    "ट्चि": 394,
    "ट्ट": 395,
    "ट्टं": 396,
    "ट्टा": 397,
    "ट्टि": 398,
    "ट्टी": 399,
    "ट्टु": 400,
    "ट्टूा्पु": 401,
    "ट्टै": 402,
    "ट्ण": 403,
    "ट्त": 404,
    "ट्न": 405,
    "ट्नं": 406,
    "ट्प": 407,
    "ट्मि": 408,
    "ट्य": 409,
    "ट्यू": 410,
    "ट्र": 411,
    "ट्रा": 412,
    "ट्रि": 413,
    "ट्रे": 414,
    "ट्रै": 415,
    "ट्रो": 416,
    "ट्र्या": 417,
    "ट्ल": 418,
    "ट्लु": 419,
    "ट्व": 420,
    "ट्स्": 421,
    "ट्॰": 422,
    "ट्‌": 423,
    "ठ": 424,
    "ठा": 425,
    "ठि": 426,
    "ठि॰": 427,
    "ठी": 428,
    "ठे": 429,
    "ठें": 430,
    "ठो": 431,
    "ठ्ठ": 432,
    "ड": 433,
    "डः": 434,
    "ड़": 435,
    "ड़ा": 436,
    "ड़ि": 437,
    "ड़ी": 438,
    "ड़े": 439,
    "ड़ौ": 440,
    "डा": 441,
    "डाः": 442,
    "डि": 443,
    "डी": 444,
    "डु": 445,
    "डू": 446,
    "डॆ": 447,
    "डॆं": 448,
    "डे": 449,
    "डै": 450,
    "डो": 451,
    "ड्": 452,
    "ड्क": 453,
    "ड्ड": 454,
    "ड्डा": 455,
    "ड्डि": 456,
    "ड्डु": 457,
    "ड्यं": 458,
    "ड्या": 459,
    "ड्यां": 460,
    "ड्यू": 461,
    "ड्र": 462,
    "ड्रि": 463,
    "ड्री": 464,
    "ड्‍": 465,
    "ढ": 466,
    "ढ़": 467,
    "ढ़ि": 468,
    "ढ़ी": 469,
    "ढि": 470,
    "ढु": 471,
    "ढे": 472,
    "ढे़": 473,
    "ण": 474,
    "णं": 475,
    "णा": 476,
    "णाः": 477,
    "णि": 478,
    "णी": 479,
    "णीं": 480,
    "णु": 481,
    "णू": 482,
    "णॆ": 483,
    "णे": 484,
    "णै": 485,
    "णो": 486,
    "ण्": 487,
    "ण्क": 488,
    "ण्का": 489,
    "ण्ट": 490,
    "ण्टा": 491,
    "ण्टि": 492,
    "ण्टी": 493,
    "ण्टु": 494,
    "ण्टै": 495,
    "ण्ट्": 496,
    "ण्ठु": 497,
    "ण्ड": 498,
    "ण्डा": 499,
    "ण्डि": 500,
    "ण्ण": 501,
    "ण्णा": 502,
    "ण्णी": 503,
    "ण्ता": 504,
    "ण्ति": 505,
    "ण्पु": 506,
    "ण्मै": 507,
    "ण्य": 508,
    "ण्या": 509,
    "त": 510,
    "तं": 511,
    "तः": 512,
    "त़": 513,
    "त़ा": 514,
    "त़ि": 515,
    "ता": 516,
    "ताँ": 517,
    "तां": 518,
    "ता्का": 519,
    "ति": 520,
    "तिं": 521,
    "तिः": 522,
    "तिाि": 523,
    "ती": 524,
    "तीा्": 525,
    "तीा्त्त": 526,
    "तु": 527,
    "तुं": 528,
    "तू": 529,
    "तूा्": 530,
    "तू॰": 531,
    "तृ": 532,
    "तॆ": 533,
    "तॆ्र्र": 534,
    "ते": 535,
    "तें": 536,
    "तै": 537,
    "तॊ": 538,
    "तो": 539,
    "तों": 540,
    "त्": 541,
    "त्उ": 542,
    "त्क": 543,
    "त्का": 544,
    "त्कू": 545,
    "त्त": 546,
    "त्ता": 547,
    "त्ति": 548,
    "त्ती": 549,
    "त्तु": 550,
    "त्तू": 551,
    "त्तॆ": 552,
    "त्तेा्": 553,
    "त्तै": 554,
    "त्त्य": 555,
    "त्त्व": 556,
    "त्थ": 557,
    "त्न": 558,
    "त्प": 559,
    "त्बे": 560,
    "त्म": 561,
    "त्य": 562,
    "त्या": 563,
    "त्यां": 564,
    "त्यु": 565,
    "त्ये": 566,
    "त्य्": 567,
    "त्र": 568,
    "त्रा": 569,
    "त्रि": 570,
    "त्री": 571,
    "त्रॆ": 572,
    "त्रे": 573,
    "त्रों": 574,
    "त्र्य": 575,
    "त्र्यं": 576,
    "त्व": 577,
    "त्वा": 578,
    "त्वि": 579,
    "त्स": 580,
    "त्सा": 581,
    "त्स्ना": 582,
    "त्य़": 583,
    "त्य़ु": 584,
    "त्य़े": 585,
    "त्॰": 586,
    "त्‍": 587,
    "त॰": 588,
    "त‍े": 589,
    "थ": 590,
    "था": 591,
    "थां": 592,
    "थि": 593,
    "थी": 594,
    "थु": 595,
    "थू": 596,
    "थृ": 597,
    "थे": 598,
    "थ्य": 599,
    "द": 600,
    "दा": 601,
    "दां": 602,
    "दि": 603,
    "दिं": 604,
    "दि॰": 605,
    "दी": 606,
    "दु": 607,
    "दुि": 608,
    "दू": 609,
    "दूं": 610,
    "दृ": 611,
    "दॆ": 612,
    "दे": 613,
    "दें": 614,
    "दै": 615,
    "दॊ": 616,
    "दो": 617,
    "दौ": 618,
    "द्": 619,
    "द्घा": 620,
    "द्ट": 621,
    "द्टु": 622,
    "द्द": 623,
    "द्दा": 624,
    "द्दि": 625,
    "द्दु": 626,
    "द्ध": 627,
    "द्धा": 628,
    "द्धि": 629,
    "द्ब": 630,
    "द्बा": 631,
    "द्बि": 632,
    "द्बी": 633,
    "द्बो": 634,
    "द्म": 635,
    "द्मा": 636,
    "द्य": 637,
    "द्या": 638,
    "द्यो": 639,
    "द्र": 640,
    "द्रा": 641,
    "द्रि": 642,
    "द्री": 643,
    "द्रु": 644,
    "द्रे": 645,
    "द्रौ": 646,
    "द्व": 647,
    "द्वा": 648,
    "द्वी": 649,
    "द्य़": 650,
    "द्य़ा": 651,
    "द्॰": 652,
    "द्‌": 653,
    "ध": 654,
    "धा": 655,
    "धि": 656,
    "धिि": 657,
    "धी": 658,
    "धीं": 659,
    "धु": 660,
    "धू": 661,
    "धे": 662,
    "धो": 663,
    "ध्दा": 664,
    "ध्दी": 665,
    "ध्ब": 666,
    "ध्य": 667,
    "ध्या": 668,
    "ध्ये": 669,
    "ध्र": 670,
    "ध्व": 671,
    "ध॰": 672,
    "न": 673,
    "नं": 674,
    "नः": 675,
    "ना": 676,
    "नाँ": 677,
    "नां": 678,
    "नाि": 679,
    "ना्": 680,
    "नि": 681,
    "निं": 682,
    "निॕ": 683,
    "नि‍": 684,
    "नी": 685,
    "नीा्": 686,
    "नु": 687,
    "नुं": 688,
    "नू": 689,
    "नू॰": 690,
    "नृ": 691,
    "नॅ": 692,
    "नॆ": 693,
    "ने": 694,
    "नेे": 695,
    "नै": 696,
    "नॊ": 697,
    "नो": 698,
    "नौ": 699,
    "न्": 700,
    "न्कु": 701,
    "न्ट": 702,
    "न्टा": 703,
    "न्ट्र": 704,
    "न्ट्रा": 705,
    "न्ड": 706,
    "न्डि": 707,
    "न्डी": 708,
    "न्डे": 709,
    "न्त": 710,
    "न्ता": 711,
    "न्ति": 712,
    "न्ती": 713,
    "न्तु": 714,
    "न्तू": 715,
    "न्ते": 716,
    "न्तो": 717,
    "न्त्": 718,
    "न्त्र": 719,
    "न्त्री": 720,
    "न्त्॰ा": 721,
    "न्त्॰ि": 722,
    "न्त्॰ी": 723,
    "न्थ": 724,
    "न्था": 725,
    "न्द": 726,
    "न्दा": 727,
    "न्दि": 728,
    "न्दी": 729,
    "न्दु": 730,
    "न्दे": 731,
    "न्दो": 732,
    "न्द्यो": 733,
    "न्द्र": 734,
    "न्द्रा": 735,
    "न्द्री": 736,
    "न्द्र्र": 737,
    "न्द्॰": 738,
    "न्द्॰ी": 739,
    "न्ध": 740,
    "न्धी": 741,
    "न्न": 742,
    "न्नं": 743,
    "न्ना": 744,
    "न्नि": 745,
    "न्नु": 746,
    "न्नै": 747,
    "न्ब": 748,
    "न्म": 749,
    "न्मा": 750,
    "न्मे": 751,
    "न्मो": 752,
    "न्म्या": 753,
    "न्य": 754,
    "न्यः": 755,
    "न्या": 756,
    "न्यु": 757,
    "न्यू": 758,
    "न्ये": 759,
    "न्ल": 760,
    "न्वी": 761,
    "न्स": 762,
    "न्सा": 763,
    "न्सि": 764,
    "न्सी": 765,
    "न्सू": 766,
    "न्स्": 767,
    "न्स्टि": 768,
    "न्हा": 769,
    "न्हां": 770,
    "न्य़": 771,
    "न्य़ा": 772,
    "न॰": 773,
    "न॰ः": 774,
    "नॱ": 775,
    "ऩ": 776,
    "ऩा": 777,
    "ऩा्": 778,
    "ऩि": 779,
    "ऩी": 780,
    "ऩु": 781,
    "ऩू": 782,
    "ऩे": 783,
    "ऩै": 784,
    "ऩ्": 785,
    "ऩ्टा्": 786,
    "ऩ्ट्": 787,
    "ऩ्ट्र": 788,
    "ऩ्ऩ": 789,
    "ऩ्ऩा": 790,
    "ऩ्ऩूा्": 791,
    "ऩ्ऩै": 792,
    "ऩ्ऩो": 793,
    "ऩ्पु": 794,
    "ऩ्ऱ": 795,
    "ऩ्ऱि": 796,
    "ऩ्वॆ": 797,
    "प": 798,
    "पं": 799,
    "पा": 800,
    "पाँ": 801,
    "पां": 802,
    "पा्": 803,
    "पि": 804,
    "पिं": 805,
    "पिाि": 806,
    "पिु": 807,
    "पी": 808,
    "पु": 809,
    "पू": 810,
    "पूँ": 811,
    "पॅ": 812,
    "पॆ": 813,
    "पॆं": 814,
    "पे": 815,
    "पेा": 816,
    "पै": 817,
    "पैा": 818,
    "पॉ": 819,
    "पॊ": 820,
    "पॊं": 821,
    "पो": 822,
    "पोा्चु": 823,
    "पौ": 824,
    "प्": 825,
    "प्का": 826,
    "प्टॆ": 827,
    "प्ण": 828,
    "प्त": 829,
    "प्प": 830,
    "प्पा": 831,
    "प्पि": 832,
    "प्पु": 833,
    "प्पे": 834,
    "प्पो": 835,
    "प्या": 836,
    "प्र": 837,
    "प्रा": 838,
    "प्रां": 839,
    "प्राः": 840,
    "प्रि": 841,
    "प्री": 842,
    "प्रीि": 843,
    "प्रॅ": 844,
    "प्रॆ": 845,
    "प्रे": 846,
    "प्रै": 847,
    "प्रॊ": 848,
    "प्रो": 849,
    "प्रौ": 850,
    "प्ला": 851,
    "प्ले": 852,
    "प्लॉ": 853,
    "प्ष": 854,
    "प्स्": 855,
    "प्॰": 856,
    "प्॰ि": 857,
    "प्‍": 858,
    "प॰": 859,
    "प‌": 860,
    "फ": 861,
    "फ़": 862,
    "फा": 863,
    "फि": 864,
    "फी": 865,
    "फु": 866,
    "फॆ": 867,
    "फे": 868,
    "फै": 869,
    "फो": 870,
    "फ्": 871,
    "फ्ट्": 872,
    "फ्या": 873,
    "फ्र": 874,
    "फ्री": 875,
    "फ्रू": 876,
    "फ्ला": 877,
    "फ्॰े": 878,
    "ब": 879,
    "बँ": 880,
    "बं": 881,
    "बा": 882,
    "बां": 883,
    "बि": 884,
    "बि॰": 885,
    "बी": 886,
    "बु": 887,
    "बू": 888,
    "बृ": 889,
    "बॆ": 890,
    "बॆं": 891,
    "बे": 892,
    "बें": 893,
    "बै": 894,
    "बैं": 895,
    "बॉ": 896,
    "बो": 897,
    "बौ": 898,
    "ब्": 899,
    "ब्थ": 900,
    "ब्द": 901,
    "ब्दी": 902,
    "ब्दु": 903,
    "ब्ध": 904,
    "ब्ब": 905,
    "ब्बा": 906,
    "ब्य": 907,
    "ब्या": 908,
    "ब्यां": 909,
    "ब्यु": 910,
    "ब्र": 911,
    "ब्रा": 912,
    "ब्रि": 913,
    "ब्रु": 914,
    "ब्रे": 915,
    "ब्ल": 916,
    "ब्लि": 917,
    "ब्लु": 918,
    "ब्ल्यू": 919,
    "ब्स": 920,
    "ब्सि": 921,
    "ब्य़": 922,
    "ब्य़ा": 923,
    "ब्॰ु": 924,
    "ब॰": 925,
    "बॱ": 926,
    "भ": 927,
    "भं": 928,
    "भा": 929,
    "भां": 930,
    "भि": 931,
    "भिं": 932,
    "भी": 933,
    "भु": 934,
    "भू": 935,
    "भे": 936,
    "भें": 937,
    "भै": 938,
    "भो": 939,
    "भ्या": 940,
    "भ्र": 941,
    "भ॰": 942,
    "म": 943,
    "मं": 944,
    "मः": 945,
    "मा": 946,
    "मां": 947,
    "मााि": 948,
    "मि": 949,
    "मी": 950,
    "मु": 951,
    "मुं": 952,
    "मुॱ": 953,
    "मू": 954,
    "मूा्त्ति": 955,
    "मृ": 956,
    "मॆ": 957,
    "मे": 958,
    "में": 959,
    "मै": 960,
    "मैं": 961,
    "मैा": 962,
    "मॊ": 963,
    "मो": 964,
    "मों": 965,
    "मौ": 966,
    "म्": 967,
    "म्A": 968,
    "म्ः": 969,
    "म्का": 970,
    "म्के": 971,
    "म्प": 972,
    "म्पा": 973,
    "म्पि": 974,
    "म्पु": 975,
    "म्पू": 976,
    "म्पे": 977,
    "म्पो": 978,
    "म्प्यु": 979,
    "म्प्र": 980,
    "म्प्॰": 981,
    "म्ब": 982,
    "म्बा": 983,
    "म्बि": 984,
    "म्बे": 985,
    "म्ब्न": 986,
    "म्भ": 987,
    "म्भा": 988,
    "म्भु": 989,
    "म्म": 990,
    "म्मा": 991,
    "म्मि": 992,
    "म्मु": 993,
    "म्मे": 994,
    "म्य": 995,
    "म्या": 996,
    "म्यां": 997,
    "म्यु": 998,
    "म्र": 999,
    "म्रि": 1000,
    "म्श": 1001,
    "म्स": 1002,
    "म्ह": 1003,
    "म्ही": 1004,
    "म्य़": 1005,
    "म्य़ो": 1006,
    "म्॰ा": 1007,
    "म॰": 1008,
    "मॱ": 1009,
    "य": 1010,
    "यं": 1011,
    "य़": 1012,
    "य़ा": 1013,
    "य़े": 1014,
    "या": 1015,
    "यां": 1016,
    "याा्": 1017,
    "याा्पे": 1018,
    "यि": 1019,
    "यिाि": 1020,
    "यी": 1021,
    "यु": 1022,
    "युं": 1023,
    "यू": 1024,
    "ये": 1025,
    "यें": 1026,
    "यै": 1027,
    "यॊ": 1028,
    "यो": 1029,
    "यों": 1030,
    "य्": 1031,
    "य्न्त": 1032,
    "य्भ": 1033,
    "य्मा": 1034,
    "य्य": 1035,
    "य्वु": 1036,
    "य्स्री": 1037,
    "र": 1038,
    "रं": 1039,
    "रा": 1040,
    "रां": 1041,
    "राा्": 1042,
    "रा्": 1043,
    "रि": 1044,
    "रि॰": 1045,
    "री": 1046,
    "रीं": 1047,
    "रु": 1048,
    "रुं": 1049,
    "रू": 1050,
    "रॆ": 1051,
    "रॆं": 1052,
    "रे": 1053,
    "रें": 1054,
    "रै": 1055,
    "रॉँ": 1056,
    "रॊ": 1057,
    "रो": 1058,
    "र्": 1059,
    "र्ऎ": 1060,
    "र्क": 1061,
    "र्का": 1062,
    "र्कि": 1063,
    "र्किं": 1064,
    "र्कॆ": 1065,
    "र्के": 1066,
    "र्कॊं": 1067,
    "र्ग": 1068,
    "र्गा": 1069,
    "र्गि": 1070,
    "र्च": 1071,
    "र्चा": 1072,
    "र्चि": 1073,
    "र्चू": 1074,
    "र्च्चि": 1075,
    "र्ज": 1076,
    "र्जा": 1077,
    "र्जि": 1078,
    "र्जी": 1079,
    "र्ट": 1080,
    "र्टि": 1081,
    "र्टी": 1082,
    "र्ट्": 1083,
    "र्ट्स्": 1084,
    "र्ड": 1085,
    "र्डी": 1086,
    "र्डॆ": 1087,
    "र्ण": 1088,
    "र्णा": 1089,
    "र्णि": 1090,
    "र्णी": 1091,
    "र्णो": 1092,
    "र्त": 1093,
    "र्ति": 1094,
    "र्ती": 1095,
    "र्तु": 1096,
    "र्ते": 1097,
    "र्त्त": 1098,
    "र्त्ता": 1099,
    "र्थ": 1100,
    "र्थं": 1101,
    "र्थि": 1102,
    "र्द": 1103,
    "र्दि": 1104,
    "र्दे": 1105,
    "र्द्": 1106,
    "र्ध": 1107,
    "र्न": 1108,
    "र्ना": 1109,
    "र्नी": 1110,
    "र्प": 1111,
    "र्पा": 1112,
    "र्पे": 1113,
    "र्पै": 1114,
    "र्पॊ": 1115,
    "र्पो": 1116,
    "र्फे": 1117,
    "र्ब": 1118,
    "र्बा": 1119,
    "र्बि": 1120,
    "र्बो": 1121,
    "र्ब्ब": 1122,
    "र्भ": 1123,
    "र्भी": 1124,
    "र्म": 1125,
    "र्मा": 1126,
    "र्मि": 1127,
    "र्मी": 1128,
    "र्मु": 1129,
    "र्मे": 1130,
    "र्म्": 1131,
    "र्य": 1132,
    "र्या": 1133,
    "र्य्य": 1134,
    "र्य्या": 1135,
    "र्य्य़": 1136,
    "र्य्य़ा": 1137,
    "र्र": 1138,
    "र्रा": 1139,
    "र्रि": 1140,
    "र्ल": 1141,
    "र्लु": 1142,
    "र्लो": 1143,
    "र्व": 1144,
    "र्वा": 1145,
    "र्वि": 1146,
    "र्वे": 1147,
    "र्श": 1148,
    "र्शि": 1149,
    "र्ष": 1150,
    "र्षा": 1151,
    "र्षि": 1152,
    "र्षे": 1153,
    "र्स": 1154,
    "र्सि": 1155,
    "र्सिं": 1156,
    "र्सी": 1157,
    "र्सु": 1158,
    "र्स्": 1159,
    "र्‌": 1160,
    "र॰": 1161,
    "रॱ": 1162,
    "र‍": 1163,
    "ऱ": 1164,
    "ऱि": 1165,
    "ऱु": 1166,
    "ऱै": 1167,
    "ऱ्क": 1168,
    "ऱ्का": 1169,
    "ऱ्कु": 1170,
    "ऱ्के": 1171,
    "ऱ्प": 1172,
    "ऱ्पू": 1173,
    "ऱ्ऱ": 1174,
    "ऱ्ऱा": 1175,
    "ऱ्ऱि": 1176,
    "ऱ्ऱु": 1177,
    "ल": 1178,
    "लं": 1179,
    "ला": 1180,
    "लां": 1181,
    "लि": 1182,
    "लिं": 1183,
    "लिा": 1184,
    "ली": 1185,
    "लु": 1186,
    "लुं": 1187,
    "लू": 1188,
    "लूा्": 1189,
    "लॆ": 1190,
    "लॆं": 1191,
    "ले": 1192,
    "लै": 1193,
    "लॉ": 1194,
    "लो": 1195,
    "लोँ": 1196,
    "लौ": 1197,
    "ल्": 1198,
    "ल्क": 1199,
    "ल्कि": 1200,
    "ल्कै": 1201,
    "ल्क्स्": 1202,
    "ल्गू": 1203,
    "ल्ट": 1204,
    "ल्टि": 1205,
    "ल्टी": 1206,
    "ल्टु": 1207,
    "ल्ट्": 1208,
    "ल्ट्रा": 1209,
    "ल्ड": 1210,
    "ल्डीं": 1211,
    "ल्ड्र": 1212,
    "ल्थ": 1213,
    "ल्दा": 1214,
    "ल्नी": 1215,
    "ल्प": 1216,
    "ल्पी": 1217,
    "ल्पॊ": 1218,
    "ल्फे": 1219,
    "ल्य": 1220,
    "ल्या": 1221,
    "ल्यां": 1222,
    "ल्यु": 1223,
    "ल्ल": 1224,
    "ल्ला": 1225,
    "ल्लि": 1226,
    "ल्ली": 1227,
    "ल्लु": 1228,
    "ल्लू": 1229,
    "ल्लूाि": 1230,
    "ल्लूा्": 1231,
    "ल्लॆ": 1232,
    "ल्ले": 1233,
    "ल्लै": 1234,
    "ल्वि": 1235,
    "ल्वॆ": 1236,
    "ल्वे": 1237,
    "ल्स्": 1238,
    "ल्हा": 1239,
    "ल्हे": 1240,
    "ल्ह्या": 1241,
    "ल्‌": 1242,
    "ल्‍": 1243,
    "ल॰": 1244,
    "लॱ": 1245,
    "ळ": 1246,
    "ळं": 1247,
    "ळा": 1248,
    "ळां": 1249,
    "ळा्": 1250,
    "ळि": 1251,
    "ळी": 1252,
    "ळु": 1253,
    "ळू": 1254,
    "ळॆ": 1255,
    "ळे": 1256,
    "ळै": 1257,
    "ळो": 1258,
    "ळ्": 1259,
    "ळ्अ": 1260,
    "ळ्ट": 1261,
    "ळ्प": 1262,
    "ळ्मि": 1263,
    "ळ्मी": 1264,
    "ळ्या": 1265,
    "ळ्यां": 1266,
    "ळ्ळ": 1267,
    "ळ्ळा": 1268,
    "ळ्ळि": 1269,
    "ळ्ळु": 1270,
    "ऴ": 1271,
    "ऴा": 1272,
    "ऴि": 1273,
    "ऴु": 1274,
    "ऴै": 1275,
    "ऴ्": 1276,
    "ऴ्क": 1277,
    "ऴ्च्": 1278,
    "ऴ्न": 1279,
    "ऴ्ना": 1280,
    "ऴ्वु": 1281,
    "व": 1282,
    "वं": 1283,
    "वः": 1284,
    "व़": 1285,
    "वा": 1286,
    "वां": 1287,
    "वा्": 1288,
    "वा्स्": 1289,
    "वि": 1290,
    "विं": 1291,
    "वि॰": 1292,
    "विॱ": 1293,
    "वी": 1294,
    "वीं": 1295,
    "वु": 1296,
    "वू": 1297,
    "वृ": 1298,
    "वॅ": 1299,
    "वॆ": 1300,
    "वॆं": 1301,
    "वे": 1302,
    "वेा्ल्टु": 1303,
    "वै": 1304,
    "वॉ": 1305,
    "वॊ": 1306,
    "वो": 1307,
    "व्य": 1308,
    "व्या": 1309,
    "व्ह": 1310,
    "व्हि": 1311,
    "व्ही": 1312,
    "व्‌": 1313,
    "व॰": 1314,
    "श": 1315,
    "शं": 1316,
    "शा": 1317,
    "शां": 1318,
    "शाः": 1319,
    "शि": 1320,
    "शी": 1321,
    "शीू": 1322,
    "शु": 1323,
    "शू": 1324,
    "शृ": 1325,
    "शॅ": 1326,
    "शॆ": 1327,
    "शे": 1328,
    "शै": 1329,
    "शो": 1330,
    "श्": 1331,
    "श्च": 1332,
    "श्चि": 1333,
    "श्ते": 1334,
    "श्ब": 1335,
    "श्मा": 1336,
    "श्य": 1337,
    "श्र": 1338,
    "श्रा": 1339,
    "श्री": 1340,
    "श्रु": 1341,
    "श्रे": 1342,
    "श्व": 1343,
    "श्वा": 1344,
    "श्शि": 1345,
    "श्स": 1346,
    "श्य़": 1347,
    "श्॰ी": 1348,
    "श्ॱ": 1349,
    "श्‍": 1350,
    "ष": 1351,
    "षा": 1352,
    "षि": 1353,
    "षी": 1354,
    "षु": 1355,
    "षे": 1356,
    "ष्का": 1357,
    "ष्कृ": 1358,
    "ष्ट": 1359,
    "ष्टा": 1360,
    "ष्टि": 1361,
    "ष्टी": 1362,
    "ष्टु": 1363,
    "ष्ट्र": 1364,
    "ष्ट्रा": 1365,
    "ष्ट्री": 1366,
    "ष्ट्॰": 1367,
    "ष्ट्॰ी": 1368,
    "ष्ठ": 1369,
    "ष्ठा": 1370,
    "ष्ण": 1371,
    "ष्णा": 1372,
    "ष्णू": 1373,
    "ष्ना": 1374,
    "ष्पा": 1375,
    "ष्म": 1376,
    "ष्मॆ": 1377,
    "ष्य": 1378,
    "ष्‍": 1379,
    "षॢ": 1380,
    "स": 1381,
    "सं": 1382,
    "सः": 1383,
    "स़": 1384,
    "स़ा": 1385,
    "स़ि": 1386,
    "सा": 1387,
    "सां": 1388,
    "सि": 1389,
    "सिं": 1390,
    "सि॰": 1391,
    "सी": 1392,
    "सु": 1393,
    "सुँ": 1394,
    "सुं": 1395,
    "सू": 1396,
    "सृ": 1397,
    "सृं": 1398,
    "सॆ": 1399,
    "से": 1400,
    "सें": 1401,
    "से‍": 1402,
    "सै": 1403,
    "सैं": 1404,
    "सो": 1405,
    "सोँ": 1406,
    "सौ": 1407,
    "स्": 1408,
    "स्क": 1409,
    "स्का": 1410,
    "स्कु": 1411,
    "स्कृ": 1412,
    "स्गि": 1413,
    "स्जि": 1414,
    "स्जी": 1415,
    "स्ट": 1416,
    "स्टा": 1417,
    "स्टु": 1418,
    "स्टॆ": 1419,
    "स्टे": 1420,
    "स्टो": 1421,
    "स्ट्": 1422,
    "स्ट्री": 1423,
    "स्ट्रे": 1424,
    "स्त": 1425,
    "स्तं": 1426,
    "स्ता": 1427,
    "स्ति": 1428,
    "स्तु": 1429,
    "स्तू": 1430,
    "स्तृ": 1431,
    "स्तॆ": 1432,
    "स्ते": 1433,
    "स्त्र": 1434,
    "स्त्रा": 1435,
    "स्थ": 1436,
    "स्था": 1437,
    "स्थि": 1438,
    "स्थी": 1439,
    "स्थॆ": 1440,
    "स्थे": 1441,
    "स्थ्य": 1442,
    "स्ध": 1443,
    "स्धा": 1444,
    "स्धॆ": 1445,
    "स्नि": 1446,
    "स्ने": 1447,
    "स्प": 1448,
    "स्पा": 1449,
    "स्पि": 1450,
    "स्पृ": 1451,
    "स्पॆ": 1452,
    "स्पे": 1453,
    "स्फो": 1454,
    "स्ब": 1455,
    "स्बा": 1456,
    "स्म": 1457,
    "स्मा": 1458,
    "स्मृ": 1459,
    "स्य": 1460,
    "स्यः": 1461,
    "स्र": 1462,
    "स्ऱी": 1463,
    "स्री": 1464,
    "स्लि": 1465,
    "स्व": 1466,
    "स्वं": 1467,
    "स्वा": 1468,
    "स्वे": 1469,
    "स्सा": 1470,
    "स्सु": 1471,
    "स्॰": 1472,
    "स्॰ा": 1473,
    "स्ॱ": 1474,
    "स्‌": 1475,
    "स्‍": 1476,
    "स॰": 1477,
    "सॱ": 1478,
    "ह": 1479,
    "हं": 1480,
    "हः": 1481,
    "हा": 1482,
    "हां": 1483,
    "हा‍": 1484,
    "हि": 1485,
    "हिं": 1486,
    "हिः": 1487,
    "हि॰": 1488,
    "ही": 1489,
    "हीं": 1490,
    "हु": 1491,
    "हु॰": 1492,
    "हू": 1493,
    "हृ": 1494,
    "हॆ": 1495,
    "हे": 1496,
    "हें": 1497,
    "है": 1498,
    "है‍": 1499,
    "हॉ": 1500,
    "हॊ": 1501,
    "हो": 1502,
    "ह्न": 1503,
    "ह्म": 1504,
    "ह्या": 1505,
    "ह्रू": 1506,
    "ह॰": 1507,
    "हॱ": 1508,
    "ऽ": 1509,
    "ा": 1510,
    "े": 1511,
    "ॎ": 1512,
    "ॐ": 1513,
    "ज़ो": 1514,
    "ज़॰": 1515,
    "ड़": 1516,
    "ड़ा": 1517,
    "ड़ी": 1518,
    "ड़े": 1519,
    "ड़ै": 1520,
    "ड़ोु": 1521,
    "ड़्ह": 1522,
    "ड़्हे": 1523,
    "ढ़ि": 1524,
    "ढ़ी": 1525,
    "ढ़ो": 1526,
    "फ़": 1527,
    "फ़्ट": 1528,
    "फ़्दु": 1529,
    "य़": 1530,
    "य़ं": 1531,
    "य़ः": 1532,
    "य़़": 1533,
    "य़ा": 1534,
    "य़ां": 1535,
    "य़ि": 1536,
    "य़ी": 1537,
    "य़ु": 1538,
    "य़े": 1539,
    "य़ो": 1540,
    "य़्या": 1541,
    "य़ॗ": 1542,
    "ॠ": 1543,
    "।": 1544,
    "।‍": 1545,
    "॥": 1546,
    "०": 1547,
    "१": 1548,
    "१्को": 1549,
    "१‌": 1550,
    "२": 1551,
    "२़": 1552,
    "२ा": 1553,
    "३": 1554,
    "४": 1555,
    "५": 1556,
    "५ु": 1557,
    "५ो": 1558,
    "६": 1559,
    "७": 1560,
    "८": 1561,
    "९": 1562,
    "॰": 1563,
    "॰ा": 1564,
    "॰ि": 1565,
    "॰िः": 1566,
    "॰ी": 1567,
    "॰ु": 1568,
    "॰ू": 1569,
    "॰े": 1570,
    "॰ो": 1571,
    "॰्थ": 1572,
    "॰्प": 1573,
    "॰्ब": 1574,
    "॰्मा": 1575,
    "॰्य": 1576,
    "॰्य्य": 1577,
    "॰्य्या": 1578,
    "॰्ष": 1579,
    "ॱ": 1580,
    "ॱा": 1581,
    "ॱि": 1582,
    "ॱे": 1583,
    "ॱो": 1584,
    "ॳ": 1585,
    "ॳे": 1586,
    "ॷ": 1587,
    "​": 1588
  },
  "metadata": {
    "tag": "zs_loso_rungA_malayalam",
    "num_graphemes": 1587,
    "space": "shared-abugida-pivot"
  }
}