{
  "grapheme2idx": {
    "<blank>": 0,
    "<unk>": 1,
    " ‌": 2,
    "!": 3,
    "\"": 4,
    "&": 5,
    "'": 6,
    "(": 7,
    ")": 8,
    ",": 9,
    "-": 10,
    "-ा": 11,
    ".": 12,
    "/": 13,
    "0": 14,
    "1": 15,
    "2": 16,
    "3": 17,
    "4": 18,
    "5": 19,
    "6": 20,
    "7": 21,
    "8": 22,
    "9": 23,
    ":": 24,
    "?": 25,
    "A": 26,
    "D": 27,
    "G": 28,
    "H": 29,
    "O": 30,
    "P": 31,
    "V": 32,
    "[": 33,
    "c": 34,
    "|": 35,
    "°": 36,
    "ا": 37,
    "ت": 38,
    "ج": 39,
    "ر": 40,
    "گ": 41,
    "ی": 42,
    "ँ": 43,
    "अ": 44,
    "अं": 45,
    "अि": 46,
    "अ्या": 47,
    "अ॰": 48,
    "आ": 49,
    "आं": 50,
    "आा्": 51,
    "आे": 52,
    "आ्य": 53,
    "आॕ": 54,
    "इ": 55,
    "इं": 56,
    "इ्ट": 57,
    "इ॰": 58,
    "इॱ": 59,
    "ई": 60,
    "ईँ": 61,
    "ईं": 62,
    "उ": 63,
    "उाि": 64,
    "उॱ": 65,
    "ऊ": 66,
    "ऊँ": 67,
    "ऊं": 68,
    "ऋ": 69,
    "ऍ": 70,
    "ऎ": 71,
    "ऎं": 72,
    "ऎ‍": 73,
    "ए": 74,
    "एँ": 75,
    "एा": 76,
    "ऐ": 77,
    "ऐं": 78,
    "ऑ": 79,
    "ऒ": 80,
    "ऒं": 81,
    "ऒाि": 82,
    "ऒा्क्स्": 83,
    "ऒ‌": 84,
    "ओ": 85,
    "ओँ": 86,
    "ओं": 87,
    "ओ्बा": 88,
    "औ": 89,
    "औं": 90,
    "क": 91,
    "कं": 92,
    "कं‌": 93,
    "कः": 94,
    "का": 95,
    "काँ": 96,
    "कां": 97,
    "काुं": 98,
    "काे": 99,
    "का्": 100,
    "का‍": 101,
    "का‍‌": 102,
    "कि": 103,
    "किं": 104,
    "किाि": 105,
    "की": 106,
    "कीे": 107,
    "कु": 108,
    "कुं": 109,
    "कु॰": 110,
    "कू": 111,
    "कृ": 112,
    "कॅ": 113,
    "कॅा": 114,
    "कॆ": 115,
    "कॆं": 116,
    "के": 117,
    "कें": 118,
    "केा": 119,
    "केॆ्टा": 120,
    "केे": 121,
    "कै": 122,
    "कॉ": 123,
    "कॊ": 124,
    "कॊं": 125,
    "कॊॕ": 126,
    "को": 127,
    "कोँ": 128,
    "कों": 129,
    "क्": 130,
    "क्क": 131,
    "क्कं": 132,
    "क्का": 133,
    "क्कि": 134,
    "क्कु": 135,
    "क्कू": 136,
    "क्कॆ": 137,
    "क्के": 138,
    "क्कै": 139,
    "क्कॊ": 140,
    "क्को": 141,
    "क्क्": 142,
    "क्क्‌": 143,
    "क्कॗ": 144,
    "क्ट": 145,
    "क्टो": 146,
    "क्ट्रि": 147,
    "क्ट्रो": 148,
    "क्त": 149,
    "क्ता": 150,
    "क्तां": 151,
    "क्ति": 152,
    "क्तीं": 153,
    "क्तु": 154,
    "क्नो": 155,
    "क्प": 156,
    "क्पे": 157,
    "क्मि": 158,
    "क्य": 159,
    "क्या": 160,
    "क्यू": 161,
    "क्र": 162,
    "क्रं": 163,
    "क्रा": 164,
    "क्रि": 165,
    "क्री": 166,
    "क्रे": 167,
    "क्रै": 168,
    "क्रो": 169,
    "क्ला": 170,
    "क्लि": 171,
    "क्ले": 172,
    "क्ळे": 173,
    "क्व": 174,
    "क्वा": 175,
    "क्वॆ": 176,
    "क्श": 177,
    "क्ष": 178,
    "क्षा": 179,
    "क्षां": 180,
    "क्षि": 181,
    "क्षिं": 182,
    "क्षी": 183,
    "क्षुः": 184,
    "क्षॆ": 185,
    "क्षे": 186,
    "क्षो": 187,
    "क्ष्म": 188,
    "क्ष्मि": 189,
    "क्ष्मी": 190,
    "क्ष्य": 191,
    "क्ष्या": 192,
    "क्स": 193,
    "क्स्": 194,
    "क्य़ा": 195,
    "क्॰": 196,
    "क्॰ा": 197,
    "क्॰े": 198,
    "क्‌": 199,
    "क्‍": 200,
    "क॰": 201,
    "कॱ": 202,
    "क‌": 203,
    "क‍ी": 204,
    "ख": 205,
    "खं": 206,
    "ख़": 207,
    "खा": 208,
    "खाँ": 209,
    "खां": 210,
    "खि": 211,
    "खी": 212,
    "खु": 213,
    "खू": 214,
    "खॆ": 215,
    "खे": 216,
    "खै": 217,
    "खो": 218,
    "ख्त": 219,
    "ख्य": 220,
    "ख्यु": 221,
    "ख्रीः": 222,
    "ग": 223,
    "गं": 224,
    "गा": 225,
    "गां": 226,
    "गि": 227,
    "गि॰": 228,
    "गी": 229,
    "गु": 230,
    "गुं": 231,
    "गू": 232,
    "गृ": 233,
    "गॆ": 234,
    "गॆं": 235,
    "गे": 236,
    "गें": 237,
    "गे्ड": 238,
    "गै": 239,
    "गॊ": 240,
    "गो": 241,
    "गों": 242,
    "गौ": 243,
    "ग्": 244,
    "ग्ग": 245,
    "ग्गि": 246,
    "ग्गॆ": 247,
    "ग्ण": 248,
    "ग्नि": 249,
    "ग्ब": 250,
    "ग्भ": 251,
    "ग्य": 252,
    "ग्या": 253,
    "ग्ये": 254,
    "ग्र": 255,
    "ग्रं": 256,
    "ग्रा": 257,
    "ग्रां": 258,
    "ग्री": 259,
    "ग्रू": 260,
    "ग्रे": 261,
    "ग्ला": 262,
    "ग्वा": 263,
    "ग्ष": 264,
    "ग्स": 265,
    "ग्य़ा": 266,
    "ग्॰ु": 267,
    "ग॰": 268,
    "गॱ": 269,
    "घ": 270,
    "घं": 271,
    "घा": 272,
    "घां": 273,
    "घु": 274,
    "घे": 275,
    "घो": 276,
    "घौ": 277,
    "घ्य": 278,
    "घ्या": 279,
    "घ्र": 280,
    "ङ": 281,
    "ङा": 282,
    "ङि": 283,
    "ङे": 284,
    "ङ्": 285,
    "ङ्क": 286,
    "ङ्का": 287,
    "ङ्कि": 288,
    "ङ्कु": 289,
    "ङ्के": 290,
    "ङ्कै": 291,
    "ङ्को": 292,
    "ङ्क्": 293,
    "ङ्ग": 294,
    "ङ्गा": 295,
    "ङ्गी": 296,
    "ङ्गु": 297,
    "ङ्गे": 298,
    "ङ्गो": 299,
    "ङ्घ": 300,
    "ङ्ङ": 301,
    "ङ्ङा": 302,
    "ङ्ङि": 303,
    "ङ्ङे": 304,
    "ङ्ङों": 305,
    "ङ्ङ्‌": 306,
    "ङ्ट": 307,
    "ङ्त": 308,
    "ङ्ष": 309,
    "ङ्‌": 310,
    "च": 311,
    "चं": 312,
    "चा": 313,
    "चां": 314,
    "चा्": 315,
    "चा्जि": 316,
    "चा्व": 317,
    "चि": 318,
    "चिं": 319,
    "ची": 320,
    "चु": 321,
    "चुे": 322,
    "चू": 323,
    "चॆ": 324,
    "चे": 325,
    "चें": 326,
    "चेा्ऩ्": 327,
    "चै": 328,
    "चॊ": 329,
    "चो": 330,
    "चौ": 331,
    "च्": 332,
    "च्च": 333,
    "च्चं": 334,
    "च्चा": 335,
    "च्चि": 336,
    "च्ची": 337,
    "च्चु": 338,
    "च्चे": 339,
    "च्चेाि": 340,
    "च्च्": 341,
    "च्च्‌": 342,
    "च्छ": 343,
    "च्छा": 344,
    "च्छु": 345,
    "च्छे": 346,
    "च्छ्": 347,
    "च्य": 348,
    "च्या": 349,
    "च॑": 350,
    "च॰": 351,
    "चॱ": 352,
    "छ": 353,
    "छा": 354,
    "छि": 355,
    "छु": 356,
    "छुॱ": 357,
    "छे": 358,
    "छें": 359,
    "छो": 360,
    "छोँ": 361,
    "छ॰": 362,
    "ज": 363,
    "जं": 364,
    "ज़": 365,
    "ज़ी": 366,
    "ज़ु": 367,
    "जा": 368,
    "जि": 369,
    "जिं": 370,
    "जि॰": 371,
    "जिॱ": 372,
    "जी": 373,
    "जु": 374,
    "जुॱ": 375,
    "जू": 376,
    "जॆ": 377,
    "जे": 378,
    "जें": 379,
    "जै": 380,
    "जो": 381,
    "ज्": 382,
    "ज्ञ": 383,
    "ज्ञा": 384,
    "ज्ञी": 385,
    "ज्ब": 386,
    "ज्य": 387,
    "ज्यु": 388,
    "ज्यू": 389,
    "ज्येा": 390,
    "ज्यो": 391,
    "ज्यों": 392,
    "ज्व": 393,
    "ज्सि": 394,
    "ज्य़": 395,
    "ज॰": 396,
    "झ": 397,
    "झा": 398,
    "झाँ": 399,
    "झां": 400,
    "झि": 401,
    "झी": 402,
    "झे": 403,
    "झ॰": 404,
    "ञ": 405,
    "ञा": 406,
    "ञ्च": 407,
    "ञ्चा": 408,
    "ञ्चा्": 409,
    "ञ्चि": 410,
    "ञ्ज": 411,
    "ञ्जा": 412,
    "ञ्जि": 413,
    "ञ्जी": 414,
    "ञ्ञ": 415,
    "ञ्ञि": 416,
    "ञ्ञो": 417,
    "ट": 418,
    "टं": 419,
    "टा": 420,
    "टाा": 421,
    "टि": 422,
    "टिं": 423,
    "टी": 424,
    "टु": 425,
    "टुं": 426,
    "टू": 427,
    "टॆ": 428,
    "टे": 429,
    "टै": 430,
    "टैं": 431,
    "टो": 432,
    "टौ": 433,
    "ट्": 434,
    "ट्चाा्च्च": 435,
    "ट्चि": 436,
    "ट्ट": 437,
    "ट्टं": 438,
    "ट्टा": 439,
    "ट्टि": 440,
    "ट्टी": 441,
    "ट्टु": 442,
    "ट्टूा्पु": 443,
    "ट्टै": 444,
    "ट्टो": 445,
    "ट्ट्": 446,
    "ट्ण": 447,
    "ट्त": 448,
    "ट्न": 449,
    "ट्नं": 450,
    "ट्प": 451,
    "ट्मि": 452,
    "ट्य": 453,
    "ट्यू": 454,
    "ट्र": 455,
    "ट्रा": 456,
    "ट्रि": 457,
    "ट्रॆ": 458,
    "ट्रे": 459,
    "ट्रै": 460,
    "ट्रो": 461,
    "ट्र्या": 462,
    "ट्ल": 463,
    "ट्लु": 464,
    "ट्व": 465,
    "ट्श्री": 466,
    "ट्॰": 467,
    "टॗ": 468,
    "ठ": 469,
    "ठा": 470,
    "ठि": 471,
    "ठि॰": 472,
    "ठी": 473,
    "ठु": 474,
    "ठे": 475,
    "ठें": 476,
    "ठो": 477,
    "ठ्ठ": 478,
    "ड": 479,
    "डः": 480,
    "ड़": 481,
    "ड़ा": 482,
    "ड़ि": 483,
    "ड़ी": 484,
    "ड़े": 485,
    "ड़ौ": 486,
    "डा": 487,
    "डाः": 488,
    "डि": 489,
    "डिं": 490,
    "डी": 491,
    "डु": 492,
    "डू": 493,
    "डॆ": 494,
    "डॆं": 495,
    "डे": 496,
    "डै": 497,
    "डॊ": 498,
    "डो": 499,
    "ड्": 500,
    "ड्क": 501,
    "ड्ड": 502,
    "ड्डा": 503,
    "ड्डि": 504,
    "ड्डु": 505,
    "ड्या": 506,
    "ड्यां": 507,
    "ड्यू": 508,
    "ड्र": 509,
    "ड्रा": 510,
    "ड्रि": 511,
    "ड्री": 512,
    "ड्‌": 513,
    "ड्‍": 514,
    "ढ": 515,
    "ढ़": 516,
    "ढ़ि": 517,
    "ढ़ी": 518,
    "ढि": 519,
    "ढु": 520,
    "ढे": 521,
    "ढे़": 522,
    "ण": 523,
    "णं": 524,
    "ण़": 525,
    "णा": 526,
    "णाः": 527,
    "णि": 528,
    "णी": 529,
    "णीं": 530,
    "णु": 531,
    "णु्": 532,
    "णू": 533,
    "णॆ": 534,
    "णे": 535,
    "णै": 536,
    "णो": 537,
    "ण्": 538,
    "ण्क": 539,
    "ण्का": 540,
    "ण्ट": 541,
    "ण्टं": 542,
    "ण्टा": 543,
    "ण्टि": 544,
    "ण्टी": 545,
    "ण्टु": 546,
    "ण्टे": 547,
    "ण्टै": 548,
    "ण्ट्": 549,
    "ण्ट्स्": 550,
    "ण्ट्‌": 551,
    "ण्ठु": 552,
    "ण्ड": 553,
    "ण्डा": 554,
    "ण्डि": 555,
    "ण्ण": 556,
    "ण्णा": 557,
    "ण्णि": 558,
    "ण्णी": 559,
    "ण्णु": 560,
    "ण्णू": 561,
    "ण्ता": 562,
    "ण्ति": 563,
    "ण्प": 564,
    "ण्पु": 565,
    "ण्मै": 566,
    "ण्य": 567,
    "ण्या": 568,
    "ण‍": 569,
    "त": 570,
    "तं": 571,
    "तः": 572,
    "त़": 573,
    "त़ा": 574,
    "त़ि": 575,
    "ता": 576,
    "ताँ": 577,
    "तां": 578,
    "ता्का": 579,
    "ति": 580,
    "तिं": 581,
    "तिः": 582,
    "तिाि": 583,
    "ती": 584,
    "तीा्": 585,
    "तीा्त्त": 586,
    "तु": 587,
    "तुं": 588,
    "तू": 589,
    "तूा्": 590,
    "तू॰": 591,
    "तृ": 592,
    "तॆ": 593,
    "तॆॆ": 594,
    "ते": 595,
    "तें": 596,
    "तै": 597,
    "तॊ": 598,
    "तो": 599,
    "तों": 600,
    "त्": 601,
    "त्क": 602,
    "त्का": 603,
    "त्कू": 604,
    "त्त": 605,
    "त्ता": 606,
    "त्ति": 607,
    "त्ती": 608,
    "त्तु": 609,
    "त्तू": 610,
    "त्तॆ": 611,
    "त्ते": 612,
    "त्तेा्": 613,
    "त्तै": 614,
    "त्तॊ": 615,
    "त्त्": 616,
    "त्त्य": 617,
    "त्त्व": 618,
    "त्त्‌": 619,
    "त्थ": 620,
    "त्थि": 621,
    "त्न": 622,
    "त्प": 623,
    "त्बे": 624,
    "त्म": 625,
    "त्मा": 626,
    "त्य": 627,
    "त्या": 628,
    "त्यां": 629,
    "त्यु": 630,
    "त्ये": 631,
    "त्र": 632,
    "त्रं": 633,
    "त्रं‌": 634,
    "त्रा": 635,
    "त्रि": 636,
    "त्री": 637,
    "त्रॆ": 638,
    "त्रे": 639,
    "त्रों": 640,
    "त्र्य": 641,
    "त्र्यं": 642,
    "त्व": 643,
    "त्वा": 644,
    "त्वि": 645,
    "त्स": 646,
    "त्सा": 647,
    "त्स्ना": 648,
    "त्य़": 649,
    "त्य़ु": 650,
    "त्य़े": 651,
    "त्॰": 652,
    "त्‌": 653,
    "त्‍": 654,
    "त॰": 655,
    "त‍े": 656,
    "थ": 657,
    "था": 658,
    "थां": 659,
    "थि": 660,
    "थी": 661,
    "थु": 662,
    "थू": 663,
    "थृ": 664,
    "थे": 665,
    "थ्य": 666,
    "द": 667,
    "दा": 668,
    "दां": 669,
    "दि": 670,
    "दिं": 671,
    "दि॰": 672,
    "दी": 673,
    "दु": 674,
    "दुं": 675,
    "दुि": 676,
    "दू": 677,
    "दूं": 678,
    "दृ": 679,
    "दॆ": 680,
    "दे": 681,
    "दें": 682,
    "दै": 683,
    "दॊ": 684,
    "दो": 685,
    "दौ": 686,
    "द्": 687,
    "द्घा": 688,
    "द्ट": 689,
    "द्द": 690,
    "द्दा": 691,
    "द्दि": 692,
    "द्दु": 693,
    "द्दू": 694,
    "द्ध": 695,
    "द्धा": 696,
    "द्धि": 697,
    "द्धी": 698,
    "द्ब": 699,
    "द्बा": 700,
    "द्बि": 701,
    "द्बी": 702,
    "द्बो": 703,
    "द्म": 704,
    "द्मा": 705,
    "द्य": 706,
    "द्या": 707,
    "द्यु": 708,
    "द्यो": 709,
    "द्र": 710,
    "द्रा": 711,
    "द्रि": 712,
    "द्री": 713,
    "द्रु": 714,
    "द्रे": 715,
    "द्रो": 716,
    "द्वा": 717,
    "द्वी": 718,
    "द्शि": 719,
    "द्य़": 720,
    "द्य़ा": 721,
    "द्॰": 722,
    "द्‌": 723,
    "ध": 724,
    "धा": 725,
    "धि": 726,
    "धिि": 727,
    "धी": 728,
    "धीं": 729,
    "धु": 730,
    "धू": 731,
    "धे": 732,
    "धो": 733,
    "ध्दा": 734,
    "ध्दी": 735,
    "ध्ब": 736,
    "ध्य": 737,
    "ध्या": 738,
    "ध्ये": 739,
    "ध्र": 740,
    "ध्व": 741,
    "ध॰": 742,
    "न": 743,
    "नं": 744,
    "नः": 745,
    "ना": 746,
    "नाँ": 747,
    "नां": 748,
    "नाि": 749,
    "ना्": 750,
    "नि": 751,
    "निं": 752,
    "निॕ": 753,
    "नि‍": 754,
    "नी": 755,
    "नीा्": 756,
    "नु": 757,
    "नुं": 758,
    "नू": 759,
    "नू॰": 760,
    "नृ": 761,
    "नॅ": 762,
    "नॆ": 763,
    "ने": 764,
    "नेे": 765,
    "नै": 766,
    "नॊ": 767,
    "नो": 768,
    "नौ": 769,
    "न्": 770,
    "न्कु": 771,
    "न्ट": 772,
    "न्टा": 773,
    "न्ट्र": 774,
    "न्ट्रा": 775,
    "न्ड": 776,
    "न्डि": 777,
    "न्डी": 778,
    "न्डे": 779,
    "न्त": 780,
    "न्ता": 781,
    "न्ति": 782,
    "न्ती": 783,
    "न्तु": 784,
    "न्तू": 785,
    "न्ते": 786,
    "न्तो": 787,
    "न्त्": 788,
    "न्त्य": 789,
    "न्त्र": 790,
    "न्त्रि": 791,
    "न्त्री": 792,
    "न्त्॰ा": 793,
    "न्त्॰ि": 794,
    "न्त्॰ी": 795,
    "न्थ": 796,
    "न्था": 797,
    "न्द": 798,
    "न्दा": 799,
    "न्दि": 800,
    "न्दी": 801,
    "न्दु": 802,
    "न्दे": 803,
    "न्दो": 804,
    "न्द्यो": 805,
    "न्द्र": 806,
    "न्द्रं": 807,
    "न्द्रा": 808,
    "न्द्री": 809,
    "न्द्र्र": 810,
    "न्द्॰": 811,
    "न्द्॰ी": 812,
    "न्द्‌": 813,
    "न्ध": 814,
    "न्धं": 815,
    "न्धि": 816,
    "न्धी": 817,
    "न्ध्यं": 818,
    "न्न": 819,
    "न्ना": 820,
    "न्नि": 821,
    "न्नु": 822,
    "न्नुं": 823,
    "न्नू": 824,
    "न्नै": 825,
    "न्ब": 826,
    "न्म": 827,
    "न्मा": 828,
    "न्मे": 829,
    "न्मो": 830,
    "न्म्या": 831,
    "न्य": 832,
    "न्यः": 833,
    "न्या": 834,
    "न्यु": 835,
    "न्यू": 836,
    "न्ये": 837,
    "न्ऱ": 838,
    "न्ऱॆ": 839,
    "न्ऱ्": 840,
    "न्ल": 841,
    "न्लु": 842,
    "न्व": 843,
    "न्स": 844,
    "न्सा": 845,
    "न्सि": 846,
    "न्सी": 847,
    "न्सू": 848,
    "न्स्": 849,
    "न्स्टि": 850,
    "न्ह": 851,
    "न्हा": 852,
    "न्हां": 853,
    "न्य़": 854,
    "न्य़ा": 855,
    "न्‌": 856,
    "न॰": 857,
    "न॰ः": 858,
    "नॱ": 859,
    "ऩ": 860,
    "ऩा": 861,
    "ऩा्": 862,
    "ऩि": 863,
    "ऩी": 864,
    "ऩु": 865,
    "ऩू": 866,
    "ऩे": 867,
    "ऩै": 868,
    "ऩ्": 869,
    "ऩ्टा्": 870,
    "ऩ्ट्": 871,
    "ऩ्ट्र": 872,
    "ऩ्ऩ": 873,
    "ऩ्ऩा": 874,
    "ऩ्ऩूा्": 875,
    "ऩ्ऩै": 876,
    "ऩ्ऩो": 877,
    "ऩ्पु": 878,
    "ऩ्ऱ": 879,
    "ऩ्ऱि": 880,
    "ऩ्वॆ": 881,
    "प": 882,
    "पं": 883,
    "पा": 884,
    "पाँ": 885,
    "पां": 886,
    "पा्": 887,
    "पि": 888,
    "पिं": 889,
    "पिाि": 890,
    "पिु": 891,
    "पी": 892,
    "पु": 893,
    "पू": 894,
    "पूँ": 895,
    "पॅ": 896,
    "पॆ": 897,
    "पॆं": 898,
    "पे": 899,
    "पेा": 900,
    "पै": 901,
    "पैा": 902,
    "पॉ": 903,
    "पॊ": 904,
    "पॊं": 905,
    "पो": 906,
    "पोा्चु": 907,
    "पौ": 908,
    "प्": 909,
    "प्टॆ": 910,
    "प्ण": 911,
    "प्त": 912,
    "प्तं": 913,
    "प्प": 914,
    "प्पं": 915,
    "प्पा": 916,
    "प्पि": 917,
    "प्पी": 918,
    "प्पु": 919,
    "प्पॆ": 920,
    "प्पे": 921,
    "प्पो": 922,
    "प्प्": 923,
    "प्प्मू": 924,
    "प्या": 925,
    "प्र": 926,
    "प्रा": 927,
    "प्रां": 928,
    "प्राः": 929,
    "प्रि": 930,
    "प्री": 931,
    "प्रीि": 932,
    "प्रॅ": 933,
    "प्रे": 934,
    "प्रॊ": 935,
    "प्रो": 936,
    "प्रौ": 937,
    "प्ला": 938,
    "प्ले": 939,
    "प्लै": 940,
    "प्लॉ": 941,
    "प्स्": 942,
    "प्॰": 943,
    "प्॰ि": 944,
    "प्‍": 945,
    "प॰": 946,
    "प‌": 947,
    "फ": 948,
    "फ़": 949,
    "फा": 950,
    "फां": 951,
    "फि": 952,
    "फी": 953,
    "फु": 954,
    "फॆ": 955,
    "फे": 956,
    "फै": 957,
    "फो": 958,
    "फ्": 959,
    "फ्या": 960,
    "फ्र": 961,
    "फ्री": 962,
    "फ्ल": 963,
    "फ्ला": 964,
    "फ्॰े": 965,
    "ब": 966,
    "बँ": 967,
    "बं": 968,
    "बा": 969,
    "बां": 970,
    "बा‍": 971,
    "बि": 972,
    "बि॰": 973,
    "बी": 974,
    "बु": 975,
    "बू": 976,
    "बृ": 977,
    "बॆ": 978,
    "बॆं": 979,
    "बे": 980,
    "बें": 981,
    "बै": 982,
    "बैं": 983,
    "बॉ": 984,
    "बो": 985,
    "बौ": 986,
    "ब्": 987,
    "ब्थ": 988,
    "ब्द": 989,
    "ब्दी": 990,
    "ब्दु": 991,
    "ब्ध": 992,
    "ब्ब": 993,
    "ब्बा": 994,
    "ब्य": 995,
    "ब्या": 996,
    "ब्यां": 997,
    "ब्यु": 998,
    "ब्र": 999,
    "ब्रा": 1000,
    "ब्रि": 1001,
    "ब्रु": 1002,
    "ब्रे": 1003,
    "ब्ल": 1004,
    "ब्लि": 1005,
    "ब्लु": 1006,
    "ब्लो": 1007,
    "ब्ल्यू": 1008,
    "ब्स": 1009,
    "ब्सि": 1010,
    "ब्य़": 1011,
    "ब्य़ा": 1012,
    "ब्॰ु": 1013,
    "ब्‌": 1014,
    "ब॰": 1015,
    "बॱ": 1016,
    "भ": 1017,
    "भं": 1018,
    "भा": 1019,
    "भां": 1020,
    "भि": 1021,
    "भिं": 1022,
    "भी": 1023,
    "भु": 1024,
    "भू": 1025,
    "भृा": 1026,
    "भे": 1027,
    "भें": 1028,
    "भै": 1029,
    "भो": 1030,
    "भ्या": 1031,
    "भ्र": 1032,
    "भ॰": 1033,
    "म": 1034,
    "मं": 1035,
    "मः": 1036,
    "मा": 1037,
    "मां": 1038,
    "मााि": 1039,
    "मा‍": 1040,
    "मि": 1041,
    "मी": 1042,
    "मु": 1043,
    "मुं": 1044,
    "मुॱ": 1045,
    "मू": 1046,
    "मूा्त्ति": 1047,
    "मृ": 1048,
    "मॆ": 1049,
    "मे": 1050,
    "में": 1051,
    "मै": 1052,
    "मैं": 1053,
    "मैा": 1054,
    "मॊ": 1055,
    "मो": 1056,
    "मों": 1057,
    "मौ": 1058,
    "म्": 1059,
    "म्A": 1060,
    "म्ः": 1061,
    "म्का": 1062,
    "म्के": 1063,
    "म्ग्र": 1064,
    "म्प": 1065,
    "म्पा": 1066,
    "म्पि": 1067,
    "म्पु": 1068,
    "म्पू": 1069,
    "म्पे": 1070,
    "म्पो": 1071,
    "म्प्": 1072,
    "म्प्य": 1073,
    "म्प्यु": 1074,
    "म्प्र": 1075,
    "म्प्वा": 1076,
    "म्प्॰": 1077,
    "म्ब": 1078,
    "म्बा": 1079,
    "म्बि": 1080,
    "म्बे": 1081,
    "म्ब्न": 1082,
    "म्भ": 1083,
    "म्भा": 1084,
    "म्भु": 1085,
    "म्म": 1086,
    "म्मा": 1087,
    "म्मि": 1088,
    "म्मु": 1089,
    "म्मे": 1090,
    "म्य": 1091,
    "म्या": 1092,
    "म्यां": 1093,
    "म्यु": 1094,
    "म्यू": 1095,
    "म्र": 1096,
    "म्रि": 1097,
    "म्श": 1098,
    "म्ह": 1099,
    "म्ही": 1100,
    "म्य़": 1101,
    "म्य़ो": 1102,
    "म्॰ा": 1103,
    "मॖ": 1104,
    "म॰": 1105,
    "मॱ": 1106,
    "य": 1107,
    "यं": 1108,
    "य़": 1109,
    "य़ा": 1110,
    "य़े": 1111,
    "या": 1112,
    "यां": 1113,
    "याा्": 1114,
    "याा्पे": 1115,
    "या‍": 1116,
    "यि": 1117,
    "यिाि": 1118,
    "यी": 1119,
    "यु": 1120,
    "युं": 1121,
    "यू": 1122,
    "यॆ": 1123,
    "ये": 1124,
    "यें": 1125,
    "यै": 1126,
    "यॊ": 1127,
    "यो": 1128,
    "यों": 1129,
    "य्": 1130,
    "य्क्कां": 1131,
    "य्क्कु": 1132,
    "य्क्क्": 1133,
    "य्त": 1134,
    "य्न्त": 1135,
    "य्भ": 1136,
    "य्म": 1137,
    "य्मा": 1138,
    "य्य": 1139,
    "य्यु": 1140,
    "य्यो": 1141,
    "य्वु": 1142,
    "य्स्री": 1143,
    "य्‌": 1144,
    "र": 1145,
    "रं": 1146,
    "ऱ": 1147,
    "रा": 1148,
    "रां": 1149,
    "राा्": 1150,
    "रा्": 1151,
    "रि": 1152,
    "रि॰": 1153,
    "री": 1154,
    "रीं": 1155,
    "रु": 1156,
    "रुं": 1157,
    "रु‍": 1158,
    "रू": 1159,
    "रॆ": 1160,
    "रॆं": 1161,
    "रे": 1162,
    "रें": 1163,
    "रै": 1164,
    "रॉँ": 1165,
    "रॊ": 1166,
    "रो": 1167,
    "र्": 1168,
    "र्ऎ": 1169,
    "र्क": 1170,
    "र्का": 1171,
    "र्कि": 1172,
    "र्किं": 1173,
    "र्कॆ": 1174,
    "र्के": 1175,
    "र्कॊं": 1176,
    "र्ग": 1177,
    "र्गा": 1178,
    "र्गि": 1179,
    "र्च": 1180,
    "र्चा": 1181,
    "र्चि": 1182,
    "र्चू": 1183,
    "र्च्चि": 1184,
    "र्ज": 1185,
    "र्ज़": 1186,
    "र्जा": 1187,
    "र्जि": 1188,
    "र्जी": 1189,
    "र्ट": 1190,
    "र्टि": 1191,
    "र्टी": 1192,
    "र्ट्": 1193,
    "र्ट्स्": 1194,
    "र्ड": 1195,
    "र्डी": 1196,
    "र्डॆ": 1197,
    "र्ड्‌": 1198,
    "र्ण": 1199,
    "र्णा": 1200,
    "र्णि": 1201,
    "र्णी": 1202,
    "र्णो": 1203,
    "र्त": 1204,
    "र्ति": 1205,
    "र्ती": 1206,
    "र्तु": 1207,
    "र्ते": 1208,
    "र्त्त": 1209,
    "र्त्ता": 1210,
    "र्थ": 1211,
    "र्थं": 1212,
    "र्थि": 1213,
    "र्द": 1214,
    "र्दि": 1215,
    "र्दे": 1216,
    "र्दॊ": 1217,
    "र्द्": 1218,
    "र्ध": 1219,
    "र्न": 1220,
    "र्ना": 1221,
    "र्नी": 1222,
    "र्प": 1223,
    "र्पा": 1224,
    "र्पे": 1225,
    "र्पै": 1226,
    "र्पॊ": 1227,
    "र्पो": 1228,
    "र्फे": 1229,
    "र्ब": 1230,
    "र्बा": 1231,
    "र्बि": 1232,
    "र्बो": 1233,
    "र्ब्ब": 1234,
    "र्भ": 1235,
    "र्भी": 1236,
    "र्म": 1237,
    "र्मा": 1238,
    "र्मि": 1239,
    "र्मी": 1240,
    "र्मु": 1241,
    "र्मे": 1242,
    "र्य": 1243,
    "र्या": 1244,
    "र्य्य": 1245,
    "र्य्या": 1246,
    "र्य्य़": 1247,
    "र्य्य़ा": 1248,
    "र्र": 1249,
    "र्रा": 1250,
    "र्रि": 1251,
    "र्ल": 1252,
    "र्लु": 1253,
    "र्लो": 1254,
    "र्व": 1255,
    "र्वा": 1256,
    "र्वि": 1257,
    "र्वे": 1258,
    "र्श": 1259,
    "र्शि": 1260,
    "र्ष": 1261,
    "र्षा": 1262,
    "र्षि": 1263,
    "र्षे": 1264,
    "र्स": 1265,
    "र्सि": 1266,
    "र्सिं": 1267,
    "र्सी": 1268,
    "र्सु": 1269,
    "र्स्": 1270,
    "र॰": 1271,
    "रॱ": 1272,
    "र‌": 1273,
    "र‍": 1274,
    "ऱ": 1275,
    "ऱा": 1276,
    "ऱि": 1277,
    "ऱिं": 1278,
    "ऱु": 1279,
    "ऱुं": 1280,
    "ऱू": 1281,
    "ऱॆ": 1282,
    "ऱे": 1283,
    "ऱै": 1284,
    "ऱॊ": 1285,
    "ऱो": 1286,
    "ऱ्": 1287,
    "ऱ्क": 1288,
    "ऱ्का": 1289,
    "ऱ्कु": 1290,
    "ऱ्के": 1291,
    "ऱ्प": 1292,
    "ऱ्पू": 1293,
    "ऱ्ऱ": 1294,
    "ऱ्ऱं": 1295,
    "ऱ्ऱा": 1296,
    "ऱ्ऱि": 1297,
    "ऱ्ऱी": 1298,
    "ऱ्ऱु": 1299,
    "ऱ्ऱे": 1300,
    "ऱ्ऱ्": 1301,
    "ऱ्ऱ्यू": 1302,
    "ल": 1303,
    "लं": 1304,
    "ला": 1305,
    "लां": 1306,
    "लि": 1307,
    "लिं": 1308,
    "लिा": 1309,
    "ली": 1310,
    "लु": 1311,
    "लुं": 1312,
    "लू": 1313,
    "लूा्": 1314,
    "लॆ": 1315,
    "लॆं": 1316,
    "ले": 1317,
    "लै": 1318,
    "लॉ": 1319,
    "लो": 1320,
    "लोँ": 1321,
    "लौ": 1322,
    "ल्": 1323,
    "ल्क": 1324,
    "ल्कै": 1325,
    "ल्क्स्": 1326,
    "ल्गू": 1327,
    "ल्ट": 1328,
    "ल्टि": 1329,
    "ल्टी": 1330,
    "ल्टु": 1331,
    "ल्ट्": 1332,
    "ल्ट्रा": 1333,
    "ल्ड": 1334,
    "ल्डीं": 1335,
    "ल्ड्र": 1336,
    "ल्थ": 1337,
    "ल्दा": 1338,
    "ल्नी": 1339,
    "ल्प": 1340,
    "ल्पी": 1341,
    "ल्पॊ": 1342,
    "ल्फे": 1343,
    "ल्य": 1344,
    "ल्या": 1345,
    "ल्यां": 1346,
    "ल्यु": 1347,
    "ल्यू": 1348,
    "ल्ल": 1349,
    "ल्लं": 1350,
    "ल्ला": 1351,
    "ल्लि": 1352,
    "ल्ली": 1353,
    "ल्लु": 1354,
    "ल्लू": 1355,
    "ल्लूाि": 1356,
    "ल्लूा्": 1357,
    "ल्लॆ": 1358,
    "ल्ले": 1359,
    "ल्लै": 1360,
    "ल्ल्": 1361,
    "ल्ल्‌": 1362,
    "ल्वि": 1363,
    "ल्वे": 1364,
    "ल्स्": 1365,
    "ल्हा": 1366,
    "ल्हे": 1367,
    "ल्ह्या": 1368,
    "ल्‍": 1369,
    "ल॰": 1370,
    "लॱ": 1371,
    "ळ": 1372,
    "ळं": 1373,
    "ळा": 1374,
    "ळां": 1375,
    "ळा्": 1376,
    "ळि": 1377,
    "ळिं": 1378,
    "ळी": 1379,
    "ळु": 1380,
    "ळू": 1381,
    "ळॆ": 1382,
    "ळे": 1383,
    "ळै": 1384,
    "ळो": 1385,
    "ळ्": 1386,
    "ळ्अ": 1387,
    "ळ्ट": 1388,
    "ळ्प": 1389,
    "ळ्मि": 1390,
    "ळ्मी": 1391,
    "ळ्या": 1392,
    "ळ्यां": 1393,
    "ळ्ळ": 1394,
    "ळ्ळा": 1395,
    "ळ्ळि": 1396,
    "ळ्ळी": 1397,
    "ळ्ळु": 1398,
    "ळ्ळे": 1399,
    "ळ‍": 1400,
    "ऴ": 1401,
    "ऴा": 1402,
    "ऴि": 1403,
    "ऴि‌": 1404,
    "ऴु": 1405,
    "ऴॆ": 1406,
    "ऴै": 1407,
    "ऴ्": 1408,
    "ऴ्क": 1409,
    "ऴ्च्": 1410,
    "ऴ्त्त": 1411,
    "ऴ्न": 1412,
    "ऴ्ना": 1413,
    "ऴ्वु": 1414,
    "ऴ्स्": 1415,
    "ऴ्‌": 1416,
    "व": 1417,
    "वं": 1418,
    "वः": 1419,
    "व़": 1420,
    "वा": 1421,
    "वां": 1422,
    "वा्": 1423,
    "वा्स्": 1424,
    "वि": 1425,
    "विं": 1426,
    "वि॰": 1427,
    "विॱ": 1428,
    "वी": 1429,
    "वीं": 1430,
    "वु": 1431,
    "वुं": 1432,
    "वू": 1433,
    "वृ": 1434,
    "वॅ": 1435,
    "वॆ": 1436,
    "वॆं": 1437,
    "वे": 1438,
    "वेा्ल्टु": 1439,
    "वै": 1440,
    "वॉ": 1441,
    "वॊ": 1442,
    "वो": 1443,
    "व्": 1444,
    "व्य": 1445,
    "व्या": 1446,
    "व्व": 1447,
    "व्वं": 1448,
    "व्वि": 1449,
    "व्वी": 1450,
    "व्वू": 1451,
    "व्वे": 1452,
    "व्ह": 1453,
    "व्हि": 1454,
    "व्ही": 1455,
    "व्‌": 1456,
    "व॰": 1457,
    "श": 1458,
    "शं": 1459,
    "शा": 1460,
    "शां": 1461,
    "शाः": 1462,
    "शि": 1463,
    "शी": 1464,
    "शीू": 1465,
    "शु": 1466,
    "शू": 1467,
    "शृ": 1468,
    "शॅ": 1469,
    "शॆ": 1470,
    "शे": 1471,
    "शै": 1472,
    "शो": 1473,
    "शौ": 1474,
    "श्": 1475,
    "श्च": 1476,
    "श्चि": 1477,
    "श्ते": 1478,
    "श्ब": 1479,
    "श्मा": 1480,
    "श्य": 1481,
    "श्र": 1482,
    "श्रा": 1483,
    "श्री": 1484,
    "श्रु": 1485,
    "श्रे": 1486,
    "श्ले": 1487,
    "श्व": 1488,
    "श्वा": 1489,
    "श्श": 1490,
    "श्शि": 1491,
    "श्शे": 1492,
    "श्ष": 1493,
    "श्स": 1494,
    "श्य़": 1495,
    "श्॰ी": 1496,
    "श्ॱ": 1497,
    "श्‍": 1498,
    "शॗ": 1499,
    "ष": 1500,
    "षं": 1501,
    "षा": 1502,
    "षि": 1503,
    "षी": 1504,
    "षु": 1505,
    "षू": 1506,
    "षे": 1507,
    "ष्": 1508,
    "ष्का": 1509,
    "ष्कृ": 1510,
    "ष्क्": 1511,
    "ष्ट": 1512,
    "ष्टा": 1513,
    "ष्टि": 1514,
    "ष्टी": 1515,
    "ष्टु": 1516,
    "ष्ट्र": 1517,
    "ष्ट्रा": 1518,
    "ष्ट्री": 1519,
    "ष्ट्॰": 1520,
    "ष्ट्॰ी": 1521,
    "ष्ठ": 1522,
    "ष्ठा": 1523,
    "ष्ण": 1524,
    "ष्णा": 1525,
    "ष्णू": 1526,
    "ष्ना": 1527,
    "ष्पा": 1528,
    "ष्म": 1529,
    "ष्मॆ": 1530,
    "ष्य": 1531,
    "ष्यं": 1532,
    "ष्‌": 1533,
    "ष्‍": 1534,
    "स": 1535,
    "सं": 1536,
    "सः": 1537,
    "स़": 1538,
    "स़ा": 1539,
    "स़ि": 1540,
    "सा": 1541,
    "सां": 1542,
    "सि": 1543,
    "सिं": 1544,
    "सि॰": 1545,
    "सी": 1546,
    "सु": 1547,
    "सुँ": 1548,
    "सुं": 1549,
    "सू": 1550,
    "सृ": 1551,
    "सृं": 1552,
    "सॆ": 1553,
    "सॆं": 1554,
    "से": 1555,
    "सें": 1556,
    "से‍": 1557,
    "सै": 1558,
    "सैं": 1559,
    "सॊ": 1560,
    "सो": 1561,
    "सोँ": 1562,
    "सौ": 1563,
    "स्": 1564,
    "स्क": 1565,
    "स्का": 1566,
    "स्कु": 1567,
    "स्कृ": 1568,
    "स्गि": 1569,
    "स्जि": 1570,
    "स्जी": 1571,
    "स्ट": 1572,
    "स्टा": 1573,
    "स्टि": 1574,
    "स्टु": 1575,
    "स्टॆ": 1576,
    "स्टे": 1577,
    "स्टो": 1578,
    "स्ट्": 1579,
    "स्ट्री": 1580,
    "स्ट्रे": 1581,
    "स्ड": 1582,
    "स्त": 1583,
    "स्तं": 1584,
    "स्ता": 1585,
    "स्ति": 1586,
    "स्तु": 1587,
    "स्तू": 1588,
    "स्तृ": 1589,
    "स्तॆ": 1590,
    "स्ते": 1591,
    "स्त्र": 1592,
    "स्त्रा": 1593,
    "स्थ": 1594,
    "स्था": 1595,
    "स्थि": 1596,
    "स्थी": 1597,
    "स्थॆ": 1598,
    "स्थे": 1599,
    "स्थ्य": 1600,
    "स्दु": 1601,
    "स्ध": 1602,
    "स्धा": 1603,
    "स्नि": 1604,
    "स्ने": 1605,
    "स्प": 1606,
    "स्पा": 1607,
    "स्पि": 1608,
    "स्पृ": 1609,
    "स्पॆ": 1610,
    "स्पे": 1611,
    "स्प्पि": 1612,
    "स्फो": 1613,
    "स्ब": 1614,
    "स्बा": 1615,
    "स्भा": 1616,
    "स्म": 1617,
    "स्मा": 1618,
    "स्मृ": 1619,
    "स्य": 1620,
    "स्यः": 1621,
    "स्र": 1622,
    "स्ऱी": 1623,
    "स्री": 1624,
    "स्ऱ्ऱा": 1625,
    "स्ऱ्ऱि": 1626,
    "स्ऱ्ऱु": 1627,
    "स्ऱ्ऱे": 1628,
    "स्ऱ्ऱै": 1629,
    "स्ऱ्ऱ्": 1630,
    "स्लि": 1631,
    "स्व": 1632,
    "स्वं": 1633,
    "स्वा": 1634,
    "स्वे": 1635,
    "स्सा": 1636,
    "स्सु": 1637,
    "स्स्": 1638,
    "स्स्मा": 1639,
    "स्स्‌": 1640,
    "स्ह": 1641,
    "स्॰": 1642,
    "स्॰ा": 1643,
    "स्ॱ": 1644,
    "स्‌": 1645,
    "स्‍": 1646,
    "स॰": 1647,
    "सॱ": 1648,
    "ह": 1649,
    "हं": 1650,
    "हः": 1651,
    "हा": 1652,
    "हां": 1653,
    "हा‍": 1654,
    "हि": 1655,
    "हिं": 1656,
    "हिः": 1657,
    "हि॰": 1658,
    "ही": 1659,
    "हीं": 1660,
    "हु": 1661,
    "हु॰": 1662,
    "हू": 1663,
    "हृ": 1664,
    "हॆ": 1665,
    "हे": 1666,
    "हें": 1667,
    "है": 1668,
    "है‍": 1669,
    "हॉ": 1670,
    "हॊ": 1671,
    "हो": 1672,
    "ह्दि": 1673,
    "ह्म": 1674,
    "ह्य": 1675,
    "ह्या": 1676,
    "ह्रू": 1677,
    "ह॰": 1678,
    "हॱ": 1679,
    "ऽ": 1680,
    "ा": 1681,
    "े": 1682,
    "ॎ": 1683,
    "ॐ": 1684,
    "ज़ो": 1685,
    "ज़॰": 1686,
    "ड़": 1687,
    "ड़ा": 1688,
    "ड़ी": 1689,
    "ड़े": 1690,
    "ड़ै": 1691,
    "ड़ोु": 1692,
    "ड़्ह": 1693,
    "ड़्हे": 1694,
    "ढ़ि": 1695,
    "ढ़ी": 1696,
    "ढ़ो": 1697,
    "फ़": 1698,
    "फ़्ट": 1699,
    "फ़्दु": 1700,
    "य़": 1701,
    "य़ं": 1702,
    "य़ः": 1703,
    "य़़": 1704,
    "य़ा": 1705,
    "य़ां": 1706,
    "य़ि": 1707,
    "य़ी": 1708,
    "य़ु": 1709,
    "य़े": 1710,
    "य़ो": 1711,
    "य़्या": 1712,
    "य़ॗ": 1713,
    "ॠ": 1714,
    "।": 1715,
    "।‍": 1716,
    "॥": 1717,
    "०": 1718,
    "१": 1719,
    "१्को": 1720,
    "१‌": 1721,
    "२": 1722,
    "२़": 1723,
    "२ा": 1724,
    "३": 1725,
    "४": 1726,
    "५": 1727,
    "५ु": 1728,
    "५ो": 1729,
    "६": 1730,
    "७": 1731,
    "८": 1732,
    "९": 1733,
    "॰": 1734,
    "॰ा": 1735,
    "॰ि": 1736,
    "॰िः": 1737,
    "॰ी": 1738,
    "॰ु": 1739,
    "॰ू": 1740,
    "॰े": 1741,
    "॰ो": 1742,
    "॰्थ": 1743,
    "॰्प": 1744,
    "॰्ब": 1745,
    "॰्मा": 1746,
    "॰्य": 1747,
    "॰्य्य": 1748,
    "॰्य्या": 1749,
    "॰्ष": 1750,
    "ॱ": 1751,
    "ॱा": 1752,
    "ॱि": 1753,
    "ॱे": 1754,
    "ॱो": 1755,
    "ॳ": 1756,
    "ॳे": 1757,
    "ॷ": 1758,
    "ॺ": 1759,
    "ॺ‌": 1760,
    "ॺ‍": 1761,
    "ॻ": 1762,
    "ॻ्ऱॆ": 1763,
    "ॻ्ऱ्": 1764,
    "ॻ‌": 1765,
    "ॻ‌‌": 1766,
    "ॻ‍": 1767,
    "ॼ": 1768,
    "ॼ‌": 1769,
    "ॼ‍‍": 1770,
    "ॽ": 1771,
    "ॽ‌": 1772,
    "ॽ‍": 1773,
    "ॾ": 1774,
    "ॾ‌": 1775,
    "ॾ‌‌": 1776,
    "​": 1777
  },
  "metadata": {
    "tag": "zs_scale810_kannada",
    "num_graphemes": 1776,
    "space": "shared-abugida-pivot"
  }
}