{
  "grapheme2idx": {
    "<blank>": 0,
    "<unk>": 1,
    " ‌": 2,
    "!": 3,
    "\"": 4,
    "&": 5,
    "'": 6,
    "(": 7,
    ")": 8,
    ",": 9,
    "-": 10,
    "-ा": 11,
    ".": 12,
    "/": 13,
    "0": 14,
    "1": 15,
    "2": 16,
    "3": 17,
    "4": 18,
    "5": 19,
    "6": 20,
    "7": 21,
    "8": 22,
    "9": 23,
    ":": 24,
    ";": 25,
    "?": 26,
    "A": 27,
    "D": 28,
    "F": 29,
    "G": 30,
    "H": 31,
    "I": 32,
    "L": 33,
    "O": 34,
    "P": 35,
    "V": 36,
    "Y": 37,
    "[": 38,
    "c": 39,
    "|": 40,
    "°": 41,
    "ا": 42,
    "ت": 43,
    "ج": 44,
    "ر": 45,
    "گ": 46,
    "ی": 47,
    "ँ": 48,
    "अ": 49,
    "अं": 50,
    "अि": 51,
    "अ्या": 52,
    "अ॰": 53,
    "आ": 54,
    "आं": 55,
    "आा्": 56,
    "आे": 57,
    "आॕ": 58,
    "आ‌": 59,
    "इ": 60,
    "इं": 61,
    "इ्ट": 62,
    "इ॰": 63,
    "इॱ": 64,
    "ई": 65,
    "ईँ": 66,
    "ईं": 67,
    "उ": 68,
    "उाि": 69,
    "उॱ": 70,
    "ऊ": 71,
    "ऊँ": 72,
    "ऊं": 73,
    "ऋ": 74,
    "ऍ": 75,
    "ऎ": 76,
    "ऎं": 77,
    "ऎ‍": 78,
    "ए": 79,
    "एँ": 80,
    "एा": 81,
    "ऐ": 82,
    "ऐं": 83,
    "ऑ": 84,
    "ऒ": 85,
    "ऒं": 86,
    "ऒाि": 87,
    "ऒा्क्स्": 88,
    "ऒ‌": 89,
    "ओ": 90,
    "ओँ": 91,
    "ओं": 92,
    "ओ्बा": 93,
    "औ": 94,
    "औं": 95,
    "क": 96,
    "कं": 97,
    "कं‌": 98,
    "कः": 99,
    "का": 100,
    "काँ": 101,
    "कां": 102,
    "काुं": 103,
    "काे": 104,
    "का्": 105,
    "का‍": 106,
    "का‍‌": 107,
    "कि": 108,
    "किं": 109,
    "किाि": 110,
    "की": 111,
    "कीे": 112,
    "कु": 113,
    "कुं": 114,
    "कु॰": 115,
    "कू": 116,
    "कृ": 117,
    "कॅ": 118,
    "कॅा": 119,
    "कॆ": 120,
    "कॆं": 121,
    "के": 122,
    "कें": 123,
    "केा": 124,
    "केॆ्टा": 125,
    "केे": 126,
    "कै": 127,
    "कॉ": 128,
    "कॊ": 129,
    "कॊं": 130,
    "को": 131,
    "कोँ": 132,
    "कों": 133,
    "कों‌": 134,
    "क्": 135,
    "क्क": 136,
    "क्कं": 137,
    "क्का": 138,
    "क्कां": 139,
    "क्कि": 140,
    "क्की": 141,
    "क्कु": 142,
    "क्कुं": 143,
    "क्कू": 144,
    "क्कॆ": 145,
    "क्के": 146,
    "क्कै": 147,
    "क्कॊ": 148,
    "क्को": 149,
    "क्क्": 150,
    "क्क्स्": 151,
    "क्क्‌": 152,
    "क्कॗ": 153,
    "क्ट": 154,
    "क्टो": 155,
    "क्ट्": 156,
    "क्ट्रि": 157,
    "क्ट्रे": 158,
    "क्ट्रो": 159,
    "क्त": 160,
    "क्तां": 161,
    "क्ति": 162,
    "क्तीं": 163,
    "क्तु": 164,
    "क्नो": 165,
    "क्प": 166,
    "क्पे": 167,
    "क्मि": 168,
    "क्य": 169,
    "क्या": 170,
    "क्यू": 171,
    "क्र": 172,
    "क्रं": 173,
    "क्रा": 174,
    "क्रि": 175,
    "क्री": 176,
    "क्रे": 177,
    "क्रै": 178,
    "क्रो": 179,
    "क्ल": 180,
    "क्ला": 181,
    "क्लि": 182,
    "क्ळे": 183,
    "क्व": 184,
    "क्वा": 185,
    "क्वॆ": 186,
    "क्वे": 187,
    "क्श": 188,
    "क्ष": 189,
    "क्षा": 190,
    "क्षां": 191,
    "क्षि": 192,
    "क्षिं": 193,
    "क्षी": 194,
    "क्षुः": 195,
    "क्षे": 196,
    "क्षो": 197,
    "क्ष्म": 198,
    "क्ष्मि": 199,
    "क्ष्मी": 200,
    "क्ष्य": 201,
    "क्स": 202,
    "क्सि": 203,
    "क्स्": 204,
    "क्य़ा": 205,
    "क्॰": 206,
    "क्॰ा": 207,
    "क्॰े": 208,
    "क्‌": 209,
    "क्‍": 210,
    "कॗ": 211,
    "क॰": 212,
    "कॱ": 213,
    "क‌": 214,
    "क‍ी": 215,
    "ख": 216,
    "खं": 217,
    "ख़": 218,
    "खा": 219,
    "खाँ": 220,
    "खां": 221,
    "खा‍": 222,
    "खि": 223,
    "खी": 224,
    "खु": 225,
    "खू": 226,
    "खॆ": 227,
    "खे": 228,
    "खै": 229,
    "खो": 230,
    "ख्त": 231,
    "ख्य": 232,
    "ख्यु": 233,
    "ख्रीः": 234,
    "ग": 235,
    "गं": 236,
    "गा": 237,
    "गां": 238,
    "गि": 239,
    "गि॰": 240,
    "गी": 241,
    "गु": 242,
    "गुं": 243,
    "गू": 244,
    "गृ": 245,
    "गॆ": 246,
    "गॆं": 247,
    "गे": 248,
    "गे्ड": 249,
    "गै": 250,
    "गॊ": 251,
    "गो": 252,
    "गों": 253,
    "गौ": 254,
    "ग्": 255,
    "ग्ग": 256,
    "ग्गा": 257,
    "ग्गि": 258,
    "ग्गॆ": 259,
    "ग्ण": 260,
    "ग्नि": 261,
    "ग्ब": 262,
    "ग्भ": 263,
    "ग्य": 264,
    "ग्या": 265,
    "ग्ये": 266,
    "ग्र": 267,
    "ग्रं": 268,
    "ग्रा": 269,
    "ग्रां": 270,
    "ग्रि": 271,
    "ग्री": 272,
    "ग्रू": 273,
    "ग्रे": 274,
    "ग्रो": 275,
    "ग्ला": 276,
    "ग्ली": 277,
    "ग्वा": 278,
    "ग्ष": 279,
    "ग्स": 280,
    "ग्य़ा": 281,
    "ग्॰ु": 282,
    "ग्‌": 283,
    "ग॰": 284,
    "गॱ": 285,
    "घ": 286,
    "घं": 287,
    "घा": 288,
    "घां": 289,
    "घु": 290,
    "घे": 291,
    "घो": 292,
    "घौ": 293,
    "घ्य": 294,
    "घ्या": 295,
    "घ्र": 296,
    "ङ": 297,
    "ङा": 298,
    "ङि": 299,
    "ङे": 300,
    "ङ्": 301,
    "ङ्क": 302,
    "ङ्का": 303,
    "ङ्कि": 304,
    "ङ्कु": 305,
    "ङ्के": 306,
    "ङ्कै": 307,
    "ङ्को": 308,
    "ङ्क्": 309,
    "ङ्क्स्": 310,
    "ङ्ग": 311,
    "ङ्गा": 312,
    "ङ्गी": 313,
    "ङ्गु": 314,
    "ङ्गे": 315,
    "ङ्गो": 316,
    "ङ्घ": 317,
    "ङ्ङ": 318,
    "ङ्ङा": 319,
    "ङ्ङि": 320,
    "ङ्ङे": 321,
    "ङ्ङो": 322,
    "ङ्ङों": 323,
    "ङ्ङ्‌": 324,
    "ङ्ट": 325,
    "ङ्त": 326,
    "ङ्ष": 327,
    "ङ्‌": 328,
    "च": 329,
    "चं": 330,
    "चा": 331,
    "चां": 332,
    "चा्": 333,
    "चा्जि": 334,
    "चा्व": 335,
    "चि": 336,
    "चिं": 337,
    "ची": 338,
    "चु": 339,
    "चुे": 340,
    "चू": 341,
    "चॆ": 342,
    "चे": 343,
    "चें": 344,
    "चेा्ऩ्": 345,
    "चै": 346,
    "चॊ": 347,
    "चो": 348,
    "चौ": 349,
    "च्": 350,
    "च्च": 351,
    "च्चं": 352,
    "च्चा": 353,
    "च्चि": 354,
    "च्ची": 355,
    "च्चु": 356,
    "च्चे": 357,
    "च्चेाि": 358,
    "च्च्": 359,
    "च्च्‌": 360,
    "च्छ": 361,
    "च्छा": 362,
    "च्छु": 363,
    "च्छे": 364,
    "च्छ्": 365,
    "च्ट": 366,
    "च्य": 367,
    "च्या": 368,
    "च्यु": 369,
    "च॑": 370,
    "च॰": 371,
    "चॱ": 372,
    "छ": 373,
    "छा": 374,
    "छि": 375,
    "छु": 376,
    "छुॱ": 377,
    "छे": 378,
    "छें": 379,
    "छो": 380,
    "छोँ": 381,
    "छ॰": 382,
    "ज": 383,
    "जं": 384,
    "ज़": 385,
    "ज़ी": 386,
    "ज़ु": 387,
    "जा": 388,
    "जि": 389,
    "जिं": 390,
    "जि॰": 391,
    "जिॱ": 392,
    "जी": 393,
    "जु": 394,
    "जुॱ": 395,
    "जू": 396,
    "जॆ": 397,
    "जे": 398,
    "जें": 399,
    "जै": 400,
    "जो": 401,
    "ज्": 402,
    "ज्ज": 403,
    "ज्जं": 404,
    "ज्ज्": 405,
    "ज्ञ": 406,
    "ज्ञं": 407,
    "ज्ञा": 408,
    "ज्ञी": 409,
    "ज्ब": 410,
    "ज्य": 411,
    "ज्यु": 412,
    "ज्यू": 413,
    "ज्येा": 414,
    "ज्यो": 415,
    "ज्यों": 416,
    "ज्व": 417,
    "ज्सि": 418,
    "ज्य़": 419,
    "ज्‌": 420,
    "ज॰": 421,
    "झ": 422,
    "झा": 423,
    "झाँ": 424,
    "झां": 425,
    "झि": 426,
    "झी": 427,
    "झे": 428,
    "झ॰": 429,
    "ञ": 430,
    "ञा": 431,
    "ञ्च": 432,
    "ञ्चा": 433,
    "ञ्चा्": 434,
    "ञ्चि": 435,
    "ञ्चे": 436,
    "ञ्ज": 437,
    "ञ्जा": 438,
    "ञ्जि": 439,
    "ञ्जी": 440,
    "ञ्ञ": 441,
    "ञ्ञा": 442,
    "ञ्ञि": 443,
    "ञ्ञु": 444,
    "ञ्ञॆ": 445,
    "ञ्ञो": 446,
    "ट": 447,
    "टं": 448,
    "टा": 449,
    "टां": 450,
    "टाा": 451,
    "टि": 452,
    "टिं": 453,
    "टी": 454,
    "टु": 455,
    "टुं": 456,
    "टू": 457,
    "टॆ": 458,
    "टे": 459,
    "टै": 460,
    "टैं": 461,
    "टो": 462,
    "टों": 463,
    "टौ": 464,
    "ट्": 465,
    "ट्चाा्च्च": 466,
    "ट्चि": 467,
    "ट्ट": 468,
    "ट्टं": 469,
    "ट्ट़": 470,
    "ट्टा": 471,
    "ट्टि": 472,
    "ट्टी": 473,
    "ट्टु": 474,
    "ट्टुं": 475,
    "ट्टू": 476,
    "ट्टूा्पु": 477,
    "ट्टॆ": 478,
    "ट्टे": 479,
    "ट्टै": 480,
    "ट्टो": 481,
    "ट्ट्": 482,
    "ट्ट्‌": 483,
    "ट्ण": 484,
    "ट्त": 485,
    "ट्न": 486,
    "ट्नं": 487,
    "ट्प": 488,
    "ट्मि": 489,
    "ट्य": 490,
    "ट्यू": 491,
    "ट्र": 492,
    "ट्रा": 493,
    "ट्रि": 494,
    "ट्रॆ": 495,
    "ट्रे": 496,
    "ट्रै": 497,
    "ट्रो": 498,
    "ट्र्या": 499,
    "ट्ल": 500,
    "ट्लु": 501,
    "ट्व": 502,
    "ट्श्री": 503,
    "ट्स्": 504,
    "ट्॰": 505,
    "ट्‌": 506,
    "ट्‍": 507,
    "टॗ": 508,
    "ट‌": 509,
    "ठ": 510,
    "ठा": 511,
    "ठि": 512,
    "ठि॰": 513,
    "ठी": 514,
    "ठे": 515,
    "ठें": 516,
    "ठो": 517,
    "ठ्ठ": 518,
    "ड": 519,
    "डः": 520,
    "ड़": 521,
    "ड़ा": 522,
    "ड़ि": 523,
    "ड़ी": 524,
    "ड़े": 525,
    "ड़ौ": 526,
    "डा": 527,
    "डाः": 528,
    "डि": 529,
    "डिं": 530,
    "डी": 531,
    "डु": 532,
    "डू": 533,
    "डॆ": 534,
    "डॆं": 535,
    "डे": 536,
    "डै": 537,
    "डो": 538,
    "ड्": 539,
    "ड्क": 540,
    "ड्ड": 541,
    "ड्डा": 542,
    "ड्डि": 543,
    "ड्डु": 544,
    "ड्पे": 545,
    "ड्यं": 546,
    "ड्या": 547,
    "ड्यां": 548,
    "ड्यू": 549,
    "ड्र": 550,
    "ड्रा": 551,
    "ड्रि": 552,
    "ड्री": 553,
    "ड्स्": 554,
    "ड्‌": 555,
    "ड्‍": 556,
    "ढ": 557,
    "ढ़": 558,
    "ढ़ि": 559,
    "ढ़ी": 560,
    "ढि": 561,
    "ढु": 562,
    "ढे": 563,
    "ढे़": 564,
    "ण": 565,
    "णं": 566,
    "णं‌": 567,
    "ण़": 568,
    "णा": 569,
    "णाः": 570,
    "णि": 571,
    "णी": 572,
    "णीं": 573,
    "णु": 574,
    "णु्": 575,
    "णू": 576,
    "णॆ": 577,
    "णे": 578,
    "णै": 579,
    "णो": 580,
    "ण्": 581,
    "ण्क": 582,
    "ण्का": 583,
    "ण्ट": 584,
    "ण्टं": 585,
    "ण्टा": 586,
    "ण्टि": 587,
    "ण्टी": 588,
    "ण्टु": 589,
    "ण्टू": 590,
    "ण्टॆ": 591,
    "ण्टे": 592,
    "ण्टै": 593,
    "ण्टो": 594,
    "ण्ट्": 595,
    "ण्ट्स्": 596,
    "ण्ट्‌": 597,
    "ण्ठु": 598,
    "ण्ड": 599,
    "ण्डा": 600,
    "ण्डि": 601,
    "ण्ण": 602,
    "ण्णं": 603,
    "ण्णा": 604,
    "ण्णि": 605,
    "ण्णी": 606,
    "ण्णु": 607,
    "ण्णू": 608,
    "ण्णू‍": 609,
    "ण्ण्": 610,
    "ण्ता": 611,
    "ण्ति": 612,
    "ण्पु": 613,
    "ण्मै": 614,
    "ण्य": 615,
    "ण्या": 616,
    "ण्‌": 617,
    "ण‍": 618,
    "त": 619,
    "तं": 620,
    "तः": 621,
    "त़": 622,
    "त़ा": 623,
    "त़ि": 624,
    "ता": 625,
    "ताँ": 626,
    "तां": 627,
    "ता्का": 628,
    "ति": 629,
    "तिं": 630,
    "तिः": 631,
    "तिाि": 632,
    "ती": 633,
    "तीा्": 634,
    "तीा्त्त": 635,
    "तु": 636,
    "तुं": 637,
    "तू": 638,
    "तूा्": 639,
    "तू॰": 640,
    "तृ": 641,
    "तॆ": 642,
    "तॆॆ": 643,
    "तॆ्र्र": 644,
    "ते": 645,
    "तें": 646,
    "तै": 647,
    "तॊ": 648,
    "तो": 649,
    "तों": 650,
    "त्": 651,
    "त्उ": 652,
    "त्क": 653,
    "त्का": 654,
    "त्कू": 655,
    "त्त": 656,
    "त्ता": 657,
    "त्ति": 658,
    "त्ती": 659,
    "त्तु": 660,
    "त्तू": 661,
    "त्तॆ": 662,
    "त्ते": 663,
    "त्तेा्": 664,
    "त्तै": 665,
    "त्तॊ": 666,
    "त्तो": 667,
    "त्त्": 668,
    "त्त्प": 669,
    "त्त्य": 670,
    "त्त्व": 671,
    "त्त्‌": 672,
    "त्थ": 673,
    "त्थि": 674,
    "त्न": 675,
    "त्प": 676,
    "त्बे": 677,
    "त्भ": 678,
    "त्म": 679,
    "त्मा": 680,
    "त्य": 681,
    "त्या": 682,
    "त्यां": 683,
    "त्यु": 684,
    "त्ये": 685,
    "त्य्": 686,
    "त्र": 687,
    "त्रं": 688,
    "त्रं‌": 689,
    "त्रा": 690,
    "त्रि": 691,
    "त्री": 692,
    "त्रॆ": 693,
    "त्रे": 694,
    "त्रों": 695,
    "त्र्य": 696,
    "त्र्यं": 697,
    "त्व": 698,
    "त्वा": 699,
    "त्वि": 700,
    "त्स": 701,
    "त्सा": 702,
    "त्स्": 703,
    "त्स्ना": 704,
    "त्य़": 705,
    "त्य़ु": 706,
    "त्य़े": 707,
    "त्॰": 708,
    "त्‌": 709,
    "त्‍": 710,
    "त॰": 711,
    "त‍े": 712,
    "थ": 713,
    "था": 714,
    "थां": 715,
    "थि": 716,
    "थी": 717,
    "थु": 718,
    "थू": 719,
    "थृ": 720,
    "थे": 721,
    "थों": 722,
    "थ्य": 723,
    "द": 724,
    "दं": 725,
    "दा": 726,
    "दां": 727,
    "दि": 728,
    "दिं": 729,
    "दि॰": 730,
    "दी": 731,
    "दु": 732,
    "दुि": 733,
    "दू": 734,
    "दूं": 735,
    "दृ": 736,
    "दॆ": 737,
    "दे": 738,
    "दें": 739,
    "दै": 740,
    "दॊ": 741,
    "दो": 742,
    "दौ": 743,
    "द्": 744,
    "द्गु": 745,
    "द्घा": 746,
    "द्ट": 747,
    "द्टु": 748,
    "द्द": 749,
    "द्दा": 750,
    "द्दि": 751,
    "द्दु": 752,
    "द्ध": 753,
    "द्धा": 754,
    "द्धि": 755,
    "द्धी": 756,
    "द्ध्य": 757,
    "द्ध्यं": 758,
    "द्ब": 759,
    "द्बा": 760,
    "द्बि": 761,
    "द्बी": 762,
    "द्बो": 763,
    "द्म": 764,
    "द्मा": 765,
    "द्य": 766,
    "द्या": 767,
    "द्यो": 768,
    "द्र": 769,
    "द्रं": 770,
    "द्रा": 771,
    "द्रि": 772,
    "द्री": 773,
    "द्रु": 774,
    "द्रे": 775,
    "द्रौ": 776,
    "द्व": 777,
    "द्वा": 778,
    "द्वि": 779,
    "द्वी": 780,
    "द्शि": 781,
    "द्य़": 782,
    "द्य़ा": 783,
    "द्॰": 784,
    "द्‌": 785,
    "ध": 786,
    "धा": 787,
    "धि": 788,
    "धिि": 789,
    "धी": 790,
    "धीं": 791,
    "धु": 792,
    "धू": 793,
    "धे": 794,
    "धो": 795,
    "ध्दा": 796,
    "ध्दी": 797,
    "ध्ब": 798,
    "ध्य": 799,
    "ध्या": 800,
    "ध्ये": 801,
    "ध्र": 802,
    "ध्व": 803,
    "ध॰": 804,
    "न": 805,
    "नं": 806,
    "नः": 807,
    "ना": 808,
    "नाँ": 809,
    "नां": 810,
    "नां‌": 811,
    "नाि": 812,
    "ना्": 813,
    "नि": 814,
    "निं": 815,
    "निॕ": 816,
    "नि‍": 817,
    "नी": 818,
    "नीा्": 819,
    "नु": 820,
    "नुं": 821,
    "नु्": 822,
    "नू": 823,
    "नू॰": 824,
    "नृ": 825,
    "नॅ": 826,
    "नॆ": 827,
    "ने": 828,
    "नेे": 829,
    "नै": 830,
    "नॊ": 831,
    "नो": 832,
    "नौ": 833,
    "न्": 834,
    "न्कु": 835,
    "न्ट": 836,
    "न्टा": 837,
    "न्ट्र": 838,
    "न्ट्रा": 839,
    "न्ड": 840,
    "न्डि": 841,
    "न्डी": 842,
    "न्डे": 843,
    "न्त": 844,
    "न्ता": 845,
    "न्ति": 846,
    "न्ती": 847,
    "न्तु": 848,
    "न्तू": 849,
    "न्तॆ": 850,
    "न्ते": 851,
    "न्तो": 852,
    "न्त्": 853,
    "न्त्य": 854,
    "न्त्र": 855,
    "न्त्रि": 856,
    "न्त्री": 857,
    "न्त्॰ा": 858,
    "न्त्॰ि": 859,
    "न्त्॰ी": 860,
    "न्थ": 861,
    "न्था": 862,
    "न्द": 863,
    "न्दा": 864,
    "न्दि": 865,
    "न्दी": 866,
    "न्दु": 867,
    "न्दे": 868,
    "न्दो": 869,
    "न्द्यो": 870,
    "न्द्र": 871,
    "न्द्रं": 872,
    "न्द्रा": 873,
    "न्द्री": 874,
    "न्द्र्र": 875,
    "न्द्॰": 876,
    "न्द्॰ी": 877,
    "न्द्‌": 878,
    "न्ध": 879,
    "न्धं": 880,
    "न्धा": 881,
    "न्धि": 882,
    "न्धी": 883,
    "न्ध्यं": 884,
    "न्न": 885,
    "न्नं": 886,
    "न्ना": 887,
    "न्नि": 888,
    "न्नि‍": 889,
    "न्नी": 890,
    "न्नु": 891,
    "न्नुं": 892,
    "न्नू": 893,
    "न्नै": 894,
    "न्न्": 895,
    "न्ब": 896,
    "न्म": 897,
    "न्मा": 898,
    "न्मे": 899,
    "न्मो": 900,
    "न्म्या": 901,
    "न्य": 902,
    "न्यः": 903,
    "न्या": 904,
    "न्यु": 905,
    "न्यू": 906,
    "न्ये": 907,
    "न्ऱ": 908,
    "न्ऱा": 909,
    "न्ऱॆ": 910,
    "न्ऱ्": 911,
    "न्ल": 912,
    "न्व": 913,
    "न्वी": 914,
    "न्वे": 915,
    "न्स": 916,
    "न्सा": 917,
    "न्सि": 918,
    "न्सी": 919,
    "न्सू": 920,
    "न्स्": 921,
    "न्स्टि": 922,
    "न्हा": 923,
    "न्हां": 924,
    "न्य़": 925,
    "न्य़ा": 926,
    "न्‌": 927,
    "न्‍": 928,
    "न॰": 929,
    "न॰ः": 930,
    "नॱ": 931,
    "ऩ": 932,
    "ऩा": 933,
    "ऩा्": 934,
    "ऩि": 935,
    "ऩी": 936,
    "ऩु": 937,
    "ऩू": 938,
    "ऩे": 939,
    "ऩै": 940,
    "ऩ्": 941,
    "ऩ्टा्": 942,
    "ऩ्ट्": 943,
    "ऩ्ट्र": 944,
    "ऩ्ऩ": 945,
    "ऩ्ऩा": 946,
    "ऩ्ऩूा्": 947,
    "ऩ्ऩै": 948,
    "ऩ्ऩो": 949,
    "ऩ्पु": 950,
    "ऩ्ऱ": 951,
    "ऩ्ऱि": 952,
    "ऩ्वॆ": 953,
    "प": 954,
    "पं": 955,
    "पा": 956,
    "पाँ": 957,
    "पां": 958,
    "पा्": 959,
    "पि": 960,
    "पिं": 961,
    "पिा": 962,
    "पिाि": 963,
    "पिु": 964,
    "पी": 965,
    "पु": 966,
    "पू": 967,
    "पूँ": 968,
    "पॅ": 969,
    "पॆ": 970,
    "पॆं": 971,
    "पे": 972,
    "पेा": 973,
    "पै": 974,
    "पैा": 975,
    "पॉ": 976,
    "पॊ": 977,
    "पॊं": 978,
    "पो": 979,
    "पोा्चु": 980,
    "पौ": 981,
    "प्": 982,
    "प्का": 983,
    "प्टॆ": 984,
    "प्ण": 985,
    "प्त": 986,
    "प्तं": 987,
    "प्प": 988,
    "प्पं": 989,
    "प्पा": 990,
    "प्पि": 991,
    "प्पिं": 992,
    "प्पी": 993,
    "प्पु": 994,
    "प्पू": 995,
    "प्पॆ": 996,
    "प्पे": 997,
    "प्पो": 998,
    "प्प्": 999,
    "प्प्मू": 1000,
    "प्प्‌": 1001,
    "प्या": 1002,
    "प्र": 1003,
    "प्रा": 1004,
    "प्रां": 1005,
    "प्राः": 1006,
    "प्रि": 1007,
    "प्री": 1008,
    "प्रीि": 1009,
    "प्रॅ": 1010,
    "प्रॆ": 1011,
    "प्रे": 1012,
    "प्रै": 1013,
    "प्रॊ": 1014,
    "प्रो": 1015,
    "प्रौ": 1016,
    "प्ल": 1017,
    "प्ला": 1018,
    "प्ले": 1019,
    "प्लै": 1020,
    "प्लॉ": 1021,
    "प्ष": 1022,
    "प्स्": 1023,
    "प्॰": 1024,
    "प्॰ि": 1025,
    "प्‌": 1026,
    "प्‍": 1027,
    "प॰": 1028,
    "प‌": 1029,
    "फ": 1030,
    "फ़": 1031,
    "फा": 1032,
    "फां": 1033,
    "फि": 1034,
    "फी": 1035,
    "फु": 1036,
    "फॆ": 1037,
    "फे": 1038,
    "फै": 1039,
    "फो": 1040,
    "फ्": 1041,
    "फ्ः": 1042,
    "फ्ट्": 1043,
    "फ्या": 1044,
    "फ्र": 1045,
    "फ्री": 1046,
    "फ्रू": 1047,
    "फ्रो": 1048,
    "फ्र‌": 1049,
    "फ्ला": 1050,
    "फ्॰े": 1051,
    "ब": 1052,
    "बँ": 1053,
    "बं": 1054,
    "बा": 1055,
    "बां": 1056,
    "बा‍": 1057,
    "बि": 1058,
    "बि॰": 1059,
    "बी": 1060,
    "बु": 1061,
    "बू": 1062,
    "बृ": 1063,
    "बॆ": 1064,
    "बॆं": 1065,
    "बे": 1066,
    "बें": 1067,
    "बै": 1068,
    "बैं": 1069,
    "बॉ": 1070,
    "बो": 1071,
    "बौ": 1072,
    "ब्": 1073,
    "ब्थ": 1074,
    "ब्द": 1075,
    "ब्दी": 1076,
    "ब्दु": 1077,
    "ब्ध": 1078,
    "ब्ब": 1079,
    "ब्बा": 1080,
    "ब्य": 1081,
    "ब्या": 1082,
    "ब्यां": 1083,
    "ब्यु": 1084,
    "ब्यू": 1085,
    "ब्र": 1086,
    "ब्रा": 1087,
    "ब्रि": 1088,
    "ब्रु": 1089,
    "ब्रू": 1090,
    "ब्रे": 1091,
    "ब्ल": 1092,
    "ब्लि": 1093,
    "ब्लु": 1094,
    "ब्लो": 1095,
    "ब्ल्यू": 1096,
    "ब्स": 1097,
    "ब्सि": 1098,
    "ब्य़": 1099,
    "ब्य़ा": 1100,
    "ब्॰ु": 1101,
    "ब्‌": 1102,
    "ब्‍": 1103,
    "ब॰": 1104,
    "बॱ": 1105,
    "भ": 1106,
    "भं": 1107,
    "भा": 1108,
    "भां": 1109,
    "भि": 1110,
    "भिं": 1111,
    "भी": 1112,
    "भु": 1113,
    "भू": 1114,
    "भृा": 1115,
    "भे": 1116,
    "भें": 1117,
    "भै": 1118,
    "भो": 1119,
    "भ्य": 1120,
    "भ्या": 1121,
    "भ्र": 1122,
    "भ॰": 1123,
    "म": 1124,
    "मं": 1125,
    "मं‌": 1126,
    "मः": 1127,
    "मा": 1128,
    "मां": 1129,
    "मााि": 1130,
    "मा‍": 1131,
    "मि": 1132,
    "मी": 1133,
    "मु": 1134,
    "मुं": 1135,
    "मुॱ": 1136,
    "मू": 1137,
    "मूा्त्ति": 1138,
    "मृ": 1139,
    "मॆ": 1140,
    "मे": 1141,
    "में": 1142,
    "मै": 1143,
    "मैं": 1144,
    "मैा": 1145,
    "मॊ": 1146,
    "मो": 1147,
    "मों": 1148,
    "मौ": 1149,
    "म्": 1150,
    "म्A": 1151,
    "म्ः": 1152,
    "म्का": 1153,
    "म्के": 1154,
    "म्प": 1155,
    "म्पा": 1156,
    "म्पि": 1157,
    "म्पु": 1158,
    "म्पू": 1159,
    "म्पे": 1160,
    "म्पो": 1161,
    "म्प्": 1162,
    "म्प्य": 1163,
    "म्प्या": 1164,
    "म्प्यु": 1165,
    "म्प्यू": 1166,
    "म्प्र": 1167,
    "म्प्वा": 1168,
    "म्प्॰": 1169,
    "म्ब": 1170,
    "म्बा": 1171,
    "म्बि": 1172,
    "म्बे": 1173,
    "म्ब्न": 1174,
    "म्भ": 1175,
    "म्भा": 1176,
    "म्भु": 1177,
    "म्म": 1178,
    "म्मा": 1179,
    "म्मि": 1180,
    "म्मी": 1181,
    "म्मु": 1182,
    "म्मू": 1183,
    "म्मे": 1184,
    "म्य": 1185,
    "म्या": 1186,
    "म्यां": 1187,
    "म्यु": 1188,
    "म्यू": 1189,
    "म्र": 1190,
    "म्रि": 1191,
    "म्श": 1192,
    "म्स": 1193,
    "म्सि": 1194,
    "म्ह": 1195,
    "म्ही": 1196,
    "म्य़": 1197,
    "म्य़ो": 1198,
    "म्॰ा": 1199,
    "मॗ": 1200,
    "म॰": 1201,
    "मॱ": 1202,
    "य": 1203,
    "यं": 1204,
    "य़": 1205,
    "य़ा": 1206,
    "य़े": 1207,
    "या": 1208,
    "यां": 1209,
    "याा्": 1210,
    "याा्पे": 1211,
    "या‍": 1212,
    "यि": 1213,
    "यिाि": 1214,
    "यी": 1215,
    "यु": 1216,
    "युं": 1217,
    "यू": 1218,
    "यॆ": 1219,
    "ये": 1220,
    "यें": 1221,
    "यै": 1222,
    "यॊ": 1223,
    "यो": 1224,
    "यों": 1225,
    "य्": 1226,
    "य्क्का": 1227,
    "य्क्कां": 1228,
    "य्क्कु": 1229,
    "य्क्क्": 1230,
    "य्त": 1231,
    "य्न्त": 1232,
    "य्भ": 1233,
    "य्म": 1234,
    "य्मा": 1235,
    "य्य": 1236,
    "य्यि": 1237,
    "य्यु": 1238,
    "य्युं": 1239,
    "य्ये": 1240,
    "य्यो": 1241,
    "य्ऱि": 1242,
    "य्वु": 1243,
    "य्स्री": 1244,
    "य्‌": 1245,
    "र": 1246,
    "रं": 1247,
    "ऱ": 1248,
    "रा": 1249,
    "रां": 1250,
    "राा्": 1251,
    "रा्": 1252,
    "रि": 1253,
    "रि॰": 1254,
    "री": 1255,
    "रीं": 1256,
    "रु": 1257,
    "रुं": 1258,
    "रु‍": 1259,
    "रू": 1260,
    "रॆ": 1261,
    "रॆं": 1262,
    "रे": 1263,
    "रें": 1264,
    "रै": 1265,
    "रॉँ": 1266,
    "रॊ": 1267,
    "रो": 1268,
    "र्": 1269,
    "र्ऎ": 1270,
    "र्क": 1271,
    "र्का": 1272,
    "र्कि": 1273,
    "र्किं": 1274,
    "र्कॆ": 1275,
    "र्के": 1276,
    "र्कॊं": 1277,
    "र्ग": 1278,
    "र्गा": 1279,
    "र्गि": 1280,
    "र्च": 1281,
    "र्चा": 1282,
    "र्चि": 1283,
    "र्चू": 1284,
    "र्च्चि": 1285,
    "र्ज": 1286,
    "र्जा": 1287,
    "र्जि": 1288,
    "र्जी": 1289,
    "र्ट": 1290,
    "र्टि": 1291,
    "र्टी": 1292,
    "र्ट्": 1293,
    "र्ट्स्": 1294,
    "र्ड": 1295,
    "र्डी": 1296,
    "र्डॆ": 1297,
    "र्ण": 1298,
    "र्णा": 1299,
    "र्णि": 1300,
    "र्णी": 1301,
    "र्णो": 1302,
    "र्त": 1303,
    "र्ति": 1304,
    "र्ती": 1305,
    "र्तु": 1306,
    "र्ते": 1307,
    "र्त्त": 1308,
    "र्त्ता": 1309,
    "र्थ": 1310,
    "र्थं": 1311,
    "र्थि": 1312,
    "र्द": 1313,
    "र्दि": 1314,
    "र्दे": 1315,
    "र्द्": 1316,
    "र्ध": 1317,
    "र्न": 1318,
    "र्ना": 1319,
    "र्नी": 1320,
    "र्प": 1321,
    "र्पा": 1322,
    "र्पे": 1323,
    "र्पै": 1324,
    "र्पॊ": 1325,
    "र्पो": 1326,
    "र्फे": 1327,
    "र्ब": 1328,
    "र्बा": 1329,
    "र्बि": 1330,
    "र्बो": 1331,
    "र्ब्ब": 1332,
    "र्भ": 1333,
    "र्भी": 1334,
    "र्म": 1335,
    "र्मा": 1336,
    "र्मि": 1337,
    "र्मी": 1338,
    "र्मु": 1339,
    "र्मे": 1340,
    "र्म्": 1341,
    "र्य": 1342,
    "र्या": 1343,
    "र्य्य": 1344,
    "र्य्या": 1345,
    "र्य्य़": 1346,
    "र्य्य़ा": 1347,
    "र्र": 1348,
    "र्रा": 1349,
    "र्रि": 1350,
    "र्ल": 1351,
    "र्लु": 1352,
    "र्लो": 1353,
    "र्व": 1354,
    "र्वा": 1355,
    "र्वि": 1356,
    "र्वे": 1357,
    "र्श": 1358,
    "र्शि": 1359,
    "र्ष": 1360,
    "र्षा": 1361,
    "र्षि": 1362,
    "र्षे": 1363,
    "र्स": 1364,
    "र्सि": 1365,
    "र्सिं": 1366,
    "र्सी": 1367,
    "र्सु": 1368,
    "र्स्": 1369,
    "र्‌": 1370,
    "र॰": 1371,
    "रॱ": 1372,
    "र‌": 1373,
    "र‍": 1374,
    "ऱ": 1375,
    "ऱं": 1376,
    "ऱा": 1377,
    "ऱि": 1378,
    "ऱिं": 1379,
    "ऱी": 1380,
    "ऱु": 1381,
    "ऱुं": 1382,
    "ऱू": 1383,
    "ऱॆ": 1384,
    "ऱे": 1385,
    "ऱै": 1386,
    "ऱॊ": 1387,
    "ऱो": 1388,
    "ऱ्": 1389,
    "ऱ्क": 1390,
    "ऱ्का": 1391,
    "ऱ्कु": 1392,
    "ऱ्के": 1393,
    "ऱ्त्त": 1394,
    "ऱ्प": 1395,
    "ऱ्पू": 1396,
    "ऱ्ऱ": 1397,
    "ऱ्ऱं": 1398,
    "ऱ्ऱा": 1399,
    "ऱ्ऱि": 1400,
    "ऱ्ऱी": 1401,
    "ऱ्ऱु": 1402,
    "ऱ्ऱू": 1403,
    "ऱ्ऱे": 1404,
    "ऱ्ऱै": 1405,
    "ऱ्ऱो": 1406,
    "ऱ्ऱ्": 1407,
    "ऱ्ऱ्फों": 1408,
    "ऱ्ऱ्यू": 1409,
    "ऱ्ऱ्ऱ्‌": 1410,
    "ल": 1411,
    "लं": 1412,
    "लं‍": 1413,
    "ला": 1414,
    "लां": 1415,
    "लि": 1416,
    "लिं": 1417,
    "लिा": 1418,
    "ली": 1419,
    "लु": 1420,
    "लुं": 1421,
    "लू": 1422,
    "लूा्": 1423,
    "लॆ": 1424,
    "लॆं": 1425,
    "ले": 1426,
    "लै": 1427,
    "लॉ": 1428,
    "लो": 1429,
    "लोँ": 1430,
    "लौ": 1431,
    "ल्": 1432,
    "ल्क": 1433,
    "ल्कि": 1434,
    "ल्कै": 1435,
    "ल्क्कु": 1436,
    "ल्क्स्": 1437,
    "ल्गू": 1438,
    "ल्ट": 1439,
    "ल्टि": 1440,
    "ल्टी": 1441,
    "ल्टु": 1442,
    "ल्ट्": 1443,
    "ल्ट्रा": 1444,
    "ल्ड": 1445,
    "ल्डीं": 1446,
    "ल्ड्र": 1447,
    "ल्थ": 1448,
    "ल्दा": 1449,
    "ल्नी": 1450,
    "ल्प": 1451,
    "ल्पी": 1452,
    "ल्पॊ": 1453,
    "ल्फे": 1454,
    "ल्य": 1455,
    "ल्या": 1456,
    "ल्यां": 1457,
    "ल्यु": 1458,
    "ल्ल": 1459,
    "ल्लं": 1460,
    "ल्ला": 1461,
    "ल्ला‍": 1462,
    "ल्लि": 1463,
    "ल्ली": 1464,
    "ल्लु": 1465,
    "ल्लू": 1466,
    "ल्लूाि": 1467,
    "ल्लूा्": 1468,
    "ल्लॆ": 1469,
    "ल्ले": 1470,
    "ल्लै": 1471,
    "ल्ल्": 1472,
    "ल्ल्‌": 1473,
    "ल्वि": 1474,
    "ल्वॆ": 1475,
    "ल्वे": 1476,
    "ल्स्": 1477,
    "ल्हा": 1478,
    "ल्हे": 1479,
    "ल्ह्या": 1480,
    "ल्‌": 1481,
    "ल्‍": 1482,
    "ल॰": 1483,
    "लॱ": 1484,
    "ळ": 1485,
    "ळं": 1486,
    "ळं‌": 1487,
    "ळा": 1488,
    "ळां": 1489,
    "ळा्": 1490,
    "ळि": 1491,
    "ळिं": 1492,
    "ळी": 1493,
    "ळु": 1494,
    "ळुं": 1495,
    "ळू": 1496,
    "ळॆ": 1497,
    "ळे": 1498,
    "ळै": 1499,
    "ळो": 1500,
    "ळ्": 1501,
    "ळ्अ": 1502,
    "ळ्ट": 1503,
    "ळ्प": 1504,
    "ळ्मि": 1505,
    "ळ्मी": 1506,
    "ळ्या": 1507,
    "ळ्यां": 1508,
    "ळ्ळ": 1509,
    "ळ्ळं": 1510,
    "ळ्ळा": 1511,
    "ळ्ळि": 1512,
    "ळ्ळी": 1513,
    "ळ्ळु": 1514,
    "ळ्ळ्": 1515,
    "ळ‍": 1516,
    "ऴ": 1517,
    "ऴं": 1518,
    "ऴा": 1519,
    "ऴि": 1520,
    "ऴि‌": 1521,
    "ऴु": 1522,
    "ऴॆ": 1523,
    "ऴे": 1524,
    "ऴेां": 1525,
    "ऴै": 1526,
    "ऴों": 1527,
    "ऴ्": 1528,
    "ऴ्क": 1529,
    "ऴ्च्": 1530,
    "ऴ्त्त": 1531,
    "ऴ्न": 1532,
    "ऴ्ना": 1533,
    "ऴ्वु": 1534,
    "ऴ्स्": 1535,
    "ऴ्‌": 1536,
    "व": 1537,
    "वं": 1538,
    "वः": 1539,
    "व़": 1540,
    "वा": 1541,
    "वां": 1542,
    "वा्": 1543,
    "वा्स्": 1544,
    "वि": 1545,
    "विं": 1546,
    "वि॰": 1547,
    "विॱ": 1548,
    "वी": 1549,
    "वीं": 1550,
    "वीः": 1551,
    "वु": 1552,
    "वुं": 1553,
    "वु्": 1554,
    "वू": 1555,
    "वृ": 1556,
    "वॅ": 1557,
    "वॆ": 1558,
    "वॆं": 1559,
    "वे": 1560,
    "वेा्ल्टु": 1561,
    "वै": 1562,
    "वॉ": 1563,
    "वॊ": 1564,
    "वो": 1565,
    "व्": 1566,
    "व्भ": 1567,
    "व्य": 1568,
    "व्या": 1569,
    "व्र": 1570,
    "व्व": 1571,
    "व्वं": 1572,
    "व्वि": 1573,
    "व्वी": 1574,
    "व्वू": 1575,
    "व्वे": 1576,
    "व्ह": 1577,
    "व्हि": 1578,
    "व्ही": 1579,
    "व्‌": 1580,
    "व॰": 1581,
    "व‌": 1582,
    "श": 1583,
    "शं": 1584,
    "शा": 1585,
    "शां": 1586,
    "शाः": 1587,
    "शा‍": 1588,
    "शि": 1589,
    "शी": 1590,
    "शीू": 1591,
    "शु": 1592,
    "शू": 1593,
    "शृ": 1594,
    "शॅ": 1595,
    "शॆ": 1596,
    "शे": 1597,
    "शै": 1598,
    "शो": 1599,
    "श्": 1600,
    "श्च": 1601,
    "श्चि": 1602,
    "श्ते": 1603,
    "श्ब": 1604,
    "श्मा": 1605,
    "श्य": 1606,
    "श्र": 1607,
    "श्रा": 1608,
    "श्रि": 1609,
    "श्री": 1610,
    "श्री्म": 1611,
    "श्रु": 1612,
    "श्रे": 1613,
    "श्व": 1614,
    "श्वा": 1615,
    "श्श": 1616,
    "श्शि": 1617,
    "श्शे": 1618,
    "श्ष": 1619,
    "श्स": 1620,
    "श्य़": 1621,
    "श्॰ी": 1622,
    "श्ॱ": 1623,
    "श्‍": 1624,
    "शॗ": 1625,
    "ष": 1626,
    "षं": 1627,
    "षा": 1628,
    "षि": 1629,
    "षी": 1630,
    "षु": 1631,
    "षू": 1632,
    "षे": 1633,
    "षो": 1634,
    "ष्": 1635,
    "ष्का": 1636,
    "ष्कृ": 1637,
    "ष्ट": 1638,
    "ष्टा": 1639,
    "ष्टि": 1640,
    "ष्टी": 1641,
    "ष्टु": 1642,
    "ष्ट्र": 1643,
    "ष्ट्रा": 1644,
    "ष्ट्री": 1645,
    "ष्ट्॰": 1646,
    "ष्ट्॰ी": 1647,
    "ष्ठ": 1648,
    "ष्ठा": 1649,
    "ष्ण": 1650,
    "ष्णा": 1651,
    "ष्णू": 1652,
    "ष्ना": 1653,
    "ष्पा": 1654,
    "ष्म": 1655,
    "ष्मॆ": 1656,
    "ष्य": 1657,
    "ष्यं": 1658,
    "ष्‌": 1659,
    "ष्‍": 1660,
    "षॢ": 1661,
    "स": 1662,
    "सं": 1663,
    "सं‌": 1664,
    "सः": 1665,
    "स़": 1666,
    "स़ा": 1667,
    "स़ि": 1668,
    "सा": 1669,
    "सां": 1670,
    "सा‍": 1671,
    "सि": 1672,
    "सिं": 1673,
    "सि॰": 1674,
    "सी": 1675,
    "सु": 1676,
    "सुँ": 1677,
    "सुं": 1678,
    "सू": 1679,
    "सृ": 1680,
    "सृं": 1681,
    "सॆ": 1682,
    "से": 1683,
    "सें": 1684,
    "से‍": 1685,
    "सै": 1686,
    "सैं": 1687,
    "सो": 1688,
    "सोँ": 1689,
    "सौ": 1690,
    "स्": 1691,
    "स्क": 1692,
    "स्का": 1693,
    "स्कु": 1694,
    "स्कू": 1695,
    "स्कू‌": 1696,
    "स्कृ": 1697,
    "स्क्का": 1698,
    "स्क्कू": 1699,
    "स्क्‌": 1700,
    "स्गि": 1701,
    "स्जि": 1702,
    "स्जी": 1703,
    "स्ट": 1704,
    "स्टा": 1705,
    "स्टु": 1706,
    "स्टॆ": 1707,
    "स्टे": 1708,
    "स्टो": 1709,
    "स्ट्": 1710,
    "स्ट्र": 1711,
    "स्ट्री": 1712,
    "स्ट्रे": 1713,
    "स्त": 1714,
    "स्तं": 1715,
    "स्ता": 1716,
    "स्ति": 1717,
    "स्तु": 1718,
    "स्तू": 1719,
    "स्तृ": 1720,
    "स्तॆ": 1721,
    "स्ते": 1722,
    "स्त्र": 1723,
    "स्त्रा": 1724,
    "स्थ": 1725,
    "स्था": 1726,
    "स्था‍": 1727,
    "स्थि": 1728,
    "स्थी": 1729,
    "स्थॆ": 1730,
    "स्थे": 1731,
    "स्थ्य": 1732,
    "स्दु": 1733,
    "स्ध": 1734,
    "स्धा": 1735,
    "स्धॆ": 1736,
    "स्न": 1737,
    "स्नि": 1738,
    "स्ने": 1739,
    "स्प": 1740,
    "स्पा": 1741,
    "स्पि": 1742,
    "स्पृ": 1743,
    "स्पॆ": 1744,
    "स्पे": 1745,
    "स्प्पि": 1746,
    "स्फो": 1747,
    "स्ब": 1748,
    "स्बा": 1749,
    "स्भा": 1750,
    "स्म": 1751,
    "स्मा": 1752,
    "स्मृ": 1753,
    "स्य": 1754,
    "स्यः": 1755,
    "स्या": 1756,
    "स्र": 1757,
    "स्ऱी": 1758,
    "स्री": 1759,
    "स्ऱ्ऱ": 1760,
    "स्ऱ्ऱा": 1761,
    "स्ऱ्ऱि": 1762,
    "स्ऱ्ऱु": 1763,
    "स्ऱ्ऱे": 1764,
    "स्ऱ्ऱै": 1765,
    "स्ऱ्ऱो": 1766,
    "स्ऱ्ऱ्": 1767,
    "स्ला": 1768,
    "स्लि": 1769,
    "स्लॊ": 1770,
    "स्व": 1771,
    "स्वं": 1772,
    "स्वा": 1773,
    "स्वी": 1774,
    "स्वे": 1775,
    "स्स": 1776,
    "स्सा": 1777,
    "स्सि": 1778,
    "स्सु": 1779,
    "स्सो": 1780,
    "स्स्": 1781,
    "स्स्मा": 1782,
    "स्स्‌": 1783,
    "स्॰": 1784,
    "स्॰ा": 1785,
    "स्ॱ": 1786,
    "स्‌": 1787,
    "स्‍": 1788,
    "सॗ": 1789,
    "स॰": 1790,
    "सॱ": 1791,
    "ह": 1792,
    "हं": 1793,
    "हः": 1794,
    "हा": 1795,
    "हां": 1796,
    "हा‍": 1797,
    "हि": 1798,
    "हिं": 1799,
    "हिः": 1800,
    "हि॰": 1801,
    "ही": 1802,
    "हीं": 1803,
    "हु": 1804,
    "हु॰": 1805,
    "हू": 1806,
    "हृ": 1807,
    "हॆ": 1808,
    "हे": 1809,
    "हें": 1810,
    "है": 1811,
    "है‍": 1812,
    "हॉ": 1813,
    "हॊ": 1814,
    "हो": 1815,
    "ह्": 1816,
    "ह्दि": 1817,
    "ह्न": 1818,
    "ह्नं": 1819,
    "ह्म": 1820,
    "ह्य": 1821,
    "ह्या": 1822,
    "ह्रीं": 1823,
    "ह्रू": 1824,
    "हॗ": 1825,
    "ह॰": 1826,
    "हॱ": 1827,
    "ऽ": 1828,
    "ा": 1829,
    "े": 1830,
    "ॎ": 1831,
    "ॐ": 1832,
    "ज़ो": 1833,
    "ज़॰": 1834,
    "ड़": 1835,
    "ड़ा": 1836,
    "ड़ी": 1837,
    "ड़े": 1838,
    "ड़ै": 1839,
    "ड़ोु": 1840,
    "ड़्ह": 1841,
    "ड़्हे": 1842,
    "ढ़ि": 1843,
    "ढ़ी": 1844,
    "ढ़ो": 1845,
    "फ़": 1846,
    "फ़्ट": 1847,
    "फ़्दु": 1848,
    "य़": 1849,
    "य़ं": 1850,
    "य़ः": 1851,
    "य़़": 1852,
    "य़ा": 1853,
    "य़ां": 1854,
    "य़ि": 1855,
    "य़ी": 1856,
    "य़ु": 1857,
    "य़े": 1858,
    "य़ो": 1859,
    "य़्या": 1860,
    "य़ॗ": 1861,
    "ॠ": 1862,
    "ॡ": 1863,
    "।": 1864,
    "।‍": 1865,
    "॥": 1866,
    "०": 1867,
    "१": 1868,
    "१्को": 1869,
    "१‌": 1870,
    "२": 1871,
    "२़": 1872,
    "२ा": 1873,
    "३": 1874,
    "४": 1875,
    "५": 1876,
    "५ु": 1877,
    "५ो": 1878,
    "६": 1879,
    "७": 1880,
    "८": 1881,
    "९": 1882,
    "॰": 1883,
    "॰ा": 1884,
    "॰ि": 1885,
    "॰िः": 1886,
    "॰ी": 1887,
    "॰ु": 1888,
    "॰ू": 1889,
    "॰े": 1890,
    "॰ो": 1891,
    "॰्थ": 1892,
    "॰्प": 1893,
    "॰्ब": 1894,
    "॰्मा": 1895,
    "॰्य": 1896,
    "॰्य्य": 1897,
    "॰्य्या": 1898,
    "॰्ष": 1899,
    "ॱ": 1900,
    "ॱा": 1901,
    "ॱि": 1902,
    "ॱे": 1903,
    "ॱो": 1904,
    "ॳ": 1905,
    "ॳे": 1906,
    "ॷ": 1907,
    "ॺ": 1908,
    "ॺ‌": 1909,
    "ॺ‍": 1910,
    "ॻ": 1911,
    "ॻॆ": 1912,
    "ॻॆ्ऱ": 1913,
    "ॻ्ऱ": 1914,
    "ॻ्ऱॆ": 1915,
    "ॻ्ऱ्": 1916,
    "ॻ्ऱ्स्": 1917,
    "ॻ‌": 1918,
    "ॻ‌‌": 1919,
    "ॻ‍": 1920,
    "ॼ": 1921,
    "ॼः": 1922,
    "ॼ‌": 1923,
    "ॼ‍": 1924,
    "ॼ‍‍": 1925,
    "ॽ": 1926,
    "ॽ‌": 1927,
    "ॽ‍": 1928,
    "ॾ": 1929,
    "ॾ‌": 1930,
    "ॾ‌‌": 1931,
    "​": 1932
  },
  "metadata": {
    "tag": "zs_scale6480_malayalam",
    "num_graphemes": 1931,
    "space": "shared-abugida-pivot"
  }
}