{
  "grapheme2idx": {
    "<blank>": 0,
    "<unk>": 1,
    " ‌": 2,
    "!": 3,
    "\"": 4,
    "&": 5,
    "'": 6,
    "(": 7,
    ")": 8,
    ",": 9,
    "-": 10,
    ".": 11,
    "/": 12,
    "0": 13,
    "1": 14,
    "2": 15,
    "3": 16,
    "4": 17,
    "5": 18,
    "6": 19,
    "7": 20,
    "8": 21,
    "9": 22,
    ":": 23,
    "?": 24,
    "A": 25,
    "D": 26,
    "G": 27,
    "H": 28,
    "I": 29,
    "O": 30,
    "P": 31,
    "V": 32,
    "[": 33,
    "c": 34,
    "|": 35,
    "°": 36,
    "ا": 37,
    "ت": 38,
    "ج": 39,
    "ر": 40,
    "گ": 41,
    "ی": 42,
    "ँ": 43,
    "अ": 44,
    "अं": 45,
    "अि": 46,
    "अ्या": 47,
    "अ॰": 48,
    "आ": 49,
    "आं": 50,
    "आा्": 51,
    "आे": 52,
    "आॕ": 53,
    "इ": 54,
    "इं": 55,
    "इ्ट": 56,
    "इ॰": 57,
    "इॱ": 58,
    "ई": 59,
    "ईँ": 60,
    "ईं": 61,
    "उ": 62,
    "उाि": 63,
    "उॱ": 64,
    "ऊ": 65,
    "ऊँ": 66,
    "ऊं": 67,
    "ऋ": 68,
    "ऍ": 69,
    "ऎ": 70,
    "ऎं": 71,
    "ए": 72,
    "एँ": 73,
    "एा": 74,
    "ऐ": 75,
    "ऐं": 76,
    "ऑ": 77,
    "ऒ": 78,
    "ऒं": 79,
    "ऒाि": 80,
    "ऒा्क्स्": 81,
    "ऒ‌": 82,
    "ओ": 83,
    "ओँ": 84,
    "ओं": 85,
    "ओ्बा": 86,
    "औ": 87,
    "औं": 88,
    "क": 89,
    "कं": 90,
    "कः": 91,
    "का": 92,
    "काँ": 93,
    "कां": 94,
    "काुं": 95,
    "काे": 96,
    "का्": 97,
    "का‍": 98,
    "का‍‌": 99,
    "कि": 100,
    "किं": 101,
    "किाि": 102,
    "की": 103,
    "कीे": 104,
    "कु": 105,
    "कुं": 106,
    "कु॰": 107,
    "कू": 108,
    "कृ": 109,
    "कॅ": 110,
    "कॅा": 111,
    "कॆ": 112,
    "कॆं": 113,
    "के": 114,
    "कें": 115,
    "केॆ्टा": 116,
    "केे": 117,
    "कै": 118,
    "कॉ": 119,
    "कॊ": 120,
    "कॊं": 121,
    "को": 122,
    "कोँ": 123,
    "कों": 124,
    "कों‌": 125,
    "क्": 126,
    "क्क": 127,
    "क्कं": 128,
    "क्का": 129,
    "क्कि": 130,
    "क्कु": 131,
    "क्कुं": 132,
    "क्कू": 133,
    "क्कॆ": 134,
    "क्के": 135,
    "क्कै": 136,
    "क्कॊ": 137,
    "क्को": 138,
    "क्क्": 139,
    "क्क्‌": 140,
    "क्ट": 141,
    "क्टो": 142,
    "क्ट्रि": 143,
    "क्ट्रो": 144,
    "क्त": 145,
    "क्तां": 146,
    "क्ति": 147,
    "क्तीं": 148,
    "क्तु": 149,
    "क्नो": 150,
    "क्प": 151,
    "क्पे": 152,
    "क्मि": 153,
    "क्य": 154,
    "क्या": 155,
    "क्यू": 156,
    "क्र": 157,
    "क्रं": 158,
    "क्रा": 159,
    "क्रि": 160,
    "क्री": 161,
    "क्रे": 162,
    "क्रै": 163,
    "क्रो": 164,
    "क्ला": 165,
    "क्ळे": 166,
    "क्व": 167,
    "क्वा": 168,
    "क्वॆ": 169,
    "क्श": 170,
    "क्ष": 171,
    "क्षा": 172,
    "क्षां": 173,
    "क्षि": 174,
    "क्षिं": 175,
    "क्षी": 176,
    "क्षुः": 177,
    "क्षे": 178,
    "क्षो": 179,
    "क्ष्म": 180,
    "क्ष्मि": 181,
    "क्ष्मी": 182,
    "क्ष्य": 183,
    "क्स": 184,
    "क्सि": 185,
    "क्स्": 186,
    "क्य़ा": 187,
    "क्॰": 188,
    "क्॰ा": 189,
    "क्॰े": 190,
    "क्‌": 191,
    "क्‍": 192,
    "क॰": 193,
    "कॱ": 194,
    "क‌": 195,
    "क‍ी": 196,
    "ख": 197,
    "खं": 198,
    "ख़": 199,
    "खा": 200,
    "खाँ": 201,
    "खि": 202,
    "खी": 203,
    "खु": 204,
    "खू": 205,
    "खॆ": 206,
    "खे": 207,
    "खै": 208,
    "खो": 209,
    "ख्त": 210,
    "ख्य": 211,
    "ख्यु": 212,
    "ख्रीः": 213,
    "ग": 214,
    "गं": 215,
    "गा": 216,
    "गां": 217,
    "गि": 218,
    "गि॰": 219,
    "गी": 220,
    "गु": 221,
    "गुं": 222,
    "गू": 223,
    "गृ": 224,
    "गॆ": 225,
    "गॆं": 226,
    "गे": 227,
    "गे्ड": 228,
    "गै": 229,
    "गॊ": 230,
    "गो": 231,
    "गों": 232,
    "गौ": 233,
    "ग्": 234,
    "ग्ग": 235,
    "ग्गा": 236,
    "ग्गि": 237,
    "ग्गॆ": 238,
    "ग्ण": 239,
    "ग्नि": 240,
    "ग्ब": 241,
    "ग्भ": 242,
    "ग्य": 243,
    "ग्या": 244,
    "ग्ये": 245,
    "ग्र": 246,
    "ग्रं": 247,
    "ग्रा": 248,
    "ग्रां": 249,
    "ग्री": 250,
    "ग्रू": 251,
    "ग्रे": 252,
    "ग्ला": 253,
    "ग्ली": 254,
    "ग्वा": 255,
    "ग्ष": 256,
    "ग्स": 257,
    "ग्य़ा": 258,
    "ग्॰ु": 259,
    "ग्‌": 260,
    "ग॰": 261,
    "गॱ": 262,
    "घ": 263,
    "घं": 264,
    "घा": 265,
    "घां": 266,
    "घु": 267,
    "घे": 268,
    "घो": 269,
    "घौ": 270,
    "घ्य": 271,
    "घ्या": 272,
    "घ्र": 273,
    "ङ": 274,
    "ङा": 275,
    "ङि": 276,
    "ङे": 277,
    "ङ्": 278,
    "ङ्क": 279,
    "ङ्का": 280,
    "ङ्कि": 281,
    "ङ्कु": 282,
    "ङ्के": 283,
    "ङ्कै": 284,
    "ङ्को": 285,
    "ङ्क्": 286,
    "ङ्ग": 287,
    "ङ्गा": 288,
    "ङ्गी": 289,
    "ङ्गु": 290,
    "ङ्गे": 291,
    "ङ्गो": 292,
    "ङ्घ": 293,
    "ङ्ङ": 294,
    "ङ्ङा": 295,
    "ङ्ङि": 296,
    "ङ्ङे": 297,
    "ङ्ङो": 298,
    "ङ्ङों": 299,
    "ङ्ट": 300,
    "ङ्त": 301,
    "ङ्ष": 302,
    "ङ्‌": 303,
    "च": 304,
    "चं": 305,
    "चा": 306,
    "चां": 307,
    "चा्": 308,
    "चा्जि": 309,
    "चा्व": 310,
    "चि": 311,
    "चिं": 312,
    "ची": 313,
    "चु": 314,
    "चुे": 315,
    "चू": 316,
    "चॆ": 317,
    "चे": 318,
    "चें": 319,
    "चेा्ऩ्": 320,
    "चै": 321,
    "चॊ": 322,
    "चो": 323,
    "चौ": 324,
    "च्": 325,
    "च्च": 326,
    "च्चं": 327,
    "च्चा": 328,
    "च्चि": 329,
    "च्ची": 330,
    "च्चे": 331,
    "च्चेाि": 332,
    "च्च्": 333,
    "च्च्‌": 334,
    "च्छ": 335,
    "च्छा": 336,
    "च्छु": 337,
    "च्छे": 338,
    "च्छ्": 339,
    "च्ट": 340,
    "च्य": 341,
    "च्या": 342,
    "च्यु": 343,
    "च॑": 344,
    "च॰": 345,
    "चॱ": 346,
    "छ": 347,
    "छा": 348,
    "छि": 349,
    "छु": 350,
    "छुॱ": 351,
    "छे": 352,
    "छें": 353,
    "छो": 354,
    "छोँ": 355,
    "छ॰": 356,
    "ज": 357,
    "जं": 358,
    "ज़": 359,
    "ज़ी": 360,
    "ज़ु": 361,
    "जा": 362,
    "जि": 363,
    "जिं": 364,
    "जि॰": 365,
    "जिॱ": 366,
    "जी": 367,
    "जु": 368,
    "जुॱ": 369,
    "जू": 370,
    "जॆ": 371,
    "जे": 372,
    "जें": 373,
    "जै": 374,
    "जो": 375,
    "ज्": 376,
    "ज्ज": 377,
    "ज्जं": 378,
    "ज्ज्": 379,
    "ज्ञ": 380,
    "ज्ञा": 381,
    "ज्ञी": 382,
    "ज्ब": 383,
    "ज्य": 384,
    "ज्यु": 385,
    "ज्यू": 386,
    "ज्येा": 387,
    "ज्यो": 388,
    "ज्यों": 389,
    "ज्व": 390,
    "ज्सि": 391,
    "ज्य़": 392,
    "ज॰": 393,
    "झ": 394,
    "झा": 395,
    "झाँ": 396,
    "झां": 397,
    "झि": 398,
    "झी": 399,
    "झे": 400,
    "झ॰": 401,
    "ञ": 402,
    "ञा": 403,
    "ञ्च": 404,
    "ञ्चा": 405,
    "ञ्चा्": 406,
    "ञ्चि": 407,
    "ञ्ज": 408,
    "ञ्जा": 409,
    "ञ्जि": 410,
    "ञ्जी": 411,
    "ञ्ञ": 412,
    "ञ्ञा": 413,
    "ञ्ञि": 414,
    "ञ्ञॆ": 415,
    "ञ्ञो": 416,
    "ट": 417,
    "टं": 418,
    "टा": 419,
    "टां": 420,
    "टाा": 421,
    "टि": 422,
    "टिं": 423,
    "टी": 424,
    "टु": 425,
    "टुं": 426,
    "टू": 427,
    "टॆ": 428,
    "टे": 429,
    "टै": 430,
    "टैं": 431,
    "टो": 432,
    "टों": 433,
    "टौ": 434,
    "ट्": 435,
    "ट्चाा्च्च": 436,
    "ट्चि": 437,
    "ट्ट": 438,
    "ट्टं": 439,
    "ट्टा": 440,
    "ट्टि": 441,
    "ट्टी": 442,
    "ट्टु": 443,
    "ट्टुं": 444,
    "ट्टूा्पु": 445,
    "ट्टॆ": 446,
    "ट्टै": 447,
    "ट्टो": 448,
    "ट्ट्": 449,
    "ट्ण": 450,
    "ट्त": 451,
    "ट्न": 452,
    "ट्नं": 453,
    "ट्प": 454,
    "ट्मि": 455,
    "ट्य": 456,
    "ट्यू": 457,
    "ट्र": 458,
    "ट्रा": 459,
    "ट्रि": 460,
    "ट्रॆ": 461,
    "ट्रे": 462,
    "ट्रै": 463,
    "ट्रो": 464,
    "ट्र्या": 465,
    "ट्ल": 466,
    "ट्लु": 467,
    "ट्व": 468,
    "ट्श्री": 469,
    "ट्स्": 470,
    "ट्॰": 471,
    "ट्‌": 472,
    "ट्‍": 473,
    "टॗ": 474,
    "ट‌": 475,
    "ठ": 476,
    "ठा": 477,
    "ठि": 478,
    "ठि॰": 479,
    "ठी": 480,
    "ठे": 481,
    "ठें": 482,
    "ठो": 483,
    "ठ्ठ": 484,
    "ड": 485,
    "डः": 486,
    "ड़": 487,
    "ड़ा": 488,
    "ड़ि": 489,
    "ड़ी": 490,
    "ड़े": 491,
    "ड़ौ": 492,
    "डा": 493,
    "डाः": 494,
    "डि": 495,
    "डिं": 496,
    "डी": 497,
    "डु": 498,
    "डू": 499,
    "डॆ": 500,
    "डॆं": 501,
    "डे": 502,
    "डै": 503,
    "डो": 504,
    "ड्": 505,
    "ड्क": 506,
    "ड्ड": 507,
    "ड्डा": 508,
    "ड्डि": 509,
    "ड्डु": 510,
    "ड्पे": 511,
    "ड्यं": 512,
    "ड्या": 513,
    "ड्यां": 514,
    "ड्यू": 515,
    "ड्र": 516,
    "ड्रा": 517,
    "ड्रि": 518,
    "ड्री": 519,
    "ड्स्": 520,
    "ड्‌": 521,
    "ड्‍": 522,
    "ढ": 523,
    "ढ़": 524,
    "ढ़ि": 525,
    "ढ़ी": 526,
    "ढि": 527,
    "ढु": 528,
    "ढे": 529,
    "ढे़": 530,
    "ण": 531,
    "णं": 532,
    "ण़": 533,
    "णा": 534,
    "णाः": 535,
    "णि": 536,
    "णी": 537,
    "णीं": 538,
    "णु": 539,
    "णु्": 540,
    "णू": 541,
    "णॆ": 542,
    "णे": 543,
    "णै": 544,
    "णो": 545,
    "ण्": 546,
    "ण्क": 547,
    "ण्का": 548,
    "ण्ट": 549,
    "ण्टं": 550,
    "ण्टा": 551,
    "ण्टि": 552,
    "ण्टी": 553,
    "ण्टु": 554,
    "ण्टू": 555,
    "ण्टॆ": 556,
    "ण्टे": 557,
    "ण्टै": 558,
    "ण्ट्": 559,
    "ण्ट्स्": 560,
    "ण्ट्‌": 561,
    "ण्ठु": 562,
    "ण्ड": 563,
    "ण्डा": 564,
    "ण्डि": 565,
    "ण्ण": 566,
    "ण्णा": 567,
    "ण्णि": 568,
    "ण्णी": 569,
    "ण्णु": 570,
    "ण्णू": 571,
    "ण्णू‍": 572,
    "ण्ता": 573,
    "ण्ति": 574,
    "ण्पु": 575,
    "ण्मै": 576,
    "ण्य": 577,
    "ण्या": 578,
    "ण्‌": 579,
    "ण‍": 580,
    "त": 581,
    "तं": 582,
    "तः": 583,
    "त़": 584,
    "त़ा": 585,
    "त़ि": 586,
    "ता": 587,
    "ताँ": 588,
    "तां": 589,
    "ता्का": 590,
    "ति": 591,
    "तिं": 592,
    "तिः": 593,
    "तिाि": 594,
    "ती": 595,
    "तीा्": 596,
    "तीा्त्त": 597,
    "तु": 598,
    "तुं": 599,
    "तू": 600,
    "तूा्": 601,
    "तू॰": 602,
    "तृ": 603,
    "तॆ": 604,
    "तॆॆ": 605,
    "तॆ्र्र": 606,
    "ते": 607,
    "तें": 608,
    "तै": 609,
    "तॊ": 610,
    "तो": 611,
    "तों": 612,
    "त्": 613,
    "त्उ": 614,
    "त्क": 615,
    "त्का": 616,
    "त्कू": 617,
    "त्त": 618,
    "त्ता": 619,
    "त्ति": 620,
    "त्ती": 621,
    "त्तु": 622,
    "त्तू": 623,
    "त्तॆ": 624,
    "त्ते": 625,
    "त्तेा्": 626,
    "त्तै": 627,
    "त्तॊ": 628,
    "त्तो": 629,
    "त्त्": 630,
    "त्त्य": 631,
    "त्त्व": 632,
    "त्त्‌": 633,
    "त्थ": 634,
    "त्थि": 635,
    "त्न": 636,
    "त्प": 637,
    "त्बे": 638,
    "त्भ": 639,
    "त्म": 640,
    "त्मा": 641,
    "त्य": 642,
    "त्या": 643,
    "त्यां": 644,
    "त्यु": 645,
    "त्ये": 646,
    "त्य्": 647,
    "त्र": 648,
    "त्रं": 649,
    "त्रं‌": 650,
    "त्रा": 651,
    "त्रि": 652,
    "त्री": 653,
    "त्रॆ": 654,
    "त्रे": 655,
    "त्रों": 656,
    "त्र्य": 657,
    "त्र्यं": 658,
    "त्व": 659,
    "त्वा": 660,
    "त्वि": 661,
    "त्स": 662,
    "त्सा": 663,
    "त्स्": 664,
    "त्स्ना": 665,
    "त्य़": 666,
    "त्य़ु": 667,
    "त्य़े": 668,
    "त्॰": 669,
    "त्‌": 670,
    "त्‍": 671,
    "त॰": 672,
    "त‍े": 673,
    "थ": 674,
    "था": 675,
    "थां": 676,
    "थि": 677,
    "थी": 678,
    "थु": 679,
    "थू": 680,
    "थृ": 681,
    "थे": 682,
    "थों": 683,
    "थ्य": 684,
    "द": 685,
    "दं": 686,
    "दा": 687,
    "दां": 688,
    "दि": 689,
    "दिं": 690,
    "दि॰": 691,
    "दी": 692,
    "दु": 693,
    "दुि": 694,
    "दू": 695,
    "दूं": 696,
    "दृ": 697,
    "दॆ": 698,
    "दे": 699,
    "दें": 700,
    "दै": 701,
    "दॊ": 702,
    "दो": 703,
    "दौ": 704,
    "द्": 705,
    "द्घा": 706,
    "द्ट": 707,
    "द्टु": 708,
    "द्द": 709,
    "द्दा": 710,
    "द्दि": 711,
    "द्दु": 712,
    "द्ध": 713,
    "द्धा": 714,
    "द्धि": 715,
    "द्धी": 716,
    "द्ध्य": 717,
    "द्ध्यं": 718,
    "द्ब": 719,
    "द्बा": 720,
    "द्बि": 721,
    "द्बी": 722,
    "द्बो": 723,
    "द्म": 724,
    "द्मा": 725,
    "द्य": 726,
    "द्या": 727,
    "द्यो": 728,
    "द्र": 729,
    "द्रा": 730,
    "द्रि": 731,
    "द्री": 732,
    "द्रु": 733,
    "द्रे": 734,
    "द्रौ": 735,
    "द्व": 736,
    "द्वा": 737,
    "द्वी": 738,
    "द्शि": 739,
    "द्य़": 740,
    "द्य़ा": 741,
    "द्॰": 742,
    "द्‌": 743,
    "ध": 744,
    "धा": 745,
    "धि": 746,
    "धिि": 747,
    "धी": 748,
    "धीं": 749,
    "धु": 750,
    "धू": 751,
    "धे": 752,
    "धो": 753,
    "ध्दा": 754,
    "ध्दी": 755,
    "ध्ब": 756,
    "ध्य": 757,
    "ध्या": 758,
    "ध्ये": 759,
    "ध्र": 760,
    "ध्व": 761,
    "ध॰": 762,
    "न": 763,
    "नं": 764,
    "नः": 765,
    "ना": 766,
    "नाँ": 767,
    "नां": 768,
    "नाि": 769,
    "ना्": 770,
    "नि": 771,
    "निं": 772,
    "निॕ": 773,
    "नि‍": 774,
    "नी": 775,
    "नीा्": 776,
    "नु": 777,
    "नुं": 778,
    "नू": 779,
    "नू॰": 780,
    "नृ": 781,
    "नॅ": 782,
    "नॆ": 783,
    "ने": 784,
    "नेे": 785,
    "नै": 786,
    "नॊ": 787,
    "नो": 788,
    "नौ": 789,
    "न्": 790,
    "न्कु": 791,
    "न्ट": 792,
    "न्टा": 793,
    "न्ट्र": 794,
    "न्ट्रा": 795,
    "न्ड": 796,
    "न्डि": 797,
    "न्डी": 798,
    "न्डे": 799,
    "न्त": 800,
    "न्ता": 801,
    "न्ति": 802,
    "न्ती": 803,
    "न्तु": 804,
    "न्तू": 805,
    "न्ते": 806,
    "न्तो": 807,
    "न्त्": 808,
    "न्त्य": 809,
    "न्त्र": 810,
    "न्त्रि": 811,
    "न्त्री": 812,
    "न्त्॰ा": 813,
    "न्त्॰ि": 814,
    "न्त्॰ी": 815,
    "न्थ": 816,
    "न्था": 817,
    "न्द": 818,
    "न्दा": 819,
    "न्दि": 820,
    "न्दी": 821,
    "न्दु": 822,
    "न्दे": 823,
    "न्दो": 824,
    "न्द्यो": 825,
    "न्द्र": 826,
    "न्द्रं": 827,
    "न्द्रा": 828,
    "न्द्री": 829,
    "न्द्र्र": 830,
    "न्द्॰": 831,
    "न्द्॰ी": 832,
    "न्द्‌": 833,
    "न्ध": 834,
    "न्धं": 835,
    "न्धा": 836,
    "न्धि": 837,
    "न्धी": 838,
    "न्ध्यं": 839,
    "न्न": 840,
    "न्नं": 841,
    "न्ना": 842,
    "न्नि": 843,
    "न्नी": 844,
    "न्नु": 845,
    "न्नुं": 846,
    "न्नू": 847,
    "न्नै": 848,
    "न्न्": 849,
    "न्ब": 850,
    "न्म": 851,
    "न्मा": 852,
    "न्मे": 853,
    "न्मो": 854,
    "न्म्या": 855,
    "न्य": 856,
    "न्यः": 857,
    "न्या": 858,
    "न्यु": 859,
    "न्यू": 860,
    "न्ये": 861,
    "न्ऱ": 862,
    "न्ऱा": 863,
    "न्ऱॆ": 864,
    "न्ऱ्": 865,
    "न्ल": 866,
    "न्वी": 867,
    "न्वे": 868,
    "न्स": 869,
    "न्सा": 870,
    "न्सि": 871,
    "न्सी": 872,
    "न्सू": 873,
    "न्स्": 874,
    "न्स्टि": 875,
    "न्हा": 876,
    "न्हां": 877,
    "न्य़": 878,
    "न्य़ा": 879,
    "न॰": 880,
    "न॰ः": 881,
    "नॱ": 882,
    "ऩ": 883,
    "ऩा": 884,
    "ऩा्": 885,
    "ऩि": 886,
    "ऩी": 887,
    "ऩु": 888,
    "ऩू": 889,
    "ऩे": 890,
    "ऩै": 891,
    "ऩ्": 892,
    "ऩ्टा्": 893,
    "ऩ्ट्": 894,
    "ऩ्ट्र": 895,
    "ऩ्ऩ": 896,
    "ऩ्ऩा": 897,
    "ऩ्ऩूा्": 898,
    "ऩ्ऩै": 899,
    "ऩ्ऩो": 900,
    "ऩ्पु": 901,
    "ऩ्ऱ": 902,
    "ऩ्ऱि": 903,
    "ऩ्वॆ": 904,
    "प": 905,
    "पं": 906,
    "पा": 907,
    "पाँ": 908,
    "पां": 909,
    "पा्": 910,
    "पि": 911,
    "पिं": 912,
    "पिा": 913,
    "पिाि": 914,
    "पिु": 915,
    "पी": 916,
    "पु": 917,
    "पू": 918,
    "पूँ": 919,
    "पॅ": 920,
    "पॆ": 921,
    "पॆं": 922,
    "पे": 923,
    "पेा": 924,
    "पै": 925,
    "पैा": 926,
    "पॉ": 927,
    "पॊ": 928,
    "पॊं": 929,
    "पो": 930,
    "पोा्चु": 931,
    "पौ": 932,
    "प्": 933,
    "प्का": 934,
    "प्टॆ": 935,
    "प्ण": 936,
    "प्त": 937,
    "प्प": 938,
    "प्पं": 939,
    "प्पा": 940,
    "प्पि": 941,
    "प्पिं": 942,
    "प्पी": 943,
    "प्पु": 944,
    "प्पॆ": 945,
    "प्पे": 946,
    "प्पो": 947,
    "प्प्": 948,
    "प्प्मू": 949,
    "प्प्‌": 950,
    "प्या": 951,
    "प्र": 952,
    "प्रा": 953,
    "प्रां": 954,
    "प्राः": 955,
    "प्रि": 956,
    "प्री": 957,
    "प्रीि": 958,
    "प्रॅ": 959,
    "प्रॆ": 960,
    "प्रे": 961,
    "प्रै": 962,
    "प्रॊ": 963,
    "प्रो": 964,
    "प्रौ": 965,
    "प्ल": 966,
    "प्ला": 967,
    "प्ले": 968,
    "प्लै": 969,
    "प्लॉ": 970,
    "प्ष": 971,
    "प्स्": 972,
    "प्॰": 973,
    "प्॰ि": 974,
    "प्‌": 975,
    "प्‍": 976,
    "प॰": 977,
    "प‌": 978,
    "फ": 979,
    "फ़": 980,
    "फा": 981,
    "फां": 982,
    "फि": 983,
    "फी": 984,
    "फु": 985,
    "फॆ": 986,
    "फे": 987,
    "फै": 988,
    "फो": 989,
    "फ्": 990,
    "फ्ट्": 991,
    "फ्या": 992,
    "फ्र": 993,
    "फ्री": 994,
    "फ्रू": 995,
    "फ्रो": 996,
    "फ्ला": 997,
    "फ्॰े": 998,
    "ब": 999,
    "बँ": 1000,
    "बं": 1001,
    "बा": 1002,
    "बां": 1003,
    "बि": 1004,
    "बि॰": 1005,
    "बी": 1006,
    "बु": 1007,
    "बू": 1008,
    "बृ": 1009,
    "बॆ": 1010,
    "बॆं": 1011,
    "बे": 1012,
    "बें": 1013,
    "बै": 1014,
    "बैं": 1015,
    "बॉ": 1016,
    "बो": 1017,
    "बौ": 1018,
    "ब्": 1019,
    "ब्थ": 1020,
    "ब्द": 1021,
    "ब्दी": 1022,
    "ब्दु": 1023,
    "ब्ध": 1024,
    "ब्ब": 1025,
    "ब्बा": 1026,
    "ब्य": 1027,
    "ब्या": 1028,
    "ब्यां": 1029,
    "ब्यु": 1030,
    "ब्यू": 1031,
    "ब्र": 1032,
    "ब्रा": 1033,
    "ब्रि": 1034,
    "ब्रु": 1035,
    "ब्रू": 1036,
    "ब्रे": 1037,
    "ब्ल": 1038,
    "ब्लि": 1039,
    "ब्लु": 1040,
    "ब्ल्यू": 1041,
    "ब्स": 1042,
    "ब्सि": 1043,
    "ब्य़": 1044,
    "ब्य़ा": 1045,
    "ब्॰ु": 1046,
    "ब्‌": 1047,
    "ब्‍": 1048,
    "ब॰": 1049,
    "बॱ": 1050,
    "भ": 1051,
    "भं": 1052,
    "भा": 1053,
    "भां": 1054,
    "भि": 1055,
    "भिं": 1056,
    "भी": 1057,
    "भु": 1058,
    "भू": 1059,
    "भृा": 1060,
    "भे": 1061,
    "भें": 1062,
    "भै": 1063,
    "भो": 1064,
    "भ्य": 1065,
    "भ्या": 1066,
    "भ्र": 1067,
    "भ॰": 1068,
    "म": 1069,
    "मं": 1070,
    "मः": 1071,
    "मा": 1072,
    "मां": 1073,
    "मााि": 1074,
    "मा‍": 1075,
    "मि": 1076,
    "मी": 1077,
    "मु": 1078,
    "मुं": 1079,
    "मुॱ": 1080,
    "मू": 1081,
    "मूा्त्ति": 1082,
    "मृ": 1083,
    "मॆ": 1084,
    "मे": 1085,
    "में": 1086,
    "मै": 1087,
    "मैं": 1088,
    "मैा": 1089,
    "मॊ": 1090,
    "मो": 1091,
    "मों": 1092,
    "मौ": 1093,
    "म्": 1094,
    "म्A": 1095,
    "म्ः": 1096,
    "म्का": 1097,
    "म्के": 1098,
    "म्प": 1099,
    "म्पा": 1100,
    "म्पि": 1101,
    "म्पु": 1102,
    "म्पू": 1103,
    "म्पे": 1104,
    "म्पो": 1105,
    "म्प्": 1106,
    "म्प्य": 1107,
    "म्प्या": 1108,
    "म्प्यु": 1109,
    "म्प्र": 1110,
    "म्प्॰": 1111,
    "म्ब": 1112,
    "म्बा": 1113,
    "म्बि": 1114,
    "म्बे": 1115,
    "म्ब्न": 1116,
    "म्भ": 1117,
    "म्भा": 1118,
    "म्भु": 1119,
    "म्म": 1120,
    "म्मा": 1121,
    "म्मि": 1122,
    "म्मु": 1123,
    "म्मू": 1124,
    "म्मे": 1125,
    "म्य": 1126,
    "म्या": 1127,
    "म्यां": 1128,
    "म्यु": 1129,
    "म्यू": 1130,
    "म्र": 1131,
    "म्रि": 1132,
    "म्श": 1133,
    "म्स": 1134,
    "म्ह": 1135,
    "म्ही": 1136,
    "म्य़": 1137,
    "म्य़ो": 1138,
    "म्॰ा": 1139,
    "म॰": 1140,
    "मॱ": 1141,
    "य": 1142,
    "यं": 1143,
    "य़": 1144,
    "य़ा": 1145,
    "य़े": 1146,
    "या": 1147,
    "यां": 1148,
    "याा्": 1149,
    "याा्पे": 1150,
    "या‍": 1151,
    "यि": 1152,
    "यिाि": 1153,
    "यी": 1154,
    "यु": 1155,
    "युं": 1156,
    "यू": 1157,
    "यॆ": 1158,
    "ये": 1159,
    "यें": 1160,
    "यै": 1161,
    "यॊ": 1162,
    "यो": 1163,
    "यों": 1164,
    "य्": 1165,
    "य्क्का": 1166,
    "य्क्कु": 1167,
    "य्क्क्": 1168,
    "य्त": 1169,
    "य्न्त": 1170,
    "य्भ": 1171,
    "य्म": 1172,
    "य्मा": 1173,
    "य्य": 1174,
    "य्यु": 1175,
    "य्यो": 1176,
    "य्वु": 1177,
    "य्स्री": 1178,
    "य्‌": 1179,
    "र": 1180,
    "रं": 1181,
    "ऱ": 1182,
    "रा": 1183,
    "रां": 1184,
    "राा्": 1185,
    "रा्": 1186,
    "रि": 1187,
    "रि॰": 1188,
    "री": 1189,
    "रीं": 1190,
    "रु": 1191,
    "रुं": 1192,
    "रु‍": 1193,
    "रू": 1194,
    "रॆ": 1195,
    "रॆं": 1196,
    "रे": 1197,
    "रें": 1198,
    "रै": 1199,
    "रॉँ": 1200,
    "रॊ": 1201,
    "रो": 1202,
    "र्": 1203,
    "र्ऎ": 1204,
    "र्क": 1205,
    "र्का": 1206,
    "र्कि": 1207,
    "र्किं": 1208,
    "र्कॆ": 1209,
    "र्के": 1210,
    "र्कॊं": 1211,
    "र्ग": 1212,
    "र्गा": 1213,
    "र्गि": 1214,
    "र्च": 1215,
    "र्चा": 1216,
    "र्चि": 1217,
    "र्चू": 1218,
    "र्च्चि": 1219,
    "र्ज": 1220,
    "र्जा": 1221,
    "र्जि": 1222,
    "र्जी": 1223,
    "र्ट": 1224,
    "र्टि": 1225,
    "र्टी": 1226,
    "र्ट्": 1227,
    "र्ट्स्": 1228,
    "र्ड": 1229,
    "र्डी": 1230,
    "र्डॆ": 1231,
    "र्ण": 1232,
    "र्णा": 1233,
    "र्णि": 1234,
    "र्णी": 1235,
    "र्णो": 1236,
    "र्त": 1237,
    "र्ति": 1238,
    "र्ती": 1239,
    "र्तु": 1240,
    "र्ते": 1241,
    "र्त्त": 1242,
    "र्त्ता": 1243,
    "र्थ": 1244,
    "र्थं": 1245,
    "र्थि": 1246,
    "र्द": 1247,
    "र्दि": 1248,
    "र्दे": 1249,
    "र्द्": 1250,
    "र्ध": 1251,
    "र्न": 1252,
    "र्ना": 1253,
    "र्नी": 1254,
    "र्प": 1255,
    "र्पा": 1256,
    "र्पे": 1257,
    "र्पै": 1258,
    "र्पॊ": 1259,
    "र्पो": 1260,
    "र्फे": 1261,
    "र्ब": 1262,
    "र्बा": 1263,
    "र्बि": 1264,
    "र्बो": 1265,
    "र्ब्ब": 1266,
    "र्भ": 1267,
    "र्भी": 1268,
    "र्म": 1269,
    "र्मा": 1270,
    "र्मि": 1271,
    "र्मी": 1272,
    "र्मु": 1273,
    "र्मे": 1274,
    "र्म्": 1275,
    "र्य": 1276,
    "र्या": 1277,
    "र्य्य": 1278,
    "र्य्या": 1279,
    "र्य्य़": 1280,
    "र्य्य़ा": 1281,
    "र्र": 1282,
    "र्रा": 1283,
    "र्रि": 1284,
    "र्ल": 1285,
    "र्लु": 1286,
    "र्लो": 1287,
    "र्व": 1288,
    "र्वा": 1289,
    "र्वि": 1290,
    "र्वे": 1291,
    "र्श": 1292,
    "र्शि": 1293,
    "र्ष": 1294,
    "र्षा": 1295,
    "र्षि": 1296,
    "र्षे": 1297,
    "र्स": 1298,
    "र्सि": 1299,
    "र्सिं": 1300,
    "र्सी": 1301,
    "र्सु": 1302,
    "र्स्": 1303,
    "र्‌": 1304,
    "र॰": 1305,
    "रॱ": 1306,
    "र‌": 1307,
    "र‍": 1308,
    "ऱ": 1309,
    "ऱं": 1310,
    "ऱा": 1311,
    "ऱि": 1312,
    "ऱिं": 1313,
    "ऱी": 1314,
    "ऱु": 1315,
    "ऱुं": 1316,
    "ऱू": 1317,
    "ऱॆ": 1318,
    "ऱे": 1319,
    "ऱै": 1320,
    "ऱो": 1321,
    "ऱ्": 1322,
    "ऱ्क": 1323,
    "ऱ्का": 1324,
    "ऱ्कु": 1325,
    "ऱ्के": 1326,
    "ऱ्प": 1327,
    "ऱ्पू": 1328,
    "ऱ्ऱ": 1329,
    "ऱ्ऱं": 1330,
    "ऱ्ऱा": 1331,
    "ऱ्ऱि": 1332,
    "ऱ्ऱी": 1333,
    "ऱ्ऱु": 1334,
    "ऱ्ऱे": 1335,
    "ऱ्ऱो": 1336,
    "ऱ्ऱ्": 1337,
    "ल": 1338,
    "लं": 1339,
    "ला": 1340,
    "लां": 1341,
    "लि": 1342,
    "लिं": 1343,
    "लिा": 1344,
    "ली": 1345,
    "लु": 1346,
    "लुं": 1347,
    "लू": 1348,
    "लूा्": 1349,
    "लॆ": 1350,
    "लॆं": 1351,
    "ले": 1352,
    "लै": 1353,
    "लॉ": 1354,
    "लो": 1355,
    "लोँ": 1356,
    "लौ": 1357,
    "ल्": 1358,
    "ल्क": 1359,
    "ल्कि": 1360,
    "ल्कै": 1361,
    "ल्क्स्": 1362,
    "ल्गू": 1363,
    "ल्ट": 1364,
    "ल्टि": 1365,
    "ल्टी": 1366,
    "ल्टु": 1367,
    "ल्ट्": 1368,
    "ल्ट्रा": 1369,
    "ल्ड": 1370,
    "ल्डीं": 1371,
    "ल्ड्र": 1372,
    "ल्थ": 1373,
    "ल्दा": 1374,
    "ल्नी": 1375,
    "ल्प": 1376,
    "ल्पी": 1377,
    "ल्पॊ": 1378,
    "ल्फे": 1379,
    "ल्य": 1380,
    "ल्या": 1381,
    "ल्यां": 1382,
    "ल्यु": 1383,
    "ल्ल": 1384,
    "ल्लं": 1385,
    "ल्ला": 1386,
    "ल्ला‍": 1387,
    "ल्लि": 1388,
    "ल्ली": 1389,
    "ल्लु": 1390,
    "ल्लू": 1391,
    "ल्लूाि": 1392,
    "ल्लूा्": 1393,
    "ल्लॆ": 1394,
    "ल्ले": 1395,
    "ल्लै": 1396,
    "ल्वि": 1397,
    "ल्वॆ": 1398,
    "ल्वे": 1399,
    "ल्स्": 1400,
    "ल्हा": 1401,
    "ल्हे": 1402,
    "ल्ह्या": 1403,
    "ल्‌": 1404,
    "ल्‍": 1405,
    "ल॰": 1406,
    "लॱ": 1407,
    "ळ": 1408,
    "ळं": 1409,
    "ळा": 1410,
    "ळां": 1411,
    "ळा्": 1412,
    "ळि": 1413,
    "ळिं": 1414,
    "ळी": 1415,
    "ळु": 1416,
    "ळुं": 1417,
    "ळू": 1418,
    "ळॆ": 1419,
    "ळे": 1420,
    "ळै": 1421,
    "ळो": 1422,
    "ळ्": 1423,
    "ळ्अ": 1424,
    "ळ्ट": 1425,
    "ळ्प": 1426,
    "ळ्मि": 1427,
    "ळ्मी": 1428,
    "ळ्या": 1429,
    "ळ्यां": 1430,
    "ळ्ळ": 1431,
    "ळ्ळा": 1432,
    "ळ्ळि": 1433,
    "ळ्ळी": 1434,
    "ळ्ळु": 1435,
    "ळ‍": 1436,
    "ऴ": 1437,
    "ऴा": 1438,
    "ऴि": 1439,
    "ऴि‌": 1440,
    "ऴु": 1441,
    "ऴॆ": 1442,
    "ऴेां": 1443,
    "ऴै": 1444,
    "ऴ्": 1445,
    "ऴ्क": 1446,
    "ऴ्च्": 1447,
    "ऴ्त्त": 1448,
    "ऴ्न": 1449,
    "ऴ्ना": 1450,
    "ऴ्वु": 1451,
    "ऴ्स्": 1452,
    "ऴ्‌": 1453,
    "व": 1454,
    "वं": 1455,
    "वः": 1456,
    "व़": 1457,
    "वा": 1458,
    "वां": 1459,
    "वा्": 1460,
    "वा्स्": 1461,
    "वि": 1462,
    "विं": 1463,
    "वि॰": 1464,
    "विॱ": 1465,
    "वी": 1466,
    "वीं": 1467,
    "वीः": 1468,
    "वु": 1469,
    "वुं": 1470,
    "वू": 1471,
    "वृ": 1472,
    "वॅ": 1473,
    "वॆ": 1474,
    "वॆं": 1475,
    "वे": 1476,
    "वेा्ल्टु": 1477,
    "वै": 1478,
    "वॉ": 1479,
    "वॊ": 1480,
    "वो": 1481,
    "व्": 1482,
    "व्भ": 1483,
    "व्य": 1484,
    "व्या": 1485,
    "व्र": 1486,
    "व्व": 1487,
    "व्वं": 1488,
    "व्वि": 1489,
    "व्वी": 1490,
    "व्वू": 1491,
    "व्वे": 1492,
    "व्ह": 1493,
    "व्हि": 1494,
    "व्ही": 1495,
    "व्‌": 1496,
    "व॰": 1497,
    "व‌": 1498,
    "श": 1499,
    "शं": 1500,
    "शा": 1501,
    "शां": 1502,
    "शाः": 1503,
    "शि": 1504,
    "शी": 1505,
    "शीू": 1506,
    "शु": 1507,
    "शू": 1508,
    "शृ": 1509,
    "शॅ": 1510,
    "शॆ": 1511,
    "शे": 1512,
    "शै": 1513,
    "शो": 1514,
    "श्": 1515,
    "श्च": 1516,
    "श्चि": 1517,
    "श्ते": 1518,
    "श्ब": 1519,
    "श्मा": 1520,
    "श्य": 1521,
    "श्र": 1522,
    "श्रा": 1523,
    "श्रि": 1524,
    "श्री": 1525,
    "श्रु": 1526,
    "श्रे": 1527,
    "श्व": 1528,
    "श्वा": 1529,
    "श्श": 1530,
    "श्शि": 1531,
    "श्शे": 1532,
    "श्ष": 1533,
    "श्स": 1534,
    "श्य़": 1535,
    "श्॰ी": 1536,
    "श्ॱ": 1537,
    "श्‍": 1538,
    "शॗ": 1539,
    "ष": 1540,
    "षं": 1541,
    "षा": 1542,
    "षि": 1543,
    "षी": 1544,
    "षु": 1545,
    "षू": 1546,
    "षे": 1547,
    "षो": 1548,
    "ष्": 1549,
    "ष्का": 1550,
    "ष्कृ": 1551,
    "ष्ट": 1552,
    "ष्टा": 1553,
    "ष्टि": 1554,
    "ष्टी": 1555,
    "ष्टु": 1556,
    "ष्ट्र": 1557,
    "ष्ट्रा": 1558,
    "ष्ट्री": 1559,
    "ष्ट्॰": 1560,
    "ष्ट्॰ी": 1561,
    "ष्ठ": 1562,
    "ष्ठा": 1563,
    "ष्ण": 1564,
    "ष्णा": 1565,
    "ष्णू": 1566,
    "ष्ना": 1567,
    "ष्पा": 1568,
    "ष्म": 1569,
    "ष्मॆ": 1570,
    "ष्य": 1571,
    "ष्‌": 1572,
    "ष्‍": 1573,
    "षॢ": 1574,
    "स": 1575,
    "सं": 1576,
    "सं‌": 1577,
    "सः": 1578,
    "स़": 1579,
    "स़ा": 1580,
    "स़ि": 1581,
    "सा": 1582,
    "सां": 1583,
    "सा‍": 1584,
    "सि": 1585,
    "सिं": 1586,
    "सि॰": 1587,
    "सी": 1588,
    "सु": 1589,
    "सुँ": 1590,
    "सुं": 1591,
    "सू": 1592,
    "सृ": 1593,
    "सृं": 1594,
    "सॆ": 1595,
    "से": 1596,
    "सें": 1597,
    "से‍": 1598,
    "सै": 1599,
    "सैं": 1600,
    "सो": 1601,
    "सोँ": 1602,
    "सौ": 1603,
    "स्": 1604,
    "स्क": 1605,
    "स्का": 1606,
    "स्कु": 1607,
    "स्कू": 1608,
    "स्कृ": 1609,
    "स्गि": 1610,
    "स्जि": 1611,
    "स्जी": 1612,
    "स्ट": 1613,
    "स्टा": 1614,
    "स्टु": 1615,
    "स्टॆ": 1616,
    "स्टे": 1617,
    "स्टो": 1618,
    "स्ट्": 1619,
    "स्ट्र": 1620,
    "स्ट्री": 1621,
    "स्ट्रे": 1622,
    "स्त": 1623,
    "स्तं": 1624,
    "स्ता": 1625,
    "स्ति": 1626,
    "स्तु": 1627,
    "स्तू": 1628,
    "स्तृ": 1629,
    "स्तॆ": 1630,
    "स्ते": 1631,
    "स्त्र": 1632,
    "स्त्रा": 1633,
    "स्थ": 1634,
    "स्था": 1635,
    "स्थि": 1636,
    "स्थी": 1637,
    "स्थॆ": 1638,
    "स्थे": 1639,
    "स्थ्य": 1640,
    "स्दु": 1641,
    "स्ध": 1642,
    "स्धा": 1643,
    "स्धॆ": 1644,
    "स्नि": 1645,
    "स्ने": 1646,
    "स्प": 1647,
    "स्पा": 1648,
    "स्पि": 1649,
    "स्पृ": 1650,
    "स्पॆ": 1651,
    "स्पे": 1652,
    "स्प्पि": 1653,
    "स्फो": 1654,
    "स्ब": 1655,
    "स्बा": 1656,
    "स्भा": 1657,
    "स्म": 1658,
    "स्मा": 1659,
    "स्मृ": 1660,
    "स्य": 1661,
    "स्यः": 1662,
    "स्र": 1663,
    "स्ऱी": 1664,
    "स्री": 1665,
    "स्ऱ्ऱ": 1666,
    "स्ऱ्ऱा": 1667,
    "स्ऱ्ऱि": 1668,
    "स्ऱ्ऱे": 1669,
    "स्ऱ्ऱो": 1670,
    "स्ऱ्ऱ्": 1671,
    "स्ला": 1672,
    "स्लि": 1673,
    "स्लॊ": 1674,
    "स्व": 1675,
    "स्वं": 1676,
    "स्वा": 1677,
    "स्वे": 1678,
    "स्सा": 1679,
    "स्सु": 1680,
    "स्सो": 1681,
    "स्स्": 1682,
    "स्स्मा": 1683,
    "स्स्‌": 1684,
    "स्॰": 1685,
    "स्॰ा": 1686,
    "स्ॱ": 1687,
    "स्‌": 1688,
    "स्‍": 1689,
    "सॗ": 1690,
    "स॰": 1691,
    "सॱ": 1692,
    "ह": 1693,
    "हं": 1694,
    "हः": 1695,
    "हा": 1696,
    "हां": 1697,
    "हा‍": 1698,
    "हि": 1699,
    "हिं": 1700,
    "हिः": 1701,
    "हि॰": 1702,
    "ही": 1703,
    "हीं": 1704,
    "हु": 1705,
    "हु॰": 1706,
    "हू": 1707,
    "हृ": 1708,
    "हॆ": 1709,
    "हे": 1710,
    "हें": 1711,
    "है": 1712,
    "है‍": 1713,
    "हॉ": 1714,
    "हॊ": 1715,
    "हो": 1716,
    "ह्": 1717,
    "ह्दि": 1718,
    "ह्न": 1719,
    "ह्म": 1720,
    "ह्य": 1721,
    "ह्या": 1722,
    "ह्रू": 1723,
    "ह॰": 1724,
    "हॱ": 1725,
    "ऽ": 1726,
    "ा": 1727,
    "े": 1728,
    "ॎ": 1729,
    "ॐ": 1730,
    "ज़ो": 1731,
    "ज़॰": 1732,
    "ड़": 1733,
    "ड़ा": 1734,
    "ड़ी": 1735,
    "ड़े": 1736,
    "ड़ै": 1737,
    "ड़ोु": 1738,
    "ड़्ह": 1739,
    "ड़्हे": 1740,
    "ढ़ि": 1741,
    "ढ़ी": 1742,
    "ढ़ो": 1743,
    "फ़": 1744,
    "फ़्ट": 1745,
    "फ़्दु": 1746,
    "य़": 1747,
    "य़ं": 1748,
    "य़ः": 1749,
    "य़़": 1750,
    "य़ा": 1751,
    "य़ां": 1752,
    "य़ि": 1753,
    "य़ी": 1754,
    "य़ु": 1755,
    "य़े": 1756,
    "य़ो": 1757,
    "य़्या": 1758,
    "य़ॗ": 1759,
    "ॠ": 1760,
    "।": 1761,
    "।‍": 1762,
    "॥": 1763,
    "०": 1764,
    "१": 1765,
    "१्को": 1766,
    "१‌": 1767,
    "२": 1768,
    "२़": 1769,
    "२ा": 1770,
    "३": 1771,
    "४": 1772,
    "५": 1773,
    "५ु": 1774,
    "५ो": 1775,
    "६": 1776,
    "७": 1777,
    "८": 1778,
    "९": 1779,
    "॰": 1780,
    "॰ा": 1781,
    "॰ि": 1782,
    "॰िः": 1783,
    "॰ी": 1784,
    "॰ु": 1785,
    "॰ू": 1786,
    "॰े": 1787,
    "॰ो": 1788,
    "॰्थ": 1789,
    "॰्प": 1790,
    "॰्ब": 1791,
    "॰्मा": 1792,
    "॰्य": 1793,
    "॰्य्य": 1794,
    "॰्य्या": 1795,
    "॰्ष": 1796,
    "ॱ": 1797,
    "ॱा": 1798,
    "ॱि": 1799,
    "ॱे": 1800,
    "ॱो": 1801,
    "ॳ": 1802,
    "ॳे": 1803,
    "ॷ": 1804,
    "ॺ": 1805,
    "ॺ‌": 1806,
    "ॺ‍": 1807,
    "ॻ": 1808,
    "ॻॆ": 1809,
    "ॻ्ऱ": 1810,
    "ॻ्ऱॆ": 1811,
    "ॻ्ऱ्": 1812,
    "ॻ्ऱ्स्": 1813,
    "ॻ‌": 1814,
    "ॻ‌‌": 1815,
    "ॻ‍": 1816,
    "ॼ": 1817,
    "ॼ‌": 1818,
    "ॼ‍": 1819,
    "ॽ": 1820,
    "ॽ‌": 1821,
    "ॽ‍": 1822,
    "ॾ": 1823,
    "ॾ‌‌": 1824,
    "​": 1825
  },
  "metadata": {
    "tag": "zs_scale1620_malayalam",
    "num_graphemes": 1824,
    "space": "shared-abugida-pivot"
  }
}