{
  "grapheme2idx": {
    "<blank>": 0,
    "<unk>": 1,
    "!": 2,
    "'": 3,
    "(": 4,
    ")": 5,
    ",": 6,
    "-": 7,
    ".": 8,
    "/": 9,
    "0": 10,
    "1": 11,
    "2": 12,
    "3": 13,
    "4": 14,
    "5": 15,
    "6": 16,
    "7": 17,
    "8": 18,
    "9": 19,
    ":": 20,
    "I": 21,
    "|": 22,
    "Ω": 23,
    "।": 24,
    "०": 25,
    "४": 26,
    "ଅ": 27,
    "ଅଂ": 28,
    "ଆ": 29,
    "ଇ": 30,
    "ଇଁ": 31,
    "ଇି": 32,
    "ଇ୍ଟ": 33,
    "ଈ": 34,
    "ଈଁ": 35,
    "ଉ": 36,
    "ଊ": 37,
    "ଋ": 38,
    "ଏ": 39,
    "ଏଁ": 40,
    "ଐ": 41,
    "ଓ": 42,
    "ଓଁ": 43,
    "ଓ୍ବା": 44,
    "ଔ": 45,
    "କ": 46,
    "କଂ": 47,
    "କା": 48,
    "କାେ": 49,
    "କି": 50,
    "କୀ": 51,
    "କୁ": 52,
    "କୃ": 53,
    "କେ": 54,
    "କୋ": 55,
    "କୋ": 56,
    "କୌ": 57,
    "କ୍": 58,
    "କ୍ଟ": 59,
    "କ୍ଟୋ": 60,
    "କ୍ଟ୍ରୋ": 61,
    "କ୍ତ": 62,
    "କ୍ତା": 63,
    "କ୍ତି": 64,
    "କ୍ତେ": 65,
    "କ୍ନୋ": 66,
    "କ୍ପ": 67,
    "କ୍ବ": 68,
    "କ୍ଯା": 69,
    "କ୍ର": 70,
    "କ୍ରା": 71,
    "କ୍ରି": 72,
    "କ୍ରୁ": 73,
    "କ୍ରେ": 74,
    "କ୍ଲି": 75,
    "କ୍ଳ": 76,
    "କ୍ଳେ": 77,
    "କ୍ଷ": 78,
    "କ୍ଷା": 79,
    "କ୍ଷି": 80,
    "କ୍ଷୀ": 81,
    "କ୍ଷେ": 82,
    "କ୍ଷ୍ମୀ": 83,
    "କ୍ସ": 84,
    "କ୍ୟା": 85,
    "ଖ": 86,
    "ଖା": 87,
    "ଖି": 88,
    "ଖୀ": 89,
    "ଖୁ": 90,
    "ଖେ": 91,
    "ଖୋ": 92,
    "ଖ୍ଯା": 93,
    "ଖ୍ରୀ": 94,
    "ଖ୍ୟ": 95,
    "ଗ": 96,
    "ଗା": 97,
    "ଗାଁ": 98,
    "ଗି": 99,
    "ଗୀ": 100,
    "ଗୁ": 101,
    "ଗୃ": 102,
    "ଗେ": 103,
    "ଗେ୍ଡ": 104,
    "ଗେ୍ଧ": 105,
    "ଗୋ": 106,
    "ଗୌ": 107,
    "ଗ୍": 108,
    "ଗ୍ଧା": 109,
    "ଗ୍ନ": 110,
    "ଗ୍ନା": 111,
    "ଗ୍ନି": 112,
    "ଗ୍ବ": 113,
    "ଗ୍ଭ": 114,
    "ଗ୍ଯା": 115,
    "ଗ୍ର": 116,
    "ଗ୍ରା": 117,
    "ଗ୍ରି": 118,
    "ଗ୍ରୀ": 119,
    "ଗ୍ରୁ": 120,
    "ଗ୍ୟା": 121,
    "ଗୖ": 122,
    "ଘ": 123,
    "ଘା": 124,
    "ଘ୍ନ": 125,
    "ଘ୍ର": 126,
    "ଙ୍କ": 127,
    "ଙ୍କା": 128,
    "ଙ୍କୁ": 129,
    "ଙ୍କ୍": 130,
    "ଙ୍କ୍ଷା": 131,
    "ଙ୍ଗ": 132,
    "ଙ୍ଗା": 133,
    "ଙ୍ଗି": 134,
    "ଙ୍ଗୀ": 135,
    "ଚ": 136,
    "ଚଂ": 137,
    "ଚ଼": 138,
    "ଚା": 139,
    "ଚି": 140,
    "ଚି଼": 141,
    "ଚିେ": 142,
    "ଚି୍": 143,
    "ଚୀ": 144,
    "ଚୁ": 145,
    "ଚେ": 146,
    "ଚୋ": 147,
    "ଚୌ": 148,
    "ଚ୍ଚ": 149,
    "ଚ୍ଚା": 150,
    "ଚ୍ଚି": 151,
    "ଚ୍ଛ": 152,
    "ଚ୍ଛି": 153,
    "ଚ୍ଛୁ": 154,
    "ଚ୍ୟୁ": 155,
    "ଚୖେ": 156,
    "ଛ": 157,
    "ଛା": 158,
    "ଛି": 159,
    "ଛେ": 160,
    "ଛୋ": 161,
    "ଜ": 162,
    "ଜା": 163,
    "ଜି": 164,
    "ଜୀ": 165,
    "ଜୁ": 166,
    "ଜୂ": 167,
    "ଜେ": 168,
    "ଜୋ": 169,
    "ଜୈ": 170,
    "ଜୋ": 171,
    "ଜ୍ଞା": 172,
    "ଜ୍ସି": 173,
    "ଜ୍ୟ": 174,
    "ଜ୍ୟୋ": 175,
    "ଝା": 176,
    "ଞ୍ଚ": 177,
    "ଞ୍ଚା": 178,
    "ଞ୍ଚି": 179,
    "ଞ୍ଚୁ": 180,
    "ଞ୍ଜ": 181,
    "ଞ୍ଜା": 182,
    "ଞ୍ଜି": 183,
    "ଟ": 184,
    "ଟା": 185,
    "ଟି": 186,
    "ଟୀ": 187,
    "ଟୁ": 188,
    "ଟେ": 189,
    "ଟୋ": 190,
    "ଟ୍": 191,
    "ଟ୍ଟ": 192,
    "ଟ୍ଟା": 193,
    "ଟ୍ଯ": 194,
    "ଟ୍ଯା": 195,
    "ଟ୍ର": 196,
    "ଟ୍ରା": 197,
    "ଟ୍ରୋ": 198,
    "ଟ୍ସ୍": 199,
    "ଟ୍‌": 200,
    "ଠ": 201,
    "ଠା": 202,
    "ଠି": 203,
    "ଡ": 204,
    "ଡଃ": 205,
    "ଡ଼": 206,
    "ଡ଼ା": 207,
    "ଡ଼ି": 208,
    "ଡ଼େ": 209,
    "ଡା": 210,
    "ଡି": 211,
    "ଡି଼": 212,
    "ଡେ": 213,
    "ଡୋ": 214,
    "ଡ୍": 215,
    "ଡ୍ର": 216,
    "ଡ୍ରି": 217,
    "ଡ୍ରୋ": 218,
    "ଡ୍‌": 219,
    "ଢ": 220,
    "ଢ଼": 221,
    "ଢ଼ି": 222,
    "ଢ଼େଂ": 223,
    "ଢି": 224,
    "ଢେ": 225,
    "ଣ": 226,
    "ଣା": 227,
    "ଣି": 228,
    "ଣୀ": 229,
    "ଣୁ": 230,
    "ଣୂ": 231,
    "ଣେ": 232,
    "ଣ୍": 233,
    "ଣ୍ଟ": 234,
    "ଣ୍ଟା": 235,
    "ଣ୍ଟି": 236,
    "ଣ୍ଟେ": 237,
    "ଣ୍ଟ୍": 238,
    "ଣ୍ଟ୍ରା": 239,
    "ଣ୍ଠୁ": 240,
    "ଣ୍ଡ": 241,
    "ଣ୍ଡା": 242,
    "ଣ୍ଡି": 243,
    "ଣ୍ଡ୍": 244,
    "ଣ୍ଢ": 245,
    "ଣ୍ତ": 246,
    "ଣ୍ତା": 247,
    "ଣ୍ତି": 248,
    "ଣ୍ଯ": 249,
    "ଣ୍ର": 250,
    "ଣ୍ରା": 251,
    "ଣ୍ରୀ": 252,
    "ତ": 253,
    "ତଃ": 254,
    "ତ଼": 255,
    "ତ଼ା": 256,
    "ତ଼ି": 257,
    "ତା": 258,
    "ତି": 259,
    "ତୀ": 260,
    "ତୁ": 261,
    "ତୃ": 262,
    "ତେ": 263,
    "ତୈ": 264,
    "ତୋ": 265,
    "ତ୍": 266,
    "ତ୍କ": 267,
    "ତ୍କେ": 268,
    "ତ୍ତ": 269,
    "ତ୍ତା": 270,
    "ତ୍ତି": 271,
    "ତ୍ନ": 272,
    "ତ୍ନୁ": 273,
    "ତ୍ପା": 274,
    "ତ୍ବ": 275,
    "ତ୍ଯ": 276,
    "ତ୍ର": 277,
    "ତ୍ରା": 278,
    "ତ୍ରୀ": 279,
    "ତ୍ରେ": 280,
    "ତ୍ସ": 281,
    "ତ୍ସା": 282,
    "ତ୍ୟ": 283,
    "ତ୍ୟା": 284,
    "ତ୍ୟୁ": 285,
    "ତ୍ୟେ": 286,
    "ଥ": 287,
    "ଥା": 288,
    "ଥି": 289,
    "ଥୁ": 290,
    "ଥୂ": 291,
    "ଥ୍": 292,
    "ଥ୍ୟ": 293,
    "ଥ୍‌": 294,
    "ଥ‌": 295,
    "ଦ": 296,
    "ଦଂ": 297,
    "ଦା": 298,
    "ଦି": 299,
    "ଦୀ": 300,
    "ଦୁ": 301,
    "ଦୁି": 302,
    "ଦୂ": 303,
    "ଦୃ": 304,
    "ଦେ": 305,
    "ଦୋ": 306,
    "ଦ୍": 307,
    "ଦ୍ଦି": 308,
    "ଦ୍ଦୀ": 309,
    "ଦ୍ଧ": 310,
    "ଦ୍ଧା": 311,
    "ଦ୍ଧି": 312,
    "ଦ୍ବା": 313,
    "ଦ୍ବି": 314,
    "ଦ୍ମ": 315,
    "ଦ୍ଯା": 316,
    "ଦ୍ର": 317,
    "ଦ୍ରା": 318,
    "ଦ୍ଵା": 319,
    "ଦ୍ଵି": 320,
    "ଦ୍ୟ": 321,
    "ଦ୍ୟା": 322,
    "ଦ୍ୱି": 323,
    "ଦ୍‌": 324,
    "ଦ‌": 325,
    "ଧ": 326,
    "ଧା": 327,
    "ଧାଂ": 328,
    "ଧି": 329,
    "ଧିି": 330,
    "ଧୀ": 331,
    "ଧୁ": 332,
    "ଧୂ": 333,
    "ଧୃ": 334,
    "ଧ୍ଧ": 335,
    "ଧ୍ୟ": 336,
    "ନ": 337,
    "ନଂ": 338,
    "ନା": 339,
    "ନାଁ": 340,
    "ନି": 341,
    "ନିଃ": 342,
    "ନୀ": 343,
    "ନୁ": 344,
    "ନୂ": 345,
    "ନୃ": 346,
    "ନେ": 347,
    "ନୈ": 348,
    "ନୋ": 349,
    "ନ୍": 350,
    "ନ୍ତ": 351,
    "ନ୍ତା": 352,
    "ନ୍ତି": 353,
    "ନ୍ତୁ": 354,
    "ନ୍ତେ": 355,
    "ନ୍ତ୍ର": 356,
    "ନ୍ତ୍ରି": 357,
    "ନ୍ତ୍ରୀ": 358,
    "ନ୍ଦ": 359,
    "ନ୍ଦା": 360,
    "ନ୍ଦି": 361,
    "ନ୍ଦୀ": 362,
    "ନ୍ଦୁ": 363,
    "ନ୍ଦୋ": 364,
    "ନ୍ଦ୍ର": 365,
    "ନ୍ଦ୍ରା": 366,
    "ନ୍ଧ": 367,
    "ନ୍ଧୀ": 368,
    "ନ୍ଧୁ": 369,
    "ନ୍ଧ୍ୟ": 370,
    "ନ୍ଧ୍ୟା": 371,
    "ନ୍ନ": 372,
    "ନ୍ନା": 373,
    "ନ୍ମ": 374,
    "ନ୍ମା": 375,
    "ନ୍ଯୁ": 376,
    "ନ୍ର": 377,
    "ନ୍ସ": 378,
    "ନ୍ସେ": 379,
    "ନ୍ୟ": 380,
    "ନ୍ୟା": 381,
    "ନ୍‌": 382,
    "ପ": 383,
    "ପା": 384,
    "ପି": 385,
    "ପୀ": 386,
    "ପୁ": 387,
    "ପୂ": 388,
    "ପୃ": 389,
    "ପେ": 390,
    "ପୋ": 391,
    "ପୋ": 392,
    "ପୌ": 393,
    "ପ୍": 394,
    "ପ୍ତ": 395,
    "ପ୍ତା": 396,
    "ପ୍ତି": 397,
    "ପ୍ନ": 398,
    "ପ୍ର": 399,
    "ପ୍ରା": 400,
    "ପ୍ରି": 401,
    "ପ୍ରେ": 402,
    "ପ୍ରୋ": 403,
    "ପ୍ଲା": 404,
    "ପ୍ଵ": 405,
    "ପ‌": 406,
    "ଫ": 407,
    "ଫା": 408,
    "ଫି": 409,
    "ଫୁ": 410,
    "ଫେ": 411,
    "ଫୋ": 412,
    "ଫ୍": 413,
    "ଫ୍ରି": 414,
    "ବ": 415,
    "ବଂ": 416,
    "ବା": 417,
    "ବି": 418,
    "ବିଂ": 419,
    "ବୀ": 420,
    "ବୁ": 421,
    "ବୃ": 422,
    "ବେ": 423,
    "ବୈ": 424,
    "ବୈ": 425,
    "ବୋ": 426,
    "ବୌ": 427,
    "ବ୍": 428,
    "ବ୍ଦ": 429,
    "ବ୍ଦୀ": 430,
    "ବ୍ଧ": 431,
    "ବ୍ଯ": 432,
    "ବ୍ଯା": 433,
    "ବ୍ର": 434,
    "ବ୍ଲ": 435,
    "ବ୍ଲି": 436,
    "ବ୍ଲୁ": 437,
    "ବ୍ୟ": 438,
    "ବ୍ୟା": 439,
    "ବ୍‌": 440,
    "ବ‌": 441,
    "ଭ": 442,
    "ଭା": 443,
    "ଭି": 444,
    "ଭୁ": 445,
    "ଭୂ": 446,
    "ଭେ": 447,
    "ଭୈ": 448,
    "ଭୋ": 449,
    "ମ": 450,
    "ମଃ": 451,
    "ମା": 452,
    "ମି": 453,
    "ମୀ": 454,
    "ମୁ": 455,
    "ମୂ": 456,
    "ମୃ": 457,
    "ମେ": 458,
    "ମୋ": 459,
    "ମୌ": 460,
    "ମ୍": 461,
    "ମ୍ନା": 462,
    "ମ୍ପ": 463,
    "ମ୍ପା": 464,
    "ମ୍ପି": 465,
    "ମ୍ପ୍ର": 466,
    "ମ୍ପ୍ଲେ": 467,
    "ମ୍ପ୍ୟୁ": 468,
    "ମ୍ଫା": 469,
    "ମ୍ବ": 470,
    "ମ୍ବା": 471,
    "ମ୍ବୁ": 472,
    "ମ୍ଭ": 473,
    "ମ୍ଭା": 474,
    "ମ୍ମା": 475,
    "ମ୍ମି": 476,
    "ମ୍ରା": 477,
    "ମ୍ୟ": 478,
    "ମ୍ୟା": 479,
    "ମ୍ୟୋ": 480,
    "ମ୍‌": 481,
    "ଯ": 482,
    "ଯା": 483,
    "ଯୀ": 484,
    "ଯୁ": 485,
    "ଯୂ": 486,
    "ଯେ": 487,
    "ଯୋ": 488,
    "ଯ୍ଭ": 489,
    "ଯ୍ଭା": 490,
    "ଯ୍ଯ": 491,
    "ଯ୍ୟା": 492,
    "ଯୖ": 493,
    "ର": 494,
    "ରା": 495,
    "ରି": 496,
    "ରୀ": 497,
    "ରୁ": 498,
    "ରୂ": 499,
    "ରେ": 500,
    "ରୋ": 501,
    "ର୍": 502,
    "ର୍କ": 503,
    "ର୍ଗ": 504,
    "ର୍ଗା": 505,
    "ର୍ଘ": 506,
    "ର୍ଚ": 507,
    "ର୍ଚ୍ଚ": 508,
    "ର୍ଚ୍ଚି": 509,
    "ର୍ଜ": 510,
    "ର୍ଟ": 511,
    "ର୍ଡ": 512,
    "ର୍ଡେ": 513,
    "ର୍ଣ": 514,
    "ର୍ଣା": 515,
    "ର୍ଣ୍ଣା": 516,
    "ର୍ଣ୍ଣି": 517,
    "ର୍ଣ୍ଣୀ": 518,
    "ର୍ଣ୍ନ": 519,
    "ର୍ତ୍ତ": 520,
    "ର୍ତ୍ତା": 521,
    "ର୍ତ୍ତୀ": 522,
    "ର୍ତ୍ତୃ": 523,
    "ର୍ଥ": 524,
    "ର୍ଥି": 525,
    "ର୍ଦୁ": 526,
    "ର୍ଦ୍ଧ": 527,
    "ର୍ନ୍ତ": 528,
    "ର୍ପା": 529,
    "ର୍ପୋ": 530,
    "ର୍ବ": 531,
    "ର୍ବା": 532,
    "ର୍ବି": 533,
    "ର୍ବୋ": 534,
    "ର୍ଭ": 535,
    "ର୍ଭା": 536,
    "ର୍ଭି": 537,
    "ର୍ମ": 538,
    "ର୍ମା": 539,
    "ର୍ମି": 540,
    "ର୍ମେ": 541,
    "ର୍ଯ୍ଯ": 542,
    "ର୍ଯ୍ୟ": 543,
    "ର୍ଯ୍ୟା": 544,
    "ର୍ଶ": 545,
    "ର୍ଶି": 546,
    "ର୍ଷ": 547,
    "ର୍ଷା": 548,
    "ର୍‌": 549,
    "ର‌": 550,
    "ଲ": 551,
    "ଲା": 552,
    "ଲି": 553,
    "ଲୀ": 554,
    "ଲୁ": 555,
    "ଲେ": 556,
    "ଲୋ": 557,
    "ଲ୍": 558,
    "ଲ୍ଟ": 559,
    "ଲ୍ଡ": 560,
    "ଲ୍ଯ": 561,
    "ଲ୍ଯା": 562,
    "ଲ୍ଲ": 563,
    "ଲ୍ଲା": 564,
    "ଲ୍ଲି": 565,
    "ଲ୍ଲୀ": 566,
    "ଲ୍ସ": 567,
    "ଲ୍ୟ": 568,
    "ଲ୍‌": 569,
    "ଳ": 570,
    "ଳା": 571,
    "ଳି": 572,
    "ଳୀ": 573,
    "ଳୁ": 574,
    "ଳେ": 575,
    "ଳ୍": 576,
    "ଳ୍କ": 577,
    "ଳ୍ପ": 578,
    "ଳ୍ପା": 579,
    "ଵି": 580,
    "ଶ": 581,
    "ଶା": 582,
    "ଶି": 583,
    "ଶୀ": 584,
    "ଶୁ": 585,
    "ଶେ": 586,
    "ଶୋ": 587,
    "ଶ୍ଟା": 588,
    "ଶ୍ବ": 589,
    "ଶ୍ବି": 590,
    "ଶ୍ର": 591,
    "ଶ୍ରା": 592,
    "ଶ୍ରୀ": 593,
    "ଶ୍ରୁ": 594,
    "ଶ୍ରେ": 595,
    "ଶ୍ଵ": 596,
    "ଶ୍ୟ": 597,
    "ଶ୍ୱ": 598,
    "ଷ": 599,
    "ଷା": 600,
    "ଷି": 601,
    "ଷୀ": 602,
    "ଷେ": 603,
    "ଷୋ": 604,
    "ଷ୍କା": 605,
    "ଷ୍ଟ": 606,
    "ଷ୍ଟା": 607,
    "ଷ୍ଟି": 608,
    "ଷ୍ଟୀ": 609,
    "ଷ୍ଟୁ": 610,
    "ଷ୍ଟେ": 611,
    "ଷ୍ଟୋ": 612,
    "ଷ୍ଟ୍ର": 613,
    "ଷ୍ଠ": 614,
    "ଷ୍ଠା": 615,
    "ଷ୍ଠି": 616,
    "ଷ୍ଠୀ": 617,
    "ଷ୍ଠୁ": 618,
    "ଷ୍ଣୁ": 619,
    "ଷ୍ପା": 620,
    "ଷ୍ୟ": 621,
    "ସ": 622,
    "ସଂ": 623,
    "ସା": 624,
    "ସାଂ": 625,
    "ସି": 626,
    "ସିଂ": 627,
    "ସୀ": 628,
    "ସୁ": 629,
    "ସୁା": 630,
    "ସୂ": 631,
    "ସୃ": 632,
    "ସେ": 633,
    "ସୋ": 634,
    "ସୈ": 635,
    "ସୋ": 636,
    "ସୌ": 637,
    "ସ୍": 638,
    "ସ୍କା": 639,
    "ସ୍କୁ": 640,
    "ସ୍କୃ": 641,
    "ସ୍କ୍ରି": 642,
    "ସ୍ଟ": 643,
    "ସ୍ଟି": 644,
    "ସ୍ତ": 645,
    "ସ୍ତା": 646,
    "ସ୍ତି": 647,
    "ସ୍ତୁ": 648,
    "ସ୍ତୂ": 649,
    "ସ୍ତୃ": 650,
    "ସ୍ତ୍ର": 651,
    "ସ୍ଥା": 652,
    "ସ୍ଥି": 653,
    "ସ୍ଥ୍ଯ": 654,
    "ସ୍ଥ୍ୟ": 655,
    "ସ୍ନା": 656,
    "ସ୍ନି": 657,
    "ସ୍ପ": 658,
    "ସ୍ପା": 659,
    "ସ୍ପି": 660,
    "ସ୍ପେ": 661,
    "ସ୍ଫୋ": 662,
    "ସ୍ବ": 663,
    "ସ୍ବା": 664,
    "ସ୍ମ": 665,
    "ସ୍ମା": 666,
    "ସ୍ଯ": 667,
    "ସ୍ଯା": 668,
    "ସ୍ରା": 669,
    "ସ୍ଵା": 670,
    "ସ୍ୟ": 671,
    "ସ୍ୱ": 672,
    "ସ୍‌": 673,
    "ହ": 674,
    "ହଁ": 675,
    "ହା": 676,
    "ହି": 677,
    "ହିଁ": 678,
    "ହିଃ": 679,
    "ହୀ": 680,
    "ହୁ": 681,
    "ହେ": 682,
    "ହୋ": 683,
    "ହ୍ନ": 684,
    "ହ୍ମ": 685,
    "ହ୍ୟ": 686,
    "ହ‌": 687,
    "ଡ଼ା": 688,
    "ୟ": 689,
    "ୟଂ": 690,
    "ୟା": 691,
    "ୟାଁ": 692,
    "ୟି": 693,
    "ୟୀ": 694,
    "ୟୁ": 695,
    "ୟୋ": 696,
    "୦": 697,
    "୧": 698,
    "୨": 699,
    "୩": 700,
    "୪": 701,
    "୫": 702,
    "୬": 703,
    "୭": 704,
    "୮": 705,
    "୯": 706,
    "୳": 707,
    "’": 708
  },
  "metadata": {
    "lang": "odia",
    "source_splits": "florence2_splits_synth_odia_full.json",
    "num_graphemes": 707,
    "segmenter": "indic-generic (Mn/Mc + virama-join)"
  }
}