{
  "grapheme2idx": {
    "<blank>": 0,
    "<unk>": 1,
    " ‌": 2,
    "!": 3,
    "\"": 4,
    "&": 5,
    "'": 6,
    "(": 7,
    ")": 8,
    ",": 9,
    "-": 10,
    ".": 11,
    "/": 12,
    "0": 13,
    "1": 14,
    "2": 15,
    "3": 16,
    "3ः": 17,
    "4": 18,
    "5": 19,
    "6": 20,
    "7": 21,
    "8": 22,
    "9": 23,
    ":": 24,
    "?": 25,
    "A": 26,
    "D": 27,
    "E": 28,
    "G": 29,
    "H": 30,
    "I": 31,
    "L": 32,
    "N": 33,
    "O": 34,
    "P": 35,
    "U": 36,
    "V": 37,
    "W": 38,
    "c": 39,
    "|": 40,
    "°": 41,
    "×": 42,
    "अ": 43,
    "अं": 44,
    "अि": 45,
    "अे": 46,
    "अ्या": 47,
    "अ॰": 48,
    "अॱ": 49,
    "आ": 50,
    "आं": 51,
    "आा्": 52,
    "इ": 53,
    "इँ": 54,
    "इं": 55,
    "इ॰": 56,
    "इॱ": 57,
    "ई": 58,
    "ईं": 59,
    "ईः": 60,
    "उ": 61,
    "उं": 62,
    "उाि": 63,
    "उॱ": 64,
    "ऊ": 65,
    "ऊँ": 66,
    "ऊं": 67,
    "ऊा्": 68,
    "ऋ": 69,
    "ऎ": 70,
    "ऎं": 71,
    "ऎ‍": 72,
    "ए": 73,
    "एँ": 74,
    "एं": 75,
    "एः": 76,
    "एा": 77,
    "ऐ": 78,
    "ऐं": 79,
    "ऑ": 80,
    "ऒ": 81,
    "ऒा्क्स्": 82,
    "ऒ‌": 83,
    "ओ": 84,
    "ओँ": 85,
    "ओं": 86,
    "ओ्बा": 87,
    "औ": 88,
    "औं": 89,
    "क": 90,
    "कं": 91,
    "कं‌": 92,
    "कः": 93,
    "का": 94,
    "काँ": 95,
    "कां": 96,
    "काुं": 97,
    "काे": 98,
    "का्": 99,
    "का‍": 100,
    "का‍‌": 101,
    "कि": 102,
    "किं": 103,
    "किाि": 104,
    "कि‍": 105,
    "की": 106,
    "कीे": 107,
    "कु": 108,
    "कुं": 109,
    "कु॰": 110,
    "कू": 111,
    "कृ": 112,
    "कॅ": 113,
    "कॅा": 114,
    "कॆ": 115,
    "कॆं": 116,
    "के": 117,
    "कें": 118,
    "केा": 119,
    "केा्": 120,
    "केॆ्टा": 121,
    "केे": 122,
    "के‌": 123,
    "कै": 124,
    "कॉ": 125,
    "कॊ": 126,
    "कॊं": 127,
    "कॊॕ": 128,
    "को": 129,
    "कोँ": 130,
    "कों": 131,
    "कों‌": 132,
    "कौ": 133,
    "क्": 134,
    "क्ए": 135,
    "क्क": 136,
    "क्कं": 137,
    "क्का": 138,
    "क्कि": 139,
    "क्कु": 140,
    "क्कुं": 141,
    "क्कू": 142,
    "क्कॆ": 143,
    "क्के": 144,
    "क्कॊ": 145,
    "क्को": 146,
    "क्क्": 147,
    "क्क्‌": 148,
    "क्कॗ": 149,
    "क्च": 150,
    "क्ट": 151,
    "क्टा्": 152,
    "क्टू": 153,
    "क्टो": 154,
    "क्ट्रि": 155,
    "क्त": 156,
    "क्तां": 157,
    "क्ति": 158,
    "क्ती": 159,
    "क्तीं": 160,
    "क्तु": 161,
    "क्ते": 162,
    "क्नो": 163,
    "क्मि": 164,
    "क्य": 165,
    "क्या": 166,
    "क्यू": 167,
    "क्र": 168,
    "क्रं": 169,
    "क्रः": 170,
    "क्रा": 171,
    "क्रि": 172,
    "क्री": 173,
    "क्रू": 174,
    "क्रे": 175,
    "क्रै": 176,
    "क्रो": 177,
    "क्ला": 178,
    "क्ळे": 179,
    "क्वॆ": 180,
    "क्श": 181,
    "क्ष": 182,
    "क्षा": 183,
    "क्षां": 184,
    "क्षि": 185,
    "क्षिं": 186,
    "क्षी": 187,
    "क्षुः": 188,
    "क्षॆ": 189,
    "क्षे": 190,
    "क्षो": 191,
    "क्ष्मि": 192,
    "क्ष्मिॕ": 193,
    "क्ष्मी": 194,
    "क्ष्य": 195,
    "क्स": 196,
    "क्सी": 197,
    "क्स्": 198,
    "क्स्टा": 199,
    "क्य़ा": 200,
    "क्॰": 201,
    "क्॰ा": 202,
    "क्॰े": 203,
    "क्‌": 204,
    "क्‍": 205,
    "क॰": 206,
    "क‌": 207,
    "क‍": 208,
    "क‍ी": 209,
    "ख": 210,
    "खं": 211,
    "खा": 212,
    "खाँ": 213,
    "खां": 214,
    "खि": 215,
    "खि‍": 216,
    "खी": 217,
    "खु": 218,
    "खू": 219,
    "खॆ": 220,
    "खे": 221,
    "खें": 222,
    "खै": 223,
    "खो": 224,
    "ख्त": 225,
    "ख्मि": 226,
    "ख्य": 227,
    "ख्यु": 228,
    "ख्यॆ": 229,
    "ख्री": 230,
    "ख्रीः": 231,
    "ग": 232,
    "गं": 233,
    "गा": 234,
    "गां": 235,
    "गि": 236,
    "गी": 237,
    "गु": 238,
    "गुं": 239,
    "गुः": 240,
    "गू": 241,
    "गृ": 242,
    "गॆ": 243,
    "गे": 244,
    "गै": 245,
    "गॊ": 246,
    "गॊं": 247,
    "गो": 248,
    "गों": 249,
    "गौ": 250,
    "ग्": 251,
    "ग्ई": 252,
    "ग्ग": 253,
    "ग्गॆ": 254,
    "ग्ण": 255,
    "ग्णा": 256,
    "ग्धा": 257,
    "ग्न": 258,
    "ग्ना": 259,
    "ग्नि": 260,
    "ग्भ": 261,
    "ग्य": 262,
    "ग्या": 263,
    "ग्ये": 264,
    "ग्र": 265,
    "ग्रं": 266,
    "ग्रा": 267,
    "ग्रि": 268,
    "ग्री": 269,
    "ग्रू": 270,
    "ग्रॅ": 271,
    "ग्रे": 272,
    "ग्रो": 273,
    "ग्लं": 274,
    "ग्ला": 275,
    "ग्लां": 276,
    "ग्ली": 277,
    "ग्वा": 278,
    "ग्ष": 279,
    "ग्स": 280,
    "ग्य़ा": 281,
    "ग्॰ु": 282,
    "घ": 283,
    "घा": 284,
    "घां": 285,
    "घी": 286,
    "घु": 287,
    "घॆ": 288,
    "घे": 289,
    "घो": 290,
    "घौ": 291,
    "घ्या": 292,
    "घ्र": 293,
    "ङ": 294,
    "ङा": 295,
    "ङि": 296,
    "ङे": 297,
    "ङ्": 298,
    "ङ्क": 299,
    "ङ्का": 300,
    "ङ्कि": 301,
    "ङ्कु": 302,
    "ङ्के": 303,
    "ङ्कै": 304,
    "ङ्को": 305,
    "ङ्क्": 306,
    "ङ्क्षा": 307,
    "ङ्ग": 308,
    "ङ्गा": 309,
    "ङ्गु": 310,
    "ङ्गे": 311,
    "ङ्गो": 312,
    "ङ्घ": 313,
    "ङ्ङ": 314,
    "ङ्ङा": 315,
    "ङ्ङि": 316,
    "ङ्ङो": 317,
    "ङ्ङों": 318,
    "ङ्चा": 319,
    "ङ्ट": 320,
    "ङ्ष": 321,
    "ङ्‌": 322,
    "च": 323,
    "चं": 324,
    "चा": 325,
    "चां": 326,
    "चा्": 327,
    "चा्जि": 328,
    "चा्व": 329,
    "चि": 330,
    "चिं": 331,
    "ची": 332,
    "चु": 333,
    "चू": 334,
    "चॆ": 335,
    "चे": 336,
    "चें": 337,
    "चै": 338,
    "चॉ": 339,
    "चॊ": 340,
    "चो": 341,
    "चों": 342,
    "चौ": 343,
    "च्": 344,
    "च्च": 345,
    "च्चं": 346,
    "च्चा": 347,
    "च्चि": 348,
    "च्ची": 349,
    "च्चूा्": 350,
    "च्चे": 351,
    "च्चेाि": 352,
    "च्च्": 353,
    "च्छ": 354,
    "च्छा": 355,
    "च्छु": 356,
    "च्छे": 357,
    "च्य": 358,
    "च्या": 359,
    "च्यु": 360,
    "च्र": 361,
    "च्य़ु": 362,
    "च्‍": 363,
    "च॑": 364,
    "चॖे": 365,
    "च॰": 366,
    "छ": 367,
    "छा": 368,
    "छि": 369,
    "छु": 370,
    "छे": 371,
    "छें": 372,
    "छो": 373,
    "छोँ": 374,
    "ज": 375,
    "जं": 376,
    "ज़": 377,
    "ज़ु": 378,
    "जा": 379,
    "जा्": 380,
    "जि": 381,
    "जिं": 382,
    "जिॱ": 383,
    "जी": 384,
    "जीं": 385,
    "जु": 386,
    "जुॱ": 387,
    "जू": 388,
    "जॆ": 389,
    "जे": 390,
    "जें": 391,
    "जै": 392,
    "जो": 393,
    "ज्": 394,
    "ज्जं": 395,
    "ज्ज्": 396,
    "ज्ज्व": 397,
    "ज्ञ": 398,
    "ज्ञा": 399,
    "ज्ञी": 400,
    "ज्न": 401,
    "ज्ब": 402,
    "ज्य": 403,
    "ज्यां": 404,
    "ज्यी": 405,
    "ज्यु": 406,
    "ज्यू": 407,
    "ज्येा": 408,
    "ज्यो": 409,
    "ज्यों": 410,
    "ज्व": 411,
    "ज्य़": 412,
    "ज्‍": 413,
    "ज॰": 414,
    "झ": 415,
    "झा": 416,
    "झाँ": 417,
    "झां": 418,
    "झि": 419,
    "झी": 420,
    "झु": 421,
    "झे": 422,
    "झॉ": 423,
    "झ्या": 424,
    "ञ": 425,
    "ञा": 426,
    "ञा्": 427,
    "ञ्च": 428,
    "ञ्चा": 429,
    "ञ्चि": 430,
    "ञ्ज": 431,
    "ञ्जा": 432,
    "ञ्जि": 433,
    "ञ्जी": 434,
    "ञ्ञ": 435,
    "ञ्ञा": 436,
    "ञ्ञि": 437,
    "ट": 438,
    "टं": 439,
    "टा": 440,
    "टाा": 441,
    "टि": 442,
    "टिं": 443,
    "टिॱ": 444,
    "टी": 445,
    "टु": 446,
    "टुं": 447,
    "टू": 448,
    "टॅ": 449,
    "टॆ": 450,
    "टॆं": 451,
    "टे": 452,
    "टे्नि": 453,
    "टै": 454,
    "टॉ": 455,
    "टो": 456,
    "टों": 457,
    "टोाि": 458,
    "टौ": 459,
    "ट्": 460,
    "ट्क": 461,
    "ट्ङ": 462,
    "ट्च": 463,
    "ट्चाा्च्च": 464,
    "ट्चि": 465,
    "ट्ट": 466,
    "ट्टा": 467,
    "ट्टाा्": 468,
    "ट्टि": 469,
    "ट्टी": 470,
    "ट्टु": 471,
    "ट्टुं": 472,
    "ट्टॆ": 473,
    "ट्टै": 474,
    "ट्टो": 475,
    "ट्ट्": 476,
    "ट्ण": 477,
    "ट्नं": 478,
    "ट्प": 479,
    "ट्य": 480,
    "ट्यू": 481,
    "ट्र": 482,
    "ट्रा": 483,
    "ट्रि": 484,
    "ट्रॆ": 485,
    "ट्रे": 486,
    "ट्रै": 487,
    "ट्रो": 488,
    "ट्र्या": 489,
    "ट्ल": 490,
    "ट्लि": 491,
    "ट्लु": 492,
    "ट्श्री": 493,
    "ट्स्": 494,
    "ट्॰": 495,
    "ट्‌": 496,
    "टॗ": 497,
    "ठ": 498,
    "ठा": 499,
    "ठां": 500,
    "ठि": 501,
    "ठि॰": 502,
    "ठी": 503,
    "ठु": 504,
    "ठू": 505,
    "ठे": 506,
    "ठें": 507,
    "ठो": 508,
    "ठ्ठ": 509,
    "ठ्ठा": 510,
    "ठ॰": 511,
    "ड": 512,
    "डं": 513,
    "ड़": 514,
    "ड़ा": 515,
    "ड़ि": 516,
    "ड़ी": 517,
    "ड़े": 518,
    "ड़ौ": 519,
    "डा": 520,
    "डां": 521,
    "डाः": 522,
    "डि": 523,
    "डिं": 524,
    "डी": 525,
    "डीं": 526,
    "डु": 527,
    "डुं": 528,
    "डू": 529,
    "डॆ": 530,
    "डॆं": 531,
    "डे": 532,
    "डे़": 533,
    "डै": 534,
    "डॉ": 535,
    "डो": 536,
    "डों": 537,
    "डौ": 538,
    "ड्": 539,
    "ड्क": 540,
    "ड्ड": 541,
    "ड्डा": 542,
    "ड्डि": 543,
    "ड्डु": 544,
    "ड्यं": 545,
    "ड्या": 546,
    "ड्यां": 547,
    "ड्र": 548,
    "ड्रा": 549,
    "ड्रि": 550,
    "ड्री": 551,
    "ड्वु": 552,
    "ड्स": 553,
    "ड्‌": 554,
    "ड्‍": 555,
    "ढ": 556,
    "ढ़": 557,
    "ढ़ा": 558,
    "ढ़ि": 559,
    "ढ़ी": 560,
    "ढा": 561,
    "ढि": 562,
    "ढे": 563,
    "ढे़": 564,
    "ण": 565,
    "णं": 566,
    "णा": 567,
    "णाः": 568,
    "णि": 569,
    "णी": 570,
    "णीं": 571,
    "णु": 572,
    "णू": 573,
    "णॆ": 574,
    "णे": 575,
    "णै": 576,
    "णो": 577,
    "ण्": 578,
    "ण्क": 579,
    "ण्का": 580,
    "ण्कॊ": 581,
    "ण्ट": 582,
    "ण्टं": 583,
    "ण्टा": 584,
    "ण्टि": 585,
    "ण्टु": 586,
    "ण्टू": 587,
    "ण्टॆ": 588,
    "ण्ट्": 589,
    "ण्ट्लू": 590,
    "ण्ट्स्": 591,
    "ण्ठु": 592,
    "ण्ड": 593,
    "ण्डा": 594,
    "ण्डि": 595,
    "ण्ण": 596,
    "ण्णा": 597,
    "ण्णि": 598,
    "ण्णु": 599,
    "ण्णू": 600,
    "ण्णूा्": 601,
    "ण्त": 602,
    "ण्ता": 603,
    "ण्ति": 604,
    "ण्पु": 605,
    "ण्मै": 606,
    "ण्य": 607,
    "ण्या": 608,
    "ण्रा": 609,
    "ण्‌": 610,
    "त": 611,
    "तं": 612,
    "तः": 613,
    "त़": 614,
    "त़ि": 615,
    "ता": 616,
    "ताँ": 617,
    "तां": 618,
    "ताः": 619,
    "ता्": 620,
    "ता्का": 621,
    "ति": 622,
    "तिं": 623,
    "तिः": 624,
    "तिाि": 625,
    "ति॰": 626,
    "ती": 627,
    "तीं": 628,
    "तु": 629,
    "तू": 630,
    "तूा्": 631,
    "तृ": 632,
    "तॆ": 633,
    "तॆॆ": 634,
    "तॆ्र्र": 635,
    "ते": 636,
    "तें": 637,
    "ते‍": 638,
    "तै": 639,
    "तॊ": 640,
    "तो": 641,
    "तों": 642,
    "त्": 643,
    "त्क": 644,
    "त्का": 645,
    "त्कृ": 646,
    "त्त": 647,
    "त्ता": 648,
    "त्ताा्": 649,
    "त्ति": 650,
    "त्ती": 651,
    "त्तु": 652,
    "त्तू": 653,
    "त्तॆ": 654,
    "त्तै": 655,
    "त्तॊ": 656,
    "त्तो": 657,
    "त्तोि": 658,
    "त्त्": 659,
    "त्त्प": 660,
    "त्त्य": 661,
    "त्त्व": 662,
    "त्त्‌": 663,
    "त्थ": 664,
    "त्थि": 665,
    "त्न": 666,
    "त्ना": 667,
    "त्पा": 668,
    "त्ब": 669,
    "त्बे": 670,
    "त्भ": 671,
    "त्म": 672,
    "त्मा": 673,
    "त्य": 674,
    "त्या": 675,
    "त्यां": 676,
    "त्यु": 677,
    "त्यू": 678,
    "त्ये": 679,
    "त्र": 680,
    "त्रं": 681,
    "त्रं‌": 682,
    "त्रा": 683,
    "त्रि": 684,
    "त्री": 685,
    "त्रॆ": 686,
    "त्रे": 687,
    "त्रों": 688,
    "त्र्य": 689,
    "त्र्यं": 690,
    "त्र्या": 691,
    "त्व": 692,
    "त्वा": 693,
    "त्वि": 694,
    "त्स": 695,
    "त्सा": 696,
    "त्स्ना": 697,
    "त्य़ु": 698,
    "त्य़े": 699,
    "त्॰": 700,
    "त्‌": 701,
    "त्‍": 702,
    "त॰": 703,
    "तॱ": 704,
    "त‍े": 705,
    "थ": 706,
    "थः": 707,
    "था": 708,
    "थि": 709,
    "थी": 710,
    "थु": 711,
    "थू": 712,
    "थृ": 713,
    "थे": 714,
    "थे‍": 715,
    "थै": 716,
    "थो": 717,
    "थ्य": 718,
    "थ्वी": 719,
    "थ॰": 720,
    "थ‍े": 721,
    "द": 722,
    "दं": 723,
    "दा": 724,
    "दां": 725,
    "दि": 726,
    "दि॰": 727,
    "दी": 728,
    "दी्": 729,
    "दु": 730,
    "दुि": 731,
    "दू": 732,
    "दूं": 733,
    "दृ": 734,
    "दॆ": 735,
    "दे": 736,
    "दें": 737,
    "दै": 738,
    "दॊ": 739,
    "दो": 740,
    "दों": 741,
    "दौ": 742,
    "द्": 743,
    "द्गु": 744,
    "द्घा": 745,
    "द्द": 746,
    "द्दा": 747,
    "द्दि": 748,
    "द्दी": 749,
    "द्दु": 750,
    "द्दू": 751,
    "द्ध": 752,
    "द्धा": 753,
    "द्धि": 754,
    "द्धी": 755,
    "द्ध्फि": 756,
    "द्ध्यं": 757,
    "द्ब": 758,
    "द्बा": 759,
    "द्बि": 760,
    "द्बी": 761,
    "द्बो": 762,
    "द्भा": 763,
    "द्म": 764,
    "द्मा": 765,
    "द्य": 766,
    "द्या": 767,
    "द्यो": 768,
    "द्र": 769,
    "द्रा": 770,
    "द्रि": 771,
    "द्री": 772,
    "द्रु": 773,
    "द्रे": 774,
    "द्ळु": 775,
    "द्वा": 776,
    "द्वी": 777,
    "द्य़": 778,
    "द्य़ा": 779,
    "द्॰": 780,
    "द्‌": 781,
    "ध": 782,
    "धं": 783,
    "धा": 784,
    "धि": 785,
    "धी": 786,
    "धीं": 787,
    "धु": 788,
    "धू": 789,
    "धे": 790,
    "धो": 791,
    "धौ": 792,
    "ध्द": 793,
    "ध्दा": 794,
    "ध्दी": 795,
    "ध्धी": 796,
    "ध्ब": 797,
    "ध्य": 798,
    "ध्या": 799,
    "ध्ये": 800,
    "ध्र": 801,
    "ध्व": 802,
    "ध्य़": 803,
    "न": 804,
    "नं": 805,
    "नः": 806,
    "ना": 807,
    "नाँ": 808,
    "नां": 809,
    "नाि": 810,
    "नि": 811,
    "निं": 812,
    "नि‍": 813,
    "नी": 814,
    "नीा्": 815,
    "नु": 816,
    "नुं": 817,
    "नू": 818,
    "नू॰": 819,
    "नॅ": 820,
    "नॆ": 821,
    "ने": 822,
    "नेे": 823,
    "नै": 824,
    "नॊ": 825,
    "नो": 826,
    "नौ": 827,
    "न्": 828,
    "न्क": 829,
    "न्जी": 830,
    "न्ट": 831,
    "न्टा": 832,
    "न्टे": 833,
    "न्ट्रा": 834,
    "न्ड": 835,
    "न्डि": 836,
    "न्डे": 837,
    "न्त": 838,
    "न्ता": 839,
    "न्ति": 840,
    "न्ती": 841,
    "न्तु": 842,
    "न्तूा्पे": 843,
    "न्ते": 844,
    "न्तै": 845,
    "न्तो": 846,
    "न्त्": 847,
    "न्त्र": 848,
    "न्त्रि": 849,
    "न्त्री": 850,
    "न्त्॰ा": 851,
    "न्त्॰ि": 852,
    "न्त्॰ी": 853,
    "न्थ": 854,
    "न्था": 855,
    "न्द": 856,
    "न्दा": 857,
    "न्दि": 858,
    "न्दु": 859,
    "न्दू": 860,
    "न्दे": 861,
    "न्दो": 862,
    "न्द्द": 863,
    "न्द्यो": 864,
    "न्द्र": 865,
    "न्द्रं": 866,
    "न्द्रा": 867,
    "न्द्री": 868,
    "न्द्र्र": 869,
    "न्द्॰": 870,
    "न्द्॰ी": 871,
    "न्ध": 872,
    "न्धं": 873,
    "न्धा": 874,
    "न्धि": 875,
    "न्धी": 876,
    "न्न": 877,
    "न्नं": 878,
    "न्ना": 879,
    "न्नि": 880,
    "न्नु": 881,
    "न्नुं": 882,
    "न्नू": 883,
    "न्ने": 884,
    "न्नै": 885,
    "न्ब": 886,
    "न्म": 887,
    "न्मे": 888,
    "न्मो": 889,
    "न्म्र": 890,
    "न्य": 891,
    "न्यः": 892,
    "न्या": 893,
    "न्यु": 894,
    "न्यू": 895,
    "न्ये": 896,
    "न्ऱॆ": 897,
    "न्व": 898,
    "न्वा": 899,
    "न्ष": 900,
    "न्स": 901,
    "न्सा": 902,
    "न्सि": 903,
    "न्सी": 904,
    "न्सू": 905,
    "न्से": 906,
    "न्स्": 907,
    "न्स्टि": 908,
    "न्स्टी": 909,
    "न्ह": 910,
    "न्हा": 911,
    "न्हां": 912,
    "न्य़": 913,
    "न्‌": 914,
    "न्‍": 915,
    "न॰": 916,
    "न॰ः": 917,
    "ऩ": 918,
    "ऩा": 919,
    "ऩा्क": 920,
    "ऩि": 921,
    "ऩी": 922,
    "ऩु": 923,
    "ऩू": 924,
    "ऩूा्": 925,
    "ऩे": 926,
    "ऩै": 927,
    "ऩ्": 928,
    "ऩ्ऩ": 929,
    "ऩ्ऩि": 930,
    "ऩ्ऩै": 931,
    "ऩ्ऩो": 932,
    "ऩ्प": 933,
    "ऩ्ऱ": 934,
    "ऩ्ऱु": 935,
    "ऩ्ऱॆ": 936,
    "ऩ्सी": 937,
    "प": 938,
    "पं": 939,
    "पा": 940,
    "पाँ": 941,
    "पां": 942,
    "पा्": 943,
    "पा्टि": 944,
    "पि": 945,
    "पिं": 946,
    "पिा": 947,
    "पी": 948,
    "पु": 949,
    "पु॰": 950,
    "पु‍": 951,
    "पू": 952,
    "पूँ": 953,
    "पूाि": 954,
    "पृ": 955,
    "पॅ": 956,
    "पॆ": 957,
    "पॆं": 958,
    "पे": 959,
    "पें": 960,
    "पेा": 961,
    "पै": 962,
    "पैं": 963,
    "पैा": 964,
    "पॉ": 965,
    "पॊ": 966,
    "पो": 967,
    "पौ": 968,
    "प्": 969,
    "प्टॆ": 970,
    "प्टें": 971,
    "प्ण": 972,
    "प्त": 973,
    "प्ता": 974,
    "प्ति": 975,
    "प्तों": 976,
    "प्न": 977,
    "प्प": 978,
    "प्पं": 979,
    "प्पा": 980,
    "प्पि": 981,
    "प्पिं": 982,
    "प्पी": 983,
    "प्पु": 984,
    "प्पू": 985,
    "प्पॆ": 986,
    "प्पे": 987,
    "प्पॊ": 988,
    "प्पो": 989,
    "प्प्": 990,
    "प्प्मू": 991,
    "प्प्‌": 992,
    "प्या": 993,
    "प्र": 994,
    "प्रा": 995,
    "प्रां": 996,
    "प्राः": 997,
    "प्रि": 998,
    "प्री": 999,
    "प्रॅ": 1000,
    "प्रे": 1001,
    "प्रै": 1002,
    "प्रो": 1003,
    "प्रौ": 1004,
    "प्ल": 1005,
    "प्ला": 1006,
    "प्ले": 1007,
    "प्लै": 1008,
    "प्लॉ": 1009,
    "प्व": 1010,
    "प्स्": 1011,
    "प्॰": 1012,
    "प्॰ि": 1013,
    "प्‍": 1014,
    "प॰": 1015,
    "पॱ": 1016,
    "फ": 1017,
    "फ़": 1018,
    "फा": 1019,
    "फि": 1020,
    "फी": 1021,
    "फु": 1022,
    "फॅ": 1023,
    "फॆ": 1024,
    "फे": 1025,
    "फै": 1026,
    "फॉ": 1027,
    "फो": 1028,
    "फों": 1029,
    "फ्": 1030,
    "फ्या": 1031,
    "फ्र": 1032,
    "फ्री": 1033,
    "फ्रॅ": 1034,
    "फ्ल": 1035,
    "फ्॰े": 1036,
    "ब": 1037,
    "बँ": 1038,
    "बं": 1039,
    "बा": 1040,
    "बां": 1041,
    "बि": 1042,
    "बिं": 1043,
    "बि॰": 1044,
    "बी": 1045,
    "बु": 1046,
    "बू": 1047,
    "बृ": 1048,
    "बॅ": 1049,
    "बॆ": 1050,
    "बॆं": 1051,
    "बे": 1052,
    "बें": 1053,
    "बै": 1054,
    "बैं": 1055,
    "बॉ": 1056,
    "बॊ": 1057,
    "बो": 1058,
    "बौ": 1059,
    "ब्थ": 1060,
    "ब्द": 1061,
    "ब्दां": 1062,
    "ब्दी": 1063,
    "ब्दु": 1064,
    "ब्ध": 1065,
    "ब्ब": 1066,
    "ब्बा": 1067,
    "ब्य": 1068,
    "ब्या": 1069,
    "ब्यां": 1070,
    "ब्यु": 1071,
    "ब्यू": 1072,
    "ब्र": 1073,
    "ब्रा": 1074,
    "ब्रि": 1075,
    "ब्रु": 1076,
    "ब्रू": 1077,
    "ब्रे": 1078,
    "ब्ल": 1079,
    "ब्लु": 1080,
    "ब्लो": 1081,
    "ब्ल्यू": 1082,
    "ब्वा": 1083,
    "ब्य़ा": 1084,
    "ब्॰ु": 1085,
    "ब्‍": 1086,
    "ब॰": 1087,
    "बॱ": 1088,
    "भ": 1089,
    "भं": 1090,
    "भा": 1091,
    "भां": 1092,
    "भा‍": 1093,
    "भि": 1094,
    "भिं": 1095,
    "भी": 1096,
    "भु": 1097,
    "भुॱ": 1098,
    "भू": 1099,
    "भृ": 1100,
    "भे": 1101,
    "भें": 1102,
    "भै": 1103,
    "भो": 1104,
    "भौ": 1105,
    "भ्या": 1106,
    "भ्र": 1107,
    "भ॰": 1108,
    "म": 1109,
    "मं": 1110,
    "मः": 1111,
    "मा": 1112,
    "माँ": 1113,
    "मां": 1114,
    "मि": 1115,
    "मि्त": 1116,
    "मी": 1117,
    "मु": 1118,
    "मुं": 1119,
    "मुॱ": 1120,
    "मू": 1121,
    "मृ": 1122,
    "मॆ": 1123,
    "मॆं": 1124,
    "मे": 1125,
    "में": 1126,
    "मै": 1127,
    "मैं": 1128,
    "मॉ": 1129,
    "मॊ": 1130,
    "मो": 1131,
    "मों": 1132,
    "मौ": 1133,
    "म्": 1134,
    "म्A": 1135,
    "म्इ": 1136,
    "म्को": 1137,
    "म्ट": 1138,
    "म्प": 1139,
    "म्पा": 1140,
    "म्पा्": 1141,
    "म्पि": 1142,
    "म्पु": 1143,
    "म्पू": 1144,
    "म्पूा्": 1145,
    "म्पे": 1146,
    "म्पो": 1147,
    "म्प्": 1148,
    "म्प्यु": 1149,
    "म्प्लॉ": 1150,
    "म्प्॰": 1151,
    "म्ब": 1152,
    "म्बा": 1153,
    "म्बि": 1154,
    "म्बे": 1155,
    "म्ब्न": 1156,
    "म्भ": 1157,
    "म्भा": 1158,
    "म्भु": 1159,
    "म्म": 1160,
    "म्मा": 1161,
    "म्मि": 1162,
    "म्मु": 1163,
    "म्मे": 1164,
    "म्मै": 1165,
    "म्म्न": 1166,
    "म्य": 1167,
    "म्या": 1168,
    "म्र": 1169,
    "म्रि": 1170,
    "म्वां": 1171,
    "म्श": 1172,
    "म्स": 1173,
    "म्ह": 1174,
    "म्ही": 1175,
    "म्य़": 1176,
    "म्॰ा": 1177,
    "म्‌": 1178,
    "म॰": 1179,
    "य": 1180,
    "यं": 1181,
    "य़": 1182,
    "य़ा": 1183,
    "य़े": 1184,
    "या": 1185,
    "याँ": 1186,
    "यां": 1187,
    "याा्": 1188,
    "या्": 1189,
    "या‍": 1190,
    "यि": 1191,
    "यी": 1192,
    "यु": 1193,
    "युं": 1194,
    "यू": 1195,
    "यूः": 1196,
    "ये": 1197,
    "यें": 1198,
    "यै": 1199,
    "यॊ": 1200,
    "यो": 1201,
    "यों": 1202,
    "य्": 1203,
    "य्क्कु": 1204,
    "य्त": 1205,
    "य्न्त": 1206,
    "य्म": 1207,
    "य्मा": 1208,
    "य्मै": 1209,
    "य्य": 1210,
    "य्या्": 1211,
    "य्यु": 1212,
    "य्यो": 1213,
    "य्व": 1214,
    "य्वि": 1215,
    "य्वु": 1216,
    "य्स्री": 1217,
    "य्य़ा": 1218,
    "य्‌": 1219,
    "यॖ": 1220,
    "र": 1221,
    "रं": 1222,
    "रा": 1223,
    "रां": 1224,
    "रा्": 1225,
    "रि": 1226,
    "रिं": 1227,
    "रिा": 1228,
    "रि॰": 1229,
    "री": 1230,
    "रीं": 1231,
    "रीु": 1232,
    "रु": 1233,
    "रुं": 1234,
    "रुॱ": 1235,
    "रु‍": 1236,
    "रू": 1237,
    "रूा्": 1238,
    "रॆ": 1239,
    "रे": 1240,
    "रें": 1241,
    "रै": 1242,
    "रॉँ": 1243,
    "रॊ": 1244,
    "रो": 1245,
    "र्": 1246,
    "र्क": 1247,
    "र्का": 1248,
    "र्किं": 1249,
    "र्कॆ": 1250,
    "र्के": 1251,
    "र्ग": 1252,
    "र्गा": 1253,
    "र्गि": 1254,
    "र्च": 1255,
    "र्चा": 1256,
    "र्चि": 1257,
    "र्चु": 1258,
    "र्ज": 1259,
    "र्ज़": 1260,
    "र्जि": 1261,
    "र्जी": 1262,
    "र्जु": 1263,
    "र्ट": 1264,
    "र्टि": 1265,
    "र्टी": 1266,
    "र्ट्": 1267,
    "र्ट्स": 1268,
    "र्ट्स्": 1269,
    "र्ड": 1270,
    "र्डा": 1271,
    "र्डी": 1272,
    "र्ड्": 1273,
    "र्ण": 1274,
    "र्णा": 1275,
    "र्णि": 1276,
    "र्णी": 1277,
    "र्णो": 1278,
    "र्ण्णा": 1279,
    "र्ण्न": 1280,
    "र्त": 1281,
    "र्ति": 1282,
    "र्ती": 1283,
    "र्तु": 1284,
    "र्तू": 1285,
    "र्ते": 1286,
    "र्थ": 1287,
    "र्थं": 1288,
    "र्थि": 1289,
    "र्थी": 1290,
    "र्द": 1291,
    "र्दि": 1292,
    "र्दी": 1293,
    "र्दु": 1294,
    "र्दे": 1295,
    "र्द्व": 1296,
    "र्ध": 1297,
    "र्न": 1298,
    "र्ना": 1299,
    "र्नी": 1300,
    "र्नू": 1301,
    "र्प": 1302,
    "र्पा": 1303,
    "र्पि": 1304,
    "र्पे": 1305,
    "र्पॊ": 1306,
    "र्पो": 1307,
    "र्फे": 1308,
    "र्ब": 1309,
    "र्बा": 1310,
    "र्बि": 1311,
    "र्ब्ब": 1312,
    "र्भ": 1313,
    "र्भा": 1314,
    "र्भी": 1315,
    "र्म": 1316,
    "र्मं": 1317,
    "र्मा": 1318,
    "र्मि": 1319,
    "र्मु": 1320,
    "र्मे": 1321,
    "र्य": 1322,
    "र्या": 1323,
    "र्य्य": 1324,
    "र्य्या": 1325,
    "र्य्य़": 1326,
    "र्य्य़ा": 1327,
    "र्र": 1328,
    "र्रा": 1329,
    "र्रि": 1330,
    "र्ल": 1331,
    "र्लु": 1332,
    "र्लो": 1333,
    "र्व": 1334,
    "र्वा": 1335,
    "र्वि": 1336,
    "र्वे": 1337,
    "र्वो": 1338,
    "र्श": 1339,
    "र्शा": 1340,
    "र्शि": 1341,
    "र्ष": 1342,
    "र्षा": 1343,
    "र्षि": 1344,
    "र्षे": 1345,
    "र्स": 1346,
    "र्सि": 1347,
    "र्सी": 1348,
    "र्स्": 1349,
    "र्‍": 1350,
    "रॕ": 1351,
    "र॰": 1352,
    "रॱ": 1353,
    "र‌": 1354,
    "र‍": 1355,
    "ऱ": 1356,
    "ऱं": 1357,
    "ऱा": 1358,
    "ऱि": 1359,
    "ऱिं": 1360,
    "ऱी": 1361,
    "ऱु": 1362,
    "ऱू": 1363,
    "ऱॆ": 1364,
    "ऱे": 1365,
    "ऱै": 1366,
    "ऱो": 1367,
    "ऱ्क": 1368,
    "ऱ्का": 1369,
    "ऱ्कु": 1370,
    "ऱ्कै": 1371,
    "ऱ्चि": 1372,
    "ऱ्प": 1373,
    "ऱ्पू": 1374,
    "ऱ्ऱ": 1375,
    "ऱ्ऱं": 1376,
    "ऱ्ऱा": 1377,
    "ऱ्ऱि": 1378,
    "ऱ्ऱु": 1379,
    "ऱ्ऱे": 1380,
    "ऱ्ऱो": 1381,
    "ऱ्ऱ्": 1382,
    "ऱ्ऱ्यू": 1383,
    "ऱ्ऱ्ऱ्‌": 1384,
    "ल": 1385,
    "लं": 1386,
    "ला": 1387,
    "लां": 1388,
    "ला्क": 1389,
    "लि": 1390,
    "लिं": 1391,
    "ली": 1392,
    "लु": 1393,
    "लुं": 1394,
    "लू": 1395,
    "लूा्": 1396,
    "लॅ": 1397,
    "लॆ": 1398,
    "लॆं": 1399,
    "ले": 1400,
    "लें": 1401,
    "लै": 1402,
    "लॉ": 1403,
    "लो": 1404,
    "लोँ": 1405,
    "लों": 1406,
    "लौ": 1407,
    "ल्": 1408,
    "ल्ऎ": 1409,
    "ल्क": 1410,
    "ल्की": 1411,
    "ल्कु": 1412,
    "ल्कै": 1413,
    "ल्क्कु": 1414,
    "ल्क्स्": 1415,
    "ल्गू": 1416,
    "ल्ट": 1417,
    "ल्टि": 1418,
    "ल्टी": 1419,
    "ल्टे": 1420,
    "ल्ट्": 1421,
    "ल्ट्रा": 1422,
    "ल्ड": 1423,
    "ल्डी": 1424,
    "ल्डीं": 1425,
    "ल्ड्": 1426,
    "ल्ड्र": 1427,
    "ल्ड्री": 1428,
    "ल्थ": 1429,
    "ल्द": 1430,
    "ल्दा": 1431,
    "ल्न": 1432,
    "ल्प": 1433,
    "ल्पी": 1434,
    "ल्पु": 1435,
    "ल्पॊ": 1436,
    "ल्भ": 1437,
    "ल्म": 1438,
    "ल्य": 1439,
    "ल्या": 1440,
    "ल्यां": 1441,
    "ल्यु": 1442,
    "ल्ल": 1443,
    "ल्लं": 1444,
    "ल्ला": 1445,
    "ल्ला‍": 1446,
    "ल्लि": 1447,
    "ल्ली": 1448,
    "ल्लु": 1449,
    "ल्लू": 1450,
    "ल्लूाि": 1451,
    "ल्लॆ": 1452,
    "ल्ले": 1453,
    "ल्लै": 1454,
    "ल्ल्": 1455,
    "ल्वि": 1456,
    "ल्वॆ": 1457,
    "ल्वे": 1458,
    "ल्स": 1459,
    "ल्स्": 1460,
    "ल्ह": 1461,
    "ल्हा": 1462,
    "ल्हे": 1463,
    "ल्ह्या": 1464,
    "ल्‌": 1465,
    "ल्‍": 1466,
    "ल॰": 1467,
    "लॱ": 1468,
    "ल‍": 1469,
    "ळ": 1470,
    "ळं": 1471,
    "ळा": 1472,
    "ळां": 1473,
    "ळा्": 1474,
    "ळि": 1475,
    "ळी": 1476,
    "ळीं": 1477,
    "ळु": 1478,
    "ळुं": 1479,
    "ळू": 1480,
    "ळॆ": 1481,
    "ळे": 1482,
    "ळै": 1483,
    "ळो": 1484,
    "ळ्": 1485,
    "ळ्ट": 1486,
    "ळ्प": 1487,
    "ळ्मि": 1488,
    "ळ्मी": 1489,
    "ळ्या": 1490,
    "ळ्यां": 1491,
    "ळ्ळ": 1492,
    "ळ्ळा": 1493,
    "ळ्ळि": 1494,
    "ळ्ळु": 1495,
    "ळ‍": 1496,
    "ऴ": 1497,
    "ऴा": 1498,
    "ऴि": 1499,
    "ऴु": 1500,
    "ऴेां": 1501,
    "ऴै": 1502,
    "ऴ्": 1503,
    "ऴ्क": 1504,
    "ऴ्चॆ": 1505,
    "ऴ्न": 1506,
    "ऴ्ना": 1507,
    "ऴ्स्": 1508,
    "ऴ्‌": 1509,
    "व": 1510,
    "वं": 1511,
    "वः": 1512,
    "व़": 1513,
    "वा": 1514,
    "वां": 1515,
    "वा्": 1516,
    "वि": 1517,
    "विं": 1518,
    "विॱ": 1519,
    "वि‍": 1520,
    "वी": 1521,
    "वीः": 1522,
    "वीा्": 1523,
    "वु": 1524,
    "वुं": 1525,
    "वू": 1526,
    "वृ": 1527,
    "वॅ": 1528,
    "वॆ": 1529,
    "वॆं": 1530,
    "वे": 1531,
    "वें": 1532,
    "वेा्ल्टु": 1533,
    "वै": 1534,
    "वॉ": 1535,
    "वो": 1536,
    "व्": 1537,
    "व्दा": 1538,
    "व्य": 1539,
    "व्या": 1540,
    "व्युं": 1541,
    "व्र": 1542,
    "व्व": 1543,
    "व्वं": 1544,
    "व्वी": 1545,
    "व्वॆं": 1546,
    "व्वे": 1547,
    "व्ह": 1548,
    "व्हि": 1549,
    "व्ही": 1550,
    "व्‌": 1551,
    "व॰": 1552,
    "वॱ": 1553,
    "व‌": 1554,
    "श": 1555,
    "शं": 1556,
    "शा": 1557,
    "शां": 1558,
    "शाः": 1559,
    "शि": 1560,
    "शिं": 1561,
    "शी": 1562,
    "शीू": 1563,
    "शु": 1564,
    "शू": 1565,
    "शॅ": 1566,
    "शे": 1567,
    "शें": 1568,
    "शै": 1569,
    "शॉ": 1570,
    "शो": 1571,
    "शौ": 1572,
    "श्": 1573,
    "श्च": 1574,
    "श्चा": 1575,
    "श्चि": 1576,
    "श्ते": 1577,
    "श्ब": 1578,
    "श्मा": 1579,
    "श्य": 1580,
    "श्यो": 1581,
    "श्र": 1582,
    "श्रा": 1583,
    "श्रि": 1584,
    "श्री": 1585,
    "श्रु": 1586,
    "श्रे": 1587,
    "श्व": 1588,
    "श्वा": 1589,
    "श्वे": 1590,
    "श्श": 1591,
    "श्शि": 1592,
    "श्ष": 1593,
    "श्स": 1594,
    "श्॰ी": 1595,
    "श्ॱ": 1596,
    "श्‍": 1597,
    "शॗ": 1598,
    "ष": 1599,
    "षं": 1600,
    "षा": 1601,
    "षां": 1602,
    "षि": 1603,
    "षी": 1604,
    "षु": 1605,
    "षुं": 1606,
    "षू": 1607,
    "षे": 1608,
    "षो": 1609,
    "ष्": 1610,
    "ष्क": 1611,
    "ष्कृ": 1612,
    "ष्ट": 1613,
    "ष्टा": 1614,
    "ष्टि": 1615,
    "ष्टी": 1616,
    "ष्टु": 1617,
    "ष्टो": 1618,
    "ष्ट्": 1619,
    "ष्ट्र": 1620,
    "ष्ट्रा": 1621,
    "ष्ट्री": 1622,
    "ष्ट्॰": 1623,
    "ष्ट्॰ी": 1624,
    "ष्ठ": 1625,
    "ष्ठा": 1626,
    "ष्ण": 1627,
    "ष्णा": 1628,
    "ष्णू": 1629,
    "ष्ना": 1630,
    "ष्पा": 1631,
    "ष्मॆ": 1632,
    "ष्य": 1633,
    "ष्या": 1634,
    "ष्य़": 1635,
    "ष्‌": 1636,
    "ष्‍": 1637,
    "षॢ": 1638,
    "स": 1639,
    "सं": 1640,
    "सः": 1641,
    "स़": 1642,
    "स़ा": 1643,
    "स़ि": 1644,
    "सा": 1645,
    "सां": 1646,
    "सा‍": 1647,
    "सि": 1648,
    "सिं": 1649,
    "सि॰": 1650,
    "सिॱ": 1651,
    "सी": 1652,
    "सीं": 1653,
    "सी्अ॰": 1654,
    "सी‍": 1655,
    "सु": 1656,
    "सुँ": 1657,
    "सुं": 1658,
    "सुॱ": 1659,
    "सू": 1660,
    "सृ": 1661,
    "सृं": 1662,
    "सॅ": 1663,
    "सॆ": 1664,
    "से": 1665,
    "सें": 1666,
    "से‍": 1667,
    "सै": 1668,
    "सैं": 1669,
    "सॊ": 1670,
    "सो": 1671,
    "सोँ": 1672,
    "सों": 1673,
    "सौ": 1674,
    "स्": 1675,
    "स्क": 1676,
    "स्का": 1677,
    "स्कु": 1678,
    "स्कू": 1679,
    "स्कृ": 1680,
    "स्क्का": 1681,
    "स्क्रि": 1682,
    "स्जि": 1683,
    "स्ट": 1684,
    "स्टँ": 1685,
    "स्टा": 1686,
    "स्टि": 1687,
    "स्टु": 1688,
    "स्टॆ": 1689,
    "स्टे": 1690,
    "स्टॉ": 1691,
    "स्टो": 1692,
    "स्टोा्स्": 1693,
    "स्ट्": 1694,
    "स्ट्री": 1695,
    "स्ठ": 1696,
    "स्ड": 1697,
    "स्त": 1698,
    "स्तं": 1699,
    "स्ता": 1700,
    "स्तां": 1701,
    "स्ति": 1702,
    "स्तु": 1703,
    "स्तू": 1704,
    "स्तृ": 1705,
    "स्ते": 1706,
    "स्तो": 1707,
    "स्त्या": 1708,
    "स्त्र": 1709,
    "स्त्रा": 1710,
    "स्त्रि": 1711,
    "स्त्री": 1712,
    "स्थ": 1713,
    "स्था": 1714,
    "स्थि": 1715,
    "स्थू": 1716,
    "स्थॆ": 1717,
    "स्थे": 1718,
    "स्थ्य": 1719,
    "स्दु": 1720,
    "स्ध": 1721,
    "स्धा": 1722,
    "स्धॆ": 1723,
    "स्ने": 1724,
    "स्प": 1725,
    "स्पा": 1726,
    "स्पि": 1727,
    "स्पृ": 1728,
    "स्पॆ": 1729,
    "स्पे": 1730,
    "स्ब": 1731,
    "स्बा": 1732,
    "स्भा": 1733,
    "स्म": 1734,
    "स्मा": 1735,
    "स्मृ": 1736,
    "स्मे": 1737,
    "स्य": 1738,
    "स्या": 1739,
    "स्र": 1740,
    "स्ऱी": 1741,
    "स्रा": 1742,
    "स्री": 1743,
    "स्रो": 1744,
    "स्ऱ्ऱ": 1745,
    "स्ऱ्ऱा": 1746,
    "स्ऱ्ऱि": 1747,
    "स्ऱ्ऱु": 1748,
    "स्ऱ्ऱे": 1749,
    "स्ऱ्ऱै": 1750,
    "स्ऱ्ऱ्": 1751,
    "स्लि": 1752,
    "स्लॊ": 1753,
    "स्व": 1754,
    "स्वं": 1755,
    "स्वा": 1756,
    "स्वी": 1757,
    "स्वे": 1758,
    "स्सा": 1759,
    "स्सि": 1760,
    "स्सी": 1761,
    "स्सु": 1762,
    "स्से": 1763,
    "स्स्‌": 1764,
    "स्ह": 1765,
    "स्॰": 1766,
    "स्॰ा": 1767,
    "स्ॱ": 1768,
    "स्‌": 1769,
    "स्‍": 1770,
    "सॗ": 1771,
    "स॰": 1772,
    "सॱ": 1773,
    "ह": 1774,
    "हं": 1775,
    "हः": 1776,
    "हा": 1777,
    "हाँ": 1778,
    "हां": 1779,
    "हा॓": 1780,
    "हा‍": 1781,
    "हि": 1782,
    "हिँ": 1783,
    "हिं": 1784,
    "हिः": 1785,
    "हि॰": 1786,
    "हिॱ": 1787,
    "ही": 1788,
    "हीं": 1789,
    "हु": 1790,
    "हु॰": 1791,
    "हू": 1792,
    "हूँ": 1793,
    "हृ": 1794,
    "हॆ": 1795,
    "हे": 1796,
    "हें": 1797,
    "है": 1798,
    "हैं": 1799,
    "हैे": 1800,
    "है॓": 1801,
    "है‍": 1802,
    "हॉ": 1803,
    "हॊ": 1804,
    "हो": 1805,
    "हौ": 1806,
    "ह्": 1807,
    "ह्दि": 1808,
    "ह्न": 1809,
    "ह्म": 1810,
    "ह्मां": 1811,
    "ह्मि": 1812,
    "ह्य": 1813,
    "ह्या": 1814,
    "ां": 1815,
    "े": 1816,
    "ॎ": 1817,
    "ॐ": 1818,
    "ख़ु": 1819,
    "ज़ो": 1820,
    "ज़॰": 1821,
    "ड़": 1822,
    "ड़ा": 1823,
    "ड़ि": 1824,
    "ड़ी": 1825,
    "ड़े": 1826,
    "ड़ो": 1827,
    "ड़्ह": 1828,
    "ढ़ि": 1829,
    "ढ़ी": 1830,
    "ढ़ो": 1831,
    "फ़": 1832,
    "फ़्ट": 1833,
    "फ़्दु": 1834,
    "य़": 1835,
    "य़ं": 1836,
    "य़ः": 1837,
    "य़़": 1838,
    "य़ा": 1839,
    "य़ां": 1840,
    "य़ि": 1841,
    "य़ु": 1842,
    "य़े": 1843,
    "य़ो": 1844,
    "य़्या": 1845,
    "य़ॗ": 1846,
    "ॠ": 1847,
    "।": 1848,
    "।‍": 1849,
    "॥": 1850,
    "०": 1851,
    "१": 1852,
    "१ः": 1853,
    "१्को": 1854,
    "१‌": 1855,
    "२": 1856,
    "२़": 1857,
    "२ा": 1858,
    "३": 1859,
    "४": 1860,
    "५": 1861,
    "६": 1862,
    "६ः": 1863,
    "७": 1864,
    "८": 1865,
    "८े": 1866,
    "९": 1867,
    "॰": 1868,
    "॰ा": 1869,
    "॰ि": 1870,
    "॰िः": 1871,
    "॰ी": 1872,
    "॰ु": 1873,
    "॰ू": 1874,
    "॰े": 1875,
    "॰ो": 1876,
    "॰्थ": 1877,
    "॰्प": 1878,
    "॰्ब": 1879,
    "॰्मा": 1880,
    "॰्य": 1881,
    "॰्य्य": 1882,
    "॰्य्या": 1883,
    "॰्ष": 1884,
    "ॱ": 1885,
    "ॱा": 1886,
    "ॱि": 1887,
    "ॱे": 1888,
    "ॱो": 1889,
    "ॲ": 1890,
    "ॳ": 1891,
    "ॳे": 1892,
    "ॷ": 1893,
    "ॺ": 1894,
    "ॺ‌": 1895,
    "ॻ": 1896,
    "ॻॆ": 1897,
    "ॻ्ऱ": 1898,
    "ॻ्ऱॆ": 1899,
    "ॻ्ऱ्": 1900,
    "ॻ्ऱ्स्": 1901,
    "ॻ‌": 1902,
    "ॻ‌‌": 1903,
    "ॻ‍": 1904,
    "ॼ": 1905,
    "ॼ‌": 1906,
    "ॼ‍‍": 1907,
    "ॽ": 1908,
    "ॽ‌": 1909,
    "ॽ‍": 1910,
    "ॾ": 1911,
    "​": 1912,
    "↑": 1913
  },
  "metadata": {
    "tag": "zs_loso_rungB_devanagari",
    "num_graphemes": 1912,
    "space": "shared-abugida-pivot"
  }
}