{
  "grapheme2idx": {
    "<blank>": 0,
    "<unk>": 1,
    " ‌": 2,
    "!": 3,
    "\"": 4,
    "&": 5,
    "'": 6,
    "(": 7,
    ")": 8,
    ",": 9,
    "-": 10,
    "-ा": 11,
    ".": 12,
    "/": 13,
    "0": 14,
    "0्": 15,
    "1": 16,
    "2": 17,
    "3": 18,
    "4": 19,
    "5": 20,
    "6": 21,
    "7": 22,
    "8": 23,
    "9": 24,
    ":": 25,
    "?": 26,
    "A": 27,
    "D": 28,
    "G": 29,
    "H": 30,
    "I": 31,
    "O": 32,
    "P": 33,
    "V": 34,
    "[": 35,
    "c": 36,
    "|": 37,
    "°": 38,
    "ا": 39,
    "ت": 40,
    "ج": 41,
    "ر": 42,
    "گ": 43,
    "ی": 44,
    "ँ": 45,
    "अ": 46,
    "अं": 47,
    "अि": 48,
    "अ्या": 49,
    "अ॰": 50,
    "आ": 51,
    "आं": 52,
    "आा्": 53,
    "आे": 54,
    "आ्य": 55,
    "आॕ": 56,
    "इ": 57,
    "इं": 58,
    "इ्ट": 59,
    "इ॰": 60,
    "इॱ": 61,
    "ई": 62,
    "ईँ": 63,
    "ईं": 64,
    "उ": 65,
    "उाि": 66,
    "उॱ": 67,
    "ऊ": 68,
    "ऊँ": 69,
    "ऊं": 70,
    "ऋ": 71,
    "ऍ": 72,
    "ऎ": 73,
    "ऎं": 74,
    "ऎ‍": 75,
    "ए": 76,
    "एँ": 77,
    "एा": 78,
    "ऐ": 79,
    "ऐं": 80,
    "ऑ": 81,
    "ऒ": 82,
    "ऒं": 83,
    "ऒाि": 84,
    "ऒा्क्स्": 85,
    "ऒ‌": 86,
    "ओ": 87,
    "ओँ": 88,
    "ओं": 89,
    "ओ्बा": 90,
    "औ": 91,
    "औं": 92,
    "क": 93,
    "कं": 94,
    "कं‌": 95,
    "कः": 96,
    "का": 97,
    "काँ": 98,
    "कां": 99,
    "काुं": 100,
    "काे": 101,
    "का्": 102,
    "का‍": 103,
    "का‍‌": 104,
    "कि": 105,
    "किं": 106,
    "किाि": 107,
    "की": 108,
    "कीे": 109,
    "कु": 110,
    "कुं": 111,
    "कु॰": 112,
    "कू": 113,
    "कृ": 114,
    "कॅ": 115,
    "कॅा": 116,
    "कॆ": 117,
    "कॆं": 118,
    "के": 119,
    "कें": 120,
    "केा": 121,
    "केॆ्टा": 122,
    "केे": 123,
    "कै": 124,
    "कॉ": 125,
    "कॊ": 126,
    "कॊं": 127,
    "कॊॕ": 128,
    "को": 129,
    "कोँ": 130,
    "कों": 131,
    "क्": 132,
    "क्क": 133,
    "क्कं": 134,
    "क्का": 135,
    "क्कि": 136,
    "क्कु": 137,
    "क्कू": 138,
    "क्कॆ": 139,
    "क्के": 140,
    "क्कै": 141,
    "क्कॊ": 142,
    "क्को": 143,
    "क्क्": 144,
    "क्क्‌": 145,
    "क्कॗ": 146,
    "क्ट": 147,
    "क्टि": 148,
    "क्टो": 149,
    "क्ट्रि": 150,
    "क्ट्रो": 151,
    "क्त": 152,
    "क्ता": 153,
    "क्तां": 154,
    "क्ति": 155,
    "क्तीं": 156,
    "क्तु": 157,
    "क्ते": 158,
    "क्नि": 159,
    "क्नो": 160,
    "क्प": 161,
    "क्पे": 162,
    "क्मि": 163,
    "क्य": 164,
    "क्या": 165,
    "क्यू": 166,
    "क्र": 167,
    "क्रं": 168,
    "क्रा": 169,
    "क्रि": 170,
    "क्री": 171,
    "क्रे": 172,
    "क्रै": 173,
    "क्रो": 174,
    "क्ल": 175,
    "क्ला": 176,
    "क्लि": 177,
    "क्ले": 178,
    "क्ळे": 179,
    "क्व": 180,
    "क्वा": 181,
    "क्वॆ": 182,
    "क्श": 183,
    "क्ष": 184,
    "क्षा": 185,
    "क्षां": 186,
    "क्षि": 187,
    "क्षिं": 188,
    "क्षी": 189,
    "क्षुः": 190,
    "क्षॆ": 191,
    "क्षे": 192,
    "क्षो": 193,
    "क्ष्म": 194,
    "क्ष्मि": 195,
    "क्ष्मिॕ": 196,
    "क्ष्मी": 197,
    "क्ष्य": 198,
    "क्ष्या": 199,
    "क्स": 200,
    "क्सि": 201,
    "क्स्": 202,
    "क्य़ा": 203,
    "क्॰": 204,
    "क्॰ा": 205,
    "क्॰े": 206,
    "क्‌": 207,
    "क्‍": 208,
    "क॰": 209,
    "कॱ": 210,
    "क‌": 211,
    "क‍ी": 212,
    "ख": 213,
    "खं": 214,
    "ख़": 215,
    "खा": 216,
    "खाँ": 217,
    "खां": 218,
    "खि": 219,
    "खी": 220,
    "खु": 221,
    "खू": 222,
    "खॆ": 223,
    "खे": 224,
    "खै": 225,
    "खो": 226,
    "ख्ख": 227,
    "ख्त": 228,
    "ख्य": 229,
    "ख्यु": 230,
    "ख्यॆ": 231,
    "ख्रि": 232,
    "ख्रीः": 233,
    "ग": 234,
    "गं": 235,
    "गा": 236,
    "गां": 237,
    "गि": 238,
    "गि॰": 239,
    "गी": 240,
    "गु": 241,
    "गुं": 242,
    "गू": 243,
    "गृ": 244,
    "गॆ": 245,
    "गॆं": 246,
    "गे": 247,
    "गें": 248,
    "गे्ड": 249,
    "गै": 250,
    "गॊ": 251,
    "गो": 252,
    "गों": 253,
    "गौ": 254,
    "ग्": 255,
    "ग्ग": 256,
    "ग्गि": 257,
    "ग्गॆ": 258,
    "ग्ण": 259,
    "ग्नि": 260,
    "ग्ब": 261,
    "ग्भ": 262,
    "ग्य": 263,
    "ग्या": 264,
    "ग्ये": 265,
    "ग्र": 266,
    "ग्रं": 267,
    "ग्रा": 268,
    "ग्रां": 269,
    "ग्री": 270,
    "ग्रू": 271,
    "ग्रे": 272,
    "ग्ल": 273,
    "ग्ला": 274,
    "ग्वा": 275,
    "ग्ष": 276,
    "ग्स": 277,
    "ग्य़ा": 278,
    "ग्॰ु": 279,
    "ग॰": 280,
    "गॱ": 281,
    "घ": 282,
    "घं": 283,
    "घा": 284,
    "घां": 285,
    "घु": 286,
    "घे": 287,
    "घो": 288,
    "घौ": 289,
    "घ्य": 290,
    "घ्या": 291,
    "घ्र": 292,
    "ङ": 293,
    "ङा": 294,
    "ङि": 295,
    "ङे": 296,
    "ङ्": 297,
    "ङ्क": 298,
    "ङ्का": 299,
    "ङ्कि": 300,
    "ङ्कु": 301,
    "ङ्के": 302,
    "ङ्कै": 303,
    "ङ्को": 304,
    "ङ्क्": 305,
    "ङ्ग": 306,
    "ङ्गा": 307,
    "ङ्गी": 308,
    "ङ्गु": 309,
    "ङ्गे": 310,
    "ङ्गो": 311,
    "ङ्घ": 312,
    "ङ्ङ": 313,
    "ङ्ङा": 314,
    "ङ्ङि": 315,
    "ङ्ङे": 316,
    "ङ्ङों": 317,
    "ङ्ङ्‌": 318,
    "ङ्ट": 319,
    "ङ्त": 320,
    "ङ्ष": 321,
    "ङ्‌": 322,
    "च": 323,
    "चं": 324,
    "चा": 325,
    "चां": 326,
    "चा्": 327,
    "चा्जि": 328,
    "चा्व": 329,
    "चि": 330,
    "चिं": 331,
    "चिॕ": 332,
    "ची": 333,
    "चु": 334,
    "चुे": 335,
    "चू": 336,
    "चॆ": 337,
    "चे": 338,
    "चें": 339,
    "चेा्ऩ्": 340,
    "चै": 341,
    "चॊ": 342,
    "चो": 343,
    "चौ": 344,
    "च्": 345,
    "च्च": 346,
    "च्चं": 347,
    "च्चा": 348,
    "च्चि": 349,
    "च्ची": 350,
    "च्चु": 351,
    "च्चे": 352,
    "च्चेाि": 353,
    "च्च्": 354,
    "च्च्‌": 355,
    "च्छ": 356,
    "च्छा": 357,
    "च्छु": 358,
    "च्छे": 359,
    "च्छ्": 360,
    "च्ट": 361,
    "च्य": 362,
    "च्या": 363,
    "च॑": 364,
    "च॰": 365,
    "चॱ": 366,
    "छ": 367,
    "छा": 368,
    "छि": 369,
    "छु": 370,
    "छुॱ": 371,
    "छे": 372,
    "छें": 373,
    "छो": 374,
    "छोँ": 375,
    "छ॰": 376,
    "ज": 377,
    "जं": 378,
    "ज़": 379,
    "ज़ी": 380,
    "ज़ु": 381,
    "जा": 382,
    "जि": 383,
    "जिं": 384,
    "जि॰": 385,
    "जिॱ": 386,
    "जी": 387,
    "जु": 388,
    "जुॱ": 389,
    "जू": 390,
    "जॆ": 391,
    "जे": 392,
    "जें": 393,
    "जै": 394,
    "जो": 395,
    "ज्": 396,
    "ज्ञ": 397,
    "ज्ञा": 398,
    "ज्ञी": 399,
    "ज्ब": 400,
    "ज्य": 401,
    "ज्यु": 402,
    "ज्यू": 403,
    "ज्येा": 404,
    "ज्यो": 405,
    "ज्यों": 406,
    "ज्ल": 407,
    "ज्व": 408,
    "ज्सि": 409,
    "ज्य़": 410,
    "ज्‌": 411,
    "ज॰": 412,
    "झ": 413,
    "झा": 414,
    "झाँ": 415,
    "झां": 416,
    "झि": 417,
    "झी": 418,
    "झे": 419,
    "झ॰": 420,
    "ञ": 421,
    "ञा": 422,
    "ञ्च": 423,
    "ञ्चा": 424,
    "ञ्चा्": 425,
    "ञ्चि": 426,
    "ञ्ज": 427,
    "ञ्जा": 428,
    "ञ्जि": 429,
    "ञ्जी": 430,
    "ञ्ञ": 431,
    "ञ्ञि": 432,
    "ञ्ञो": 433,
    "ट": 434,
    "टं": 435,
    "टा": 436,
    "टाा": 437,
    "टि": 438,
    "टिं": 439,
    "टी": 440,
    "टु": 441,
    "टुं": 442,
    "टू": 443,
    "टॆ": 444,
    "टॆं": 445,
    "टे": 446,
    "टै": 447,
    "टैं": 448,
    "टॊ": 449,
    "टो": 450,
    "टौ": 451,
    "ट्": 452,
    "ट्चाा्च्च": 453,
    "ट्चि": 454,
    "ट्ट": 455,
    "ट्टं": 456,
    "ट्टा": 457,
    "ट्टि": 458,
    "ट्टी": 459,
    "ट्टु": 460,
    "ट्टूा्पु": 461,
    "ट्टॆ": 462,
    "ट्टै": 463,
    "ट्टो": 464,
    "ट्ट्": 465,
    "ट्ण": 466,
    "ट्त": 467,
    "ट्न": 468,
    "ट्नं": 469,
    "ट्प": 470,
    "ट्मि": 471,
    "ट्य": 472,
    "ट्यू": 473,
    "ट्र": 474,
    "ट्रा": 475,
    "ट्रि": 476,
    "ट्री": 477,
    "ट्रॆ": 478,
    "ट्रे": 479,
    "ट्रै": 480,
    "ट्रो": 481,
    "ट्र्या": 482,
    "ट्ल": 483,
    "ट्लु": 484,
    "ट्व": 485,
    "ट्श्री": 486,
    "ट्स्": 487,
    "ट्॰": 488,
    "ट्‌": 489,
    "टॗ": 490,
    "ठ": 491,
    "ठा": 492,
    "ठि": 493,
    "ठि॰": 494,
    "ठी": 495,
    "ठु": 496,
    "ठे": 497,
    "ठें": 498,
    "ठो": 499,
    "ठ्ठ": 500,
    "ड": 501,
    "डः": 502,
    "ड़": 503,
    "ड़ा": 504,
    "ड़ि": 505,
    "ड़ी": 506,
    "ड़े": 507,
    "ड़ौ": 508,
    "डा": 509,
    "डाः": 510,
    "डि": 511,
    "डिं": 512,
    "डी": 513,
    "डु": 514,
    "डू": 515,
    "डॆ": 516,
    "डॆं": 517,
    "डे": 518,
    "डै": 519,
    "डॊ": 520,
    "डो": 521,
    "ड्": 522,
    "ड्क": 523,
    "ड्ड": 524,
    "ड्डा": 525,
    "ड्डि": 526,
    "ड्डु": 527,
    "ड्ते": 528,
    "ड्प": 529,
    "ड्यं": 530,
    "ड्या": 531,
    "ड्यां": 532,
    "ड्यू": 533,
    "ड्र": 534,
    "ड्रा": 535,
    "ड्रि": 536,
    "ड्री": 537,
    "ड्स्": 538,
    "ड्‌": 539,
    "ड्‍": 540,
    "ढ": 541,
    "ढ़": 542,
    "ढ़ि": 543,
    "ढ़ी": 544,
    "ढि": 545,
    "ढु": 546,
    "ढे": 547,
    "ढे़": 548,
    "ण": 549,
    "णं": 550,
    "ण़": 551,
    "णा": 552,
    "णाः": 553,
    "णि": 554,
    "णी": 555,
    "णीं": 556,
    "णु": 557,
    "णु्": 558,
    "णू": 559,
    "णॆ": 560,
    "णे": 561,
    "णै": 562,
    "णो": 563,
    "ण्": 564,
    "ण्क": 565,
    "ण्का": 566,
    "ण्ट": 567,
    "ण्टं": 568,
    "ण्टा": 569,
    "ण्टि": 570,
    "ण्टी": 571,
    "ण्टु": 572,
    "ण्टे": 573,
    "ण्टै": 574,
    "ण्ट्": 575,
    "ण्ट्स्": 576,
    "ण्ट्‌": 577,
    "ण्ठु": 578,
    "ण्ड": 579,
    "ण्डा": 580,
    "ण्डि": 581,
    "ण्ण": 582,
    "ण्णा": 583,
    "ण्णि": 584,
    "ण्णी": 585,
    "ण्णु": 586,
    "ण्णू": 587,
    "ण्ता": 588,
    "ण्ति": 589,
    "ण्प": 590,
    "ण्पु": 591,
    "ण्मै": 592,
    "ण्य": 593,
    "ण्या": 594,
    "ण‍": 595,
    "त": 596,
    "तं": 597,
    "तः": 598,
    "त़": 599,
    "त़ा": 600,
    "त़ि": 601,
    "ता": 602,
    "ताँ": 603,
    "तां": 604,
    "ता्का": 605,
    "ति": 606,
    "तिं": 607,
    "तिः": 608,
    "तिाि": 609,
    "ती": 610,
    "तीा्": 611,
    "तीा्त्त": 612,
    "तु": 613,
    "तुं": 614,
    "तू": 615,
    "तूा्": 616,
    "तू॰": 617,
    "तृ": 618,
    "तॆ": 619,
    "तॆॆ": 620,
    "तॆ्र्र": 621,
    "ते": 622,
    "तें": 623,
    "तै": 624,
    "तॊ": 625,
    "तो": 626,
    "तों": 627,
    "त्": 628,
    "त्उ": 629,
    "त्क": 630,
    "त्का": 631,
    "त्कू": 632,
    "त्कृ": 633,
    "त्त": 634,
    "त्तं": 635,
    "त्ता": 636,
    "त्ति": 637,
    "त्ती": 638,
    "त्तु": 639,
    "त्तू": 640,
    "त्तॆ": 641,
    "त्ते": 642,
    "त्तेा्": 643,
    "त्तै": 644,
    "त्तॊ": 645,
    "त्त्": 646,
    "त्त्य": 647,
    "त्त्व": 648,
    "त्त्‌": 649,
    "त्थ": 650,
    "त्थि": 651,
    "त्न": 652,
    "त्प": 653,
    "त्बे": 654,
    "त्म": 655,
    "त्मा": 656,
    "त्य": 657,
    "त्यं": 658,
    "त्या": 659,
    "त्यां": 660,
    "त्यु": 661,
    "त्ये": 662,
    "त्य्": 663,
    "त्र": 664,
    "त्रं": 665,
    "त्रं‌": 666,
    "त्रा": 667,
    "त्रि": 668,
    "त्री": 669,
    "त्रॆ": 670,
    "त्रे": 671,
    "त्रों": 672,
    "त्र्य": 673,
    "त्र्यं": 674,
    "त्व": 675,
    "त्वा": 676,
    "त्वि": 677,
    "त्स": 678,
    "त्सा": 679,
    "त्स्ना": 680,
    "त्ह": 681,
    "त्य़": 682,
    "त्य़ु": 683,
    "त्य़े": 684,
    "त्॰": 685,
    "त्‌": 686,
    "त्‍": 687,
    "त॰": 688,
    "त‍े": 689,
    "थ": 690,
    "था": 691,
    "थां": 692,
    "थि": 693,
    "थी": 694,
    "थु": 695,
    "थू": 696,
    "थृ": 697,
    "थे": 698,
    "थ्य": 699,
    "द": 700,
    "दा": 701,
    "दां": 702,
    "दि": 703,
    "दिं": 704,
    "दि॰": 705,
    "दी": 706,
    "दु": 707,
    "दुं": 708,
    "दुि": 709,
    "दू": 710,
    "दूं": 711,
    "दृ": 712,
    "दॆ": 713,
    "दे": 714,
    "दें": 715,
    "दै": 716,
    "दॊ": 717,
    "दो": 718,
    "दौ": 719,
    "द्": 720,
    "द्घा": 721,
    "द्ट": 722,
    "द्टु": 723,
    "द्द": 724,
    "द्दा": 725,
    "द्दि": 726,
    "द्दु": 727,
    "द्दू": 728,
    "द्ध": 729,
    "द्धा": 730,
    "द्धि": 731,
    "द्धी": 732,
    "द्फु": 733,
    "द्ब": 734,
    "द्बा": 735,
    "द्बि": 736,
    "द्बी": 737,
    "द्बो": 738,
    "द्म": 739,
    "द्मा": 740,
    "द्य": 741,
    "द्या": 742,
    "द्यु": 743,
    "द्यो": 744,
    "द्र": 745,
    "द्रा": 746,
    "द्रि": 747,
    "द्री": 748,
    "द्रु": 749,
    "द्रे": 750,
    "द्रो": 751,
    "द्रौ": 752,
    "द्ळु": 753,
    "द्व": 754,
    "द्वा": 755,
    "द्वी": 756,
    "द्शि": 757,
    "द्य़": 758,
    "द्य़ा": 759,
    "द्॰": 760,
    "द्‌": 761,
    "ध": 762,
    "धा": 763,
    "धि": 764,
    "धिि": 765,
    "धी": 766,
    "धीं": 767,
    "धु": 768,
    "धू": 769,
    "धे": 770,
    "धो": 771,
    "ध्दा": 772,
    "ध्दी": 773,
    "ध्ब": 774,
    "ध्य": 775,
    "ध्या": 776,
    "ध्ये": 777,
    "ध्र": 778,
    "ध्व": 779,
    "ध॰": 780,
    "न": 781,
    "नं": 782,
    "नः": 783,
    "ना": 784,
    "नाँ": 785,
    "नां": 786,
    "नाि": 787,
    "ना्": 788,
    "नि": 789,
    "निं": 790,
    "निॕ": 791,
    "नि‍": 792,
    "नी": 793,
    "नीा्": 794,
    "नु": 795,
    "नुं": 796,
    "नू": 797,
    "नू॰": 798,
    "नृ": 799,
    "नॅ": 800,
    "नॆ": 801,
    "ने": 802,
    "नेे": 803,
    "नै": 804,
    "नॊ": 805,
    "नो": 806,
    "नौ": 807,
    "न्": 808,
    "न्क": 809,
    "न्कु": 810,
    "न्ट": 811,
    "न्टा": 812,
    "न्ट्र": 813,
    "न्ट्रा": 814,
    "न्ड": 815,
    "न्डि": 816,
    "न्डी": 817,
    "न्डे": 818,
    "न्त": 819,
    "न्ता": 820,
    "न्ति": 821,
    "न्ती": 822,
    "न्तु": 823,
    "न्तू": 824,
    "न्ते": 825,
    "न्तो": 826,
    "न्त्": 827,
    "न्त्य": 828,
    "न्त्र": 829,
    "न्त्रि": 830,
    "न्त्री": 831,
    "न्त्॰ा": 832,
    "न्त्॰ि": 833,
    "न्त्॰ी": 834,
    "न्थ": 835,
    "न्था": 836,
    "न्द": 837,
    "न्दा": 838,
    "न्दि": 839,
    "न्दी": 840,
    "न्दु": 841,
    "न्दे": 842,
    "न्दो": 843,
    "न्द्यो": 844,
    "न्द्र": 845,
    "न्द्रं": 846,
    "न्द्रा": 847,
    "न्द्री": 848,
    "न्द्र्र": 849,
    "न्द्॰": 850,
    "न्द्॰ी": 851,
    "न्द्‌": 852,
    "न्ध": 853,
    "न्धं": 854,
    "न्धि": 855,
    "न्धी": 856,
    "न्ध्यं": 857,
    "न्न": 858,
    "न्नं": 859,
    "न्ना": 860,
    "न्नि": 861,
    "न्नु": 862,
    "न्नुं": 863,
    "न्नू": 864,
    "न्नै": 865,
    "न्नॊं": 866,
    "न्ब": 867,
    "न्म": 868,
    "न्मा": 869,
    "न्मे": 870,
    "न्मो": 871,
    "न्म्या": 872,
    "न्म्र": 873,
    "न्य": 874,
    "न्यः": 875,
    "न्या": 876,
    "न्यु": 877,
    "न्यू": 878,
    "न्ये": 879,
    "न्ऱ": 880,
    "न्ऱॆ": 881,
    "न्ऱ्": 882,
    "न्ल": 883,
    "न्लु": 884,
    "न्व": 885,
    "न्वी": 886,
    "न्स": 887,
    "न्सा": 888,
    "न्सि": 889,
    "न्सी": 890,
    "न्सू": 891,
    "न्स्": 892,
    "न्स्टि": 893,
    "न्ह": 894,
    "न्हा": 895,
    "न्हां": 896,
    "न्य़": 897,
    "न्य़ा": 898,
    "न्‌": 899,
    "न॰": 900,
    "न॰ः": 901,
    "नॱ": 902,
    "ऩ": 903,
    "ऩा": 904,
    "ऩा्": 905,
    "ऩि": 906,
    "ऩी": 907,
    "ऩु": 908,
    "ऩू": 909,
    "ऩे": 910,
    "ऩै": 911,
    "ऩ्": 912,
    "ऩ्टा्": 913,
    "ऩ्ट्": 914,
    "ऩ्ट्र": 915,
    "ऩ्ऩ": 916,
    "ऩ्ऩा": 917,
    "ऩ्ऩूा्": 918,
    "ऩ्ऩै": 919,
    "ऩ्ऩो": 920,
    "ऩ्पु": 921,
    "ऩ्ऱ": 922,
    "ऩ्ऱि": 923,
    "ऩ्वॆ": 924,
    "प": 925,
    "पं": 926,
    "पा": 927,
    "पाँ": 928,
    "पां": 929,
    "पा्": 930,
    "पि": 931,
    "पिं": 932,
    "पिाि": 933,
    "पिु": 934,
    "पी": 935,
    "पु": 936,
    "पू": 937,
    "पूँ": 938,
    "पॅ": 939,
    "पॆ": 940,
    "पॆं": 941,
    "पे": 942,
    "पेा": 943,
    "पै": 944,
    "पैा": 945,
    "पॉ": 946,
    "पॊ": 947,
    "पॊं": 948,
    "पो": 949,
    "पोा्चु": 950,
    "पौ": 951,
    "प्": 952,
    "प्का": 953,
    "प्टॆ": 954,
    "प्ण": 955,
    "प्त": 956,
    "प्तं": 957,
    "प्तॆ": 958,
    "प्प": 959,
    "प्पं": 960,
    "प्पा": 961,
    "प्पि": 962,
    "प्पी": 963,
    "प्पु": 964,
    "प्पॆ": 965,
    "प्पे": 966,
    "प्पो": 967,
    "प्प्": 968,
    "प्प्मू": 969,
    "प्या": 970,
    "प्र": 971,
    "प्रा": 972,
    "प्रां": 973,
    "प्राः": 974,
    "प्रि": 975,
    "प्री": 976,
    "प्रीि": 977,
    "प्रॅ": 978,
    "प्रॆ": 979,
    "प्रे": 980,
    "प्रै": 981,
    "प्रॊ": 982,
    "प्रो": 983,
    "प्रौ": 984,
    "प्ला": 985,
    "प्ले": 986,
    "प्लै": 987,
    "प्लॉ": 988,
    "प्ष": 989,
    "प्स्": 990,
    "प्॰": 991,
    "प्॰ि": 992,
    "प्‍": 993,
    "प॰": 994,
    "प‌": 995,
    "फ": 996,
    "फ़": 997,
    "फा": 998,
    "फां": 999,
    "फि": 1000,
    "फी": 1001,
    "फु": 1002,
    "फॆ": 1003,
    "फे": 1004,
    "फै": 1005,
    "फो": 1006,
    "फ्": 1007,
    "फ्ट्": 1008,
    "फ्या": 1009,
    "फ्र": 1010,
    "फ्री": 1011,
    "फ्रू": 1012,
    "फ्ल": 1013,
    "फ्ला": 1014,
    "फ्॰े": 1015,
    "ब": 1016,
    "बँ": 1017,
    "बं": 1018,
    "बा": 1019,
    "बां": 1020,
    "बा‍": 1021,
    "बि": 1022,
    "बि॰": 1023,
    "बी": 1024,
    "बु": 1025,
    "बू": 1026,
    "बृ": 1027,
    "बॆ": 1028,
    "बॆं": 1029,
    "बे": 1030,
    "बें": 1031,
    "बै": 1032,
    "बैं": 1033,
    "बॉ": 1034,
    "बॊ": 1035,
    "बो": 1036,
    "बौ": 1037,
    "ब्": 1038,
    "ब्थ": 1039,
    "ब्द": 1040,
    "ब्दी": 1041,
    "ब्दु": 1042,
    "ब्ध": 1043,
    "ब्ब": 1044,
    "ब्बा": 1045,
    "ब्य": 1046,
    "ब्या": 1047,
    "ब्यां": 1048,
    "ब्यु": 1049,
    "ब्र": 1050,
    "ब्रा": 1051,
    "ब्रि": 1052,
    "ब्रु": 1053,
    "ब्रे": 1054,
    "ब्ल": 1055,
    "ब्लि": 1056,
    "ब्लु": 1057,
    "ब्लो": 1058,
    "ब्ल्यू": 1059,
    "ब्स": 1060,
    "ब्सि": 1061,
    "ब्य़": 1062,
    "ब्य़ा": 1063,
    "ब्॰ु": 1064,
    "ब्‌": 1065,
    "ब॰": 1066,
    "बॱ": 1067,
    "भ": 1068,
    "भं": 1069,
    "भा": 1070,
    "भां": 1071,
    "भि": 1072,
    "भिं": 1073,
    "भी": 1074,
    "भु": 1075,
    "भू": 1076,
    "भृ": 1077,
    "भृा": 1078,
    "भे": 1079,
    "भें": 1080,
    "भै": 1081,
    "भो": 1082,
    "भ्य": 1083,
    "भ्या": 1084,
    "भ्र": 1085,
    "भ॰": 1086,
    "म": 1087,
    "मं": 1088,
    "मः": 1089,
    "मा": 1090,
    "मां": 1091,
    "मााि": 1092,
    "मा‍": 1093,
    "मि": 1094,
    "मी": 1095,
    "मु": 1096,
    "मुं": 1097,
    "मुॱ": 1098,
    "मू": 1099,
    "मूा्त्ति": 1100,
    "मृ": 1101,
    "मॆ": 1102,
    "मॆं": 1103,
    "मे": 1104,
    "में": 1105,
    "मै": 1106,
    "मैं": 1107,
    "मैा": 1108,
    "मॊ": 1109,
    "मो": 1110,
    "मों": 1111,
    "मौ": 1112,
    "म्": 1113,
    "म्A": 1114,
    "म्ः": 1115,
    "म्का": 1116,
    "म्के": 1117,
    "म्ग्र": 1118,
    "म्ट": 1119,
    "म्न": 1120,
    "म्प": 1121,
    "म्पा": 1122,
    "म्पि": 1123,
    "म्पु": 1124,
    "म्पू": 1125,
    "म्पे": 1126,
    "म्पो": 1127,
    "म्प्": 1128,
    "म्प्य": 1129,
    "म्प्यु": 1130,
    "म्प्र": 1131,
    "म्प्वा": 1132,
    "म्प्॰": 1133,
    "म्ब": 1134,
    "म्बा": 1135,
    "म्बि": 1136,
    "म्बे": 1137,
    "म्ब्न": 1138,
    "म्भ": 1139,
    "म्भा": 1140,
    "म्भु": 1141,
    "म्म": 1142,
    "म्मा": 1143,
    "म्मि": 1144,
    "म्मु": 1145,
    "म्मे": 1146,
    "म्म्न": 1147,
    "म्य": 1148,
    "म्या": 1149,
    "म्यां": 1150,
    "म्यु": 1151,
    "म्यू": 1152,
    "म्र": 1153,
    "म्रि": 1154,
    "म्श": 1155,
    "म्स": 1156,
    "म्ह": 1157,
    "म्ही": 1158,
    "म्य़": 1159,
    "म्य़ो": 1160,
    "म्॰ा": 1161,
    "मॖ": 1162,
    "म॰": 1163,
    "मॱ": 1164,
    "य": 1165,
    "यं": 1166,
    "य़": 1167,
    "य़ा": 1168,
    "य़े": 1169,
    "या": 1170,
    "यां": 1171,
    "याा्": 1172,
    "याा्पे": 1173,
    "या‍": 1174,
    "यि": 1175,
    "यिाि": 1176,
    "यी": 1177,
    "यु": 1178,
    "युं": 1179,
    "यू": 1180,
    "यॆ": 1181,
    "ये": 1182,
    "यें": 1183,
    "यै": 1184,
    "यॊ": 1185,
    "यो": 1186,
    "यों": 1187,
    "य्": 1188,
    "य्क्कां": 1189,
    "य्क्कु": 1190,
    "य्क्क्": 1191,
    "य्त": 1192,
    "य्ता": 1193,
    "य्न्त": 1194,
    "य्भ": 1195,
    "य्म": 1196,
    "य्मा": 1197,
    "य्य": 1198,
    "य्यु": 1199,
    "य्यो": 1200,
    "य्वु": 1201,
    "य्स्री": 1202,
    "य्‌": 1203,
    "र": 1204,
    "रं": 1205,
    "ऱ": 1206,
    "रा": 1207,
    "रां": 1208,
    "राा्": 1209,
    "रा्": 1210,
    "रि": 1211,
    "रिं": 1212,
    "रि॰": 1213,
    "री": 1214,
    "रीं": 1215,
    "रु": 1216,
    "रुं": 1217,
    "रु‍": 1218,
    "रू": 1219,
    "रॆ": 1220,
    "रॆं": 1221,
    "रे": 1222,
    "रें": 1223,
    "रै": 1224,
    "रॉँ": 1225,
    "रॊ": 1226,
    "रो": 1227,
    "र्": 1228,
    "र्ऎ": 1229,
    "र्क": 1230,
    "र्का": 1231,
    "र्कि": 1232,
    "र्किं": 1233,
    "र्कॆ": 1234,
    "र्के": 1235,
    "र्कॊं": 1236,
    "र्क्": 1237,
    "र्ग": 1238,
    "र्गः": 1239,
    "र्गा": 1240,
    "र्गि": 1241,
    "र्च": 1242,
    "र्चा": 1243,
    "र्चि": 1244,
    "र्चू": 1245,
    "र्च्चि": 1246,
    "र्ज": 1247,
    "र्ज़": 1248,
    "र्जा": 1249,
    "र्जि": 1250,
    "र्जी": 1251,
    "र्जु": 1252,
    "र्ट": 1253,
    "र्टि": 1254,
    "र्टी": 1255,
    "र्ट्": 1256,
    "र्ट्स्": 1257,
    "र्ड": 1258,
    "र्डी": 1259,
    "र्डॆ": 1260,
    "र्ड्‌": 1261,
    "र्ण": 1262,
    "र्णा": 1263,
    "र्णि": 1264,
    "र्णी": 1265,
    "र्णे": 1266,
    "र्णो": 1267,
    "र्त": 1268,
    "र्ति": 1269,
    "र्ती": 1270,
    "र्तु": 1271,
    "र्ते": 1272,
    "र्त्त": 1273,
    "र्त्ता": 1274,
    "र्थ": 1275,
    "र्थं": 1276,
    "र्थि": 1277,
    "र्द": 1278,
    "र्दि": 1279,
    "र्दे": 1280,
    "र्दॊ": 1281,
    "र्द्": 1282,
    "र्ध": 1283,
    "र्न": 1284,
    "र्ना": 1285,
    "र्नी": 1286,
    "र्न्": 1287,
    "र्प": 1288,
    "र्पा": 1289,
    "र्पू": 1290,
    "र्पे": 1291,
    "र्पै": 1292,
    "र्पॊ": 1293,
    "र्पो": 1294,
    "र्फे": 1295,
    "र्ब": 1296,
    "र्बा": 1297,
    "र्बि": 1298,
    "र्बो": 1299,
    "र्ब्ब": 1300,
    "र्भ": 1301,
    "र्भी": 1302,
    "र्म": 1303,
    "र्मा": 1304,
    "र्मि": 1305,
    "र्मी": 1306,
    "र्मु": 1307,
    "र्मे": 1308,
    "र्म्": 1309,
    "र्य": 1310,
    "र्या": 1311,
    "र्य्य": 1312,
    "र्य्या": 1313,
    "र्य्य़": 1314,
    "र्य्य़ा": 1315,
    "र्र": 1316,
    "र्रा": 1317,
    "र्रि": 1318,
    "र्ल": 1319,
    "र्ला": 1320,
    "र्लु": 1321,
    "र्लो": 1322,
    "र्व": 1323,
    "र्वा": 1324,
    "र्वि": 1325,
    "र्वे": 1326,
    "र्श": 1327,
    "र्शि": 1328,
    "र्ष": 1329,
    "र्षा": 1330,
    "र्षि": 1331,
    "र्षे": 1332,
    "र्स": 1333,
    "र्सि": 1334,
    "र्सिं": 1335,
    "र्सी": 1336,
    "र्सु": 1337,
    "र्स्": 1338,
    "र्‌": 1339,
    "रॕ": 1340,
    "र॰": 1341,
    "रॱ": 1342,
    "र‌": 1343,
    "र‍": 1344,
    "ऱ": 1345,
    "ऱा": 1346,
    "ऱि": 1347,
    "ऱिं": 1348,
    "ऱु": 1349,
    "ऱुं": 1350,
    "ऱू": 1351,
    "ऱॆ": 1352,
    "ऱे": 1353,
    "ऱै": 1354,
    "ऱॊ": 1355,
    "ऱो": 1356,
    "ऱ्": 1357,
    "ऱ्क": 1358,
    "ऱ्का": 1359,
    "ऱ्कु": 1360,
    "ऱ्के": 1361,
    "ऱ्प": 1362,
    "ऱ्पू": 1363,
    "ऱ्ऱ": 1364,
    "ऱ्ऱं": 1365,
    "ऱ्ऱा": 1366,
    "ऱ्ऱि": 1367,
    "ऱ्ऱी": 1368,
    "ऱ्ऱु": 1369,
    "ऱ्ऱे": 1370,
    "ऱ्ऱ्": 1371,
    "ऱ्ऱ्यू": 1372,
    "ल": 1373,
    "लं": 1374,
    "ला": 1375,
    "लां": 1376,
    "लि": 1377,
    "लिं": 1378,
    "लिा": 1379,
    "ली": 1380,
    "लु": 1381,
    "लुं": 1382,
    "लू": 1383,
    "लूा्": 1384,
    "लॆ": 1385,
    "लॆं": 1386,
    "ले": 1387,
    "लै": 1388,
    "लॉ": 1389,
    "लो": 1390,
    "लोँ": 1391,
    "लौ": 1392,
    "ल्": 1393,
    "ल्क": 1394,
    "ल्कि": 1395,
    "ल्कै": 1396,
    "ल्क्स्": 1397,
    "ल्गू": 1398,
    "ल्ट": 1399,
    "ल्टि": 1400,
    "ल्टी": 1401,
    "ल्टु": 1402,
    "ल्टे": 1403,
    "ल्ट्": 1404,
    "ल्ट्रा": 1405,
    "ल्ड": 1406,
    "ल्डीं": 1407,
    "ल्ड्": 1408,
    "ल्ड्र": 1409,
    "ल्त्": 1410,
    "ल्थ": 1411,
    "ल्दा": 1412,
    "ल्नी": 1413,
    "ल्प": 1414,
    "ल्पी": 1415,
    "ल्पॊ": 1416,
    "ल्फे": 1417,
    "ल्य": 1418,
    "ल्या": 1419,
    "ल्यां": 1420,
    "ल्यु": 1421,
    "ल्यू": 1422,
    "ल्ल": 1423,
    "ल्लं": 1424,
    "ल्ला": 1425,
    "ल्लि": 1426,
    "ल्ली": 1427,
    "ल्लु": 1428,
    "ल्लू": 1429,
    "ल्लूाि": 1430,
    "ल्लूा्": 1431,
    "ल्लॆ": 1432,
    "ल्ले": 1433,
    "ल्लै": 1434,
    "ल्ल्": 1435,
    "ल्ल्‌": 1436,
    "ल्व": 1437,
    "ल्वि": 1438,
    "ल्वॆ": 1439,
    "ल्वे": 1440,
    "ल्स": 1441,
    "ल्स्": 1442,
    "ल्हा": 1443,
    "ल्हे": 1444,
    "ल्ह्या": 1445,
    "ल्‌": 1446,
    "ल्‍": 1447,
    "ल॰": 1448,
    "लॱ": 1449,
    "ळ": 1450,
    "ळं": 1451,
    "ळः": 1452,
    "ळा": 1453,
    "ळां": 1454,
    "ळा्": 1455,
    "ळि": 1456,
    "ळिं": 1457,
    "ळी": 1458,
    "ळु": 1459,
    "ळू": 1460,
    "ळॆ": 1461,
    "ळे": 1462,
    "ळै": 1463,
    "ळो": 1464,
    "ळ्": 1465,
    "ळ्अ": 1466,
    "ळ्ट": 1467,
    "ळ्प": 1468,
    "ळ्मि": 1469,
    "ळ्मी": 1470,
    "ळ्या": 1471,
    "ळ्यां": 1472,
    "ळ्ळ": 1473,
    "ळ्ळा": 1474,
    "ळ्ळि": 1475,
    "ळ्ळी": 1476,
    "ळ्ळु": 1477,
    "ळ्ळे": 1478,
    "ळ‍": 1479,
    "ऴ": 1480,
    "ऴा": 1481,
    "ऴि": 1482,
    "ऴि‌": 1483,
    "ऴु": 1484,
    "ऴॆ": 1485,
    "ऴै": 1486,
    "ऴ्": 1487,
    "ऴ्क": 1488,
    "ऴ्च्": 1489,
    "ऴ्त्त": 1490,
    "ऴ्न": 1491,
    "ऴ्ना": 1492,
    "ऴ्वु": 1493,
    "ऴ्स्": 1494,
    "ऴ्‌": 1495,
    "व": 1496,
    "वं": 1497,
    "वः": 1498,
    "व़": 1499,
    "वा": 1500,
    "वां": 1501,
    "वा्": 1502,
    "वा्स्": 1503,
    "वि": 1504,
    "विं": 1505,
    "वि॰": 1506,
    "विॱ": 1507,
    "वी": 1508,
    "वीं": 1509,
    "वु": 1510,
    "वुं": 1511,
    "वू": 1512,
    "वृ": 1513,
    "वॅ": 1514,
    "वॆ": 1515,
    "वॆं": 1516,
    "वे": 1517,
    "वें": 1518,
    "वेा्ल्टु": 1519,
    "वै": 1520,
    "वॉ": 1521,
    "वॊ": 1522,
    "वो": 1523,
    "व्": 1524,
    "व्त": 1525,
    "व्य": 1526,
    "व्या": 1527,
    "व्र": 1528,
    "व्व": 1529,
    "व्वं": 1530,
    "व्वि": 1531,
    "व्वी": 1532,
    "व्वू": 1533,
    "व्वे": 1534,
    "व्ह": 1535,
    "व्हि": 1536,
    "व्ही": 1537,
    "व्‌": 1538,
    "व॰": 1539,
    "श": 1540,
    "शं": 1541,
    "शा": 1542,
    "शां": 1543,
    "शाः": 1544,
    "शि": 1545,
    "शी": 1546,
    "शीू": 1547,
    "शु": 1548,
    "शू": 1549,
    "शृ": 1550,
    "शॅ": 1551,
    "शॆ": 1552,
    "शे": 1553,
    "शै": 1554,
    "शो": 1555,
    "शौ": 1556,
    "श्": 1557,
    "श्च": 1558,
    "श्चि": 1559,
    "श्ट": 1560,
    "श्ते": 1561,
    "श्ब": 1562,
    "श्मा": 1563,
    "श्य": 1564,
    "श्र": 1565,
    "श्रा": 1566,
    "श्री": 1567,
    "श्रु": 1568,
    "श्रे": 1569,
    "श्ले": 1570,
    "श्व": 1571,
    "श्वा": 1572,
    "श्श": 1573,
    "श्शि": 1574,
    "श्शे": 1575,
    "श्ष": 1576,
    "श्स": 1577,
    "श्य़": 1578,
    "श्॰ी": 1579,
    "श्ॱ": 1580,
    "श्‍": 1581,
    "शॗ": 1582,
    "ष": 1583,
    "षं": 1584,
    "षा": 1585,
    "षि": 1586,
    "षी": 1587,
    "षु": 1588,
    "षू": 1589,
    "षे": 1590,
    "ष्": 1591,
    "ष्क": 1592,
    "ष्का": 1593,
    "ष्कृ": 1594,
    "ष्क्": 1595,
    "ष्ट": 1596,
    "ष्टा": 1597,
    "ष्टि": 1598,
    "ष्टी": 1599,
    "ष्टु": 1600,
    "ष्ट्र": 1601,
    "ष्ट्रा": 1602,
    "ष्ट्री": 1603,
    "ष्ट्॰": 1604,
    "ष्ट्॰ी": 1605,
    "ष्ठ": 1606,
    "ष्ठा": 1607,
    "ष्ण": 1608,
    "ष्णा": 1609,
    "ष्णू": 1610,
    "ष्ना": 1611,
    "ष्पा": 1612,
    "ष्म": 1613,
    "ष्मॆ": 1614,
    "ष्य": 1615,
    "ष्यं": 1616,
    "ष्‌": 1617,
    "ष्‍": 1618,
    "षॢ": 1619,
    "स": 1620,
    "सं": 1621,
    "सः": 1622,
    "स़": 1623,
    "स़ा": 1624,
    "स़ि": 1625,
    "सा": 1626,
    "सां": 1627,
    "सि": 1628,
    "सिं": 1629,
    "सि॰": 1630,
    "सी": 1631,
    "सु": 1632,
    "सुँ": 1633,
    "सुं": 1634,
    "सू": 1635,
    "सृ": 1636,
    "सृं": 1637,
    "सॆ": 1638,
    "सॆं": 1639,
    "से": 1640,
    "सें": 1641,
    "से‍": 1642,
    "सै": 1643,
    "सैं": 1644,
    "सॊ": 1645,
    "सो": 1646,
    "सोँ": 1647,
    "सौ": 1648,
    "स्": 1649,
    "स्क": 1650,
    "स्का": 1651,
    "स्कु": 1652,
    "स्कू": 1653,
    "स्कृ": 1654,
    "स्गि": 1655,
    "स्जि": 1656,
    "स्जी": 1657,
    "स्ट": 1658,
    "स्टा": 1659,
    "स्टि": 1660,
    "स्टी": 1661,
    "स्टु": 1662,
    "स्टॆ": 1663,
    "स्टे": 1664,
    "स्टो": 1665,
    "स्ट्": 1666,
    "स्ट्यां": 1667,
    "स्ट्री": 1668,
    "स्ट्रे": 1669,
    "स्ठ": 1670,
    "स्ड": 1671,
    "स्त": 1672,
    "स्तं": 1673,
    "स्ता": 1674,
    "स्ति": 1675,
    "स्तु": 1676,
    "स्तू": 1677,
    "स्तृ": 1678,
    "स्तॆ": 1679,
    "स्ते": 1680,
    "स्त्र": 1681,
    "स्त्रा": 1682,
    "स्थ": 1683,
    "स्था": 1684,
    "स्थि": 1685,
    "स्थी": 1686,
    "स्थू": 1687,
    "स्थॆ": 1688,
    "स्थे": 1689,
    "स्थ्य": 1690,
    "स्दु": 1691,
    "स्ध": 1692,
    "स्धा": 1693,
    "स्धॆ": 1694,
    "स्ना": 1695,
    "स्नि": 1696,
    "स्ने": 1697,
    "स्प": 1698,
    "स्पा": 1699,
    "स्पि": 1700,
    "स्पृ": 1701,
    "स्पॆ": 1702,
    "स्पे": 1703,
    "स्प्पि": 1704,
    "स्फो": 1705,
    "स्ब": 1706,
    "स्बा": 1707,
    "स्भा": 1708,
    "स्म": 1709,
    "स्मा": 1710,
    "स्मृ": 1711,
    "स्य": 1712,
    "स्यः": 1713,
    "स्या": 1714,
    "स्र": 1715,
    "स्ऱी": 1716,
    "स्रा": 1717,
    "स्री": 1718,
    "स्ऱ्ऱा": 1719,
    "स्ऱ्ऱि": 1720,
    "स्ऱ्ऱु": 1721,
    "स्ऱ्ऱे": 1722,
    "स्ऱ्ऱै": 1723,
    "स्ऱ्ऱ्": 1724,
    "स्लि": 1725,
    "स्व": 1726,
    "स्वं": 1727,
    "स्वा": 1728,
    "स्वि": 1729,
    "स्वी": 1730,
    "स्वे": 1731,
    "स्स": 1732,
    "स्सा": 1733,
    "स्सु": 1734,
    "स्स्": 1735,
    "स्स्मा": 1736,
    "स्स्‌": 1737,
    "स्ह": 1738,
    "स्॰": 1739,
    "स्॰ा": 1740,
    "स्ॱ": 1741,
    "स्‌": 1742,
    "स्‍": 1743,
    "स॰": 1744,
    "सॱ": 1745,
    "ह": 1746,
    "हं": 1747,
    "हः": 1748,
    "हा": 1749,
    "हां": 1750,
    "हा‍": 1751,
    "हि": 1752,
    "हिं": 1753,
    "हिः": 1754,
    "हि॰": 1755,
    "ही": 1756,
    "हीं": 1757,
    "हु": 1758,
    "हु॰": 1759,
    "हू": 1760,
    "हृ": 1761,
    "हॆ": 1762,
    "हे": 1763,
    "हें": 1764,
    "है": 1765,
    "है‍": 1766,
    "हॉ": 1767,
    "हॊ": 1768,
    "हो": 1769,
    "ह्दि": 1770,
    "ह्न": 1771,
    "ह्म": 1772,
    "ह्मे": 1773,
    "ह्य": 1774,
    "ह्या": 1775,
    "ह्यां": 1776,
    "ह्रू": 1777,
    "ह॰": 1778,
    "हॱ": 1779,
    "ऽ": 1780,
    "ा": 1781,
    "े": 1782,
    "ॎ": 1783,
    "ॐ": 1784,
    "ज़ो": 1785,
    "ज़॰": 1786,
    "ड़": 1787,
    "ड़ा": 1788,
    "ड़ी": 1789,
    "ड़े": 1790,
    "ड़ै": 1791,
    "ड़ोु": 1792,
    "ड़्ह": 1793,
    "ड़्हे": 1794,
    "ढ़ि": 1795,
    "ढ़ी": 1796,
    "ढ़ो": 1797,
    "फ़": 1798,
    "फ़्ट": 1799,
    "फ़्दु": 1800,
    "य़": 1801,
    "य़ं": 1802,
    "य़ः": 1803,
    "य़़": 1804,
    "य़ा": 1805,
    "य़ां": 1806,
    "य़ि": 1807,
    "य़ी": 1808,
    "य़ु": 1809,
    "य़े": 1810,
    "य़ो": 1811,
    "य़्या": 1812,
    "य़ॗ": 1813,
    "ॠ": 1814,
    "।": 1815,
    "।‍": 1816,
    "॥": 1817,
    "०": 1818,
    "१": 1819,
    "१्को": 1820,
    "१‌": 1821,
    "२": 1822,
    "२़": 1823,
    "२ा": 1824,
    "३": 1825,
    "४": 1826,
    "५": 1827,
    "५ु": 1828,
    "५ो": 1829,
    "६": 1830,
    "७": 1831,
    "८": 1832,
    "९": 1833,
    "॰": 1834,
    "॰ा": 1835,
    "॰ि": 1836,
    "॰िः": 1837,
    "॰ी": 1838,
    "॰ु": 1839,
    "॰ू": 1840,
    "॰े": 1841,
    "॰ो": 1842,
    "॰्थ": 1843,
    "॰्प": 1844,
    "॰्ब": 1845,
    "॰्मा": 1846,
    "॰्य": 1847,
    "॰्य्य": 1848,
    "॰्य्या": 1849,
    "॰्ष": 1850,
    "ॱ": 1851,
    "ॱा": 1852,
    "ॱि": 1853,
    "ॱे": 1854,
    "ॱो": 1855,
    "ॳ": 1856,
    "ॳे": 1857,
    "ॷ": 1858,
    "ॺ": 1859,
    "ॺ‌": 1860,
    "ॺ‍": 1861,
    "ॻ": 1862,
    "ॻ्ऱॆ": 1863,
    "ॻ्ऱ्": 1864,
    "ॻ‌": 1865,
    "ॻ‌‌": 1866,
    "ॻ‍": 1867,
    "ॼ": 1868,
    "ॼ‌": 1869,
    "ॼ‍‍": 1870,
    "ॽ": 1871,
    "ॽ‌": 1872,
    "ॽ‍": 1873,
    "ॾ": 1874,
    "ॾ‌": 1875,
    "ॾ‌‌": 1876,
    "​": 1877
  },
  "metadata": {
    "tag": "zs_scale12960_kannada",
    "num_graphemes": 1876,
    "space": "shared-abugida-pivot"
  }
}