{
  "grapheme2idx": {
    "<blank>": 0,
    "<unk>": 1,
    "!": 2,
    "\"": 3,
    "&": 4,
    "'": 5,
    "(": 6,
    ")": 7,
    ",": 8,
    "-": 9,
    ".": 10,
    "/": 11,
    "0": 12,
    "1": 13,
    "2": 14,
    "3": 15,
    "4": 16,
    "5": 17,
    "6": 18,
    "7": 19,
    "8": 20,
    "9": 21,
    ":": 22,
    "?": 23,
    "A": 24,
    "D": 25,
    "E": 26,
    "G": 27,
    "H": 28,
    "I": 29,
    "O": 30,
    "P": 31,
    "V": 32,
    "[": 33,
    "|": 34,
    "°": 35,
    "ا": 36,
    "ت": 37,
    "ج": 38,
    "ر": 39,
    "گ": 40,
    "ی": 41,
    "ँ": 42,
    "अ": 43,
    "अं": 44,
    "अि": 45,
    "अ्या": 46,
    "अ॰": 47,
    "आ": 48,
    "आं": 49,
    "आा्": 50,
    "आे": 51,
    "आॕ": 52,
    "इ": 53,
    "इँ": 54,
    "इं": 55,
    "इ॰": 56,
    "इॱ": 57,
    "ई": 58,
    "ईँ": 59,
    "ईं": 60,
    "उ": 61,
    "उाि": 62,
    "उॱ": 63,
    "ऊ": 64,
    "ऊँ": 65,
    "ऊं": 66,
    "ऊा्": 67,
    "ऋ": 68,
    "ऍ": 69,
    "ऎ": 70,
    "ऎं": 71,
    "ऎ‍": 72,
    "ए": 73,
    "एँ": 74,
    "एा": 75,
    "ऐ": 76,
    "ऐं": 77,
    "ऑ": 78,
    "ऒ": 79,
    "ऒा्क्स्": 80,
    "ऒ‌": 81,
    "ओ": 82,
    "ओँ": 83,
    "ओं": 84,
    "ओ्बा": 85,
    "औ": 86,
    "औं": 87,
    "क": 88,
    "कं": 89,
    "कः": 90,
    "का": 91,
    "काँ": 92,
    "कां": 93,
    "काुं": 94,
    "काे": 95,
    "का्": 96,
    "का‍": 97,
    "का‍‌": 98,
    "कि": 99,
    "किं": 100,
    "की": 101,
    "कीे": 102,
    "कु": 103,
    "कुं": 104,
    "कु॰": 105,
    "कू": 106,
    "कृ": 107,
    "कॅ": 108,
    "कॅा": 109,
    "कॆ": 110,
    "के": 111,
    "कें": 112,
    "केा": 113,
    "केा्": 114,
    "केे": 115,
    "कै": 116,
    "कॉ": 117,
    "कॊ": 118,
    "को": 119,
    "कोँ": 120,
    "कों": 121,
    "कों‌": 122,
    "क्": 123,
    "क्क": 124,
    "क्कं": 125,
    "क्का": 126,
    "क्कि": 127,
    "क्की": 128,
    "क्कु": 129,
    "क्कू": 130,
    "क्कॆ": 131,
    "क्के": 132,
    "क्कै": 133,
    "क्कॊ": 134,
    "क्को": 135,
    "क्क्": 136,
    "क्कॗ": 137,
    "क्ट": 138,
    "क्टो": 139,
    "क्ट्रि": 140,
    "क्त": 141,
    "क्ता": 142,
    "क्तां": 143,
    "क्ति": 144,
    "क्तीं": 145,
    "क्तु": 146,
    "क्ऩा": 147,
    "क्मि": 148,
    "क्य": 149,
    "क्या": 150,
    "क्यू": 151,
    "क्र": 152,
    "क्रं": 153,
    "क्रा": 154,
    "क्रि": 155,
    "क्री": 156,
    "क्रे": 157,
    "क्रै": 158,
    "क्रो": 159,
    "क्ला": 160,
    "क्ळ": 161,
    "क्वा": 162,
    "क्श": 163,
    "क्ष": 164,
    "क्षा": 165,
    "क्षां": 166,
    "क्षि": 167,
    "क्षी": 168,
    "क्षुः": 169,
    "क्षे": 170,
    "क्षो": 171,
    "क्ष्मि": 172,
    "क्ष्मी": 173,
    "क्ष्य": 174,
    "क्स": 175,
    "क्सि": 176,
    "क्स्": 177,
    "क्य़ा": 178,
    "क्॰": 179,
    "क्॰ा": 180,
    "क्॰े": 181,
    "क्‌": 182,
    "क्‍": 183,
    "क॰": 184,
    "कॱ": 185,
    "क‌": 186,
    "क‍ी": 187,
    "ख": 188,
    "खं": 189,
    "ख़": 190,
    "खा": 191,
    "खाँ": 192,
    "खां": 193,
    "खि": 194,
    "खी": 195,
    "खु": 196,
    "खू": 197,
    "खॆ": 198,
    "खे": 199,
    "खो": 200,
    "ख्त": 201,
    "ख्य": 202,
    "ख्यु": 203,
    "ख्रीः": 204,
    "ग": 205,
    "गं": 206,
    "गा": 207,
    "गाँ": 208,
    "गां": 209,
    "गि": 210,
    "गि॰": 211,
    "गी": 212,
    "गु": 213,
    "गुं": 214,
    "गू": 215,
    "गृ": 216,
    "गॆ": 217,
    "गे": 218,
    "गै": 219,
    "गॊ": 220,
    "गो": 221,
    "गों": 222,
    "गौ": 223,
    "ग्": 224,
    "ग्ग": 225,
    "ग्गॆ": 226,
    "ग्ण": 227,
    "ग्न": 228,
    "ग्नि": 229,
    "ग्ब": 230,
    "ग्य": 231,
    "ग्या": 232,
    "ग्ये": 233,
    "ग्र": 234,
    "ग्रं": 235,
    "ग्रा": 236,
    "ग्री": 237,
    "ग्रू": 238,
    "ग्रे": 239,
    "ग्ला": 240,
    "ग्वा": 241,
    "ग्स": 242,
    "ग्य़ा": 243,
    "ग्॰ु": 244,
    "ग्‌": 245,
    "ग॰": 246,
    "गॱ": 247,
    "घ": 248,
    "घा": 249,
    "घां": 250,
    "घु": 251,
    "घे": 252,
    "घो": 253,
    "घौ": 254,
    "घ्य": 255,
    "घ्या": 256,
    "ङ": 257,
    "ङा": 258,
    "ङि": 259,
    "ङे": 260,
    "ङ्क": 261,
    "ङ्का": 262,
    "ङ्कि": 263,
    "ङ्कु": 264,
    "ङ्के": 265,
    "ङ्कै": 266,
    "ङ्क्": 267,
    "ङ्क्षा": 268,
    "ङ्ग": 269,
    "ङ्गि": 270,
    "ङ्गी": 271,
    "ङ्गु": 272,
    "ङ्गे": 273,
    "ङ्गो": 274,
    "ङ्घ": 275,
    "ङ्ङ": 276,
    "ङ्ङा": 277,
    "ङ्ङि": 278,
    "ङ्ङों": 279,
    "ङ्ङ्‌": 280,
    "ङ्‌": 281,
    "च": 282,
    "चं": 283,
    "च़": 284,
    "चा": 285,
    "चां": 286,
    "चा्": 287,
    "चि": 288,
    "चिं": 289,
    "ची": 290,
    "चीा्": 291,
    "चु": 292,
    "चुे": 293,
    "चू": 294,
    "चॆ": 295,
    "चे": 296,
    "चें": 297,
    "चेा्क्कै": 298,
    "चै": 299,
    "चॊ": 300,
    "चो": 301,
    "चौ": 302,
    "च्": 303,
    "च्च": 304,
    "च्चं": 305,
    "च्चा": 306,
    "च्चा्": 307,
    "च्चि": 308,
    "च्ची": 309,
    "च्चे": 310,
    "च्चेाि": 311,
    "च्च्": 312,
    "च्च्‌": 313,
    "च्छ": 314,
    "च्छा": 315,
    "च्छु": 316,
    "च्छ्": 317,
    "च्ट": 318,
    "च्य": 319,
    "च्या": 320,
    "च्यु": 321,
    "च॑": 322,
    "चॖे": 323,
    "च॰": 324,
    "चॱ": 325,
    "छ": 326,
    "छा": 327,
    "छि": 328,
    "छु": 329,
    "छुॱ": 330,
    "छे": 331,
    "छें": 332,
    "छो": 333,
    "छोँ": 334,
    "छ॰": 335,
    "ज": 336,
    "जं": 337,
    "ज़": 338,
    "ज़ी": 339,
    "ज़ु": 340,
    "जा": 341,
    "जा्": 342,
    "जि": 343,
    "जिं": 344,
    "जि॰": 345,
    "जिॱ": 346,
    "जी": 347,
    "जु": 348,
    "जुॱ": 349,
    "जू": 350,
    "जॆ": 351,
    "जे": 352,
    "जें": 353,
    "जै": 354,
    "जो": 355,
    "ज्": 356,
    "ज्ज": 357,
    "ज्जं": 358,
    "ज्ञ": 359,
    "ज्ञा": 360,
    "ज्ञी": 361,
    "ज्ब": 362,
    "ज्य": 363,
    "ज्यु": 364,
    "ज्येा": 365,
    "ज्यो": 366,
    "ज्यों": 367,
    "ज्व": 368,
    "ज्सि": 369,
    "ज्य़": 370,
    "ज्य़ो": 371,
    "ज॰": 372,
    "झ": 373,
    "झा": 374,
    "झाँ": 375,
    "झां": 376,
    "झि": 377,
    "झी": 378,
    "झे": 379,
    "झ॰": 380,
    "ञ": 381,
    "ञा": 382,
    "ञा्": 383,
    "ञ्च": 384,
    "ञ्चा": 385,
    "ञ्चि": 386,
    "ञ्चे": 387,
    "ञ्ज": 388,
    "ञ्जा": 389,
    "ञ्जि": 390,
    "ञ्जी": 391,
    "ञ्ञ": 392,
    "ञ्ञा": 393,
    "ञ्ञि": 394,
    "ञ्ञॆ": 395,
    "ट": 396,
    "टा": 397,
    "टाा": 398,
    "टााि": 399,
    "टि": 400,
    "टिं": 401,
    "टी": 402,
    "टु": 403,
    "टू": 404,
    "टॆ": 405,
    "टे": 406,
    "टै": 407,
    "टैं": 408,
    "टो": 409,
    "टोाि": 410,
    "टौ": 411,
    "ट्": 412,
    "ट्क": 413,
    "ट्च": 414,
    "ट्चि": 415,
    "ट्ट": 416,
    "ट्टं": 417,
    "ट्ट़": 418,
    "ट्टा": 419,
    "ट्टा्": 420,
    "ट्टि": 421,
    "ट्टी": 422,
    "ट्टु": 423,
    "ट्टूा्पु": 424,
    "ट्टॆ": 425,
    "ट्टै": 426,
    "ट्टो": 427,
    "ट्ट्": 428,
    "ट्ण": 429,
    "ट्त": 430,
    "ट्प": 431,
    "ट्पा": 432,
    "ट्य": 433,
    "ट्यू": 434,
    "ट्र": 435,
    "ट्रा": 436,
    "ट्रि": 437,
    "ट्रे": 438,
    "ट्रै": 439,
    "ट्रो": 440,
    "ट्र्या": 441,
    "ट्ल": 442,
    "ट्स्": 443,
    "ट्॰": 444,
    "ट्‌": 445,
    "ट्‍": 446,
    "ट‌": 447,
    "ठ": 448,
    "ठा": 449,
    "ठि": 450,
    "ठि॰": 451,
    "ठी": 452,
    "ठे": 453,
    "ठें": 454,
    "ठो": 455,
    "ठ्ठ": 456,
    "ड": 457,
    "डः": 458,
    "ड़": 459,
    "ड़ा": 460,
    "ड़ि": 461,
    "ड़ी": 462,
    "ड़े": 463,
    "ड़ौ": 464,
    "डा": 465,
    "डाः": 466,
    "डि": 467,
    "डी": 468,
    "डु": 469,
    "डू": 470,
    "डॆ": 471,
    "डे": 472,
    "डै": 473,
    "डो": 474,
    "ड्": 475,
    "ड्क": 476,
    "ड्डा": 477,
    "ड्पे": 478,
    "ड्यं": 479,
    "ड्या": 480,
    "ड्यां": 481,
    "ड्यू": 482,
    "ड्र": 483,
    "ड्रि": 484,
    "ड्री": 485,
    "ड्रो": 486,
    "ड्‌": 487,
    "ड्‍": 488,
    "ढ": 489,
    "ढ़": 490,
    "ढ़ि": 491,
    "ढ़ी": 492,
    "ढि": 493,
    "ढु": 494,
    "ढे": 495,
    "ढे़": 496,
    "ण": 497,
    "णं": 498,
    "णा": 499,
    "णाः": 500,
    "णि": 501,
    "णी": 502,
    "णीं": 503,
    "णु": 504,
    "णू": 505,
    "णॆ": 506,
    "णे": 507,
    "णै": 508,
    "णो": 509,
    "ण्": 510,
    "ण्क": 511,
    "ण्का": 512,
    "ण्कॊ": 513,
    "ण्ट": 514,
    "ण्टं": 515,
    "ण्टा": 516,
    "ण्टि": 517,
    "ण्टु": 518,
    "ण्टॆ": 519,
    "ण्टे": 520,
    "ण्ट्": 521,
    "ण्ट्लू": 522,
    "ण्ट्‌": 523,
    "ण्ड": 524,
    "ण्डा": 525,
    "ण्डि": 526,
    "ण्ढ": 527,
    "ण्ण": 528,
    "ण्णा": 529,
    "ण्णी": 530,
    "ण्णु": 531,
    "ण्णू": 532,
    "ण्ता": 533,
    "ण्मै": 534,
    "ण्य": 535,
    "ण्या": 536,
    "ण्रा": 537,
    "ण्री": 538,
    "ण्‌": 539,
    "ण‍": 540,
    "त": 541,
    "तं": 542,
    "तः": 543,
    "त़": 544,
    "त़ि": 545,
    "ता": 546,
    "ताँ": 547,
    "तां": 548,
    "ता्": 549,
    "ति": 550,
    "तिं": 551,
    "तिः": 552,
    "तिाि": 553,
    "ती": 554,
    "तीा्": 555,
    "तीा्क": 556,
    "तु": 557,
    "तुं": 558,
    "तू": 559,
    "तू॰": 560,
    "तृ": 561,
    "तॆ": 562,
    "तॆॆ": 563,
    "तॆ्र्र": 564,
    "ते": 565,
    "तें": 566,
    "तै": 567,
    "तॊ": 568,
    "तो": 569,
    "तों": 570,
    "त्": 571,
    "त्उ": 572,
    "त्क": 573,
    "त्का": 574,
    "त्त": 575,
    "त्ता": 576,
    "त्ति": 577,
    "त्ती": 578,
    "त्तु": 579,
    "त्तू": 580,
    "त्तेा्": 581,
    "त्तै": 582,
    "त्तॊ": 583,
    "त्तो": 584,
    "त्त्": 585,
    "त्त्य": 586,
    "त्त्व": 587,
    "त्त्‌": 588,
    "त्थ": 589,
    "त्थि": 590,
    "त्न": 591,
    "त्ब": 592,
    "त्बे": 593,
    "त्भ": 594,
    "त्म": 595,
    "त्मा": 596,
    "त्य": 597,
    "त्या": 598,
    "त्यां": 599,
    "त्यु": 600,
    "त्ये": 601,
    "त्य्": 602,
    "त्र": 603,
    "त्रं": 604,
    "त्रं‌": 605,
    "त्रा": 606,
    "त्रि": 607,
    "त्री": 608,
    "त्रॆ": 609,
    "त्रे": 610,
    "त्रों": 611,
    "त्र्य": 612,
    "त्र्यं": 613,
    "त्व": 614,
    "त्वा": 615,
    "त्वि": 616,
    "त्स": 617,
    "त्सा": 618,
    "त्स्": 619,
    "त्स्ना": 620,
    "त्य़": 621,
    "त्य़ु": 622,
    "त्य़े": 623,
    "त्॰": 624,
    "त्‌": 625,
    "त्‍": 626,
    "त॰": 627,
    "त‍े": 628,
    "थ": 629,
    "था": 630,
    "थां": 631,
    "थि": 632,
    "थी": 633,
    "थु": 634,
    "थू": 635,
    "थृ": 636,
    "थे": 637,
    "थ्य": 638,
    "थ्य़": 639,
    "द": 640,
    "दा": 641,
    "दां": 642,
    "दि": 643,
    "दि॰": 644,
    "दी": 645,
    "दु": 646,
    "दू": 647,
    "दूं": 648,
    "दृ": 649,
    "दॆ": 650,
    "दे": 651,
    "दें": 652,
    "दै": 653,
    "दॊ": 654,
    "दो": 655,
    "दौ": 656,
    "द्": 657,
    "द्घा": 658,
    "द्ट": 659,
    "द्टु": 660,
    "द्द": 661,
    "द्दा": 662,
    "द्दि": 663,
    "द्दु": 664,
    "द्ध": 665,
    "द्धा": 666,
    "द्धी": 667,
    "द्ध्यं": 668,
    "द्ब": 669,
    "द्बा": 670,
    "द्बि": 671,
    "द्बी": 672,
    "द्बो": 673,
    "द्म": 674,
    "द्मा": 675,
    "द्य": 676,
    "द्या": 677,
    "द्यो": 678,
    "द्र": 679,
    "द्रा": 680,
    "द्री": 681,
    "द्रे": 682,
    "द्रौ": 683,
    "द्व": 684,
    "द्वा": 685,
    "द्वी": 686,
    "द्य़": 687,
    "द्य़ा": 688,
    "द्॰": 689,
    "द्‌": 690,
    "ध": 691,
    "धा": 692,
    "धि": 693,
    "धिि": 694,
    "धी": 695,
    "धीं": 696,
    "धु": 697,
    "धू": 698,
    "धे": 699,
    "धो": 700,
    "ध्दा": 701,
    "ध्दी": 702,
    "ध्ब": 703,
    "ध्य": 704,
    "ध्या": 705,
    "ध्ये": 706,
    "ध्व": 707,
    "ध॰": 708,
    "न": 709,
    "नं": 710,
    "नः": 711,
    "ना": 712,
    "नां": 713,
    "ना्": 714,
    "नि": 715,
    "निं": 716,
    "निः": 717,
    "निॕ": 718,
    "नि‍": 719,
    "नी": 720,
    "नीा्": 721,
    "नु": 722,
    "नुं": 723,
    "नू": 724,
    "नू॰": 725,
    "नॅ": 726,
    "नॆ": 727,
    "ने": 728,
    "नेे": 729,
    "नै": 730,
    "नॊ": 731,
    "नो": 732,
    "नौ": 733,
    "न्": 734,
    "न्ट": 735,
    "न्टा": 736,
    "न्ट्र": 737,
    "न्ट्रा": 738,
    "न्ड": 739,
    "न्डि": 740,
    "न्डी": 741,
    "न्डे": 742,
    "न्त": 743,
    "न्ता": 744,
    "न्ति": 745,
    "न्ती": 746,
    "न्तु": 747,
    "न्ते": 748,
    "न्तै": 749,
    "न्तो": 750,
    "न्त्": 751,
    "न्त्र": 752,
    "न्त्रि": 753,
    "न्त्री": 754,
    "न्त्॰ा": 755,
    "न्त्॰ि": 756,
    "न्त्॰ी": 757,
    "न्थ": 758,
    "न्था": 759,
    "न्द": 760,
    "न्दा": 761,
    "न्दि": 762,
    "न्दी": 763,
    "न्दु": 764,
    "न्दे": 765,
    "न्दो": 766,
    "न्द्यो": 767,
    "न्द्र": 768,
    "न्द्रं": 769,
    "न्द्रा": 770,
    "न्द्री": 771,
    "न्द्र्र": 772,
    "न्द्॰": 773,
    "न्द्॰ी": 774,
    "न्ध": 775,
    "न्धि": 776,
    "न्धी": 777,
    "न्न": 778,
    "न्नं": 779,
    "न्ना": 780,
    "न्नि": 781,
    "न्नि‍": 782,
    "न्नु": 783,
    "न्नुं": 784,
    "न्नू": 785,
    "न्नै": 786,
    "न्न्": 787,
    "न्ब": 788,
    "न्म": 789,
    "न्मा": 790,
    "न्मे": 791,
    "न्मो": 792,
    "न्म्या": 793,
    "न्य": 794,
    "न्यः": 795,
    "न्या": 796,
    "न्यु": 797,
    "न्ये": 798,
    "न्ऱॆ": 799,
    "न्ऱ्": 800,
    "न्वी": 801,
    "न्वे": 802,
    "न्स": 803,
    "न्सा": 804,
    "न्सि": 805,
    "न्सी": 806,
    "न्स्": 807,
    "न्हा": 808,
    "न्हां": 809,
    "न्य़": 810,
    "न्य़ा": 811,
    "न्‌": 812,
    "न॰": 813,
    "न॰ः": 814,
    "नॱ": 815,
    "ऩ": 816,
    "ऩा": 817,
    "ऩाा्": 818,
    "ऩा्क": 819,
    "ऩि": 820,
    "ऩी": 821,
    "ऩु": 822,
    "ऩू": 823,
    "ऩूा्": 824,
    "ऩै": 825,
    "ऩ्": 826,
    "ऩ्टा्": 827,
    "ऩ्ट्": 828,
    "ऩ्ट्र": 829,
    "ऩ्ऩ": 830,
    "ऩ्ऩा": 831,
    "ऩ्ऩि": 832,
    "ऩ्ऩै": 833,
    "ऩ्ऩो": 834,
    "ऩ्प": 835,
    "ऩ्पु": 836,
    "ऩ्मै": 837,
    "ऩ्ऱ": 838,
    "ऩ्ऱि": 839,
    "ऩ्ऱु": 840,
    "ऩ्ऱॆ": 841,
    "ऩ्वॆ": 842,
    "ऩ्स्": 843,
    "प": 844,
    "पं": 845,
    "पा": 846,
    "पाँ": 847,
    "पां": 848,
    "पि": 849,
    "पिं": 850,
    "पिु": 851,
    "पी": 852,
    "पु": 853,
    "पू": 854,
    "पूँ": 855,
    "पृ": 856,
    "पॅ": 857,
    "पॆ": 858,
    "पे": 859,
    "पेा": 860,
    "पै": 861,
    "पैा": 862,
    "पॉ": 863,
    "पॊ": 864,
    "पो": 865,
    "पोा्चु": 866,
    "पौ": 867,
    "प्": 868,
    "प्का": 869,
    "प्ट": 870,
    "प्टॆ": 871,
    "प्ण": 872,
    "प्त": 873,
    "प्ति": 874,
    "प्न": 875,
    "प्प": 876,
    "प्पं": 877,
    "प्पा": 878,
    "प्पि": 879,
    "प्पिं": 880,
    "प्पी": 881,
    "प्पु": 882,
    "प्पूा्": 883,
    "प्पॆ": 884,
    "प्पॊ": 885,
    "प्पो": 886,
    "प्प्": 887,
    "प्प्‌": 888,
    "प्या": 889,
    "प्र": 890,
    "प्रा": 891,
    "प्राः": 892,
    "प्रि": 893,
    "प्री": 894,
    "प्रीि": 895,
    "प्रॅ": 896,
    "प्रॆ": 897,
    "प्रे": 898,
    "प्रै": 899,
    "प्रो": 900,
    "प्रौ": 901,
    "प्ल": 902,
    "प्ला": 903,
    "प्ले": 904,
    "प्लै": 905,
    "प्लॉ": 906,
    "प्ष": 907,
    "प्स्": 908,
    "प्॰": 909,
    "प्॰ि": 910,
    "प्‍": 911,
    "प॰": 912,
    "प‌": 913,
    "फ": 914,
    "फ़": 915,
    "फा": 916,
    "फां": 917,
    "फि": 918,
    "फी": 919,
    "फु": 920,
    "फॆ": 921,
    "फे": 922,
    "फै": 923,
    "फो": 924,
    "फ्": 925,
    "फ्ट्": 926,
    "फ्या": 927,
    "फ्र": 928,
    "फ्री": 929,
    "फ्रू": 930,
    "फ्रो": 931,
    "फ्ला": 932,
    "फ्॰े": 933,
    "ब": 934,
    "बँ": 935,
    "बं": 936,
    "बा": 937,
    "बां": 938,
    "बि": 939,
    "बि॰": 940,
    "बी": 941,
    "बु": 942,
    "बू": 943,
    "बृ": 944,
    "बॆ": 945,
    "बॆं": 946,
    "बे": 947,
    "बें": 948,
    "बै": 949,
    "बैं": 950,
    "बॉ": 951,
    "बो": 952,
    "बौ": 953,
    "ब्": 954,
    "ब्द": 955,
    "ब्दी": 956,
    "ब्दु": 957,
    "ब्ब": 958,
    "ब्बा": 959,
    "ब्य": 960,
    "ब्या": 961,
    "ब्यां": 962,
    "ब्यु": 963,
    "ब्यू": 964,
    "ब्र": 965,
    "ब्रा": 966,
    "ब्रि": 967,
    "ब्रु": 968,
    "ब्रू": 969,
    "ब्रे": 970,
    "ब्ल": 971,
    "ब्लु": 972,
    "ब्लो": 973,
    "ब्ल्यू": 974,
    "ब्य़ा": 975,
    "ब्॰ु": 976,
    "ब॰": 977,
    "बॱ": 978,
    "भ": 979,
    "भं": 980,
    "भा": 981,
    "भां": 982,
    "भि": 983,
    "भिं": 984,
    "भी": 985,
    "भु": 986,
    "भू": 987,
    "भृा": 988,
    "भे": 989,
    "भें": 990,
    "भै": 991,
    "भो": 992,
    "भ्य": 993,
    "भ्या": 994,
    "भ्र": 995,
    "भ॰": 996,
    "म": 997,
    "मं": 998,
    "मः": 999,
    "मा": 1000,
    "मां": 1001,
    "मि": 1002,
    "मी": 1003,
    "मु": 1004,
    "मुं": 1005,
    "मुॱ": 1006,
    "मू": 1007,
    "मूा्त्ति": 1008,
    "मृ": 1009,
    "मॆ": 1010,
    "मे": 1011,
    "में": 1012,
    "मै": 1013,
    "मैं": 1014,
    "मैा": 1015,
    "मॊ": 1016,
    "मो": 1017,
    "मों": 1018,
    "मौ": 1019,
    "म्": 1020,
    "म्ः": 1021,
    "म्का": 1022,
    "म्न": 1023,
    "म्ना": 1024,
    "म्प": 1025,
    "म्पा": 1026,
    "म्पा्": 1027,
    "म्पि": 1028,
    "म्पु": 1029,
    "म्पू": 1030,
    "म्पूा्": 1031,
    "म्पे": 1032,
    "म्प्": 1033,
    "म्प्या": 1034,
    "म्प्यु": 1035,
    "म्प्यू": 1036,
    "म्प्ले": 1037,
    "म्प्वा": 1038,
    "म्प्॰": 1039,
    "म्ब": 1040,
    "म्बा": 1041,
    "म्बि": 1042,
    "म्बे": 1043,
    "म्ब्न": 1044,
    "म्भ": 1045,
    "म्भा": 1046,
    "म्भु": 1047,
    "म्म": 1048,
    "म्मा": 1049,
    "म्मि": 1050,
    "म्मु": 1051,
    "म्मू": 1052,
    "म्मे": 1053,
    "म्मै": 1054,
    "म्य": 1055,
    "म्या": 1056,
    "म्यां": 1057,
    "म्यु": 1058,
    "म्यू": 1059,
    "म्र": 1060,
    "म्रा": 1061,
    "म्रि": 1062,
    "म्श": 1063,
    "म्स": 1064,
    "म्ह": 1065,
    "म्ही": 1066,
    "म्॰ा": 1067,
    "म्‌": 1068,
    "म॰": 1069,
    "मॱ": 1070,
    "य": 1071,
    "यं": 1072,
    "य़": 1073,
    "य़ा": 1074,
    "य़े": 1075,
    "या": 1076,
    "यां": 1077,
    "याा्": 1078,
    "या‍": 1079,
    "यि": 1080,
    "यी": 1081,
    "यु": 1082,
    "युं": 1083,
    "यू": 1084,
    "ये": 1085,
    "यें": 1086,
    "यै": 1087,
    "यॊ": 1088,
    "यो": 1089,
    "यों": 1090,
    "य्": 1091,
    "य्क": 1092,
    "य्क्का": 1093,
    "य्क्कां": 1094,
    "य्क्क्": 1095,
    "य्ञ्चि": 1096,
    "य्त": 1097,
    "य्न्त": 1098,
    "य्म": 1099,
    "य्मा": 1100,
    "य्मै": 1101,
    "य्य": 1102,
    "य्या्": 1103,
    "य्व": 1104,
    "य्वि": 1105,
    "य्वु": 1106,
    "य्स्री": 1107,
    "य्य़ा": 1108,
    "य्‌": 1109,
    "यॖ": 1110,
    "र": 1111,
    "रं": 1112,
    "रा": 1113,
    "रां": 1114,
    "राा्": 1115,
    "रा्": 1116,
    "रि": 1117,
    "रि॰": 1118,
    "री": 1119,
    "रु": 1120,
    "रुं": 1121,
    "रू": 1122,
    "रूा्": 1123,
    "रॆ": 1124,
    "रे": 1125,
    "रें": 1126,
    "रै": 1127,
    "रॉँ": 1128,
    "रॊ": 1129,
    "रो": 1130,
    "र्": 1131,
    "र्ऎ": 1132,
    "र्क": 1133,
    "र्का": 1134,
    "र्कि": 1135,
    "र्किं": 1136,
    "र्के": 1137,
    "र्ग": 1138,
    "र्गि": 1139,
    "र्च": 1140,
    "र्चा": 1141,
    "र्च्च": 1142,
    "र्च्चि": 1143,
    "र्ज": 1144,
    "र्जी": 1145,
    "र्ट": 1146,
    "र्टि": 1147,
    "र्ट्स्": 1148,
    "र्ड": 1149,
    "र्डी": 1150,
    "र्ण": 1151,
    "र्णा": 1152,
    "र्णि": 1153,
    "र्णी": 1154,
    "र्णो": 1155,
    "र्ण्णा": 1156,
    "र्ण्णी": 1157,
    "र्ण्न": 1158,
    "र्त": 1159,
    "र्ति": 1160,
    "र्ती": 1161,
    "र्तु": 1162,
    "र्ते": 1163,
    "र्थ": 1164,
    "र्थि": 1165,
    "र्द": 1166,
    "र्दि": 1167,
    "र्दु": 1168,
    "र्दे": 1169,
    "र्द्": 1170,
    "र्ध": 1171,
    "र्न": 1172,
    "र्ना": 1173,
    "र्नी": 1174,
    "र्प": 1175,
    "र्पॊ": 1176,
    "र्पो": 1177,
    "र्फे": 1178,
    "र्ब": 1179,
    "र्बि": 1180,
    "र्बो": 1181,
    "र्ब्ब": 1182,
    "र्भ": 1183,
    "र्भा": 1184,
    "र्भी": 1185,
    "र्म": 1186,
    "र्मा": 1187,
    "र्मि": 1188,
    "र्मी": 1189,
    "र्मु": 1190,
    "र्मे": 1191,
    "र्म्": 1192,
    "र्य": 1193,
    "र्या": 1194,
    "र्य्या": 1195,
    "र्य्य़": 1196,
    "र्य्य़ा": 1197,
    "र्र": 1198,
    "र्रा": 1199,
    "र्रि": 1200,
    "र्ल": 1201,
    "र्लो": 1202,
    "र्व": 1203,
    "र्वा": 1204,
    "र्वि": 1205,
    "र्वे": 1206,
    "र्श": 1207,
    "र्शि": 1208,
    "र्ष": 1209,
    "र्षा": 1210,
    "र्षि": 1211,
    "र्षे": 1212,
    "र्स": 1213,
    "र्सि": 1214,
    "र्सी": 1215,
    "र्‌": 1216,
    "र॰": 1217,
    "रॱ": 1218,
    "र‌": 1219,
    "र‍": 1220,
    "ऱ": 1221,
    "ऱं": 1222,
    "ऱा": 1223,
    "ऱि": 1224,
    "ऱिं": 1225,
    "ऱु": 1226,
    "ऱॆ": 1227,
    "ऱे": 1228,
    "ऱै": 1229,
    "ऱॊ": 1230,
    "ऱो": 1231,
    "ऱ्": 1232,
    "ऱ्का": 1233,
    "ऱ्कु": 1234,
    "ऱ्कै": 1235,
    "ऱ्चि": 1236,
    "ऱ्प": 1237,
    "ऱ्ऱ": 1238,
    "ऱ्ऱा": 1239,
    "ऱ्ऱि": 1240,
    "ऱ्ऱु": 1241,
    "ऱ्ऱे": 1242,
    "ऱ्ऱ्": 1243,
    "ऱ्ऱ्यू": 1244,
    "ऱ्ऱ्ऱ्‌": 1245,
    "ल": 1246,
    "लं": 1247,
    "ला": 1248,
    "लां": 1249,
    "ला्क": 1250,
    "लि": 1251,
    "लिं": 1252,
    "लिा": 1253,
    "ली": 1254,
    "लु": 1255,
    "लुं": 1256,
    "लू": 1257,
    "लूा्": 1258,
    "लॆ": 1259,
    "लॆं": 1260,
    "ले": 1261,
    "लै": 1262,
    "लॉ": 1263,
    "लो": 1264,
    "लोँ": 1265,
    "लौ": 1266,
    "ल्": 1267,
    "ल्ऎ": 1268,
    "ल्क": 1269,
    "ल्कि": 1270,
    "ल्कु": 1271,
    "ल्क्कु": 1272,
    "ल्क्स्": 1273,
    "ल्ट": 1274,
    "ल्टि": 1275,
    "ल्टी": 1276,
    "ल्ड": 1277,
    "ल्डीं": 1278,
    "ल्ड्र": 1279,
    "ल्थ": 1280,
    "ल्दा": 1281,
    "ल्न": 1282,
    "ल्नी": 1283,
    "ल्प": 1284,
    "ल्पी": 1285,
    "ल्पॊ": 1286,
    "ल्पो": 1287,
    "ल्फे": 1288,
    "ल्या": 1289,
    "ल्यां": 1290,
    "ल्यु": 1291,
    "ल्ल": 1292,
    "ल्ला": 1293,
    "ल्ला‍": 1294,
    "ल्लि": 1295,
    "ल्ली": 1296,
    "ल्लु": 1297,
    "ल्लू": 1298,
    "ल्लूाि": 1299,
    "ल्लूा्": 1300,
    "ल्लॆ": 1301,
    "ल्ले": 1302,
    "ल्लै": 1303,
    "ल्ल्": 1304,
    "ल्वि": 1305,
    "ल्वॆ": 1306,
    "ल्वे": 1307,
    "ल्स्": 1308,
    "ल्हा": 1309,
    "ल्हे": 1310,
    "ल्ह्या": 1311,
    "ल्‌": 1312,
    "ल्‍": 1313,
    "ल॰": 1314,
    "लॱ": 1315,
    "ळ": 1316,
    "ळं": 1317,
    "ळा": 1318,
    "ळां": 1319,
    "ळा्": 1320,
    "ळि": 1321,
    "ळी": 1322,
    "ळु": 1323,
    "ळू": 1324,
    "ळॆ": 1325,
    "ळे": 1326,
    "ळै": 1327,
    "ळो": 1328,
    "ळ्": 1329,
    "ळ्अ": 1330,
    "ळ्क": 1331,
    "ळ्मि": 1332,
    "ळ्मी": 1333,
    "ळ्यां": 1334,
    "ळ्ळ": 1335,
    "ळ्ळा": 1336,
    "ळ्ळि": 1337,
    "ळ्ळु": 1338,
    "ळ‍": 1339,
    "ऴ": 1340,
    "ऴं": 1341,
    "ऴा": 1342,
    "ऴि": 1343,
    "ऴु": 1344,
    "ऴॆ": 1345,
    "ऴ्": 1346,
    "ऴ्चॆ": 1347,
    "ऴ्न": 1348,
    "ऴ्ना": 1349,
    "ऴ्वु": 1350,
    "ऴ्‌": 1351,
    "व": 1352,
    "वं": 1353,
    "वः": 1354,
    "व़": 1355,
    "वा": 1356,
    "वां": 1357,
    "वाा्टु": 1358,
    "वाि": 1359,
    "वा्": 1360,
    "वा्क": 1361,
    "वि": 1362,
    "विं": 1363,
    "वि॰": 1364,
    "विॱ": 1365,
    "वी": 1366,
    "वीं": 1367,
    "वीः": 1368,
    "वु": 1369,
    "वुं": 1370,
    "वू": 1371,
    "वृ": 1372,
    "वॅ": 1373,
    "वॆ": 1374,
    "वॆं": 1375,
    "वे": 1376,
    "वेा्ल्टु": 1377,
    "वै": 1378,
    "वॉ": 1379,
    "वॊ": 1380,
    "वो": 1381,
    "व्": 1382,
    "व्य": 1383,
    "व्या": 1384,
    "व्र": 1385,
    "व्वि": 1386,
    "व्वू": 1387,
    "व्वे": 1388,
    "व्ह": 1389,
    "व्हि": 1390,
    "व्ही": 1391,
    "व्‌": 1392,
    "व॰": 1393,
    "व‌": 1394,
    "श": 1395,
    "शं": 1396,
    "शा": 1397,
    "शां": 1398,
    "शाः": 1399,
    "शि": 1400,
    "शी": 1401,
    "शीू": 1402,
    "शु": 1403,
    "शू": 1404,
    "शॅ": 1405,
    "शॆ": 1406,
    "शे": 1407,
    "शै": 1408,
    "शो": 1409,
    "श्": 1410,
    "श्च": 1411,
    "श्चि": 1412,
    "श्ते": 1413,
    "श्ब": 1414,
    "श्मा": 1415,
    "श्य": 1416,
    "श्र": 1417,
    "श्रा": 1418,
    "श्रि": 1419,
    "श्री": 1420,
    "श्रु": 1421,
    "श्रे": 1422,
    "श्व": 1423,
    "श्वा": 1424,
    "श्शि": 1425,
    "श्शे": 1426,
    "श्स": 1427,
    "श्॰ी": 1428,
    "श्ॱ": 1429,
    "श्‍": 1430,
    "ष": 1431,
    "षं": 1432,
    "षा": 1433,
    "षि": 1434,
    "षी": 1435,
    "षु": 1436,
    "षू": 1437,
    "षे": 1438,
    "षो": 1439,
    "ष्कृ": 1440,
    "ष्ट": 1441,
    "ष्टा": 1442,
    "ष्टि": 1443,
    "ष्टी": 1444,
    "ष्टु": 1445,
    "ष्टे": 1446,
    "ष्टो": 1447,
    "ष्ट्र": 1448,
    "ष्ट्रा": 1449,
    "ष्ट्री": 1450,
    "ष्ट्॰": 1451,
    "ष्ट्॰ी": 1452,
    "ष्ठ": 1453,
    "ष्ठा": 1454,
    "ष्ण": 1455,
    "ष्णू": 1456,
    "ष्ना": 1457,
    "ष्पा": 1458,
    "ष्म": 1459,
    "ष्मॆ": 1460,
    "ष्य": 1461,
    "ष्यं": 1462,
    "ष्य़": 1463,
    "ष्‌": 1464,
    "ष्‍": 1465,
    "षॢ": 1466,
    "स": 1467,
    "सं": 1468,
    "सः": 1469,
    "स़": 1470,
    "स़ा": 1471,
    "स़ि": 1472,
    "सा": 1473,
    "सां": 1474,
    "सि": 1475,
    "सिं": 1476,
    "सि॰": 1477,
    "सी": 1478,
    "सु": 1479,
    "सुँ": 1480,
    "सुं": 1481,
    "सू": 1482,
    "सृ": 1483,
    "सॆ": 1484,
    "से": 1485,
    "सें": 1486,
    "से‍": 1487,
    "सै": 1488,
    "सैं": 1489,
    "सो": 1490,
    "सोँ": 1491,
    "सौ": 1492,
    "स्": 1493,
    "स्क": 1494,
    "स्का": 1495,
    "स्कु": 1496,
    "स्कू": 1497,
    "स्कृ": 1498,
    "स्जि": 1499,
    "स्जी": 1500,
    "स्ट": 1501,
    "स्टा": 1502,
    "स्टी": 1503,
    "स्टु": 1504,
    "स्टॆ": 1505,
    "स्टे": 1506,
    "स्टो": 1507,
    "स्टोा्स्": 1508,
    "स्ट्": 1509,
    "स्ट्र": 1510,
    "स्ट्री": 1511,
    "स्त": 1512,
    "स्ता": 1513,
    "स्ति": 1514,
    "स्तु": 1515,
    "स्तू": 1516,
    "स्तृ": 1517,
    "स्तॆ": 1518,
    "स्ते": 1519,
    "स्त्र": 1520,
    "स्त्रा": 1521,
    "स्थ": 1522,
    "स्था": 1523,
    "स्थि": 1524,
    "स्थॆ": 1525,
    "स्थे": 1526,
    "स्थ्य": 1527,
    "स्धा": 1528,
    "स्धॆ": 1529,
    "स्ना": 1530,
    "स्ने": 1531,
    "स्प": 1532,
    "स्पृ": 1533,
    "स्पॆ": 1534,
    "स्पे": 1535,
    "स्फो": 1536,
    "स्ब": 1537,
    "स्बा": 1538,
    "स्भा": 1539,
    "स्म": 1540,
    "स्मा": 1541,
    "स्मृ": 1542,
    "स्य": 1543,
    "स्यः": 1544,
    "स्र": 1545,
    "स्ऱी": 1546,
    "स्री": 1547,
    "स्ऱ्ऱ": 1548,
    "स्ऱ्ऱा": 1549,
    "स्ऱ्ऱि": 1550,
    "स्ऱ्ऱे": 1551,
    "स्ऱ्ऱै": 1552,
    "स्ऱ्ऱो": 1553,
    "स्ला": 1554,
    "स्लि": 1555,
    "स्व": 1556,
    "स्वं": 1557,
    "स्वा": 1558,
    "स्वी": 1559,
    "स्स्मा": 1560,
    "स्य़": 1561,
    "स्॰": 1562,
    "स्॰ा": 1563,
    "स्ॱ": 1564,
    "स्‌": 1565,
    "स्‍": 1566,
    "सॗ": 1567,
    "स॰": 1568,
    "सॱ": 1569,
    "ह": 1570,
    "हं": 1571,
    "हः": 1572,
    "हा": 1573,
    "हां": 1574,
    "हा‍": 1575,
    "हि": 1576,
    "हिँ": 1577,
    "हिं": 1578,
    "हिः": 1579,
    "हि॰": 1580,
    "ही": 1581,
    "हीं": 1582,
    "हु": 1583,
    "हु॰": 1584,
    "हू": 1585,
    "हृ": 1586,
    "हॆ": 1587,
    "हे": 1588,
    "हें": 1589,
    "है": 1590,
    "है‍": 1591,
    "हॉ": 1592,
    "हॊ": 1593,
    "हो": 1594,
    "ह्दि": 1595,
    "ह्न": 1596,
    "ह्म": 1597,
    "ह्य": 1598,
    "ह्या": 1599,
    "ह॰": 1600,
    "हॱ": 1601,
    "ऽ": 1602,
    "ा": 1603,
    "े": 1604,
    "ॎ": 1605,
    "ॐ": 1606,
    "ज़ो": 1607,
    "ज़॰": 1608,
    "ड़": 1609,
    "ड़ा": 1610,
    "ड़ी": 1611,
    "ड़े": 1612,
    "ड़ै": 1613,
    "ड़ोु": 1614,
    "ड़्ह": 1615,
    "ड़्हे": 1616,
    "ढ़ि": 1617,
    "ढ़ी": 1618,
    "ढ़ो": 1619,
    "फ़": 1620,
    "फ़्ट": 1621,
    "फ़्दु": 1622,
    "य़": 1623,
    "य़ं": 1624,
    "य़ः": 1625,
    "य़़": 1626,
    "य़ा": 1627,
    "य़ां": 1628,
    "य़ि": 1629,
    "य़ु": 1630,
    "य़े": 1631,
    "य़ो": 1632,
    "य़्या": 1633,
    "य़ॗ": 1634,
    "ॠ": 1635,
    "।": 1636,
    "।‍": 1637,
    "॥": 1638,
    "०": 1639,
    "१": 1640,
    "१्को": 1641,
    "१‌": 1642,
    "२": 1643,
    "२़": 1644,
    "२ा": 1645,
    "३": 1646,
    "४": 1647,
    "५": 1648,
    "५ु": 1649,
    "५ो": 1650,
    "६": 1651,
    "७": 1652,
    "८": 1653,
    "९": 1654,
    "॰": 1655,
    "॰ा": 1656,
    "॰ि": 1657,
    "॰िः": 1658,
    "॰ी": 1659,
    "॰ु": 1660,
    "॰ू": 1661,
    "॰े": 1662,
    "॰ो": 1663,
    "॰्थ": 1664,
    "॰्प": 1665,
    "॰्ब": 1666,
    "॰्मा": 1667,
    "॰्य": 1668,
    "॰्य्य": 1669,
    "॰्य्या": 1670,
    "॰्ष": 1671,
    "ॱ": 1672,
    "ॱा": 1673,
    "ॱि": 1674,
    "ॱे": 1675,
    "ॱो": 1676,
    "ॳ": 1677,
    "ॳे": 1678,
    "ॷ": 1679,
    "ॹ": 1680,
    "ॺ": 1681,
    "ॺ‍": 1682,
    "ॻ": 1683,
    "ॻॆ": 1684,
    "ॻ्ऱॆ": 1685,
    "ॻ‌": 1686,
    "ॼ": 1687,
    "ॼ‌": 1688,
    "ॼ‍‍": 1689,
    "ॽ": 1690,
    "ॽ‍": 1691,
    "ॾ": 1692,
    "ॾ‌‌": 1693,
    "​": 1694,
    "’": 1695
  },
  "metadata": {
    "tag": "zs_loso_rungA_telugu",
    "num_graphemes": 1694,
    "space": "shared-abugida-pivot"
  }
}